#version: 0.2
ĥ Ð
Ñ ĥÐ
Ģ Ð
Ñ ĢÐ
¾ Ð
ĩ Ð
Ñ ĩÐ
ÑĢÐ °
Ð °
½ Ð°
Ð ½Ð°
ĭ Ð
Ñ ĭÐ
Ñ ħ
¾Ð ²
¶ Ð
± Ð
Ñ Ī
ÑĢÐ µ
º Ð°
Ð ¼
Ð¼ Ð
Ĥ Ð°
Ñ ĤÐ°
Ð ¾Ð²
¾Ð »
Ñ İ
» Ð°
Ġ Ð½Ð°
¾Ð ¼
Ð ºÐ°
¾Ð ´
ÑĢÐ° Ð
Ð ´
Ð´ Ð
Ð º
Ġ Ðº
ÑĢÐ ¸
Ð »Ð°
¾Ð ³
Ġ Ð´Ð
· Ð°
Ð ¾Ð»
Ð ·Ð°
Ð° Ð
Ģ Ñ
Ñ ĢÑ
Ð ¾Ð´
² Ñ
Ð ¾Ð¼
Ġ Ð¼Ð
Ð ±Ð
ÑĪ Ð
¾Ð ½
¾Ð ¹
Ð ²Ñ
ĥ Ñ
Ð ¾Ð³
Ñ Ĩ
Ð ¾Ð
ÑĩÐ µ
¶Ð µ
Ñ ĥÑ
Ð ¾Ð½
Ð°Ð »
â Ģ
Ð ¾Ð¹
Ñ ģ
Ñģ Ð
Ġ ÑģÐ
¾ Ñģ
Ð ¾Ñģ
ĩ Ñ
Ñ ĩÑ
Ġ Ð·Ð°
Ñ ĥ
Ñ ī
¿ ÑĢÐ
Ġ Ð²Ñ
² Ð°
Ġ Ð¾Ð
¾ ÑĢÐ
Ñ į
Į Ð
¾ Ñ
Ð ¾Ñ
Ð¾Ñ Ĥ
½ ÑĭÐ
µ Ñģ
Ð°Ð ½
» Ð
Ð »Ð
Ð»Ð ¸
Ð»Ð µ
ÑĩÑ Ĥ
Ñ ĮÐ
Ð Ĵ
Ð µ
Ðµ Ð
½ Ðµ
Ð ½Ðµ
Ġ Ð½Ðµ
Ĥ Ðµ
Ñ ĤÐµ
ÐµÐ ½
Ðµ Ñ
¸ Ðµ
Ð ¿ÑĢÐ
Ð ¿
Ð¿ Ð
Ġ Ð¿Ð
Ð Ŀ
Ð¾Ð³ Ð
¸ Ð
Ð ¸Ð
Ð´Ð µ
Ġ ÑĩÑĤ
Ð Ł
Ð ¡
Ñģ Ðº
Ġ Ð¿ÑĢÐ
Ġ Ñį
Ð ¾
½ Ð¾
Ĥ Ð¾
Ñ ĤÐ¾
Ð ½Ð¾
Ð ¸Ðµ
Ġ ÐºÐ°
Ð ¾ÑĢÐ
Ġ ÑĥÐ
± Ñ
Ġ Ð±Ð
Ð ŀ
Ð¾Ñģ Ñ
Ġ Ð¾ÑĤ
Ġ âĢ
³ Ð¾
ÐµÑ Ĥ
ÑĩÐ °
Ð¾Ð³Ð ¾
ĠÑĩÑĤ Ð¾
Ð¼Ð µ
Ģ ÑĥÐ
Ġ Ð´
Ð Ĳ
² Ðµ
ĠÐ¿Ð ¾
Ñ ĢÑĥÐ
ÑĢÐµ Ð
Ð ļ
ÑĪÐ µ
Ð¿ ÑĢÐ¸
ı Ð
Ġ ÐĴ
Ġ Ð¼
Ġ Ð¸Ð
Ñ Ħ
ĠÐ²Ñ ģ
Ġ Ð¿ÑĢÐ¸
² Ð¾Ð
Ĥ ÐµÐ
¸ Ñģ
. .
Ġ ÐŁ
Ġ ÑĢÐ°Ð
ÑĤÐ° Ð
¸ Ñħ
¸ Ð¼
Ð¼Ð ¸
Ð´ Ð°
Ñ ĤÐµÐ
¸ Ðº
µÑģ Ñ
Ġ ÐĿ
Ð ¢
Ð ľ
Ð ĺ
Ġ Ð¡
Ð ²Ð°
ı Ñ
Ġ ÑĤÐ°
Ð Ķ
ĠÐ´Ð µ
Ð ½ÑĭÐ
Ð¾ÑģÑ Ĥ
» ÑĮÐ
ÑĥÑ Ĥ
Ġ Ð°
ÑĥÐ ´
Ð ²Ðµ
Ð ¶Ð
Ġ Ðµ
Ð ¶Ðµ
ÑĩÐµ Ð
ĭ Ñħ
ıÑ Ĥ
»Ð ¸
±Ñ ĭ
± ÑĭÐ
ð Ł
Ð ¸Ðº
Ð¿ Ðµ
Ð¿ Ð¾Ð
Ð ¸Ð¼
»Ð µ
Ð ¸Ñħ
Ġ Ðļ
ÑĥÑ ģ
Ġ Ñħ
Ð ±ÑĭÐ
Ñ ıÐ
ĠÐºÐ° Ðº
Ð¿ Ð¾Ð´
Ġ Ð¿Ð¾Ð
ĠâĢ Ķ
Ð¸Ð ½
Ġ Ð¾
½ ÐµÐ
Ð ł
Ð»Ðµ Ð
Ġ Ð±ÑĭÐ
ÑĩÐ ¸
ĠÑģÐ µ
Ġ Ð¿Ð¾Ð´
² Ð
Ð ²Ð
ĠÐ¸Ð ·
Ġ Ðŀ
Ġ Ðľ
ĠÑĤÐ° Ðº
Ġ Ð¾Ð½
Ñ ĭÑħ
Ġ Ñĥ
Ĥ Ñģ
Ðº Ð¾
» Ñİ
Ð¾Ð µ
Ġ Ð²Ð
Ñ ĤÑģ
µÑģÑ Ĥ
¾Ñ Ĥ
ĠÐ¼Ð µ
Ð¾Ð» Ñ
² Ð¾
ÑĤÑģ Ñ
Ð¸Ð ¹
Ġ ÐĲ
¸ Ð»Ð¸
Ð ķ
Ġ ÐĶ
Ð¾Ð´ Ð
Ð°Ð µ
ÑĤÑģÑ ı
½ Ð¾Ð¹
² ÑĭÐ
Ġ Ð¿Ðµ
Ġ Ð¢
Ñ ıÑĤ
Į Ñģ
Ð¸Ð ¸
ĮÑģ Ñ
Ð ²Ð¾Ð
ĠÑĢÐ°Ð ·
¸Ð ½
Ñģ Ð°
Ð ĳ
Ð¸Ð »
ÑģÐ µ
Ġ Ðĺ
Ñ ĮÑģÑ
ĠÑį Ñ
Ð¾Ð»Ñ Į
ĠÑįÑ Ĥ
ĠÐ²Ñģ Ðµ
Ñĥ Ñİ
Ð¿ Ð¾Ð»
Ġ Ð¶Ðµ
Ð ½ÐµÐ
ÑĨ Ð
Ġ ÑĤÐµ
ÐµÐ ³Ð¾
ÑĢÐ ¾Ð²
½ Ð¾Ð²
Ģ ÑĭÐ
ÑĪÐµ Ð
½ Ð¾Ð³Ð¾
Ġ -
· Ð½Ð°
Ð »Ñİ
Ð ¸Ñģ
½ ÑĥÐ
½ Ð¸Ðµ
ÑģÐ ¿
ĠÑį ÑĤÐ¾
Ñģ Ð¾Ð
Ġ ÑĦ
Ġ 1
Ġ Ð¿Ð¾Ð»
ĠâĢ ĵ
Ð Ľ
Â «
Â »
ÐµÐ½ Ð
ÑĮÑģÑ ı
Ġ Ð²Ð¾Ð
Ñ ĳ
Ð ²ÑĭÐ
Ð ²Ð¾
Ð¿ Ð°
Ð´Ð ¸
Ð ¯
ĠÐ²Ñ ĭ
ÑĢÐ ¾Ð
Ð¼Ðµ Ð
½ ÑĭÑħ
Ð ±Ñĭ
Ð»Ð ¾
½ Ð¸Ðº
» Ð¾Ð²
ÑĨÐ ¸
Ð ĵ
Ð¿ ÑĢÐµ
ĠÐ¼Ð ¾Ð
Ñģ ÐºÐ°
Ð° Ðº
ÑĢÑ ı
½ Ð¾ÑģÑĤ
Ġ Â«
Ð £
âĢ Ķ
²Ð ¸
ĠÐº Ð¾ÑĤ
Ġ Ð±Ñĭ
Ġ ÑģÐ¾Ð
ÑĢÑ Ĥ
Ġ Ð½Ð¾
Ġ Ðł
Ġ Ð¿ÑĢÐµ
¸Ð »
Ġ Ð½ÐµÐ
ÑĥÐ ¼
.. .
ÑĢÐ° Ñ
Ġ Ð»Ð¸
Ð´Ðµ Ð
± ÑĥÐ´
ÐµÐ ¹
Ġ Ð²Ðµ
Ġ Ð²ÑĭÐ
ÑĢÐ¸ Ð
Ġ Ðĳ
Ð¾Ð»ÑĮ ÐºÐ¾
Ñģ ÑĤÐ°
Ñī Ðµ
ĠÐ¾Ð ±
Ð ¸Ð»Ð¸
ÑģÐ ¸
Ð µÑģÑĤ
Ġ ÐµÐ³Ð¾
ĠÐ±Ð µ
Ð Ĺ
Ð¼ÐµÐ ½
ĠÑģÐ ¿
Ġ ÑĤÐ¾
Ð¼ Ñĥ
Ð°Ð½ Ð
Ġ ÑģÐ°
Ð¾Ð º
Ð¾Ð³ Ð´Ð°
ÑĩÐ° Ñģ
Ð±Ð µ
Ġ ÑĩÐµ
Ġ Ð¶Ð
³ Ð°
Ĥ ÑĮÑģÑı
Ñİ Ñ
ÑĪ Ñ
Ð ·Ð½Ð°
»Ð ¾
Ð»Ð° Ñģ
Ð ±ÑĥÐ´
ÑİÑ Ĥ
Ġ ÑĢÐµ
ÐµÐ½ Ñ
ĠÐ±Ð ¾Ð»
Ð½Ð° Ñ
ÑĤÐµÐ »ÑĮÐ
Ñ ĤÑĮÑģÑı
¾Ñģ Ñ
Ð¾Ð¼ Ñĥ
Ð ¶
Ġ ÑĢÐ°
Ġ (
ÑĢÐ°Ð ½
½ Ð¾Ðµ
Ġ Ð±ÑĥÐ´
Ġ Ð»Ñİ
Ð¼ Ð°
ÑĢÑ ĭ
Ð»Ð° Ð
ÑģÐ »Ð¸
Ð¼ Ñ
¸Ð ·
ÑĥÐ ¿
Ġ Ð²Ð°
² Ð°Ð»
ÑĩÐµÐ ½
ĠÑģÐ ²Ð¾Ð
ĠÐ¿ÑĢÐ ¾Ð
ÑĢÑ ĥ
ÑĪÑ Į
Ðµ ÑĢÐ
ĠÐ¼Ðµ Ð
Ð´ Ñ
Ġ 2
ÑĪÐ ¸
ĠÐ¼ Ð°
ĠÐ´Ð »
ĠÐ´Ð» Ñ
ĠÐ´Ð»Ñ ı
Ġ Ðĵ
Ð Ń
Ð §
ÑģÐ »Ðµ
¶Ðµ Ð
ĠÐ¾Ð ±Ð
¶Ð ½Ð¾
¾ÑģÑ Ĥ
Ð¿ ÑĢÐ°Ð
Ð½ÑĭÐ ¹
Ñģ ÑĤÐ°Ð
ÑĢÑĥÐ ³
Ð°Ð ¹
Ð¾Ð² Ð°
Ðº Ñĥ
ÑĢÑ ģ
Ð¾Ð´Ð ¸
ÐµÐ »
ĠÑģÐµ Ð
Ġ Ð·Ð½Ð°
ĠÐ¼ÐµÐ ½
Ġ Ð¾Ñģ
ÑĢÐ°Ñ Ĥ
Ð»Ð°Ñģ Ñ
ĠÐ¿ÑĢÐ ¾
Ð½ÑĭÐ µ
Ġ Ð¯
Ð»ÐµÐ ½
¶Ð ´
Ð ½ÑĥÐ
ÑĪ Ð°
±Ñ ı
ÑĨ Ð°
Ð·Ð° Ð
Ðº Ñ
± Ð°
Ð½Ð°Ñ ı
Ġ ÐĽ
ĠÐ¼ÐµÐ½ Ñ
Ĥ Ð¾Ð
âĢ ĵ
ÑĢÐ ¾
Ð°Ðµ Ñ
Ð°ÐµÑ Ĥ
¸ ÐºÐ°
² ÐµÑĤ
Ġ #
Ġ Ð¿Ð°
Ð ³Ð¾
³ Ð¾Ð´
ÑĩÐµ ÑģÐº
Ð ½Ð¸Ðº
Ġ ðŁ
ĠÐº Ð¾Ð½
Ġ ÐĹ
Ð¸Ð ²
Ġ ÑĥÑģ
ĠÐ¿Ðµ ÑĢÐµ
ÑĤÐµÐ »
Ñ ĤÐ¾Ð
ĠÐ¼ Ñ
Ð¾ÑģÑ Į
Ð¿ Ð¾Ð¼
½ÑĭÐ ¹
Ĥ Ð¾Ð»ÑĮÐºÐ¾
Ñ ĤÐ¾Ð»ÑĮÐºÐ¾
Ġ ÑģÑĤÐ°
Ð ¸ÐºÐ°
ĠÐ¼ÐµÐ½Ñ ı
²Ð° Ñ
Ġ Ðķ
Ð ¥
Ġ Ð£
ĠÐ´Ð ¾
ĠÐ¸Ð ½
Ð¿ Ð¾ÑĤ
Ð¾Ñ Ģ
Ġ "
Ð µÑģ
0 0
Ð»Ð°ÑģÑ Į
³ Ð¾Ð²
½ Ð¸Ð¼
ÑĢÐ ¾Ð´
ĠÐ±ÑĭÐ »Ð¾
ĠÑģÐ »
ÐµÐ½Ð ¸
¾Ð ±
Ġ ÐŃ
Ð°Ð½Ð ¸
Į Ñİ
ÐµÑ Ģ
Ġ ÑĢÑĥÐ
ÑĭÐ ¹
ĠÐ¼Ñ ĭ
Ð½ÑĭÐ ¼
ĠÐ²Ð ¸
ĠÐ¿ÑĢÐ¸ Ð
» Ñģ
Ġ Ð¿Ð¾ÑĤ
Ð°Ð ²
Ð ³Ð¾Ð´
ĠÐº Ð¾Ð¼
Ð¾Ð ±Ð
ĠÐ±Ðµ Ð
½ÑĭÐ µ
ÑĢÐµÐ ½
ĠÐ²Ð¾Ð ·
Ð¾Ñ ĢÑĭÐ
Ñģ Ð¾Ð²
Ð»Ð° Ñ
Ġ ÑģÐºÐ°
Ð¾Ð» Ð
ĠÐ´Ðµ Ð
Ð°Ð» Ð
½Ð¾ÑģÑĤ Ñ
¸Ð ²
ĠÐ¾Ð ¿
ÑĢÐ°Ð ·
¸ Ð½Ð°
ĠÐŀ Ð
ĠÐ¾Ð ½Ð°
ĠÐ½Ð° Ñģ
Ġ ÑģÐº
¸Ñģ Ñ
ÑĩÐ ½Ð¾
Ġ ÑĤÐ¾Ð»ÑĮÐºÐ¾
Ġ Ð¸Ð»Ð¸
² ÑĢÐµ
ÑĢÐ¸ Ñ
¶Ð ¸
· ÑĭÐ
Ġ ÑĩÐµÐ
½ Ð¾Ð¼
Ð¸Ñģ Ñ
ÑĢÐ ¾Ð¼
»Ñģ Ñ
»ÑģÑ ı
ĠÑĢÐ° Ñģ
Ð²Ð ¸
Ð ²ÑĢÐµ
ÐºÑ Ĥ
Ð°Ð»Ð ¸
ĠÑģÐ ¾
Ġ Ð§
ÑĥÐ »
Į Ñ
Ĥ ÑĢÐµ
¶ Ð°
Ð¼Ð ¾Ð
Ġ ÑĨ
Ġ Ð¿ÑĢÐ°Ð
Ġ Ð²ÑĢÐµ
· Ñ
Ĥ Ð¾Ð¼
ĠÑĥÐ ¶Ðµ
Ġ Ð¾Ð´
ÑĩÐ° Ð
ÑĩÐ°Ñģ Ñ
Ñİ Ñī
ĠÐ¼Ð ½Ðµ
Ĥ Ñĥ
ĠÐ±Ð¾Ð» Ñ
ÑĢÑ Į
ÑĨ Ð¸Ð¸
Ð¾Ð ±
²Ð »
Ġ ÑĤÐµÐ
ĠÐ·Ð° Ð
Ĥ Ð¾ÑĢÐ
Ñ ĤÑĢÐµ
ÑĪ Ðº
Ġ Ð°Ð
ÑĩÐ°ÑģÑ Ĥ
Ð²Ñ ĥ
ĠÐ±Ð¾Ð»Ñ Į
ĠÐ´ ÑĢÑĥÐ³
Ġ Ð³Ð¾Ð´
¸Ð· Ð
Ð°Ð» ÑĮÐ
ÑĢÐµÐ ·
Ĥ Ð²Ð¾
Ð´Ð ¾
ÑıÑĤ Ñ
ĠÑĢÐ°Ð ±Ð
Ġ Ð¿Ð¾Ð¼
Ð ½Ð¾Ð²
Ð ¤
Ð°Ð» Ñ
³ Ð¾Ð»
Ð¿ Ð¾Ð½
ĠÐºÐ¾ÑĤ Ð¾ÑĢÑĭÐ
½Ð¾ÑģÑĤ Ð
¶ÐµÐ ½
ĠÐ½Ð° Ð
½Ð¾ÑģÑĤÐ ¸
ÑĩÐ º
½ ÑĥÑİ
ĠÐĿ Ð°
Ðµ Ð¼
¸ ÑĤÐµ
Ð ¸Ð½Ð°
½ Ð¸Ð
ÑıÑĤÑ Į
Ð¿ Ð¾Ñģ
Ð¾Ð ±Ñĭ
Ð»Ð°Ñ Ĥ
Ð»Ðµ Ñ
Ð¶Ð ´
Ð ½Ð¾Ð¹
Ð ³Ð¾Ð²
Ġ Ð¸Ñħ
Ð¼Ð ¾ÑĤ
Ð¾Ð ¿
ĠÐ´Ð ¾Ð»
ÑĭÐ µ
ÑĤÐ° Ñ
µÑģÑ Į
Ñħ Ð¾Ð´
ÑĥÑ ī
Ð ½ÑĭÑħ
Ġ Ð¿Ð¾Ñģ
¶Ðµ Ñ
Ð¾ÑĢÐ ¼
ĠÐ¾Ð½ Ð
ĠÐ¾Ð½Ð ¸
½ÑĭÐ ¼
ĠÐ±ÑĭÐ »
Ĥ ÑĢÐ°
Ð¼Ðµ Ñ
Ð¾ÑĢÐ ¾
ÑĥÑģ Ñ
»Ð¾Ð² Ðµ
! !
¶ÐµÑ Ĥ
¸ ÑĩÐµÑģÐº
ĠÐµ ÑģÐ»Ð¸
ÑĩÐµÐ½ Ñ
Ð¿ Ð¾Ð²
Ġ Ð¿Ð¾Ð½
ĠÐµ Ðµ
Ñ ĢÑĭÐ
ĠÐº Ð¾Ð³Ð´Ð°
ÐµÐ½Ð¸ Ñ
² Ð¾Ð¹
ÑĤÐµÐ» Ñ
ÐµÑģÑĤ Ñ
ĠÐ±ÐµÐ ·
Ð ³Ð¾Ð»
Ð°Ð½ Ð¸Ðµ
ĠÑĥÐ ´
Ĥ Ð²Ð°
¸Ð ¹
ÑĪÐµÐ ½
ÐµÑģÑĤÑ Į
ĠÐĿ Ð¾
ÑĭÐ ¼
Ñħ Ð°
² Ð¸Ð
ĠÐŀÐ ½
ÑĩÐµÐ½Ñ Į
³ Ð»Ð°
· Ð´Ð
ÐµÐ½Ð¸Ñ ı
Ġ Ð¥
ĠÑĩÑĤ Ð¾Ð±Ñĭ
Ð¼Ð ¾
Ð¾Ð ½Ð°
ĠÐ¼Ð ¾Ð³
Ġ Ð²Ð¾
ĮÑ ı
Ġ Ð³Ð¾Ð»
½Ð¾ÑģÑĤÑ Į
ĠÐ´ Ð°
Ð»Ð¸ Ð
Ð°Ð½Ð¸ Ñ
Ġ Ð¿Ð¾Ð²
ĠÐµ ÑīÐµ
¸ ÑĨ
ĠÐ¿Ð¾ ÑģÐ»Ðµ
ĠÐ»Ñİ Ð±Ð
½ Ð¸ÐºÐ°
Ð»ÐµÑ Ĥ
¸Ð·Ð ½
Ð°Ð ³
ÐºÐ° Ñ
ĠÐ±ÑĥÐ´ ÐµÑĤ
Ñ ĤÐ²Ð¾
»Ðµ Ð
ĠÑĩÐµÐ »Ð¾Ð²Ðµ
ÐµÐ½Ñ Ĥ
Ð°Ð½Ð¸Ñ ı
ðŁ ĺ
Ð¾Ñ ıÐ
Ġ ÐµÑģÑĤÑĮ
Ð´ Ñĥ
Ġ ÑģÐ¾Ð²
Ð°Ð ¶Ðµ
ÑĢÐ¸Ñ Ĥ
Ðº Ð¾Ð¼
Ð¼Ñ ı
ĠÐĿ Ðµ
ĠÑħ Ð¾ÑĤ
ĠÑģÐ²Ð¾Ð µ
¸ Ð¼Ð¸
²Ð» Ñ
ÐµÐ½ Ð¸Ðµ
±Ð µ
Ñħ Ð¾Ð´Ð¸
¿ Ðµ
ÐµÐ ·
ÑĢÑ ĥÑ
ÑĥÐ´ Ð°
ÐµÐ ²
ÐºÐ° Ð
Ñ ĤÐ¾Ð¼
Ñ ĤÐ¾ÑĢÐ
ĠÐ²Ð ·
Ð ¸ÑĩÐµÑģÐº
Ġ 3
½ Ñĥ
½ ÑĥÑĤ
Ġ Ð³Ð¾Ð²
²Ð°Ñ Ĥ
ĠÐ¼Ð ¸
Ð°Ð»Ñ Į
ÑĥÐ º
ĠÐ¿ÑĢÐ ¾Ñģ
ĠÐº Ð
Ðº Ðµ
² Ð¾Ð´
Ð±Ð ¾
ĠÐ´Ð ¾Ð
Ð·Ð°Ð »
²Ð»Ñ ı
ĠÐŁ Ð¾
²Ð°ÑĤ Ñ
ÑĥÑģÑ Ĥ
Ġ ÑĤÐ¾Ð
²Ð°ÑĤÑ Į
ÑĥÐ» Ñ
Ñ ĤÑĥ
Ġ Ð¾Ð´Ð
Ð¾Ð ·
ÑģÐ »
Ð ¸ÑĨ
Ñħ Ð
ÑĥÐ µ
¸ Ð»Ð°
Ð ¨
ÐµÑĤ Ñģ
Ð ²ÐµÑĤ
Ð¿ Ñ
ÐµÑĤÑģ Ñ
ÑĢÐ º
ÐµÑĤÑģÑ ı
ÑĩÐ¸ Ñ
ÑĤÐµÐ»ÑĮÐ ½Ð¾
Ð¾Ñ ı
Ñī Ð°
ĠÐ¾Ð º
Ð´Ðµ Ñ
ÑĮÐ µ
Ð°Ð ·
ĠÐ´Ð ¾Ð¼
Ð ¸ÑĤÐµ
Ð ½Ð¾Ð³Ð¾
³ Ð¾ÑĢÐ
ĠÐ¾ ÑĩÐµÐ½ÑĮ
Ġ Ð¤
Ð¼Ñ ĭ
Ġ Ð½Ð¾Ð²
Ð°Ð½ Ñ
Ð ³Ð»Ð°
Ð°Ðµ ÑĤÑģÑı
ĠÐ¿ÑĢÐµ Ð´
Ð ĸ
¸ ÑĢÐ¾Ð²
ĠÐ¿Ð¾Ð ºÐ°
Ðº Ð¾Ð²
Ñ ĤÐ²Ð°
ÑĥÐ ½
ÑĩÐ¸Ñ Ĥ
ĠÐ½Ðµ Ñ
Ðµ Ðµ
ÑĢÐ ´
ĠÐ³Ð¾Ð² Ð¾
Ð° Ð¼
Ġ Ð¸Ñģ
ĠÐ¼Ð¾Ð ¶Ð½Ð¾
ĠÐ²ÑĢÐµ Ð¼Ñı
Ġ ÑıÐ
ĠÐ½ÐµÑ Ĥ
ÑĢÐ° ÑģÐ
ĠÐº ÑĤÐ¾
ĠÐ¾Ñģ ÑĤÐ°Ð
ĠÐ¿ÑĢÐ ¾Ð´
Ð²Ð° Ñ
Ġ ÑĪ
Ġ Ð½ÑĥÐ
ĠÐ¶Ð ¸Ð·Ð½
¸ÑģÑ Į
ÑģÐµ Ð
Ð ¸Ð¼Ð¸
¸ Ñİ
Ð ³Ð¾ÑĢÐ
ĠÐ´ Ð°Ð¶Ðµ
Ð¾Ð» ÑĮÐ
² ÐµÐ½Ð
½ Ð¸Ñħ
Ð ²ÐµÐ½Ð
½ ÐµÑģ
ĠÑĩÐµ Ð¼
Ġ Ð³Ð»Ð°
Ñ ĮÑİ
Ðº Ð¾Ð½
Ĥ Ð¾Ð³Ð¾
ÐµÐ ³
Ĥ ÑĢÐ°Ð
Ð¸Ð ·
ÑĤÐ°Ð ½
² ÐµÐ½
Ĥ Ð¾Ð²
ĠÐ¼ ÑĥÐ
ÑĥÑ ĩ
Ð° Ñģ
Ð´ÐµÐ ½
ĠÐ¿Ð¾Ð» Ñĥ
ÑĨ Ðµ
ÑĨÐ¸ Ñ
ÑĥÐ ±Ð
Ð ¸Ñİ
¸ Ð¼Ð
³ Ð´Ðµ
Ñ ĤÐ¾Ð³Ð¾
ĠÑĢÑĥÐ º
³ ÑĢÑĥÐ
ĠÑģÐµÐ ±Ñı
ĠÐ¿ÑĢÐ¾Ñģ ÑĤÐ¾
Ð ¸ÑĢÐ¾Ð²
¸ ÑģÐ¿
ĠÐ¼Ð¾Ð ¶ÐµÑĤ
ĠÐ¿ÑĢÐµ Ð´Ð
Ġ ,
ĠÑģÐ» Ñĥ
Ñī Ð
Ġ Ð¶
Â» .
ĠÑģÐ »Ð¾Ð²
Ð¿ Ð¾ÑģÑĤ
ÑĤÐ°Ñ Ĥ
Ĥ Ð¾Ð»
Ñ ĤÑĢÐ°Ð
Ðº Ð¾Ð¹
Ð »ÑĮÐ
¹ Ñģ
ÑĨÐ¸Ñ ı
Ð ³Ð´Ðµ
Ĥ ÑĥÐ¿
Ð´Ñ Į
Ð¾Ð ¶Ð
ĠÑģÐ° Ð¼
ĠÐ¿Ðµ ÑĢÐ
¾Ð³ Ð¾
Ñ ĤÑĥÐ¿
ĠÐ±Ñĭ Ñ
² Ð¾ÑĤ
) )
Ðµ Ð¼Ð
ĠÐ´ÐµÐ ½
ÑĩÐµ Ñģ
Ð´ÐµÑ Ĥ
ÑĩÐ° Ñ
Ġ ÑģÑĤÐ°Ð
Ñģ Ð´Ðµ
ÐºÐ°Ñ ı
Ñ ĤÑĢÐ°
¸Ð ¸
ĠÐĲ Ð
Ġ Ð³Ð¾ÑĢÐ
Ð ¸ÑģÐ¿
Ġ ÑģÐ´Ðµ
ĠÑĤÐ° Ð¼
ĠÐ±ÑĭÑ Ĥ
Ð ²Ð¾ÑĤ
Ð ½ÐµÑģ
Ð´ÐµÐ »
ĠÐ±ÑĭÐ »Ð°
Ĥ ÑĢÑĥÐ
Ð ²ÐµÐ½
Ð»Ð¸ Ñģ
Ġ Ð³Ð´Ðµ
Ñ ĤÑĢÑĥÐ
ÑĢÐµ Ñ
Ð¸Ð» Ñģ
ĠÐĺ Ð
ĠÐŃ ÑĤÐ¾
Ġ Ð¸ÑģÐ¿
Ð¸Ð»Ñģ Ñ
Ð¸Ð»ÑģÑ ı
Ð¾Ð²Ð° Ñ
ÑģÐº Ð¾Ð¹
ĩ ÑĥÐ
Ñİ ÑĤÑģÑı
ĠÐ±ÑĭÑĤ Ñ
ĠÐ±ÑĭÑĤÑ Į
ĠÐºÐ¾ÑĤ Ð¾ÑĢÐ
Ð ³ÑĢÑĥÐ
Ġ ÑĢÐµÐ
Ð¼ÐµÑ Ĥ
ĠÐ¼Ð ¾Ð»
² Ð¾Ð»
¾Ð º
ĠÑģÐ° Ð¼Ð
±Ð ¸
Ð»Ð°ÑĤ Ñ
ĠÑĥÐ ¼
Ĥ ÑıÐ
ĠÐµ Ð¼Ñĥ
Ð»ÐµÐ½ Ð
Ð ±Ð°
ĠÐ¿ÑĢÐ ¾Ð²
Ð»Ð°Ð ½
Ð ·Ð´Ð
ĠÑĤÐµÐ ±Ñı
h t
Ð»Ð¸Ñģ Ñ
Ñ ĤÐ¾Ð»
²Ñ ģ
Ð²Ð°Ñ Ĥ
ĠÑħ Ð¾ÑĢÐ¾
Ð°Ð ¿
ÑĩÐµÐ ³Ð¾
Ġ Ð³ÑĢÑĥÐ
Ð° Ð»Ð°
Ĥ Ð²ÐµÐ½Ð
Ġ Ð¿Ð¾ÑģÑĤ
ĠÑįÑĤ Ð¾Ð¼
ĠÐ±ÑĭÐ »Ð¸
Ġ Ð½ÐµÑģ
e r
Ĥ ÑĢÐ
Ð±Ð ¸
Ð¼ÐµÐ½ Ð
ÑĤÐ°Ð »
ÑĤÐµÐ»Ñ Į
Ñ ĤÑıÐ
ÑīÐ ¸
ÑĢÐµÑ Ĥ
¹Ñģ Ñ
Ġ Ð²Ð¾ÑĤ
Ñ ĤÑĢÐ
Ġ ÑĤÐ¾Ð³Ð¾
ÑģÐ ½
Ġ 5
Ġ â
ĠÐ¶Ðµ Ð
ÑĢÐµ Ñģ
ĠÑįÑĤ Ð¾Ð³Ð¾
Ð»ÐµÐ ¹
ĠÐº Ð¾
ÑĪÐ° Ñ
ĠÐ¿Ð¾Ð º
ÑģÐº Ð¸Ð¹
³ Ð¾ÑĤ
²Ð°Ñ ı
Ĥ ÑĢÐ°Ð½
ĠÑĤÐ¾Ð ¶Ðµ
Ñ ĤÑĢÐ°Ð½
± Ñĥ
ı Ñħ
Ġ Ð½Ð¸Ðº
Ñ ĤÐ²ÐµÐ½Ð
ĠÐ¿Ð¾Ð ¿
Ð ½Ð¾Ðµ
ĠÑģÐ »Ðµ
Ð ³Ð°
ĠÐ¸Ð ³
ÑĥÐ °
Ð´Ð ¸Ð½
ÑĢÐ ¼
ĠÑĢÐ°Ð±Ð ¾
Ĥ ÑĢÐ¸
Ġ Ð»ÐµÑĤ
ĠÐļ Ð°Ðº
ÑģÐ¸ Ñ
ÑĢÐ ¾Ñģ
ĠÐºÐ¾ÑĤ Ð¾
Ġ 4
Ð ¸Ð»Ð°
ĠÐ¼Ð µÑģ
ĠÑģÐ ¸
Ð ½Ð¸Ð
Ð¾Ð»Ð ½
Ð ½Ð¸Ñħ
ĠÐ¿Ð ¸
i n
ÑģÐº Ð¾Ð³Ð¾
ĠÐ¸Ð½ ÑĤÐµ
» ÑĥÑĩ
Ĥ Ð²Ðµ
ÑĢÑĤ Ð
ÐµÐ½Ñ Į
Ĥ ÑĥÑĤ
Ñ ĤÑĥÑĤ
ĠÐ½ÐµÐ ³Ð¾
ĠÐ±Ð¾Ð»ÑĮ ÑĪÐµ
Ð´Ñ ĭ
Â» ,
Ð´ Ð¾Ð²
ÑĢÑĥÑ ģ
Ñ ĮÑı
ĠÐ²Ð° Ñģ
_ _
Ġ Ð·Ð´Ð
ÑĪ ÐºÐ°
ĠÐĶ Ð°
ÑıÐ »
¸ ÑģÐº
ĠÐ¼Ð ¸Ð½
ĠÐ¿ÑĢÐ ¾ÑĤ
Ð²Ñ ĭ
ĠÐ´ Ñĥ
) .
Ð»ÐµÐ ½Ð¸Ðµ
ĠÐºÐ¾ÑĤÐ¾ÑĢÑĭÐ µ
ĠÐľ Ð°
Ġ Ð»ÐµÐ
ÑĪÐ ¸Ñħ
Ñ ĤÑĢÐ¸
Ð´Ð ¾Ð¼
Ð»Ð°ÑĤÑ Į
Ð»Ð¸ÑģÑ Į
t p
Ġ1 9
ĠÐ¿Ð¾Ð´ Ð
ĠÐ³Ð¾Ð´ Ð°
ÑĪÐµÐ »
Ð¸ÑģÑ Į
: /
ÑĢÐ°Ð ²
ÑĢÐ ³
ht tp
ĠÐ¢ Ð°Ðº
Ð»ÐµÐ½Ð ¸
»Ð° Ñģ
Ġ ÑĤÐ¾Ð¼
Ð¾Ñ Ħ
² Ð¸Ð½
ÑĩÑ ĥ
ĠÑĥÐ ¿
ĠÐ¿Ð¾Ð ·
ĠÑģÐµ Ð±Ðµ
Ġ ÑĪÐ
¶ Ð°Ð»
ÑĥÐ ¹
Ð´Ð º
²Ð¸ Ñ
±Ñ Ĭ
Ĥ ÑĢÐ¾Ð
ÑĩÐ ºÐ°
Ð ¦
Ð »ÑĥÑĩ
»Ð°Ñģ Ñ
Ðµ ÑĨ
Ð ½Ð¾Ð¼
Ġ ÑĢÐ¾Ð´
ĠÐ¼Ð ½
ĠÑħ Ð¾
ÑĩÐ°Ñ Ĥ
ÑĢÐµÐ »
Ð»ÐµÐ½Ð¸ Ñ
Ðº Ñģ
¾Ð µ
Ð¼ÐµÐ½Ð ¸
Ð ½Ð¸ÐºÐ°
Ġ Ð½Ð¸Ñħ
ĠÐºÐ° Ð¶Ð´
Ñ ĤÑĢÐ¾Ð
¿Ðµ ÑĢÑĮ
a n
Ñģ Ð¼Ðµ
ĠÐ´ ÑĥÐ¼
ÑĩÑ Į
Ġ Ð¸Ð¼
ÐµÐ» Ñ
¸ ÑĩÐµÐ³Ð¾
Ð ¸ÑĩÐµÐ³Ð¾
Ñ ĤÐ²Ðµ
³Ð¾ÑĤ Ð¾Ð²
Ġ Ð»ÑĥÑĩ
Ñĳ Ð
ĠÐĹ Ð°
ÑĢÐ¸ Ñģ
Ð·Ð° Ñ
ı Ð¼Ð¸
ÑĪÐ ¸Ð¹
Ġ http
Ġ ÑĤÑĥÑĤ
Ð²Ð¸ Ñ
ÑĤÐ°ÑĤ Ñ
ÑĪÐµÐ ¹
ÑĢÑ ıÐ
Ñģ Ð¼Ð¾ÑĤ
Ð¾Ð²Ð°Ñ Ĥ
Ñ ĩÑĥÐ
ĠÐ½Ð° Ð´Ð¾
ÑĨ Ñ
Ġ Ð³Ð¾
ĠÐ³Ð¾ÑĢÐ ¾Ð´
ĠÐº Ð¾Ð»
ÑĢÐ¾Ð º
Ð´Ð¸ Ñ
ÑıÐ ½
o m
Ð ²Ð¾Ð´
½Ðµ Ðµ
Ñģ ÑĤÐ¾ÑĢÐ
Ġ Ðĸ
ÑĩÐº Ð
ÑĩÐºÐ ¸
Ð ½Ñĥ
²Ð°Ð» Ð
¹ÑģÑ Ĥ
ÑĩÐµ Ñ
Ð¿Ð ¸
ĠÐºÐ¾ÑĤÐ¾ÑĢÑĭÐ ¹
²Ð°Ð»Ð ¸
ĠÐ²ÑģÐµ Ñħ
ĠÑģÐµÐ ¹
ĠÐ¶ÐµÐ ½
ĠÑĢÐ°Ð±Ð ¾ÑĤ
ĠÑĤÐµ Ð±Ðµ
Ð»ÐµÐ½Ð¸Ñ ı
Ñī Ñĳ
Ð¸Ð ²Ð
½ÐµÐ ¹
Ð·Ð°Ñ Ĥ
ÑĢÐ°Ñ ı
Ĥ Ð¾Ð¼Ñĥ
ĠðŁ ĺ
Ð¸ÑģÑ Ĥ
ĠÑįÑĤ Ð¾ÑĤ
Ġ2 0
Ġ Ð¨
Ð ²Ð¾Ð»
Ñ ĤÐ¾Ð¼Ñĥ
ĠÐ²Ð° Ð¼
ĠÐĴ Ñ
ÑĢÑĤÐ ¸
ĠÐ²ÑĭÐ ¿
¶ÐµÐ ½Ð¸Ðµ
ÑĢÐ¸Ð ¸
²Ð¸Ñ Ĥ
ĠÐ¾Ð´ Ð¸Ð½
Ġ ÑģÑĤÐ¾ÑĢÐ
Ġ ÑĩÑĥÐ
ĠÐ³Ð¾Ð» Ð¾Ð²
ĠÐ¾ÑĤ Ð²ÐµÑĤ
ĠÐķ ÑģÐ»Ð¸
² Ð¾Ð²
ĠÑģÐ¾Ð ±
½ Ð½Ð¾
ĠÐ½ÐµÐ ¿
ÑĥÑĤ Ñ
o n
Ġ Ð»Ðµ
Ð¿Ñ ĭ
Ð´Ð° Ñ
ÑĢÐ°Ð ±Ð
¸ Ð¼Ðµ
Ð·Ð°ÑĤ Ñ
² Ðº
ÑĥÐµ Ñ
Ð·Ð°ÑĤÑ Į
ĠÐ´ÐµÐ½ Ñ
ÑĥÐµÑ Ĥ
ĠÐ´ÐµÐ½Ñ Į
Ðº Ð¸Ð¹
Ð°Ðµ Ð¼
¿ÑĢÐ ¾
Ð¾Ð ¶Ð¸
Ġ Ð±Ð°
ĠÐĴ ÑģÐµ
ÑĢÐ°ÑĤ Ñ
²Ñģ Ñ
Ð° Ñİ
Ð ²Ð¾Ð¹
³ Ðµ
Ĥ Ð²ÐµÐ½
ÑĩÐ°Ð »
Ð ¸Ð¼Ðµ
Ð½Ð° Ð
ÑĢÐ¸ÑĤ Ñ
ĠÐ¾ ÑģÐ
ĠÑģÐºÐ° Ð·Ð°Ð»
ÑĢÐµ Ð´
Ð¿Ð ¸Ñģ
ÑĤÐµ Ñ
ĠÑģÐµÐ¹ ÑĩÐ°Ñģ
ĠÐ°Ð ²Ñ
Ð¾Ð´Ð ½
ĠÐ²Ñģ Ñĳ
ĠÐ¾Ð ±ÑĬ
µÑģÑĤ Ð
ĠÐĴÑ ĭ
ĠÐº Ð¾ÑĢÐ
ĠÐ´Ðµ Ð»Ð°
Ð¶Ðµ Ð
ĠÐ¼ Ð°Ð»
Ð´ÐµÐ ¹
Ñģ ÑĤÑĢÐ°
ÑĢÐ¸ÑĤÑ Į
Ñģ ÑĤÐ²ÐµÐ½Ð
ðŁ ¤
ÑĩÐ ¸Ð½
Ð½ÑĭÐ¼ Ð
Ð½ÑĭÐ¼Ð ¸
²ÑģÑ Ĥ
µÑģÑ ı
Ðµ Ð»Ð¸
ĠÐ±Ð¾Ð» ÐµÐµ
ÑĨÑ ĭ
Ġ ÑģÐ¼Ðµ
Ð ·ÑĭÐ
Ð¾Ð²Ð°ÑĤ Ñ
Ð¾ÑģÑĤ Ð
ÑĩÐ ¸Ð»
ÑĤÐ°ÑĤÑ Į
½ Ð¸ÑĩÐµÐ³Ð¾
ĠÐ´ ÑĢÑĥÐ
Ð ½Ð¸ÑĩÐµÐ³Ð¾
Ñģ ÑĤÐ²Ð¾
Ð±Ð ¾Ð»
Ñģ Ð²Ñ
ÑĩÐµ Ð¼Ñĥ
¸Ð »ÑĮÐ
ĠÐ¿Ð¾ÑĤ Ð¾Ð¼
ÑĢÐ°Ð ´
Ġ ÑĩÐ°ÑģÑĤ
Ñ ĤÐ²ÐµÐ½
ĠÐº Ñĥ
ÐµÐ ¿
² Ð°ÐµÑĤ
Ñ ĤÐ¾Ð²
ĠÑĢÐ°Ð ´
Ġ ÑĤÑĢÐµ
ĠÐļ Ð°
ĠÐ³Ð»Ð° Ð·Ð°
¸ÑģÑ Ĥ
Ĥ Ð¾Ñı
Ñ ĤÐ¾Ñı
ÑĪÐµÐ ³Ð¾
Ġ Ð½Ð¸ÑĩÐµÐ³Ð¾
· Ð´
ĠÐ¶Ð ¸
Ñģ ÑĭÐ
Ð¼ÐµÐ½ Ð½Ð¾
ĠÑĢÐ°Ð· Ð
Ð »Ð¾Ð²
ı Ð¼
ĠÐ²Ð¾Ð ¿ÑĢÐ
Ð¾Ð²Ð°ÑĤÑ Į
ĠÐ¼Ð ¾
ÑģÐ ¸Ð»
ĠÐ¾ÑĤ Ðº
ĠÐ²Ðµ ÑĢÐ
Ð¾ÑģÑĤÐ ¸
Ġ ÑģÐ²Ñ
Ð·Ð°Ð ½
ĠÑħÐ¾ÑĤ Ñ
Ð½Ðµ Ñ
ĠÑģÑĤÐ¾ÑĢÐ ¾Ð½
Ġ ÑĥÑĤ
ÐµÐ³ Ð´Ð°
) ,
ĠÐ²Ñģ ÐµÐ³Ð¾
ÑĩÐµ Ð¼
Ð±Ðµ Ð
² Ð°Ð
ĠÐ´Ð ²Ðµ
e n
· Ð¾Ð²
ÑĢÐ°ÑĤÑ Į
ĠÐ¿ÑĢÐ¸Ð ½
ĠÐ´Ðµ Ñ
Ð¾Ð½ Ðµ
ĠÐµ ÑīÑĳ
ĠÑĩÐµÐ»Ð¾Ð²Ðµ Ðº
Ðµ ÑĤÐµ
Ð µÑģÑĮ
Ġ Ð¾Ð³
ĠÐ·Ð° Ðº
Ð ½Ð¸Ð¼
ÑĢÐ°Ð »
Ð²Ñ ģ
² ÐµÑĢ
Ġ Ð¸Ð¼Ðµ
Ð¾Ð»Ð ¸
Ðº Ð¾Ð»ÑĮÐºÐ¾
Ĥ Ð¾ÑĤ
ĠÐ¿Ðµ ÑĢÐµÐ
Ðŀ Ð
ı Ñī
Ġ Ð²Ð¾Ð´
½ Ð¸Ð¹
Ñ ĤÐ¾ÑĤ
Ġ 8
Ð°Ð» Ñģ
Ð ¸Ð¼Ð
a r
Ð¸Ðº Ð
ĠÐ´ÐµÐ ¹ÑģÑĤ
Ð°Ð»Ñģ Ñ
ÑģÐºÐ° Ñ
Ñİ Ñģ
Ð¾Ð ¶Ðµ
Ġ Ð¾ÑĢÐ
Ð¿ ÑĢÐµÐ
ĭ Ñ
Ġ ÑģÐ¼Ð¾ÑĤ
ĠÐ¢ Ñ
ĠÑĩÐµ ÑĢÐµÐ·
ÑĪÐ ¾
ĠÐ´Ð ¾Ð±
Ñ ĸ
Ð²Ðµ ÑĢÐ
Ñģ ÑĤÑĢÐ°Ð½
Ñģ ÑĤÐ²Ð°
» ÑĭÐ
Ð «
Ñģ ÑĤÐ¾Ð
ÐµÑģÑĤ Ð
ĠÐº ÑĢÐ°ÑģÐ
ĠÐł Ð¾Ñģ
ı Ñģ
Ð ®
ÑĩÐ ¸Ðº
ĠÐ´Ð ¾ÑĢÐ
Ð°Ð»ÑģÑ ı
ĠÐŁ ÑĢÐ¸
ĠÐ§ ÑĤÐ¾
¾Ñģ ÑĤÐ°Ð
Ġ Ð»Ð°
ÑĪÐº Ð
ÑĨÐ¸ Ñİ
ÑĥÑĤÑ Į
ĠÑģÐ¾Ð ¾Ð±
ÑħÐ¾Ð´Ð¸ Ñ
ÑħÐ¾Ð´Ð¸Ñ Ĥ
ĠÐ¼Ð ½Ð¾Ð³Ð¾
¶ÐµÐ½ Ð
ÑĪÐºÐ ¸
Ġ ÑĤÑĢÑĥÐ
ÑĢÐ°Ð º
ÑĤÐµÐ» ÑĮÑģÑ
ÑĩÐ¸ ÑĤÐ°
ĠÐ¶Ð¸Ð·Ð½ Ð
ĠÐ¶Ð¸Ð·Ð½Ð ¸
ĠÐ¢Ñ ĭ
ĠÐ½ÑĥÐ ¶Ð½Ð¾
Ð¸Ð½ Ñ
Ð¸Ð ³
¸Ð ²Ð°
¹ Ñ
Ð¾Ð´Ð½ Ñ
ÑĢÑĭ Ñ
Ð ¸ÑģÐº
Ñģ ÑĤÑĥÐ¿
ÑĦ Ðµ
ÑĥÐ»Ñ Į
¾Ñ Ħ
Ð´Ð¸Ñ Ĥ
Ð»Ð¸ ÑĩÐ
¾Ð± ÑīÐµ
Ġ ÑĢÐ
Ð¸Ð» Ñ
ÑģÐ¸Ñ Ĥ
²Ð¸ÑĤ Ñ
Ð¾Ð½ Ñ
ÑĢÑĭÑ Ĥ
o r
s t
²Ð¸ÑĤÑ Į
Ð¾Ñģ Ðº
ĠÐ¿Ð¾Ð¼ Ð¾
ÑģÐº Ð¸Ñħ
ĠÐ²Ñģ ÐµÐ³Ð´Ð°
Ĥ Ð¸ÑĩÐµÑģÐº
Ñ Ĭ
ÑİÑģ Ñ
\ "
ĠÐ²Ð¾Ð· Ð¼Ð¾Ð
Ð¾Ð´Ð½Ñ ı
ÑĪÐ ¸Ð½
·Ñ ı
ÑĩÐµÑ Ĥ
Ð°Ð¹ ÑĤÐµ
ĠÐŀ Ð½Ð°
ÑģÐ ¸Ð¸
a l
Ð ¬
Ĥ ÑĭÐ
ÑĢÐ¸Ð »
ĠÐ¿Ð¾Ð» Ð
ĠÐ¼Ð¾Ð µ
Ñģ ÑĤÐµ
Ð¾ÑģÑĤ Ñ
Ġ ÑģÑĤÑĢÐ°
ĠÐ¿Ð¾Ð½ Ð¸Ð¼
Ñģ ÑĥÐ´
¹Ñ Ĥ
ĠÐ¾Ð±Ð µ
ĠÐ¾Ð ºÐ°
Ð¿ Ð»Ðµ
ÑģÐµÐ ½
Ðµ ÑĪÑĮ
Ġ ÑģÑĤÑĢÐ°Ð½
Ðº Ð¸Ñħ
ĠÐ¼Ð° Ñ
ÑĪ Ñĥ
Ġ Ð²Ð¾Ð»
Ð´Ðµ ÑĢÐ
ÑĢÐ° ÑĦ
ÑĢÐ° Ð¼
¶ Ñĥ
ĠÑģÐ»Ðµ Ð´
ıÑģ Ñ
½ Ð¾Ð¼Ñĥ
Ð¼Ð µÑģ
ĠÑĤÐµ Ð¼
ÑģÐºÐ°Ñ ı
ĠÐ¿ÐµÑĢÐµ Ð´
Ġ ÑĢÐµÐ·
ÑĢÐ ¾Ð½
ÑİÑģÑ Į
Ñ ĭÑ
ĠÑĤÐ°Ðº Ð¾Ð¹
Ð¸ÐºÐ ¸
ĠÐ³ÑĢÑĥÐ ¿
½ Ñİ
Ġ ÑĩÐ°Ñģ
ÑıÑĤ Ð
ĠÐ±Ð »Ð
ĠÐ½Ð° Ð¼
ĠÐ¿ÑĢÐµÐ´ ÑģÑĤÐ°Ð
ÑĩÐ¸ Ð½Ð°
Ġ Ð¿ÑĢÐµÐ
Ð¾Ð³Ð ¸
Ñģ Ð»Ð°
ÑĢÐµ Ð´Ð
ÑĩÐµÐ ½Ð¸Ðµ
ĠÐĲÐ ½
ĠÐĿ Ñĥ
ĠÐ¸Ñģ ÑĤÐ¾
ÑĤÐ° Ðº
ĠÑĦ Ð¾ÑĤ
ĠÐ¾Ð± ÑĢÐ°Ð·
Ð½ÑĥÐ »
ÑģÐ¿ Ðµ
» Ñĥ
¶ÐµÐ½Ð ¸
ĠÐ¿ÑĢÐ¾Ð ±Ð
ÑĤÐµÐ ¹
ĠÐľ Ñ
ÑģÐ ½Ð¾
±Ð ¾Ð¹
ĠÐŀ Ñ
Ġ ÐµÐ¹
Ġ .
ĠÐ¾Ð± Ñī
ÑĪÐ ¸Ðµ
Ð½ÐµÑ Ĥ
Ð ²Ðº
Ð¼Ð° Ñ
ÑĢÑ ĭÑħ
¶ÐµÐ½Ð¸ Ñ
Ġ 6
ĠÑĤÐµÐ ¿ÐµÑĢÑĮ
ĠÐ²Ñģ ÑĤÑĢÐµ
Ð´Ð°Ñ Ĥ
ÐºÑ ĢÑĭÐ
Ð°Ð½Ñ Ĥ
Ñģ ÑĤÐ²ÐµÐ½
ĠÐŀÑ Ĥ
Ð° Ð¼Ð¸
½ Ð¸ÑĨ
Ġ ÑĩÐ
ÑıÐ ²
ĠÐ»Ñİ Ð´ÐµÐ¹
Ð¿ ÑĥÑģÑĤ
½Ð° Ñ
Ð¿ Ð»Ð°
ĠÐ·Ð´Ð µÑģÑĮ
½Ð¸Ð¼ Ð°
ĠÐ¼ÑĥÐ ¶
Ð¾Ð½ Ð
ÑĢÐ¸Ð ½
ĠÐľÑ ĭ
ĠÐ±Ð »Ð°
²ÑģÑĤ Ð
Ð¾Ð² Ð¾
ÑĩÐ° Ð»Ð°
ĠÐ²Ð· Ð
½Ð¾Ð² Ð°
Ð°Ð½ Ð¸Ð¸
ĠÑįÑĤ Ð¾Ð¹
Ð¼ÐµÐ½ Ñ
ĠÐ»ÑĥÑĩ ÑĪÐµ
ĠÑĢÐ° ÑģÐ¿
c om
ĠÑģÑĤÐ° Ñ
Ġ ÑģÑĤÐ¾Ð
ĠÑĥ ÑĩÐ°ÑģÑĤ
ĮÐ µ
ÐµÐ»Ñ Į
¾ÑĢÐ ¾Ð²
ĠÐ´Ð ²Ð°
ĠÑģÐ²Ð¾Ðµ Ð
º Ñĥ
² Ð¾Ð¼
²Ð¾ Ñİ
ĠÐ½ÐµÐ ¹
ÑĪÐµÐ½ Ð
Ð° Ñħ
ĠÑģÐ²Ð¾ÐµÐ ¹
ÐºÐ°Ð ½
ĠÐ¾ÑĤ Ð½Ð¾
Ð¿ ÑĢÑı
ÑĪ Ð»Ð°
Ġ Ð²Ðº
Ð´ ÑĭÐ
ĠÐ²Ð¾Ð ¾Ð±ÑīÐµ
·Ñ ĭ
Ð´Ð ½Ð¾
Ġ Ð¦
ÑĥÐ ³
· ÐµÐ¼Ð
ĠÐ´Ð¾Ð» Ð¶Ð
a t
¸Ð ³
ÑģÐº Ð¸Ðµ
ÑĤÐµÑ Ģ
¸ ÑĤÑĮÑģÑı
ĠÑģÐ ²Ð¾Ñİ
ÑĦ Ð¾ÑĢÐ¼
ÑĢÐµ Ð´Ð¸
ĠÑģÐ ¾ÑģÑĤ
ĠÐ²Ð¸ Ð´Ðµ
ĠÑį Ðº
ĠÐ½ÐµÑģ ÐºÐ¾Ð»ÑĮÐºÐ¾
!! !
ÑĩÐº Ñĥ
»Ð°ÑģÑ Į
ÐĿ Ð°
Ñ ıÑħ
² ÑĢÐ°
Ðº Ð¾Ð³Ð¾
Ñģ ÑĤÐ¾Ð»
½ÑĥÑĤ Ñ
Į ÑĪÐµ
Ð¾Ð±Ð µ
ĠÑįÑĤ Ð
ĠÐ´ÐµÑ Ĥ
ĠÑĤÐ°Ðº Ð¶Ðµ
Ġ ÑĢÐ¾Ð
ĠÐ¶ÐµÐ½ Ñī
½ÑĭÐ¼ Ð
½ÑĭÐ¼Ð ¸
ĠÐ²Ð¾Ð¿ÑĢÐ ¾Ñģ
ÐµÑĤ Ñ
» Ð¾Ð¼
ĠÐ¿ÑĢÐ°Ð ²
ĠÑĢÐ°Ð±Ð¾ ÑĤÐ°
ĠÐĶ Ð
ĠÑĢÐ°Ñģ ÑģÐºÐ°
ĠÐ»Ñİ Ð´Ð¸
¾Ñ Ģ
ÑĢÐ¸Ñ ı
ĠÐ´Ðµ Ð²Ñĥ
¶ÐµÐ½Ð¸Ñ ı
¶Ð° Ñ
ĠÐ¿Ð¾ÑĤ Ð¾Ð¼Ñĥ
ÑĢÐ°Ð· Ñĥ
Ñ ıÑ
Ð¾ÑĤ Ñ
Ð¶ÐµÐ ½
ÑģÐµ Ð¼
ÑĢÐ° Ñģ
Ġ 7
ĠÐ¿Ð¾Ð· Ð
ÑĢÐµÐ½ Ð
ĠÐ²ÑģÐµ Ð¼
Ð»Ð¸ Ñ
ĠÑįÑĤÐ ¸
ÑĩÐ°Ð ¹
½ÑĥÑĤÑ Į
»ÐµÐ ½
ðŁ ĳ
ÑĪÐ »Ð¸
Ð ³Ð¾ÑĤÐ¾Ð²
" .
ĠÐ¾ÑĢÐ ³
Ġ ÑģÑĥÐ´
ĠÐ´Ð¾Ð¼ Ð°
ĠÐ»ÐµÐ ³
Ð¸Ð½Ñ ĭ
² Ð»Ðµ
ÑģÐ¸ Ð±Ð¾
ĠÐ´Ð ¸
Ð¼ÐµÑ Ģ
ÑĢÐµÐ ¹
" ,
Ĥ Ð¾Ð³Ð´Ð°
Ñ ĤÐ¾Ð³Ð´Ð°
Ġ ÑĤÐ¾ÑĤ
ÑĩÐ¸ÑĤ Ñ
ÑĩÐµÐ½ Ð
ıÑģÑ Į
Ġ Ð²Ð¾Ð¹
Ġ Ð½Ð¸Ð¼
ĠÑĩÐµÐ ³Ð¾
ÑĩÐ¸ÑĤÑ Į
² Ð¼ÐµÑģ
Ġ ÐµÑ
Ġ1 0
Ð ²Ð¼ÐµÑģ
ÑĪÐ ¸Ð¼
² Ð¸Ðµ
ĠÐ¿Ð¾ÑģÐ»Ðµ Ð´Ð
ÑĪÐ ¸ÑģÑĮ
Ð¿ Ñĥ
2 0
ĠÐ¿ÑĢÐ ¾ÑģÑĤ
²ÑĭÐ ¹
ÑĥÐ ¶Ð
Ĥ Ð¾Ð¹
ĠÐ½Ð° Ð´
ĠÐ´Ð¾ÑĢÐ ¾Ð³
Ġ ÑģÑĤÐ¾Ð»
½ÑĥÐ »
² Ð½Ð¾
» Ð¾Ð
ĠÐ¿ÑĢÐ ¾Ð³
ÑĨÐ¸ Ð°Ð»ÑĮÐ
Ð°Ð» Ðµ
Ñħ Ð¾
Ð¿ Ð¾Ð³
Ð ²Ð¸Ð½
Ġ Ð²Ð¼ÐµÑģ
Ð¿ Ð»Ð¾
²Ñ ĥ
Ĥ Ð¾Ð½
± Ð°Ð
Ð¼Ð ¸Ð½
ÑĢÑ ıÑĤ
½Ð¾ÑģÑĤÑ ĮÑİ
ÑĪÐµÐ½Ð ¸
ðŁ Ĵ
Ð¾ÑģÑĤÑ Į
Ġ Ð¿ÑĢÑı
ÑĢÐ°Ð½ Ð
ĠÐ»Ð¸ ÑĪÑĮ
ĠÑĥÐ ²Ð¸
Ġ Ð¿Ð»Ð°
Ð¿Ð ¾
Ð¸Ð»Ñ Į
ĠÑģÐ ¸Ð»
ĠÐ¾Ð´ Ð½Ð°
Ð¸Ð½ Ð
ÑħÐ ¸
ĠÑģÐ¾Ð¾Ð± Ñī
ĠÑĥÐ º
Ñ ĤÐ¸ÑĩÐµÑģÐº
ĠÐ²Ð·Ð ³
ĠÐ¿Ð¾ ÑĩÑĤ
Ġ ÑĤÐ¾Ð³Ð´Ð°
Ġ ÑĢÑı
Ġ Ð¸ÑģÐº
Ðº Ð¾ÑĤ
ÑģÐ ¾
Ð¾Ð´ Ð°
Ð¶Ð ¸
ĭ Ñģ
ĠÐ²Ð·Ð³ Ð
ĠÐ²Ð·Ð³Ð »
Ñĳ Ñ
½Ð°Ñ ı
ĠÐ¼Ðµ Ñ
Ñį Ð
ÑĢÐ¸ Ðº
ĠÐºÐ°Ðº Ð¾Ð¹
ĠÐ¶Ð¸Ð·Ð½ Ñ
ĠÐ´Ð ½
Ðº Ð¸Ðµ
Ð ·ÐµÐ¼Ð
ĠÐĴ Ð¾ÑĤ
ÑĢÐ¾Ð² Ð°
ĠÐ¶Ð¸Ð·Ð½Ñ Į
Ġ Ð¿Ð¾Ð³
Ñį ÑĤÐ¾Ð¼Ñĥ
Ð¾Ð´Ð¸ Ñ
ĠÐ´Ð ¾ÑģÑĤ
Ñ ĭÑģ
e s
Ĥ ÑĢÐ¾
± Ð°Ð½
Ð¶ Ð°
±ÑĥÐ´ Ñ
±ÑĥÐ´Ñ Į
ĠÐ¼Ðµ Ð¶Ð´
Ģ Ñİ
ĠÐ²Ñģ Ñ
ĠÑģÐ²Ð¾Ð ¸
ÑĢÐµÑĤ Ñ
ÐºÐ° Ð¼Ð¸
ĠÑģÐ¿ Ðµ
ĠÐµÑ ĳ
Ð°Ð» Ð¾
Ñģ Ñĥ
ÑĪÐ°Ñ ı
ĠÐ¶Ð ´
ĠÐ±Ñĭ Ñģ
¸ ÑĩÐ
ÑĤÐ°Ð ¹
ĠÐ²ÑĭÐ ´
ĠÐĴ Ð°
Ñ ĤÑĭÐ
Ġ Ð¿Ð»Ð¾
Ð¾Ð´Ð¸Ñ Ĥ
ĠÐ·Ð½Ð° Ñİ
ĠÑģÐ¿ Ð°
Ĥ Ð¾ÑĢ
· Ðµ
ĠÐ³Ð¾Ð´ Ñĥ
Ð½Ð¸Ð ±ÑĥÐ´ÑĮ
ĠÑĤÐµ Ñħ
ĠÐ²Ðµ Ð´ÑĮ
Ð´Ð°ÑĤ Ñ
:/ /
ÑĢÐ ½
ĠÑħÐ¾ÑĢÐ¾ ÑĪÐ¾
Ð ½ÑĥÑİ
ÑĩÑ ĳ
ĠÐ´Ð ¾Ñģ
Ð Ļ
Ð¼Ð ¿
Ġ 9
ĠÑģÐ ²Ð¾Ð¹
ĠÑģÐ ¿ÑĢÐ¾
r u
»ÑĮÐ ½Ð¾
ÑĢÐ°Ð µ
ÑıÑĤÐ ¸
Ġ ÑĤÑĢÐ¸
Ñģ ÑĥÑī
¸ ÑĨÐ°
Ñģ ÑĢÐ°Ð·Ñĥ
ĠÐ¿Ð¾ Ñħ
ĠÐ¿ÑĢÐ¾Ð´ Ð¾Ð»
Ġ Ñİ
Ġ Ð·ÐµÐ¼Ð
Ð²Ð µÑģÑĤ
ĠÑģÐ ¸Ð»ÑĮÐ
ĠÑĥÐ ²Ðµ
Ð ²Ð°Ð
ÑĤÐµ ÑĢÐ¸
ĠÑĩÐµÐ»Ð¾Ð²Ðµ ÐºÐ°
±Ð ¾
ĠÐ´ Ð¾Ð²
Ñ ĤÐ¾Ð¹
Ð ¸ÑĤÑĮÑģÑı
ÑĢÐ¾Ð ¿
Ñ ĤÐ¾Ð½
ĠÐ¾ÑģÐ ½Ð¾Ð²
Ð»Ð°Ð ²
Ð¾Ð³ Ð»Ð°
Ġ ÑģÑĢÐ°Ð·Ñĥ
ÑĪÐµÐ ½Ð¸Ðµ
ĠÑĤÑĢÑĥÐ ´
Ġ ÑĩÐ¸
ÑĩÐµÐ½Ð ¸
ÑĢÐ ¿
Ð¸Ð½ Ñĥ
Ġ ÑĩÐ°
Ð·Ð° Ð»Ð°
ĠÐºÐ¾Ð½ Ðµ
ÑĤÐ° Ð¼Ð¸
¸ Ð´
i t
Ð´ÐµÑĤ Ñ
µÑģÑĤÐ ¸
Ġ S
ÑĪÐ »
ĠÐ²Ñ ĭÑħ
Ð¼Ð¾Ð µ
Ġ Ð³Ð¾ÑĤÐ¾Ð²
ĠÐ±ÑĥÐ´ ÑĥÑĤ
ĠÑģÐ¿ Ð¾Ñģ
ÑĭÐ¼ Ð
Ð¾ ÑĢÑĤ
ÑĭÐ¼Ð ¸
ÑĨ ÐµÐ²
Ð½Ðµ Ðµ
ĠÐ²ÑģÑ ı
ĠÐ¿Ð¾ ÑĩÐµÐ¼Ñĥ
ĠÐ´ Ð°Ð²
¹ÑĤ Ð
ĠÐ¼ Ð°Ð³
ĠÑĤÐµ Ð»Ðµ
Ð¿ Ð¾ÑıÐ
Ð´ÐµÑĤÑ Į
Ð ²ÑĢÐ°
ĠÐ»Ð¸ ÑĨ
¹ÑĤÐ ¸
Ġ Ð¿Ð¾ÑıÐ
Ð¿ Ð¾Ð¹
ÑĳÑ Ĥ
³ Ð¾Ð´Ð½Ñı
ĠÐ¼Ð¾Ð» Ð¾Ð´
ÑĪÐµÐ½Ð¸ Ñ
ÑĭÑ Ĥ
ï ¸
ĠÐ¿ÑĢÐ¾Ð±Ð »Ðµ
ĠÐ·Ð° ÐºÐ¾Ð½
ÑĩÐ°ÑĤ Ñ
ï¸ ı
ÑĪÐ°Ñ Ĥ
¸ ÑĤÑģÑı
ĠÐºÐ¾Ð¼ Ð°Ð½
Ġ ÑģÑĥÑī
ĠÐ° Ðº
ÑĢÑ Ĩ
¾Ð» Ñ
Ð´Ð°ÑĤÑ Į
Ð ²Ð°Ð»
ĠÐº ÑĢÐµ
ÑĩÐ°ÑĤÑ Į
²Ð° ÑİÑĤ
ĠÐ¼Ð ¾Ð¼
ĠÐ¾Ñģ ÑĤÐ°
ĠÑģÐ²Ð¾Ð ¸Ñħ
Ñģ ÑĥÑĤ
Ð»Ð°ÑģÑ Ĥ
Ð¾ÑģÑ ĤÐµÐ
¸ ÑĤÐµÐ»ÑĮÐ
ÑĢÐµÑĤÑ Į
v k
Ġhttp s
Ñħ Ð¾Ð²
ĠÐŀÐ½ Ð
__ __
ĠÑģÐµÐ ³Ð¾Ð´Ð½Ñı
¾Ñ ı
ĠÐŀÐ½Ð ¸
¸ Ð¼ÐµÐ½Ð½Ð¾
Ð ²Ð¸Ðµ
Ġ ÑĤÑĢÐ°Ð
Ñģ ÑĥÐ
Ð¼Ð ½Ð¾Ð³Ð¾
Ð ¸Ð¼ÐµÐ½Ð½Ð¾
ĠÐ¿Ð¾Ñģ Ð¼Ð¾ÑĤ
ĠÐ´Ð ²Ð¸Ð
ĠÐ²ÑĢÐµ Ð¼ÐµÐ½Ð¸
Ð ¸ÑĨÐ°
ÑĩÐµÐ½Ð¸ Ñ
ÐµÐ ½Ðµ
² Ð¿Ðµ
ÐĿ Ðµ
Ð ²Ð¿Ðµ
ÑĤÐµÐ»Ñ ı
Ð¸Ð» Ð¾ÑģÑĮ
Ġ ÑĪÐº
ĠÐ½Ðµ Ðµ
½ Ð¾ÑĢÐ¼
Ġ Ð»Ð
Ñ ĤÑĢÐ¾
ÑĢÐ°Ð ²Ð¸
ĠÐ²Ð¾Ð·Ð¼Ð¾Ð ¶Ð
ĠÑģÐ ²Ðµ
Ð ½Ð¾ÑĢÐ¼
½ÑĥÐ »ÑģÑı
ðŁ¤ £
Ð¾Ð ºÐ°
Ðµ Ð½Ð°
Ñģ Ð¾Ð»
Ð¾Ð¼ Ð
Ġ Ð½Ð¸ÐºÐ°
Ĥ Ð²Ñĥ
Ġ ÑĤÑıÐ
Ġ Ð¾ÑĦ
Ð ½Ð¾ÑģÑĤÐ¸
Ð¿ÑĢÐ°Ð ²
Ġ Ð¸Ð¼ÐµÐ½Ð½Ð¾
Ġ Ð²Ð¿Ðµ
Ð ²Ð¸Ð
Ð½Ð°Ñ Ĥ
ĠÐ¸ÑģÐ¿ Ð¾Ð»ÑĮÐ
¶Ð°Ñ Ĥ
ĠÐłÐ¾Ñģ ÑģÐ¸Ð¸
ÑĩÐ ¸Ð
Ð »Ñĥ
ĠÑģÐ¾Ð² ÐµÑĢ
ĠÑĦ Ð¾ÑĢÐ¼
Ġ20 1
ĠÐ´Ðµ Ð»Ð¾
ĠÐ±Ðµ ÑģÐ¿
ÑĪÐµÐ½Ð¸Ñ ı
¾Ð³ Ð°
² Ð°Ð½
ı ÑģÐ½
ĠÑģÐ ²ÐµÑĤ
Ġ Ð³Ð°
ÑĥÑİ Ñī
ĠÐ¼Ð µÑģÑı
Ñģ Ñİ
ĠÐ³Ð¾Ð» Ð¾Ñģ
² Ð½Ðµ
ÑĢÑ ĮÐµ
ĠÐ±Ð ¸
Ġ c
²ÑĭÐ µ
ĠÑĤÐ°Ðº Ð¾Ðµ
¸Ð»Ð¸ Ñģ
½ Ð¾Ð³
ĠÐ¿Ð¾ÑĩÑĤ Ð
Ġ Ð½Ð¾ÑĢÐ¼
ĠÑģÑĤÐ¾Ð ¸
ĠÐľ Ð¾Ð
ÑĩÐµÐ½Ð¸Ñ ı
ĠÐ¸Ð½ÑĤÐµ ÑĢÐµ
Ñģ ÑĤÐ¾Ñı
ĠÑĥÐ »ÑĭÐ
ĠÐºÐ ¸
00 0
ĭ ÑĪ
Ñ ıÑģÐ½
ĠÐŁ Ð¾Ð´
ÐŁ Ð¾
ĠÐºÐ ½Ð¸Ð
ÑĩÑĤ Ð¾
ĠÐ¿Ð¾ÑĩÑĤÐ ¸
ĠÑģÐ»Ñĥ ÑĩÐ°
± ÑĢÐ¾
µÑģÑ ıÑĤ
² Ð¾Ð½
Ġ Ð¿Ñĭ
ÐŀÐ ½
ĠÐ²Ð·Ð³Ð» Ñ
ĠÐ²Ð·Ð³Ð»Ñ ı
Ð°Ð» Ð¸ÑģÑĮ
Ĥ ÐµÐ½
ĠÐ¡ Ð°
¸Ð»Ð¸Ñģ Ñ
Ð´ ÑĥÐ¼
ÑĨÐ¸ Ð¾Ð½
Ð ±Ð°Ð
ĠÐ¿Ð¾Ð ±Ðµ
e l
ĠÑģÑĤÐ°Ð »
Ð¼Ð ¾Ð½
ĠÐ¼ÐµÐ¶Ð´ Ñĥ
Ĥ ÑĭÑģ
ĠÑĥÐ´ Ð°
ĠÐ¼Ð¾Ð³ Ñĥ
Ð¾Ð»Ñ ı
Ñ ĤÑĭÑģ
¾Ð ¿
ĠÑĢÐ°Ð ½
Ġ Ð¿ÑĥÑģÑĤ
ĠÐ´Ðµ Ð»Ð°ÑĤÑĮ
ĠÐºÐ¾ÑĤÐ¾ ÑĢÐ°Ñı
·Ð½Ð° Ð
ÑĢÐ ¾Ð¹
Ñ ıÑī
Ðµ Ð»Ð°
Ñģ Ñģ
ĠÐ²Ñ ĤÐ¾ÑĢÐ
ĠÐ¼Ð¾Ð ¶Ðµ
Ġ ÑĤÑĥ
² Ð¾Ñģ
ĠÑħÐ¾ÑĤÑ ı
³ Ñĥ
ĠÐĺÐ ½
±Ð ¾Ð´
ĠÐ²Ð¾ ÑģÐ¿
Ð»Ð »Ð¸
ĠÐºÐ¾Ð½Ðµ ÑĩÐ½Ð¾
² Ð°ÐµÑĤÑģÑı
ĠÐ¿ÑĢÐµÐ´Ð ¿
Ð´ ÑĨÐ°
ĠÑģÐ¾Ð² ÑģÐµÐ¼
¸Ð»Ð¸ÑģÑ Į
ĠÐº ÑĥÐ¿
Ð½ÐµÐ ¹
Ð¾ÑıÐ ½
o u
ÑĤÐµ Ð»Ð¸
ÑĪÐ ¸Ð
.. ..
ĠÑģÐ ½Ð¾Ð²Ð°
ÑİÑī Ð¸Ñħ
Ð²Ð°ÑĤ Ñ
Ð½Ð¸Ðº Ð
Ð ²Ð¾Ð²
Ġ Ð¿Ð»Ðµ
»Ð ¸ÑģÑĮ
Ġ ÑĢÑĥÑģ
ĠÑģÑĤÐ°Ñ Ĥ
Ġ :
²ÑģÑĤÐ ²
ÑĢÐ°Ð ¹
ĠÑģÐ´Ðµ Ð»Ð°ÑĤÑĮ
Ð²Ð°ÑĤÑ Į
ĠÐ¼Ð ¾Ð¹
ĠÑģÐ²Ð¾Ðµ Ð³Ð¾
ĠÐ½Ð¸Ðº Ð¾Ð³Ð´Ð°
Ĥ Ð²Ð¾Ð
¾ÑģÑĤ Ð
Ñ ĤÐ²Ð¾Ð
i c
Ñ ĤÐµÐ½
ÐµÐ½Ñ ĭ
ĠÐĴ Ð
ÑĢÐ¸Ð ¹
³Ð° Ñ
ĠÑĤÐ°Ðº Ð¸Ðµ
ĠÐ´Ðµ ÑĢÐ
ÑĢÑĥ Ñİ
¾ÑģÑĤÐ ¸
ĠÐ½Ðµ Ð¾Ð±
ÑĤÐµ Ð¼
Ġ ÑĤÑĭÑģ
²Ð ½
Ñģ Ð¼Ð
Ġ ÑĢÑĭÐ
¶Ð´ ÐµÐ½Ð¸Ñı
ÑĦÐ¾ÑĢÐ¼ Ð°
³ Ð¾Ñģ
ĠÐ¿ÑĢÐ¾Ð ¿
Ġ1 5
ĠÐ° Ð´
ĠÑĢÑĥÐº Ð
ĠÑĢÑĥÐºÐ ¸
Ġ1 8
ĠÐ¿ÑĢÐ¾ÑĤ Ð¸Ð²
ĠÑĢÑĥÐ ºÐ°
ĠÐºÐ° ÑĢÑĤ
Ð½Ð¸ÐºÐ ¸
ĠÐº Ð¾Ð³Ð¾
Ġ Ð¿Ð¾Ð¹
ÐºÐ°Ñ Ĥ
ĠÐ¼Ð¸Ð½ ÑĥÑĤ
Ĥ Ð¸Ñħ
? ?
ÑĢÐµÐ ±
Ģ ÑĤÐ°
ĠÐĲ Ð»Ðµ
ĠÐ¾Ð ±Ñĭ
ÑĪÐº Ð¾Ð¼
Ð½Ð¸Ðº Ð¾Ð²
Ðµ ÑĢÐ°
» ÑĥÐ±Ð
ÑģÐ¾Ð º
ÑģÐº Ð¾Ð¼
ĠÐ¾ Ñħ
Ð ³Ð¾Ñģ
ĠÐ¼ÐµÑģ ÑĤÐ¾
» ÑĥÐ
Ġ ÑĤÐ²Ð¾Ð
ÑĩÐ ¸Ð²
ÐºÐ° Ñħ
ĠÐ¿ÑĢÐ¾Ð ¸Ð·
ĠÐ¿Ð ¸Ñģ
Ġ ÑģÐ¼Ð
ĠÑħÐ¾ÑĤ ÐµÐ»
Ñ ĤÐ¸Ñħ
ĠÑģÐ ¾ÑģÑĤÐ°Ð
ĠÐļ Ð
ĠÑįÑĤ Ñĥ
ĠÐ²Ð¼ÐµÑģ ÑĤÐµ
ĠÑĥÐ ±Ð
Ð´ Ð½Ð°
¾ÑģÑĤ Ñ
¶Ð¸ Ñ
ĠÐ¿Ð¾Ð»Ð ¸
ÑĪÐ°ÑĤ Ñ
ĠÑģÐºÐ° Ð·Ð°ÑĤÑĮ
Ñģ ÑĤÑĢÐ°Ð
ĠÐ¿ÑĢÐµ Ðº
r e
ÑĤÐ¾ ÑĢÐ°
ĠÑħ Ð¾Ð»
ĠÐľ Ð
ÑĢÐ¾Ð² Ð
ÑĤÐ°Ð ²
ĠÑģÐ¾Ð ±Ð¾Ð¹
¸ Ð½Ðµ
Ñģ ÑĩÐ°ÑģÑĤ
ĠÑĢÐ°Ð±Ð¾ÑĤ Ñ
ĠÑĢÐ°Ð±Ð¾ÑĤÑ ĭ
± ÑĢÑı
o Ð
ĠÑģÐµ ÑĢÐ´
ĠÑį ÑĤÐ°
ĠÑģÐµ Ðº
ĠÐ³Ð¾Ð²Ð¾ ÑĢÐ¸
ĠÐ½Ð° Ð¿Ð¸Ñģ
»ÐµÐ ¹
² Ð¾ÑĢÐ
ÑĪÐ°ÑĤÑ Į
Ġ Ð²Ð°Ð
Ĥ ÑĥÐ°
ĠÐºÐ¾Ð¼ Ð¿
Ñ ĤÑĥÐ°
Ð´Ñ ı
Ð ¸ÑĩÐ
Ð»Ð¸Ð ½
² ÐµÐ·
·Ñ Į
ÑĪÐ »Ð¾
ĠÐ·Ð° Ð¼ÐµÑĤ
Ñ ıÐ¼Ð¸
Ð¾Ð» Ð¾
Ġ Ð®
ĠÐº Ð²Ð°
Ġ Ð¾ÑģÑĤ
ĠÐ½Ð° ÑĢÐ¾Ð´
Ñģ ÑĤÑĢÐ¾Ð
ÑĤÐ°Ñ ı
Ð±ÐµÐ ½
Ġ ÑģÐ»Ð°
Ð»Ð°Ð ¹
¸ Ð»Ð°ÑģÑĮ
Ð¸Ð½Ð° Ð
ĠÑģÑĤÐ¾Ð¸ Ñ
ĠÑģÑĤÐ¾Ð¸Ñ Ĥ
Ð¾Ð±Ðµ Ð
ĠÐļ Ð¾Ð³Ð´Ð°
Ġ Ð½Ñĥ
Ð²Ð¸Ñ ı
ÑĤÐµ Ð»ÐµÐ¹
ĠÐ¶Ð ¸Ð²
ÑĤÐ° Ñħ
ĠÐ°Ð ¿
Ñ ĤÐ²Ñĥ
Ġ ÑģÑĩÐ°ÑģÑĤ
ĠÑģÐ ¾ÑĤ
ÑīÐ° Ñ
Ð°Ðµ ÑĪÑĮ
Ñģ Ð¼
Ð±Ð ¾Ð²
Ĥ ÐµÑģÑĮ
ÐĿ Ðĺ
Ð¡ Ð¢
Ð¸Ð»Ð¸ Ñģ
ĠÐĺÐ ·
¾ÑģÑĤÑ Į
ĠÐ¿Ð¾Ð´Ð ½
¶Ð´ Ð°
ĠÐ²Ðµ Ð»Ð¸
Ġ ÑĤÐ¾Ð»
Ð°Ð½Ñ ĭ
ĠÑģÐ´Ðµ Ð»Ð°
ĠÐ¼Ð¾Ð³ ÑĥÑĤ
ÑĢÐ ºÐ°
ĠÑıÐ ²Ð»Ñı
Ð´ÑĨÐ° Ñ
Ð´ÑĨÐ°Ñ Ĥ
Ñģ ÑĤÑĢÐµ
Ð ²Ð½Ðµ
Ñ ĢÑİ
a m
Ð¿ Ð»Ð°ÑĤ
ĠÐĿ ÐµÑĤ
ĠÑĥÐ »Ð¸
ĠÐ±Ð ¾
Ð´ ÑĢÑĥÐ³
Ñ ĭÑĪ
ÐµÐ½ÑĤ Ñ
ÑİÑī Ð¸Ð¹
Ġ t
ĠÐĽ Ñİ
ÑĩÐ ½ÑĭÐ¹
Ð¸Ð»Ð¸Ñģ Ñ
Ġ ÑĤÐ¾ÑĢÐ
ÑĥÐ ·
ÑĢÑĥÐ µ
1 9
Ð¾Ð¿ Ð°
Ð ½Ð¾Ð³
Ġ Ð½Ð¸Ð
Ð°Ð»ÑĮÐ ½Ð¾
Ð¾Ð½Ð° Ð»ÑĮÐ
ÑĪÐ ¸Ð»
² ÐµÐ
ĠÐ° ÐºÑĤ
Ġ ÑĪÐ¸
Ġ Ð³Ð¾Ñģ
Ð ³Ðµ
» Ð¾ÑĤ
ĠÐ²Ð µÑģÑĮ
Ñģ ÑĩÐ¸ÑĤÐ°
ĠÑĥÑģ Ð
e t
Ð ¸ÑĤÐµÐ»ÑĮÐ
ĠÑħ Ð
Ñģ ÑĤÑĢÑĥÐ
Ñģ ÑĥÐ¼
w w
Ð»Ð°Ð »
Ñģ Ð¾Ð³Ð»Ð°
¸Ñģ ÑĤÐµ
ÑĩÐ ½Ð¾Ð¹
ĠÐ´ÐµÐ½ ÑĮÐ
ĠÑĥÐ ³
ĠÐ¿Ð¾Ð ¶Ð°Ð»
Ġ Ð¿Ñ
Ð ¸Ð´
ĠÐ´Ð¾Ð º
Ð¿Ð¾Ð¼ Ð
» Ð¾Ð¶Ð
ĠÐ·Ð´Ð ¾ÑĢÐ¾Ð²
ĠÐ·Ð½Ð° Ð
ĠÑĥÐ ¶
ÑģÐ¸ÑĤ Ñ
ÐµÐ½Ð¸ Ñİ
½Ð¸Ðº Ð¾Ð²
Ġ A
ĠÑģÐ»Ð¾Ð² Ð°
ÑģÐ¸ÑĤÑ Į
ĠÐ·Ð°Ð ½
ĠÐ¾ÑĤ Ð²Ðµ
Ð´Ðµ Ð»Ð°
Ð¸Ð»Ð¸ÑģÑ Į
Ð¸Ð ²Ð°
ÑĢÐ¾Ð¼ Ðµ
ĠÑĨ ÐµÐ»
ÑĢÐ¸Ñģ Ñ
ÑĪÐµ Ð¼
Ð ±Ð°Ð½
ÑĨÐ ²ÐµÑĤ
Ġ I
ÑĪ ÐºÑĥ
ĠÐ´Ð¾Ð» Ð¶ÐµÐ½
ĠÐºÐ¾ÑĤÐ¾ ÑĢÑĭÑħ
ĠÐľ Ð½Ðµ
Ðµ Ðº
Ð´ ÑĢÐ°Ð
Ñģ ÑĤÑĢÐ
Ð·Ð° Ð´
³ ÑĥÐ
Ŀ ¤
Ġ ÑģÑĥÐ¼
Ġ Ð²Ð½Ðµ
Ðł Ðŀ
Ġ C
ÑĢÐµÐ½ Ñ
Ñħ Ð²Ð°ÑĤ
ÑĦ Ð¾Ð½
Ð° Ð½Ð°
Ð°Ð» Ð¾ÑģÑĮ
ÑĢÐ°Ð½Ð ¸
½Ð¾Ð² Ð
ĠÐ½Ð°Ð ·
c h
»Ð ¸Ð
²ÐµÑĢ Ñħ
Ġ ÑģÐ¾Ð³Ð»Ð°
Ġ p
½Ð¸Ðº Ð
Ġ ÑģÑĤÐµ
ĠÐ¾Ð± ÑĢÐ°ÑĤ
ÑĩÐµÑģ ÑĤÐ²Ð¾
Ġ Ð½Ð¾Ð³
ĠÐº ÑĥÐ´Ð°
ĠÐ½Ð° ÑĩÐ°
ÑĥÐ»Ñ ı
Ð´ÐµÐ½ Ð
Ĥ Ð²Ð¸Ðµ
ĠÐ½Ð°Ð ·ÑĭÐ
ÑĤÐ° Ð¼
ĠÐºÐ¾ÑĤÐ¾ÑĢÐ ¾Ð¹
Ð²Ð¸Ñ Ĥ
» Ð¾Ð½
½Ð¸ÐºÐ ¸
Ð·Ð°Ð» Ð¾ÑģÑĮ
ÑĢÑĥÐ ´
Ð´ÐµÑĢÐ ¶Ð
ĠÑĤÐµ Ð¼Ð
²Ð¾Ð µ
ĠÐ¿ÑĢÐ¾Ð µ
Ġ M
ÑĢÐ ½Ð¾
ĠÐº Ð»Ð°Ñģ
ĠÐĴ Ðµ
ÑĪÐ¸ Ñ
Ġ P
ĠÑĢÐ°Ð ¹
ÑĢÐ°Ð½ Ñ
ÑĢÐµÑģ Ñ
ĠÐ¡ Ð
Ġ ÑģÑĩÐ¸ÑĤÐ°
ÑĳÐ ½
»Ð°ÑģÑ Ĥ
ĠÐ¾Ð¿ ÑĢÐµ
ÑĪÐ ¾Ð¹
¸ ÑĤÐ°
ÐµÐ½ Ð¸Ð¸
ĠÑģÐ¾Ð ·Ð´
Ðļ Ð°Ðº
ĠÐ²Ð ½ÑĥÑĤ
Ð¿ Ð¾ÑĢ
Ð¾Ð½Ð ¸
ĠÐ¿Ð¾Ð¼Ð¾ Ñī
ĠÐŁ Ð°
ĠÐŁ Ð¾ÑĤ
ĠÐ¾ÑĤ Ð
Ð½ÑĥÐ »Ð°
ĠÑģÐ°Ð¼Ð ¾Ð¼
ĠÑģÐ »Ð¸
Ð´Ðµ Ð»Ð¸
Ð´ÐµÐ½Ð ¸
ÑĦ Ð
ĠÑįÑĤ Ð¸Ð¼
ĠÐ¿ÑĢÐ¾Ð ¸Ñģ
ĠÐ¾Ð ±Ñı
ĠÐ½Ðµ Ð¼
ĠÐºÐ°Ð¶Ð´ ÑĭÐ¹
ĠÐ¼Ð°Ð» ÐµÐ½ÑĮ
ĠÐº ÑĢÑĥÐ
ĠÐĿ Ð¸Ðº
ÑĢÐ¾Ð µ
ĠÐķ Ð
Ð ²Ð¾Ð¼
ĠÐ½Ðµ ÐºÐ¾ÑĤ
ĠÐ½Ð° Ð·Ð°Ð´
ĠÐ´ÑĢÑĥÐ³ Ð¾Ð¹
Ð »ÑĥÐ±Ð
ÑĢÐ¾Ð ±Ð
ĠÑĦ Ð°Ðº
ĠÑĥÑģ Ð¿Ðµ
ĠÐ¿Ð ¾ÑĢÐ
ĠÐ¿Ð¾Ð´ Ð°
ĠÑħÐ¾ ÑĩÑĥ
ÑıÑĤ Ñģ
ĠÐ·Ð° Ð¼Ðµ
ĠÑĢÑĥÐ ±Ð
ĠÐ²Ð ½Ð¸Ð¼
Ĥ Ð¸Ðº
ÑĥÐ»Ñ ĮÑ
»Ð ¸Ð½
ÑĥÐ´Ð° ÑĢÑģ
Ð¾Ðº Ð¾Ð¹
ÑīÐµ Ðµ
i l
ĠÑįÑĤ Ð¸Ñħ
ĠÐ¿Ð¾Ð¼ Ð
ĠÐ½Ð¸Ðº ÑĤÐ¾
Ġ ÑĢÐ¾Ñģ
ĠÐł Ð°Ð·
ĠÐ¿ÑĢÐ¾Ð² Ðµ
Ð ²Ð¾Ñģ
ÑıÑĤÑģ Ñ
ĠÑģÐ»ÑĥÑĩÐ° Ðµ
ĠÐ½Ð° Ð´Ðµ
ĠÐŁ Ðµ
Ñĥ ÑĢÐ
ĠÑĢÐµÐ· ÑĥÐ»ÑĮ
ĠÑħ Ð°
ðŁ Į
r o
ĠÑĩÐµ Ñ
ĠÑģÐ²Ñ ıÐ
ĠÑħÐ¾ÑĤÑ Į
Ð»Ðµ ÐºÑĤ
ĠÐ´ÑĢÑĥÐ³ Ð¸Ñħ
ĠÐ¿ÑĢÐ°Ð ²Ð¸
ÑģÐ ¸Ð¹
Ð¾Ð³ ÑĢÐ°ÑĦ
ĠÐ¸Ð½ ÑĦÐ¾ÑĢÐ¼Ð°
Ð°Ñģ Ñ
Ġâ ľ
ÑħÐ° Ñ
ĠÐ±Ð µÑģ
Ð ±Ñĥ
ĠÐ¼Ð½ Ð¾Ð³Ð
ĠÐĿ Ð¾Ð²
ÑİÑī Ð¸Ðµ
ÐµÑĢÐ ¼
ĠÑĢÑı Ð´Ð¾Ð¼
» Ð¾Ðº
a s
Ð³Ð¾Ð´ Ð°
ÑıÐ »ÑģÑı
Ð ²Ð¾Ð½
ÐµÐ½ Ð¸Ð¹
Ð ·Ð´
ĠÐĶÐ »
ĠÐĶÐ» Ñ
ĠÐĶÐ»Ñ ı
ÑģÐµ Ñ
ÑıÑĤ ÑĮÑģÑı
ÑģÐ»Ðµ Ð
Ð¾ ÑĢÐµ
ĠÐ¾Ð±Ð »Ð°ÑģÑĤ
ĠÑģÐ¾Ð ±Ð¸
Ð°Ð»ÑĮ ÑĪÐµ
ĠÐ¾Ð´Ð ½Ð¾Ð¹
ÑĩÐ ½ÑĭÐµ
ĠÐ¼Ð° ÑĤÐµÑĢÐ¸
ÑıÑĤ Ð½Ð¾
1 0
ĠÐ±ÑĥÐ´ Ñĥ
Ð¾Ñ ĢÑĥÐ
ÑĪÐ¸Ñ Ĥ
¶Ð°ÑĤ Ñ
¸ Ð´Ðµ
ĠÑĥÐ»ÑĭÐ ±Ð
ÑĥÑĤ Ð
Ġ Ð±Ð°Ð
¾Ð»Ñ Į
i s
¶Ð°ÑĤÑ Į
ÑĢÐ¾Ð²Ð° Ñ
ĠÐ²Ð¾Ð µ
ĠÐ½Ðµ Ð¼Ð½Ð¾Ð³Ð¾
ĠÐ¿ÑĢÐ¸ Ð·Ð½Ð°
ÑĢÐ¸ÑģÑ Ĥ
ĠÐ¿Ð¾Ð´ ÑĥÐ¼
ÑĪÐ ½Ð¾
¸ Ð»Ð¾
ĠÐ¿Ð¾Ð µ
Ġ Ð±Ð°Ð½
ÐĿ Ðŀ
ĠÐ´Ðµ ÑĤÐµÐ¹
Ġ ÑģÑĭÐ
Ġ B
ĠÐµ Ð´Ð¸Ð½
ĠÐ¼Ð°Ñ Ĥ
ĠÑĤÐ¾ ÑĩÐ½Ð¾
ĠÐ±ÑĭÑģ ÑĤÑĢÐ¾
ĠÐ´ÐµÐ½ÑĮÐ ³
Ġ Ð²Ð¾Ñģ
º Ðµ
ĠÐ´ÐµÐ½ÑĮÐ³ Ð
ĠÐ´ÐµÐ½ÑĮÐ³Ð ¸
ĠÑģÐ²Ð¾Ð ¸Ð¼
ÑīÐ¸ Ñ
ĠÑģÐºÐ° Ð·Ð°Ð»Ð°
ı Ð»Ð°
ÑīÐ¸Ñ Ĥ
ĠÑĢÐµ Ð±ÐµÐ½
ÑĢÐ° Ñī
ÑĢÐ¾Ð´ Ðµ
Ð´ÐµÐ½Ð¸ Ñ
ĠÐ¿Ð¾Ð¼ Ð¾Ð³
ĠÐ¾ ÑĩÐµ
Ð¾Ð´ Ñĥ
ĠÐ²Ñĭ ÑģÐ¾Ðº
ĠÐ´Ð½ Ñ
ĠÑĦÐ¾ÑĤ Ð¾
Ĥ Ð²Ð¾Ð¼
Ð´ÐµÐ» Ñ
ĠÐ´Ð ²Ñĥ
ĩ ÑĥÑĤÑĮ
ÑģÐ¸Ñ ı
ĠÑģÐ¼Ð ¾Ð³
Ġ N
ĠÐ¼Ð° ÑĪÐ¸Ð½
¶Ð¸Ñ Ĥ
Ð´ Ð°Ð»
Ð¾ ÑĢÐ°
Ð¾ÑĢÐ ¾Ð
ÑĢÑĥÑ Ĥ
ĠÐ¿ÑĢÐ ¾ÑĦ
Ñ ĩÑĥÑĤÑĮ
Ñģ Ð¼Ñĭ
ĠÑģÐ ¸ÑģÑĤÐµ
Ġ +
ĠÐ´Ð¾Ð ¿
ĠÑĤÐµ Ñ
o l
Ðĺ Ð
½Ðµ Ð¼
ĠðŁ ĳ
Ðł ÐĲ
Ð° Ð°
ĠÐºÐ° Ð
ĠðŁ Ĵ
Ġ ÐµÐ
ĠÐ¿Ð¾Ð² Ðµ
ĠÐ·Ð½Ð° ÐºÐ¾Ð¼
ĠÑĢÐ°Ñģ Ñģ
Ñ ĤÐµÑģÑĮ
Ð¾Ð» Ð¾Ð³Ð
Ñĳ Ð¼
ĠÐ´Ð½Ñ ı
ĠÐºÐ²Ð° ÑĢÑĤÐ¸
ÑĢÐ°Ð »ÑĮÐ
» ÑıÐ
Ġ ÑģÐ¼
ÑĪ ÑĥÑİ
º Ð¾Ð²
ÑĤÐ° ÑĤÐ¾
Ðº Ð»Ð°
Ġ s
ĠÐ²ÑĭÐ ³
ĠÐ½Ð°Ñģ ÑĤÐ¾Ñı
²Ð°Ð» Ñģ
²Ð°Ð»Ñģ Ñ
²Ð°Ð»ÑģÑ ı
ĠÐ¼Ð¾Ð¼ ÐµÐ½ÑĤ
Ġ ÑĪÐµ
Ģ ÑĢÐ¸
h e
Ġ ÑģÑĤÑĢÐ°Ð
Ð»Ð°Ð ·
ĠÑħÐ¾ ÑĩÐµ
ÐŃ ÑĤÐ¾
Ġ Ð¿Ð¾ÑĢ
ĠÐ´Ð²Ñĥ Ñħ
ÐµÐ½ Ð½Ð¾
ÑĢÑı Ð´
ÐµÑģÑĤÐ ¸
ĠÐ¼Ð µÑģÑĤ
ĠÑģÐ ½
Ġ \"
³ ÑĢÐ°Ð
½ Ð¸ÑĨÐ°
² Ð¾Ð´Ð¸
ĠÐ´Ð¾Ð»Ð¶Ð ½
ÑĥÑ ĤÐµ
ÐĿ Ð¾
Ð»Ð¸Ñ Ĥ
ĠÑıÐ ·ÑĭÐ
ÑĪ ÑĮÑģÑı
Ġ Ð²Ð¸Ð
ĠÑģÑĤÐ¾ÑĢÐ¾Ð½ Ñ
i d
ĠÑģÑĤÐ¾ÑĢÐ¾Ð½Ñ ĭ
ĠÐ´ Ñ
ÑģÐº Ð
Ġ T
Ð´ÐµÐ½Ð¸Ñ ı
²ÑĭÐ ¼
Ġ Ð¿Ð»Ð°ÑĤ
ĠÐ³Ð¾Ð»Ð¾Ð² Ñĥ
ĠÐ¾ÑĤ ÐºÑĢÑĭÐ
ÐĶ Ð°
ĠÑģÐ²Ð¾Ð ±Ð¾Ð´
Ð¶Ðµ ÑĤÑģÑı
ĠÐ´Ð¾Ð»Ð¶Ð½ Ñ
ĠÐ´Ð¾Ð»Ð¶Ð½Ñ ĭ
ÑģÑĤÐ° Ñ
ÑħÐ ½
ĠÑĥÐ ·Ð½Ð°
Ð¸ÑĢÐ¾Ð² Ð°
»Ð ¸Ðº
Ð¢ Ðŀ
Ð±Ð¾Ð» Ñ
ÑĢÐ°Ð±Ð ¾
ĠÐ·Ð° Ð¿Ð°
ı Ð»Ð¸
ĠÑĩÐµÑ Ĥ
± ÑĢÐ°
Ð¾ÑģÑĤÐµÐ ¹
Ġ ÑĤÐ¾Ð¼Ñĥ
ĠÐ¸Ð· Ð²ÐµÑģÑĤ
Ġ d
Ñ ĤÐ¾ÑĢ
ĠÐ±ÐµÐ »
ĠÑĤÐ°Ðº Ð¸Ñħ
ÐºÐ°ÑĤ Ñ
Ð° Ð´
Ġ ÑĪÑ
ÑĥÐ ¶Ðµ
ĠÐ¢ Ðµ
ÑĨÐ µÑģ
ĠÑģÐ»Ð¸ ÑĪÐºÐ¾Ð¼
ÑĢÐµÑģÑ Ĥ
ĠÐľ Ð¾ÑģÐº
ĠÑĦ Ð
Ð½Ðµ Ð¼
ÑĢÐµÐ½Ð ¸
Ðº Ð¸Ð¼
Ð¿Ð¾Ð¼Ð ½
- -
ĠÐ¿Ð¾Ð·Ð ²
ĠÐ¿Ð¾ ÑįÑĤÐ¾Ð¼Ñĥ
ĠÐ½Ð° Ð±Ð
·Ñ ĮÑı
²Ðµ ÑĢÐ
ĠÑĢÐµÐ ³
ÑĥÑ Ģ
³ Ð»ÑĥÐ±Ð
ĠÐ¾Ð´Ð ½Ð¾Ð³Ð¾
ÑĢÐ¾Ð²Ð°Ñ Ĥ
Ġ2 00
ÐĿ Ñĥ
Ð°Ð½ Ð¾
ÑĨ Ñĥ
¾Ð ±Ð
ÑıÑĤÑģÑ ı
ĠÐ½Ð° ÑĩÐ¸Ð½Ð°
ÑĤÐ°Ð ½Ð¾Ð²
ÑĥÐ »Ð°
ĠÐ¾Ñģ Ð¾Ð±ÐµÐ
Ġ ÑĪÐ°
ÑıÑ ı
ÑĨ ÐµÐ½
ĠÐ½Ð° ÑĩÐ°Ð»
Ġ Ð²Ð¸Ð½
ĠÑģÐ¸ ÑĤÑĥÐ°
? !
Ġ1 2
Ĥ ÑĥÐ´Ð°
ĳ Ð
ÑĭÐ »
Ñ ĤÑĥÐ´Ð°
ĠÐ½Ðµ Ð´Ð
Ñģ Ð½Ð°
ÑĳÐ »
Ð¿ Ð»Ð°Ð½
ĠÑģÐº Ð¾Ð»ÑĮÐºÐ¾
½ Ð¸Ð¼Ð¸
ÑģÐºÐ ¸
ĠÐ±ÑĥÐ´ ÑĤÐ¾
Ð¼ÐµÐ½Ñ Ĥ
Ġ ÑĨÐ²ÐµÑĤ
ĠÑĩÐµ ÑĢÐ
»ÑĮÐ ·Ñı
ĠÐ³Ð¾Ñģ ÑĥÐ´Ð°ÑĢÑģ
ĠÐºÐ¾ÑĤÐ¾ÑĢÐ ¾Ð³Ð¾
Ð»Ð°Ñ ı
Ð ³Ð»ÑĥÐ±Ð
¾Ñ ĤÐµ
ĠÐŀ Ð´Ð½Ð°
²Ð° ÑĤÑĮÑģÑı
Į ÑĤÐµ
l e
ĠÐ·Ð½Ð° ÑĩÐ¸ÑĤ
ĠÐ²Ñģ Ñİ
¾Ñ ıÑĤ
ĠÐ¼Ð° Ñģ
5 0
Ð¼Ð ¾Ð¹
ĠÐ¿Ð¾Ð´ Ð¾Ð±Ð
ÐºÐ°ÑĤÑ Į
ĠÑģÐ¾Ð²ÐµÑĢ ÑĪÐµÐ½
ĠÐ¿ÑĢÐ¸ Ð¼Ðµ
ÑĢÐ° Ñħ
ĠÐºÐ°Ðº Ð¸Ðµ
Ð¼Ð¾Ð ¶Ð½Ð¾
ĠÐŁÐ¾ ÑģÐ»Ðµ
Ġ Ð³Ð»ÑĥÐ±Ð
ĠÐ¿Ð¾ÑĤ Ðµ
ĠÐ´Ð µÑģÑıÑĤ
ĠÐ¢ Ð¾Ð»ÑĮÐºÐ¾
ÑĪÐ¸ ÑĤÐµ
² Ð»Ð°ÑģÑĤ
Ð ¸Ð´Ðµ
ĠÐ°Ð²Ñ ĤÐ¾Ð¼
ĠÐ²Ðµ ÑĩÐµ
ÑīÐµ Ð¼
Ð°Ðµ ÑĤÐµ
ĠÐ±Ð¾Ð» ÑĮÐ
ı ÐµÑĤ
ÑģÐ¸ Ð»Ð°
ĠÐ´ÐµÐ¹ÑģÑĤ Ð²Ð¸
ÑĦÐ ¸
ÑģÐ ¸Ð¼
Ð°Ð½ Ð¸Ð·
ÑģÐ» Ñĥ
ĠÐĶ Ðµ
ĠÑĥÐ ±Ðµ
ÑĩÐ° ÐµÑĤ
ĠÐ¸ÑģÐ¿Ð¾Ð»ÑĮÐ ·
ĠÐ³Ð»Ð° Ð²Ð
Ñģ ÑĤÐ²Ñĥ
Ð°Ð½Ð ³
Ð¿ Ð°Ð»ÑĮ
Ð±Ð¾Ð»Ñ Į
ÑĨ Ð¸Ð¹
Ð¸Ð½Ð ³
ðŁ ı
Ð¾Ð»ÑĮÐ ½Ð¾
² Ð´ÑĢÑĥÐ³
Ð ²Ð´ÑĢÑĥÐ³
ĠÐºÐ° ÑĩÐµÑģ
ĠÑĥÑģÐ »
ĠÑģÐ¾Ð² ÐµÑĤ
Ð¼Ð¸ Ñ
ÐºÐ°Ð ·
Ð½Ð°Ð »
Ð ²Ð»Ð°ÑģÑĤ
Ñģ ÑĤÐ¾
)) )
ĠÐ¼Ð ¾Ð´
Ð´ ÑĥÑĤ
½ÐµÐ ³Ð¾
ĠÐ¼ÐµÑ Ĥ
Ñİ Ð
»Ð° Ð
Ð¶Ð° Ñ
ÑĢÐ¾Ð²Ð ¸
Ñį Ñ
Ġ ÑģÐ½Ð°
ĠÑĢÑĥÐº Ñĥ
¸ Ð¿
Ð ³ÑĥÐ
Ð ½Ð¾ÑģÑĤÑĮ
ĠÐľÐ ¸
²Ð¾Ð ·
Ġ Ð²Ð´ÑĢÑĥÐ³
ÑģÐ ¸Ñħ
ĠÐ¶Ð ¸Ð
Ð¶ Ð°Ð»
Ð ±Ñ
² ÑĥÐµÑĤ
Ð¼Ð°Ñ Ĥ
ĠÑĤÐ° ÐºÐ°Ñı
Ġ Ð²Ð»Ð°ÑģÑĤ
Ð´ÐµÐ ½Ð¸Ðµ
ÐµÐ½ÑĤÑ ĭ
ĠÐ¾Ð³ ÑĢÐ¾Ð¼
ÑĩÐµÐ ¹
ĠÐ¿Ð¾Ð» ÑĮÐ
ĠÐ¼ÐµÑģ ÑĤÐµ
Ð°Ð½ Ð½ÑĭÐ¹
ÑĢÑĤ Ñ
ĠÐ·Ð° Ð²Ñ
ÐµÐ ²Ð°
ĠÐºÐ¾Ð½ ÑĨÐµ
r a
Ġ Ð¿Ð°Ð»ÑĮ
Ð ²ÐµÐ·
ĠÐ½Ð° Ð²ÐµÑĢÐ
Ð°ÑģÑ Ĥ
ĠÑĢÑĥÐ±Ð »ÐµÐ¹
Ġ ÑģÑİ
ĠÐ³Ð¾Ð²Ð¾ ÑĢÐ¸ÑĤ
Ðº Ð¾Ð»ÑĮ
Ġ ÑģÐ¼Ñĭ
ĠÐ½ÐµÐ¾Ð± ÑħÐ¾Ð´Ð¸
Ð¼Ðµ ÑĢÐ¸
Ð ¸Ð½Ðµ
Ð´Ð¸ÑĤ Ñ
ÑıÐ ³
Ġ ÑģÐ¾Ð»
½ÑĥÐ »Ð°ÑģÑĮ
ĠÑĥÐ ºÐ°
Ðļ ÐĲ
ÑģÐ »Ð¾
¶Ð ¸Ð²
ĠÐĶ Ð¶Ð
¶Ð ½
ĠÐºÐ¾ÑĤÐ¾ÑĢÐ ¾Ð¼
ĠðŁ ¤
ÑĢÑģ Ñ
ĠÐ¾Ð±ÑĬ ÑıÑģÐ½
¸Ð·Ð½ ÐµÑģ
ÑĥÐ »Ð¸
Ñ ıÐ»Ð°
Ġ !
Ĥ Ð¾Ðº
ĠÐ¾Ð±Ñī ÐµÑģÑĤ
ĠÐ¶Ð¸Ð² Ð¾ÑĤ
Ð´ Ð°Ð²
ĠÐ¼Ð¸ Ñ
Ñħ Ðµ
ĠÐ¢ Ð°
ĠÐ²Ð¾Ðµ Ð
²Ñ ĭ
ĠÑģÐ¿ÑĢÐ¾ ÑģÐ¸Ð»
ÑĢÐ°Ð »Ð¸
1 8
Ð¾Ð´Ð¸ÑĤ Ñ
Ð¾Ð´Ð¸ÑĤÑ Į
ĠÐ¿ÑĢÐ°Ð º
Ġ ÑĩÑĥÑĤÑĮ
ĠÐ»ÑİÐ±Ð ¾Ð²
ĠÐ¿Ð¾Ð»Ñĥ ÑĩÐ¸
Ð »Ð¾Ð½
Ġ Ð³ÑĥÐ
ĠÐ´Ðµ Ð²Ð¾
Ð¿Ð° ÑģÐ¸Ð±Ð¾
ÑĩÐ ½ÑĭÑħ
Ð´Ð ¾Ð½
Ġ ?
ÑĩÐµ Ðº
ĠÑĩÐ°ÑģÑĤ Ñ
Ġ ÑģÑĤÑĢÐ¾Ð
ÐµÐ ¿ÐµÑĢÑĮ
ĠÐķ Ð³Ð¾
ĠÐŁ Ðŀ
Ð¿ ÑĥÑģ
ÑĥÐ ºÐ°
ðŁ Ļ
ÑģÐº Ð¾Ðµ
Ðº Ð¾Ðµ
ĠÑĥÑģ Ð»Ð¾Ð²
ĠÐ²Ð¾Ð· Ð´Ñĥ
ĠÐĳ Ð¾Ð³
ÑĩÐ ½Ð¾Ð³Ð¾
Ġ Ð¾Ð³Ð
ÑĢÐ ½Ðµ
ðŁĳ į
ĠÐ»Ð¸ÑĨ Ð¾
ĠÑģÐ»Ð¾Ð² Ð½Ð¾
Ĥ ÑĢÐµÐ»
½Ð¸Ð ·
Ð´ Ð°Ð
± ÑĢÐ°ÑĤ
ĠÐļÐ ¸
Ñ ĤÑĢÐµÐ»
ÑĢÐµÐ ²
Ð°Ð½Ð¸Ðµ Ð¼
ĠÐ¾ÑĤÐº ÑĢÑĭÑĤ
ÑģÐº Ð¸Ð¼
ÑģÑĤÐ°Ñ Ĥ
ĠÐ¼Ð ½Ð¾Ð¹
Ð ¸Ð¿
Ð¾Ð ¶Ð´
Ð±Ð ¾ÑĢÐ
Ð ±ÑĢÐ¾
Ð¾Ð¼Ð ½
½ Ð¾Ð
ÑĢÐ¸ ÑĤÐµ
ĠÐ¿ÐµÑĢÐ ²ÑĭÐ¹
ÑĤÐµÐ»ÑĮÑģÑ ĤÐ²Ð°
Ġ Ð¿Ð»Ð°Ð½
Ð²Ñ ıÑĤ
ĠÐ¾Ð½ Ð¾
â Ŀ¤
ÑĢÐ°Ð±Ð ¾ÑĤ
ÑĩÐ° ÐµÑĤÑģÑı
Ñ ĮÑĪÐµ
Ð´ Ð°Ð½
ÑĤÐ° Ð»Ð¸
ĠÑĢÐ°Ð±Ð¾ÑĤ Ñĥ
ĠÑĩÐ°ÑģÑĤÑ Į
ÑĨ Ð¾Ð²
ĠÑĢÐ°Ð ²Ð½Ð¾
ĠÑģÑĤÐ¾ÑĢÐ¾Ð½ Ñĥ
ĠÑģÐ° Ð¼Ð°
ĠÑģÐ° Ð¼Ð¸
o t
ĠÐ´Ð°Ð² Ð½Ð¾
Ġ Ð½Ð¾Ð¼
ĠÐ¾ Ñī
ÑĥÐ ½Ð°
²Ð° Ð»Ð°
ÑĢÐµÐ½Ð¸ Ñ
ĠÐ·Ð½Ð° Ñ
ĠÐ¼Ðµ Ð´Ð
Ġ Ð°Ð»
³ ÑĢÐ¾Ð¼
¸Ð½ Ñ
Ð ¸Ð»Ð°ÑģÑĮ
ĠÐ° Ñ
ĠÐ´ÑĢÑĥÐ³ Ð¸Ðµ
ĠÐ´ Ð°Ð»ÑĮÑĪÐµ
ĠÐ¾ÑĤ Ð¿ÑĢÐ°Ð
1 2
ÑĥÐ¹ ÑģÑĤÐ°
Ð´Ð¾ Ñħ
e Ð
Ð¸Ð ½Ð¾
ĠÐ¿ÑĢÐ¾Ð ¸Ð·Ð
ÐĹ Ð°
ĠÑĦ Ð¸Ð»ÑĮ
Ð»Ðµ Ð¼
Ġ3 0
ĠÐ´ Ð°Ð
ÑĢÑ ĤÐµ
Ð´ÐµÐ »ÑĮÐ
Ðµ Ñħ
Ð ²Ð¾ÑĢÐ
ÑģÐ ¸Ð»Ð¸
ÑģÑĤÐ°Ð ²
ÑĢÐµÐ· Ð
ĠÐ³Ð¾ÑĢÐ¾Ð´ Ð°
Ġ Ð±ÑĢÐ¾
Ġ Ð³Ðµ
Ð°Ð½Ð¸ Ñİ
ÑĢÐµ Ðº
ĠÑĥ ÑĩÐ¸
Ð»ÐµÐ½ Ñ
ĠÐºÑĢÐ°ÑģÐ ¸Ð
Ð¼ÐµÐ½ ÑĤÐ°
¾ÑģÑ ĭ
ĠÑģÐ¾Ð± ÑģÑĤÐ²ÐµÐ½Ð
Ġ ÑĤÐ¾Ð½
Ðķ ÐĿ
ÑĤÐ°ÑĤÐ¾ ÑĩÐ½Ð¾
Ð²Ñ ĭÑħ
¶Ð´ Ðµ
ĠÐĳ Ð°
ĠÐļ ÑĤÐ¾
ĠÐ¾ÑģÑĤÐ°Ð »ÑĮÐ
Ð´Ð¸ÑĤÑ Į
Ð¢ Ð°Ðº
ÑĥÐµ ÑĤÑģÑı
Ĥ Ð¾Ð²Ð°
ĠÑĤÐ°Ðº Ð¾Ð³Ð¾
ĠÐĽ Ð
ĠÐ½Ð° Ñĥ
Ð¾Ð» Ð¾ÑĤ
ÑĪÐ ¸Ð²
ĠÑıÐ²Ð»Ñı ÐµÑĤÑģÑı
ÑģÐµÐ »
ÑĢÐ¸Ð ·
Ĥ Ðº
ĠÐºÐ° Ð¶ÐµÑĤÑģÑı
ĠÐ¿ÑĢÐµÐº ÑĢÐ°ÑģÐ
ÑĥÑĤÐ ¸
ĠÐ¢ Ð¾
ĠÐ¿ÑĢÑı Ð¼Ð¾
Ð´ÐµÐ½ Ñ
¸Ð» Ñ
ÑĤÑĢÐ¾Ð µ
ĠÐ¾Ð´ Ð½Ð¾
ĠÐº Ð¾Ð
ĠÑģÑĤÐ° Ð»Ð¾
ÑĢÐµÐ½Ð¸Ñ ı
Ð ·Ðµ
Ð¾Ð½Ñ ĭ
±Ñĭ Ñ
Ġ Ð¸Ð´Ðµ
Ñģ ÑĢÐ°Ð
ÑıÑĤÐ¸ Ñ
ÐµÐ½ÑĤ Ð¾Ð²
Ð²Ñ ıÐ
Ðµ ÑĤÐ°
Ġ D
² Ð»Ð°
ĠÐł Ðµ
½ÑĥÐ »Ð°
Ñģ ÑĤÐµÐ
ÐĴ ÐĲ
ĠÐ¼Ð ¾Ñı
²Ð ¸Ð»Ð¸
ĠÐ¼Ð¾Ðµ Ð
ĠÐŁ Ð¾Ð»
ĠÐ¼Ð¾ÐµÐ ¹
ĠÐ²Ðº ÑĥÑģ
ĠÐ½ÐµÐ »ÑĮÐ·Ñı
Ġ m
ĠÐ¶Ð¸ Ñ
Ð¿ ÑıÑĤÑĮ
Ð°Ð ³Ð°
ĠÐº Ð¾Ð»Ð¸
ĠÐ²ÑĭÐ³ Ð
Ð½Ðµ ÑĢÐ³
Ð° Ð´Ð
ĠÑģÐ¿ Ð¾ÐºÐ¾Ð¹
ĠÐ¡ Ðµ
ĠÐ¿ÑĢÐ°Ð ²Ð¸Ð
Ð»ÐµÐ ³
Ð¿ ÑģÐ¸Ñħ
ĠÐ²Ð¾Ð º
ĠÐ±Ð»Ð ¸Ð·
ĠÐº Ð»Ð¸
ĠÐ·Ð° Ð±ÑĭÐ
3 0
Ð½Ð°ÑĤ Ñ
±Ñ ĢÑĭÐ
ĠÑĤÐµÐ ¿
Ð¾Ð¶Ð¸ Ñ
ĠÑĤÐ°Ðº Ð¸Ð¼
Ð¸Ð½ Ð¾Ð¹
ĠÐ·Ð° Ð±Ð
ĩ ÑĥÐ´
²Ð°Ð» Ð¸ÑģÑĮ
Ð°Ð ±Ð
1 5
ĠÐ½Ð° ÑħÐ¾Ð´
Ð¸Ðº Ð¾Ð²
± ÑĥÐº
ĠÐ¿Ð¾Ðº ÑĥÐ¿
ĠÐ²ÑĭÐ¿ Ð¾Ð»Ð½
ÑĢÐ¸ Ñİ
ĠÐ¼Ð°Ð³ Ð°Ð·
ÐµÐ½Ð¸Ðµ Ð¼
Ġ ÑģÑĥ
ı Ðº
ÑĢÐ° Ð¼Ð¸
ðŁ İ
Ñģ Ð¾Ð´
Ð° ÑİÑĤ
Ġ ÑģÑĢÐ°Ð
Ð´ÑĨÐ°ÑĤ Ñ
ĠÐĽÐ ¸
Ð´ÑĨÐ°ÑĤÑ Į
ĠÐ¾Ð ¶Ð¸
e d
Ñ ĤÐ¾Ð²Ð°
ÐµÑĤÑ Į
ĠÐ´Ðµ Ð»Ðµ
ĠÑĪÐº Ð¾Ð»
ĠÐ¾Ð±Ð ¼
ÑĢÐ¸ Ð¼
ĠÐ½Ð° Ð¿ÑĢÐ°Ð²
Ð¾Ð½ Ð¾Ð²
ĠÑĤÐµÐ»Ðµ ÑĦÐ¾Ð½
Ð ¸ÑĤÐ°
ĠÐ¿Ð¾ÑģÑĤ ÑĥÐ¿
ĠÐ¾Ð±ÑĢÐ°Ð· Ð¾Ð¼
Ġ Ð¸Ñİ
ÑĤÐµ ÑĢÐµ
ÑĤÐ° Ð»Ð°
Ð´Ð¸ ÑĤÐµ
²Ð»Ñı ÐµÑĤ
ÑĢÐ°Ñ ĤÑĮÑģÑı
±ÑĭÑ Ĥ
Ð¶Ð°Ñ Ĥ
ĠÐ´ÑĥÐ¼ Ð°Ñİ
ĠÐ±Ð»Ð° Ð³Ð¾Ð´Ð°
ÐºÑģ Ð°Ð½
Ð·Ð° Ð»Ð¸
ÑĥÑģÑĤ Ñ
ĠÐ¿ÑĢÐ°Ð ·Ð´Ð
ĠÐľÐ¾Ð ¶ÐµÑĤ
ĠÐĳ Ðµ
Ñ ĤÐ¾Ðº
ĠÑĩÐµ Ñģ
ÑĩÐ¸Ð» Ð¾ÑģÑĮ
ĠÐ° ÑĢÐ¼
ĠÐĺ Ð»Ð¸
Ð¸ÑĢÐ¾Ð²Ð° Ñ
Ñ ĩÑĥÐ´
ĠÐ·Ð½Ð° ÐµÑĤ
ÑĤÐ°Ðº Ð
a c
Ġ ÑģÐ¾Ð´
Ð°Ð³ Ð
ÑĢÐ°ÑĤ Ñĥ
Ñ ıÐ»Ð¸
Ð ½Ð¸Ð¼Ð¸
ĠÑħ Ð¾Ð´
Ñ ĤÐ¸Ðº
ĠÐ¾Ð¿ Ð°
Ñħ Ð¾ÑĤ
Ð¼ÐµÐ »
ÑħÐ°Ñ Ĥ
Ð¸ÑĢÐ¾Ð²Ð°Ñ Ĥ
ĠÐ¼Ð¸Ñ Ģ
ðŁĺ Ĥ
ĠÐ¼ÑĥÐ ·ÑĭÐ
Ð¸ÑĢÐ¾Ð²Ð°ÑĤ Ñ
Ð¸ÑĢÐ¾Ð²Ð°ÑĤÑ Į
ĠÐ¶ Ð°Ð»
Ġ o
ÐµÐ½ ÑĤÐ°
ĠÐ¿Ð° Ð¼
ĠÐºÐ¾ÑĤÐ¾ ÑĢÑĥÑİ
Ð°Ð½Ð¸ Ð·Ð°
ĠÐ¶Ð¸Ñ Ĥ
ĠÐ·Ð° ÑıÐ²
Ġ1 6
² Ð¾ÑĢ
Ð¾ ÑģÐ¿
ĠÐ»ÑİÐ±Ð ¸
ĠÐŃ Ð
ÑĪÐµ Ðº
ĠÐ½Ð° ÑĪÐµÐ¹
Ġ )
ĠÑģÐµ Ð¼
Ġ 0
Ġ1 00
ĠÐ¼Ð¾Ð ¸
² ÑĢÐ¾Ð´Ðµ
Ñ ĤÐº
ÑıÑĤÐ¸Ñ ı
ĠÑĩÐµÑģ Ñ
ĠÑĩÐµÑģÑ Ĥ
Ñ ıÐ¼
ĠÐ½Ð°Ð ¹ÑĤÐ¸
Ð ²ÑĢÐ¾Ð´Ðµ
Ð»Ð »
Ð°Ð½ Ð½ÑĭÐµ
Ġ ÑĤÑĢÐ
Ĥ ÑĥÐ´
ÑĥÐ° Ð»ÑĮÐ
½ Ð¾Ñģ
ĠÐĴÐ ¸
½Ð¸Ðµ Ð¼
ÑĪÐµ Ðµ
ÑĢÐµÐ½Ñ Į
ĠÑĩÐ°Ñģ ÑĤÐ¾
a Ð
ĠÑģÐ»ÐµÐ´ ÑĥÑİÑī
ĠÐ¾Ð±Ð»Ð°ÑģÑĤ Ð
ĠÐĿ ÐĲ
Ð ±ÑĢÐ°ÑĤ
ĠÐ¾Ð±Ð»Ð°ÑģÑĤÐ ¸
ĠÐ½Ðµ Ð·Ð°
ĠÑģÑĥÑī ÐµÑģÑĤÐ
Ð¾Ð¶Ð¸Ñ Ĥ
Ġ ÑĤÐ°Ð½
ĠÑģÐ¿Ð¾Ñģ Ð¾Ð±Ð
ĠÑģÐ° Ð¼Ð¾Ðµ
¶Ð ¸Ð
Ð¾Ð²Ð°Ñ ı
ÑĢÐ°Ð²Ð¸ ÑĤÑģÑı
. ,
ÑģÑĥÑĤ Ñģ
ĠÐ¼ Ð°Ð»ÑĮ
ÐºÐ° Ð¼
ÑģÑĥÑĤÑģ Ñ
Ð¾ÑĤÑ ı
ÑĤÐ° ÐµÑĤ
Ġ Ð¿ÑģÐ¸Ñħ
Ð¾Ð²Ð° Ð»Ð°
ĠÐļ Ð¾Ð½
Ñ ĤÑĥÐ´
ĠÐ¾Ðº Ð¾Ð»Ð¾
ĠÐ¿Ð¾Ð´ Ð´ÐµÑĢÐ¶Ð
ĠÐ¡ ÐµÑĢÐ
ĠÐº ÑĢÐ¸
ĠÑģÐ²Ñ ı
Ð¿ÑĢÐ ¾
ĠÐ»Ð¸ Ð±Ð¾
ĠÑģÐ ²
Ñģ Ð¾Ð¼
ĠÐ¾Ð¿ÑĢÐµ Ð´Ðµ
ĠÐ¿Ð¸Ñģ Ð°
1 7
ĠÐ´ÐµÐ¹ÑģÑĤÐ²Ð¸ ÑĤÐµÐ»ÑĮÐ½Ð¾
Ġ1 7
³ Ð°Ð·
Ð¾Ð² Ð¾Ð¹
¾Ñ ĢÑĥÐ
ĠÐ½Ðµ Ð±Ð¾Ð»ÑĮ
ÑħÐ¾Ð´Ð¸ ÑĤÑģÑı
Ð»Ð¸Ð ²
³ Ð»Ð°Ð·
ĠÐ¿ÑĢÐ ¾Ð¼
ĠÑĢÐ°Ð· Ð²Ð¸ÑĤ
Ñį ÑĤÐ¾
Ñģ ÑĢÐµÐ´
Ð¼Ð ¾Ð²
ĠÐ²ÑĭÐ³Ð »
ĠÐ½Ð° ÑĪÐ¸
ĠÐ²ÑĭÐ³Ð» Ñ
ĠÐ²ÑĭÐ³Ð»Ñ ı
ÑĭÐ ¿
Ġ Ð½Ð¸Ð¼Ð¸
Ð¾Ð»Ñ ĮÑģÑ
³ ÑĢÐµ
ĠÐ½Ð° Ðº
ĠÐºÐ¾ÑĤÐ¾ÑĢÑĭÐ ¼
ĠÑģÑĤÐ° Ð»Ð¸
Ðķ Ð¢
ĠÐ³ÑĢÑĥÐ ´
ÑĢÑ ĳ
ÑĮÐ ¸
ĠÐ¶Ð¸ÑĤ Ñ
ĠÐ¿Ð¾Ð½ ÑıÐ»
Ðķ Ðł
ĠÐ½Ð° Ð¿
ĠÑĩÐ°ÑģÑĤ Ð
Ñħ Ð¾Ð´Ð
Ġ Ð¾ÑĢÑĥÐ
ÑĢÐµÐ·Ð ¸
Ñ ĤÐ²Ð¾Ð¼
Ġ R
ĠÐºÐ¾ÑĤÐ¾ÑĢÐ ¾Ðµ
ÑĥÑģÑ Į
ĠÑįÑĤ Ð¾Ð¼Ñĥ
ĠÐ¼ÑĥÐ¶ ÑĩÐ¸Ð½
¸ Ñī
ÐĽ ÐĲ
Ġ ÑĤÑĥÐ´Ð°
ĠÐ¶ÐµÐ½Ñī Ð¸Ð½Ð°
ĠÐ´Ð ½ÐµÐ¹
ĠÐº ÑĢÐ°Ð¹
ĠÐº ÑĢÐ¾Ð²
Ð ³ÑĢÐ°Ð
ĠÐ¾ÑĤÐ²ÐµÑĤ Ð¸Ð»
± ÑĢÐ°ÑĤÑĮ
ĠÐ´Ðµ Ð½ÐµÐ
ÑģÐµÑ Ĥ
ÑĥÐ¹ ÑĤÐµ
ĠÐ¿ÑĢÐ¾Ð³ ÑĢÐ°Ð¼
Ð¾Ð² Ð
ĠÐ½Ð° ÑĪ
Ġ ÑĨÐ°
Ġ ÑģÑĢÐµÐ´
ĠÑĩÐ°ÑģÑĤÐ ¸
ĠÐ²Ð¾ÐµÐ ½
ĠÐ²Ð¸ Ð´ÐµÐ»
ÑĪÐ¸ Ð½Ð°
ĠÑģÐ»Ñĥ ÑĩÐ°Ð¹
½ÑĥÐ ²
Ġ ÑĩÑĳ
ĠÐ´Ð¾Ð» Ð³Ð¾
ĠÑĤÐ²Ð¾Ð µ
Ġ Ð±ÑĢÐ°ÑĤ
ĠÐ´Ðµ ÑĢÐµÐ
Ġ Ð²ÑĢÐ¾Ð´Ðµ
ĠÐ·Ð° ÑĤÐµÐ¼
ĠÐ¾ÑĤ Ð»Ð¸
ĠÐ§ Ðµ
ĠÐ¼Ð°Ð» Ð¾
ĠÐº Ð¾Ð¼Ñĥ
ĠÐ¾Ð±Ñı Ð·Ð°
ĠÐ¾Ð¿ ÑıÑĤÑĮ
ÑĩÐ ½Ð°Ñı
Ġ ÑĤÑĢÐ°Ð½
ĠÐ´Ð ¾Ð³
¾ÑĤ Ð²ÐµÑĤ
ĠÑĢÐ° ÑģÐº
ÑĢÐº Ð
ÑĢÑĮÐµ Ð
ÑĩÐ°Ð »ÑĮÐ
Ð¾ÑĤ Ðµ
ÐµÐ¹ ÑĩÐ°Ñģ
ĠÐ¿ÑĢÐ¸ Ðº
ĠÐ¡ Ð¾Ð²
ÐĲ Ð
ĠÑĥÐ ¶Ð°
Ð¾ÑĢÑĭÐ µ
Ġ G
ĠÐ¶Ð¸ÑĤÑ Į
ÑģÑĤÑĢÑĥÐ º
ÑĥÐº Ð
Ġ ÑĩÑĥÐ´
Ð ³Ð»Ð°Ð·
ĠÐº Ð¾Ñģ
ĭ ÑĢÐµ
ĠÐ¼ÐµÐ »
Ð·Ð°Ð »ÑģÑı
ÑĦ ÑĦÐµ
Ð¶ Ð½Ð°
ĠÐ¾Ð±ÑĬ Ðµ
²Ð¸ Ð»Ð°
ðŁ¤£ ðŁ¤£
ĠÐ²ÑģÑĤÑĢÐµ Ñ
Ġ ÑģÑĤÐ¾Ñı
ĠÐ½Ð°Ð· Ð
ÑĪÐ¸ÑĤ Ñ
ĠÐŀÐ´Ð½Ð° ÐºÐ¾
Ġ ÑģÑĤÑĢÐµ
ĠÐ¾Ð± Ð½Ð°
Ġ ÑĤÐ¾Ð²Ð°
ĠÐ¿ÑĢÐ¾ ÑĨÐµÑģ
Ġ Ð¸Ð¼Ð
ĠÐ²Ðº Ð»Ñİ
¸ ÑĢÑĥÐµ
ĠÑģÐ¿Ð° ÑģÐ¸Ð±Ð¾
ĠÑĢÐ°Ð½ ÑĮÑĪÐµ
Ð ³Ð°Ð·
o p
ĠÐ½Ð°Ð ¹
ĠÑĩÑĥÐ ²Ñģ
ĠÐ¸Ð· Ð
ĠÐĽ Ð°
ĠÐŁ ÑĢÐ¾
ĠÐ½Ð° ÑĩÐ°Ð»Ð°
ĠÐ²Ð·Ð³Ð»Ñı Ð´
Ðķ ÑģÐ»Ð¸
¸Ð» Ñģ
Ġ Ð³ÑĢÐ°Ð
ĠÐ»Ð µÑģ
Ð°Ð½ Ðµ
ĠÐ´Ð²Ðµ ÑĢÑĮ
1 6
± Ð°Ð»
¸Ð»Ñģ Ñ
Ġ1 4
¸Ð»ÑģÑ ı
Ġ Ð³Ð»Ð°Ð·
ĠÑĢÐ°Ð· Ð²Ðµ
³Ð°Ñ Ĥ
ĠÐĴ Ð¾Ð·
ĠÐ°Ð ³
ÑĪÐ¸ÑĤÑ Į
¶ÐµÐ½ Ð¸Ð¸
ĠÐ·Ð° Ð²Ð¸
n e
ĠÐ¼ÐµÑģ ÑĤÐ°
ĠÐ¼Ð½ Ð¾Ð³
ĠÐ¿ÑĥÑģÑĤ Ñ
1 4
ĠÐ±Ð»Ð ¸Ð
o v
ĠÐ£ Ðº
ÑĭÐ ½
Ð¾Ð¶Ð¸ÑĤ Ñ
ĠÐ¾Ðº ÑĢÑĥÐ
Ð¾Ð¶Ð¸ÑĤÑ Į
ĠÑģÐ¾Ð²ÐµÑĢÑĪÐµÐ½ Ð½Ð¾
ĠÐ¼Ð¸ Ð»Ð»Ð¸
ĠÐ³Ð¾Ð²Ð¾ ÑĢÐ¸ÑĤÑĮ
a d
ĠÐ¿Ð¾Ð»ÑĮÐ ·
ĠÐ´ÐµÐ²Ñĥ ÑĪÐºÐ°
ÑĤÐµÐ»ÑĮÐ ½ÑĭÐ¹
Ġ H
Ð¸Ð »ÑĮÐ
Į Ð½Ð°Ñı
ĠÐ¸Ð¼Ðµ ÐµÑĤ
ĠÐ¿Ð¾ ÑĢÑı
Ġ ÑģÑĤÐµÐ
ĠÐ¿ÑĢÐ¾ÑĦ ÐµÑģ
ĠÐ½Ð°Ð±Ð »Ñİ
Ð¼Ð ¾Ð¼
Ñģ ÑĢÐµÐ´Ð¸
ĠÑĥÐ´ Ð¾Ð²
º Ð¾Ð¹
Ð¡ Ð¡
ĠÐ±ÑĥÐ´ ÑĥÑī
¾ÑĢÐ ´
ÑģÐ»Ðµ Ð´Ð¾Ð²
ÑģÐº ÑĥÑİ
ÑĢÐµ Ð¼ÐµÐ½
± ÑĥÐ
ĠÐ¾ÑĤ Ð»Ð¸ÑĩÐ
ÑĨÐ¸ ÐµÐ¹
ĠÑģÐ¾ÑģÑĤ Ð¾ÑıÐ½
Ñģ ÑĤÑĢÐµÐ»
Ġ Ñī
ĠÐ³Ð¾Ð²Ð¾ ÑĢÐ¸Ð»
ĠÐ¿Ñĭ ÑĤÐ°
ĠÐ·Ð°Ð ³
ĠÐĲÐ»Ðµ ÐºÑģÐ°Ð½
ĠÐ·Ð½Ð°Ð »
ĠÐ´ÑĢÑĥÐ ·ÑĮÑı
ĠÑĦ Ð°
Ġ L
Ð ²Ð»Ð°
ĠÐ´Ð¾Ð± Ð°Ð
ĠÑģÐ°Ð¼Ð ¾Ð³Ð¾
ĠÐ²Ð¾Ðº ÑĢÑĥÐ³
Ð¸Ð ²Ð¸
ĠÐĹ Ð½Ð°
in g
ĠÐ¸Ð· Ð¼ÐµÐ½
ĠÐ¾ÑģÑĤÐ°Ð ½Ð¾Ð²
ĠÑį Ð½ÐµÑĢÐ³
Ġ ÑĢÐ¸
Ġ Ð³Ð°Ð·
µÑģÑĤ Ñ
Ġ ÑģÑĢÐµÐ´Ð¸
Ð´Ð ¸Ð
Ġ ÑģÑĥÐ
ĠÑģÑĤÐ° Ð»Ð°
ĠÑĩÐµÑĤ Ñ
ĠÐ¢ ÐµÐ¿ÐµÑĢÑĮ
Ñģ Ð¼Ð¾Ð
Ñģ ÑĥÐ¿
ĠÑĩÐ°Ñģ Ð¾Ð²
ÑĤÐ°ÐºÐ ¸
ÑĥÐ ¶
ĠÐĴ Ð»Ð°
Ġ Ð±Ñĥ
Ð¿Ð¾Ð» Ð
Ð°Ð½Ð ½ÑĭÑħ
Ð¶ Ñĥ
ĠÐ¿Ðµ ÑĢÑģ
ÑģÑĤÐ²ÐµÐ½ Ð½Ð¾
ĠÐ¾Ð±Ð »Ð°
ĠÑĢÑĥÐº Ð¾Ð²
Ġ ÑģÐ¼Ð¾Ð
ÑĥÑī ÐµÑģÑĤ
Ð¾Ð´ Ñ
ĠÐ³Ð¾ ÑģÐ¿
ÑĨÐ¸ Ð°Ð»
Ð¨ ÐĲ
ĠÐºÑĢÑĥÐ ¿
Ð¶Ð°ÑĤ Ñ
ĠÑģÐ» Ñ
ÑħÐ°ÑĤ Ñ
ĠÐ¾ÑĢÐ³ Ð°Ð½Ð¸Ð·
ĠÐ´Ð¾Ð» Ð
ÑİÑī Ð¸Ð¼
ĠÐ±Ð ¾Ð
Ð°Ð»Ñ ĭ
ĠÐºÐ° ÐºÐ°Ñı
Ĥ Ñİ
¾Ñ ıÐ
ÐµÐ¹ Ñģ
ĠÐº ÑĢÐ°
Ð¾Ñ ıÑĤ
ÑĢÑ Ħ
ÑħÐ°ÑĤÑ Į
Ð¸Ð½Ð°Ð ½
ĠÑģÐµ Ð¼Ñ
Ð±Ð¸ Ñ
ĠÑģÐ¾ Ñħ
Ġ ÑĥÑ
ĠÑħ ÑĥÐ´
ĠÑĢÐ°Ð· Ð¼Ðµ
Ðº ÑĥÑİ
Ð¶Ð°ÑĤÑ Į
ĠÑģÐ²ÑıÐ ·
ĠÐ²Ð°Ð ¶Ð
ĠÐ´Ð¾Ð» Ð¶Ð½Ð°
ĠÐĿ Ð°Ð
Ð¸ÑĨ Ñ
ĠÐ´Ð ²Ð¾
ĠÐ°Ð²Ñ ĤÐ¾
ĠÐ¸Ñİ Ð
ĠÐ²Ð° ÑĢÐ¸
ĠÐ²ÑĭÐ º
Ð¾Ñ ĳ
±Ð¸ Ñ
ĠÑģÐ¾ÑĤ ÑĢÑĥÐ´
ÑģÐ» Ñ
ÐµÐ½Ñ ı
Ġ ÑĤÐ¸Ñħ
Ð¸ÑĨÑ ĭ
ĠÑĤÑĢÐµ Ñ
ÑĢÐ°Ð» Ñ
ĠÐ²ÑĤÐ¾ÑĢÐ ¾Ð¹
ĠÑĤÑĢÐµÑ Ĥ
Ġ Ð·Ð´
ĠÐ¶Ðµ Ð»Ð°
Ġ F
ĠÐĴ Ð°Ð¼
ĠÐĳ ÑĥÐ´
ÑĢÐ¾Ð²Ð°ÑĤ Ñ
ÑģÑĤÐ°ÑĤ Ð
ĠÐ²Ñĭ ÑģÑĤÑĥÐ¿
ĠÐ¸ÑģÐ¿ Ð¾Ð»Ð½
Ġ Ð²Ð»Ð°
Ð¸ÑģÑ ĤÑĢÐ°
ÑĢÐ¾Ð²Ð°ÑĤÑ Į
ÑĥÐ±Ð »Ð¸Ðº
Ð¼Ðµ Ð½Ð°
u s
¸Ð½Ñ ĭ
ĠÑģÐ¸Ð»ÑĮÐ ½Ð¾
ĠÐ¿ÑĢÐ¾Ð´ ÑĥÐº
ĠÑģÐº Ð¾ÑĢÐ
ĠÑģÐ» Ð¾Ð¶Ð
Ð ¸ÑĤÑģÑı
Ġ b
Ð¿ÑĢÐ¸ Ð¼ÐµÑĢ
ÑĩÐº Ðµ
Ñģ ÑĬ
ÑĢÐ°Ð »Ð°
ĠÐ¿Ðµ ÑĢÐ¸
ĠÐĿ Ð°Ð¿
ĠÑģÐ»Ñ ĭ
Ð ³ÑĢÐµ
ĠÐ½Ð° Ð´Ð
¹ Ð
² ÑĢÐ°ÑĤ
ĠÐ¾ÑĢÐ³ Ð°Ð½Ð¸Ð·Ð°
Ð´ ÑĭÑħ
ÑģÑĤÐ°ÑĤÐ ¸
ĠÑħÐ¾ ÑĩÐµÑĤ
ĠÐĲÐ »
ÐĿ ÐĲ
»ÐµÐ ½Ð½Ð¾
ĠÐ´Ð° Ñ
ĠÐ´ÑĢÑĥÐ ³Ð°
» Ð¾Ð¿
ĠÐ¿Ð¾Ð¼ Ðµ
ÑĢÐ¾Ñģ ÑĤÐ¾
Ð¸Ð¼ Ð°
ÑįÐ ½
Ð ±ÑĥÐº
ĠÑį Ð»ÐµÐºÑĤ
ÑĢÑĮÐµÐ ·
ÐĽ Ð¬
·Ð½Ð° ÐºÐ¾Ð¼
ĠÐ¿Ð¾Ð» Ð¾Ð²
ĠÐ¿Ð¾Ð¶Ð°Ð» ÑĥÐ¹ÑģÑĤÐ°
ĠÐ»Ð¸ Ð
ÑģÐ»Ðµ Ð´
ĠÐ¼Ð ¾Ð½
ĠÐ³Ð¾Ð»Ð¾Ð² Ð¾Ð¹
½ Ð¾Ðº
ĠÑĢÐ°Ð· Ð³Ð¾Ð²
ĠÑĢÐ°Ð´ Ð
ĠÐ²Ñģ ÐµÐ¹
ĠÑĢÐ°Ð´Ð ¸
Ĥ Ð¾ÑıÐ
Ð¿ ÑıÑĤ
Ñ ĤÐ¾ÑıÐ
Ð°Ð½ Ð¸Ð¹
ÐµÐ ¶Ð´
ĠÑħÐ° ÑĢÐ°Ðº
ðŁı »
ĠÑĤÐ¾Ð ±Ð¾Ð¹
ĠÐ¿ÑĢÐ°Ð² Ð´Ð°
Ñ ĤÑİ
½Ð¸Ð¼Ð° Ñ
ĠÐŁ ÑĢÐ¸Ð
ĠÐ²Ð¾Ð·Ð¼Ð¾Ð ¶Ð½Ð¾
Ñī ÐµÐ½Ð¸Ñı
ĠÐ»Ð¸ ÑĨÐ°
Ð¾Ðµ Ð´Ð¸Ð½
Ð¿Ð¾Ð» Ð½Ðµ
Ð¾Ð· ÑıÐ
ÐºÐ° Ðº
Ġ ÑģÑĤÑĢÐ
ÑĨÐ¸ Ð¾Ð½Ð°Ð»ÑĮÐ
ÑģÐ» ÑĥÐ¶Ð
ÑĩÐ°Ñ ı
ÐµÑĤÑ ĭ
Ð¼ Ð°Ð½
ÐµÑĤ Ð
ÑĩÐµ ÑģÐºÐ°Ñı
ĠÑĦ Ð¸Ð·
» Ð¾ÑģÑĮ
² Ð¾ÑģÑĤ
½ÑĥÑĤ ÑĮÑģÑı
an d
±Ð¸Ñ Ĥ
ÑĤÐ¸ÑĩÐµÑģÐº Ð
ÑĤÐ¸ÑĩÐµÑģÐºÐ ¸
Ġ W
Ġ ÑģÑĬ
ĠÐ¼Ð¸ ÑĢÐ°
ĠÐ¼Ð¾Ð³ Ð»Ð°
Ð»ÐµÐ½ Ð¸Ð¸
â Ļ
ĠÑģÐ¾ ÑģÐµ
u t
² Ð¾Ð²Ð°ÑĤÑĮ
Ġ ÑģÑĥÐ¿
ÑĢÐ ¾ÑĤ
ĠÐ¼ÐµÐ½Ñ ĮÑĪÐµ
____ ____
Ñģ ÑĤÑĥÐ´
² Ð¾Ð³Ð¾
ÑĩÐµ ÑĢÐ°
ÑģÐ»ÐµÐ ½
ĠÑģÐºÐ° Ð
ĠÐ´Ð¾Ñģ ÑĤÐ°ÑĤÐ¾ÑĩÐ½Ð¾
ĠÐ²Ðµ Ñī
ĠÐ±Ðµ ÑĢÐµÐ
Į ÑıÐ½
ÑĥÑİ Ñ
Ĥ Ð¸Ð½
ÑĥÑİÑ Ĥ
ĠÐŀÐ ±
ÑĩÐ ½Ð¾Ðµ
ĠÐ±Ð¾Ð»ÑĮ ÑĪÐ¾Ð¹
i on
ĠÑģÐ´Ðµ Ð»Ð°Ð»
ĠÐ²ÑģÑĤÑĢÐµÑ Ĥ
Ðļ Ðŀ
ĠÐ³ÑĢÑĥÐ¿ Ð¿Ñĭ
¶Ð ¸Ð¼
ÑĢÐ¸ ÑıÑĤ
ÑĢÐ°Ð »ÑģÑı
ĠÑģÐ¾Ð ¾ÑĤÐ²ÐµÑĤ
ĠÐ·Ð°Ð²Ñ ĤÑĢÐ°
ı ÐµÑĤÑģÑı
Ð°Ð½Ð ½Ð¾Ð¹
ĠÐ¡ Ð¾
² Ð°ÐµÐ¼
ĠÐľ Ð°Ðº
ÐºÐ¾Ð½ ÐµÑĨ
ĠÑĢÐ°Ð·Ð ³
ĠÐķ Ñģ
ÑĥÐºÐ ¸
ÑĦ Ð°
Ð²Ñĥ Ñİ
ĠÐº ÑĢÐ¾Ð¼Ðµ
Ð¼ÐµÐ½Ð¸ Ñ
² ÑĢÐ°Ð
ĠÐ·Ð° Ð¼Ð
ÑĨ ÐµÐ¿
ĠÑĤÐµÑ ĢÑĢÐ¸
ĠÐ´ Ð°Ð»Ðµ
ÑĢÐµ Ð»Ð°
ÑĤÐµÐ»ÑĮÑģÑ ĤÐ²Ð¾
ÑĩÐ ½
ĠÑģÐµÐ ½
Ð ¸ÑĢÑĥÐµ
ĠÑĤÐµÑĢÑĢÐ¸ ÑĤÐ¾
Ð±Ð¸Ñ Ĥ
Ð»Ð¸Ð ·
Ðĺ Ð¢
ĠÐ·Ð° ÑģÑĤÐ°Ð
ÑĥÐ»ÑĮÑ ĤÑĥ
ĠÐ·Ð½Ð°Ñ Ĥ
Ñ ĢÑĤÐ°
ĠÐ·Ð° ÑĩÐµÐ¼
ÑĢÐºÐ ¸
ĠÐ½Ð¾Ð² ÑĭÐ¹
ĠÑģÐ°Ð¼ ÑĭÐ¹
ĠÐ²Ð½Ð¸Ð¼ Ð°Ð½Ð¸Ðµ
Ð ¸Ð»Ð¾
Ġ Ð³ÑĢÐµ
Ġ1 3
» ÑĥÐ¿
ĠÐ¿Ð° ÑĢÑĥ
ĠÑģÐ ²Ð¸
½Ð¸ÑĨ Ñ
ÑĪÐ» Ð¾ÑģÑĮ
i m
o d
ĠÑħÐ¾Ð» Ð¾Ð´
ĠÐŁ Ð
ĠÑĢÐ°ÑģÐ¿ Ð¾Ð»
ĠÐķÑģ Ñ
Ġ Ð²ÑĢÐ°
Ðŀ Ð½Ð°
Ñģ ÑĩÐ¸
ĠÐ¿Ð»Ð¾ ÑīÐ°
ĠÐ½Ðµ Ð¼Ñĥ
Ð ²ÑĢÐ°Ð
ÑĤÑıÐ ±ÑĢÑı
ĠÐķÑģÑ Ĥ
Ð´Ð ²Ð°
ĠÐŁÐ¾ ÑĩÐµÐ¼Ñĥ
ĠÐº Ð¾Ð¿
ÑīÐ°Ñ ı
ĠÐº ÑĢÑĥÐ³
ĠÐ´Ð¾Ðº ÑĥÐ¼
ĠÐ²Ñĭ ÑĪÐµ
Ġ Ð¿ÑıÑĤÑĮ
ĠÐ²Ð¾Ð· Ð²ÑĢÐ°
ÑıÑ ĩ
Ð´Ðº Ð
ĠÐ¡ ÑĤÐ°
ÑĤÐ°Ð »ÑģÑı
ĠÐ¿Ð¾Ð½Ð¸Ð¼ Ð°Ñİ
Ð´ÐºÐ ¸
ĠÐ´ÐµÑĤ Ð
Ð¾ ÑĢÐ¸
Ð¼ÐµÑĢÐ¸ ÐºÐ°Ð½
Ð¾ÑģÑ ĭ
¹ ÑĤÐµ
ĠÐ¼Ñĭ ÑģÐ»Ð¸
Ñħ Ð¾Ð
· Ð²Ð¾Ð½
ĠÐ¿ÑĢÐ¾Ð´ Ð°Ð
ĠÐ¶Ðµ Ñģ
ĠÐ´ÐµÑĤÐ ¸
ĠÐ·Ð°Ð ½Ð¸Ð¼
ĠÐ¼Ð¾Ð³ Ð»Ð¸
Ð¼Ð°Ñ ı
ĠÐ¿ÑĢÐ¾Ð¸Ð· Ð¾
Ð»Ð¸ Ðº
ĠÐ¼ Ð°Ðº
ÑħÐ¾Ð´ Ñ
ĠÐ²Ð¾Ð´ Ñ
ĠÑģÐ» ÑĥÐ¶Ð
ĠÑĢÐ°Ð±Ð¾ ÑĤÐ°ÑĤÑĮ
Ġ Ð°Ð½
½Ð¸ÑĨÑ ĭ
Ð´Ðµ Ð¼
Ð¾Ð½Ñ Į
ÑģÐ »Ð¾Ð²
ĠÐ¾Ð±Ð ¾Ð
Ð¾ÑĢÐ ¾Ð²
ĠÐ¿ÑĥÑģÑĤÑ Į
ĠÐ¿ÑĢÐ ¾Ð¹
ĠÐ¡Ð ¸
Ñģ ÑĢÐµÐ´Ð
ÐµÐ³ Ð¾Ð´Ð½Ñı
ĠÐºÐ° Ð¿Ð¸
ĠÑĢÐ¾Ð´ Ð¸ÑĤÐµ
ĠÐ¾Ðº Ð¾Ð½
ĠÐº ÑĥÑģ
Ġ Ð²ÑĢÐ°Ð
u b
Ðµ Ð´Ð
Ð ²ÐµÑĢ
ĠÑĢÐµ ÑĪÐ¸Ð»
ĠÑħ Ð²Ð°
ĠÐ¿Ð¾ÑıÐ ²
ÑģÐ ¿ÑĢÐ
ĠÐºÐ ½
ĠÐ¼Ð°ÑĤ Ñ
ĠÐ²Ð¾Ð·Ð¼Ð¾Ð¶Ð ½Ð¾ÑģÑĤÑĮ
en t
ĠÑģÐ¾Ð´ ÐµÑĢÐ
1 3
ĠÐ¼Ð¾Ð ·
Ġ Ð±ÑĥÐº
½ Ð¾Ð³Ð¸
ĠÐķÐ ²
Ð ½Ð¾Ð³Ð¸
ÑĪÐº Ðµ
Ð¼ÐµÐ½Ð¸Ñ Ĥ
ĠÐ²Ð¾Ð´Ñ ĭ
ÑĢÐµ Ð±Ð
ĠÐ½Ð° ÐºÐ¾Ð½ÐµÑĨ
ĠÑģÐ¾Ð ·
ĠÑĤÑĭÑģ ÑıÑĩ
ĠÑĥÐ¼ Ðµ
a y
ĠÐºÑĥ ÑĢÑģ
ĠÑĤÐ¾Ð ¿
Ð ½Ð¾Ñģ
Ð¾ÑĢÐµ Ðµ
ĠðŁ ĵ
· ÐµÑĢÐ
Ðľ Ñ
Ð»Ð »Ðµ
Ð´Ð° Ð¼
ĠÐĴ Ð¾
¾ÑĢÐ ¾ÑĤ
ĠÐ¢ Ð°Ð¼
ĠÑģÐ ¾Ñģ
Ġ Ð°Ð½Ð³
ĠÑģÐ²Ð¾Ð ¸Ð¼Ð¸
ĠÐ´Ð »Ð¸Ð½
ĠÑĨ Ðµ
Ð¼Ð ¾ÑģÑĤÐ¸
Ð»Ð° Ð´ÑĭÐ
¶ Ð½Ð°
ÑĪÐµ Ð¼Ñĥ
Ð¾Ð»Ñ ĭ
ĠÐ¼Ðµ Ð½ÐµÐµ
ĠÐ¿Ð ¸ÑģÑĮ
ÑĤÐµ ÑĢÐ
³ ÐµÐ½Ðµ
Ñī ÐµÐ½Ð¸Ðµ
ĠÐ²Ð¸ Ð´
ÑĦÑĦÐµ ÐºÑĤ
ĠÐ¾ÐºÐ° Ð·Ð°
ĠÐ¡ Ð¿Ð°ÑģÐ¸Ð±Ð¾
c Ñ
ĠÐ²Ð¾Ð¿ÑĢÐ ¾ÑģÑĭ
ĠÐ¾Ð´Ð ½Ñĥ
ĠÐĴ Ð°Ñģ
ĠÐ²ÑĭÑħ Ð¾Ð´
ĠÐ·Ð°Ðº Ð»Ñİ
ÑĢÐ ¾Ð³
ĠÑģÐ »ÐµÐ
Ġ Ð½Ð¾Ð³Ð¸
Ð »Ð¾Ð¼
ĠÑģÐ¸Ð» Ñ
a g
ĠÐ±Ð ¾Ð³Ð°
Ð¿ Ð°Ð¿
± ÑĥÐ¼
½ ÑĢÐ°Ð²Ð¸ÑĤÑģÑı
ÑħÐ° ÑħÐ°
Ð ½ÑĢÐ°Ð²Ð¸ÑĤÑģÑı
ÐºÐ¾Ð½ Ð¾Ð¼
Ñħ Ð¾Ð¼
ÑĢÐ ¾ÑģÑĤ
ĠÐ¿Ð° ÑĢÑĤ
Ġ Ð·Ðµ
ÐµÐ½ Ð¾
ÑĮÐµ Ð
ÐĴ Ð¾ÑĤ
Ĥ ÑĢÐµÐ±
Ð ³ÑĢÐ¾Ð¼
Ġ ÑģÑĢÐµÐ´Ð
ĠÐ¼Ð¸ ÑĢÐµ
ĠÐ¼Ð¾Ð¶Ðµ ÑĤÐµ
Ð¼Ð ½
ĠÐ¾Ñī ÑĥÑī
u n
ĠÑĩÐ° ÑģÐ°
ÑħÐ¾Ð´Ð¸ÑĤ Ñ
Ġ Ð½ÑĢÐ°Ð²Ð¸ÑĤÑģÑı
ÑħÐ¾Ð´Ð¸ÑĤÑ Į
ĠÐ¿Ð¾Ð»Ð ½Ð¾ÑģÑĤÑĮÑİ
Ð¼ÐµÑĤ Ñ
Ġ Ð²Ð¾Ð²
ĠÐ±Ð ¾Ðµ
Ð´Ð ¸Ð¼
Ġ Ð²ÐµÑĤ
ĠÐŁÐ¾ ÑįÑĤÐ¾Ð¼Ñĥ
ĠÐ½Ðµ Ð´Ðµ
Ñ ĤÑĢÐµÐ±
ĠÐ»ÑİÐ±Ð ¸Ð¼
ĠÑĤÐµ Ð»Ð¾
ĠÐ¿Ð¾Ð» Ð¾Ð
ĠÑĩÑĥÐ ²ÑģÑĤÐ²
ĠÐļ Ð¾Ð¼
ĠÑĢÑĥÐ ±
Ð¶Ð¸ Ñ
ÐľÑ ĭ
ÑģÑĤÐ°Ð ½
ĠÐ¾ÑģÐ¾Ð±ÐµÐ ½Ð½Ð¾
ÑĢÐ¸ Ð½Ð°
ÑĢÐµÐ ²Ð
ĠÑĢÐµ ÑĪÐ¸
ÐĲ ÐĲ
ww w
ĠÐ¸Ð½ÑĤÐµ ÑĢÐ½Ðµ
ĠÑĥÐ ½
Ð»Ð¸Ð ¹
Ð¶Ð ¸ÑĤÐµ
² ÐµÐ»
Ġ5 0
ĠÑģÐ¾Ð ±ÑĭÑĤ
Ġ ÑģÑĤÑĥÐ´
Ġ1 1
Ð ²Ð¾ÑĢ
ĠÐ¡ ÐµÐ¹ÑĩÐ°Ñģ
ĠÐĹ Ð°Ð
ĠÑĥÑģ ÑĤÐ°Ð½Ð¾Ð²
ĠÐł Ð°
ĠÑģÐ¿Ðµ ÑĨÐ¸Ð°Ð»ÑĮÐ
Ġ ÑĤÐ¾Ð¹
Ð ±ÑĥÐ¼
ĠÐ¾ÑĦ Ð
Ð¾Ð½Ðµ ÑĩÐ½Ð¾
Ð§ ÑĤÐ¾
Ġ2 5
» Ð¾Ð´
ĠÐ¾ÑĦÐ ¸
ĠÐŁ ÐµÑĢÐ
ĠÐ½Ð° Ð¿ÑĢÐ¸Ð¼ÐµÑĢ
Ġ Ð³ÑĢÐ¾Ð¼
Ĥ Ð¾Ð³
ĠÐ±ÑĥÐ´ ÐµÐ¼
ĠÐ´Ð¾Ð¼ Ð¾Ð¹
ĠÑĩÑĤ Ð¾Ð±
ÑĥÐ½ Ðº
ĠÐ²Ð¸ Ð´Ð¸
ĠÑĢÐµ Ð°Ð»ÑĮÐ
½ ÑıÑı
ĠÐ£Ðº ÑĢÐ°Ð
o s
Ð½Ð° Ð¼Ð¸
ĠÑģÑĥÑī ÐµÑģÑĤ
ĠÐ¼ Ñĥ
ÐµÐ¹Ñģ Ñ
ĠÑĥ ÑĢÐ¾Ð²
ĠÐ²Ð¾Ð¹ Ð
Ðľ Ð°
ĠÐºÐ° Ñģ
Ġ ÑĤÑĢÐµÐ±
ĠÐ²Ñĭ ÑĢÐ°Ð
Ġ f
Ġ ÑģÑĩÐ¸
ĠÐ½Ð°ÑģÑĤÐ¾Ñı Ñī
u m
Ð¼ÐµÐ ¹
ÑĩÐ° Ð»Ð¸
ĠÑĢÐµÐ ±Ñ
ÑĤÐ°Ð½ Ð
Ð»ÐµÐ ·
Ðļ Ðĺ
ĠÑģÑİ Ð´Ð°
ĠÐ¿Ð¾Ð½ ÑıÑĤÑĮ
Ð ³ÐµÐ½Ðµ
Ð´Ðµ ÑĤÑģÑı
Ġ Ð½Ð¾Ñģ
ÑĩÐ¸ÑĤ ÑĭÐ
ĠÐ²Ð¾Ð¹Ð ½
² Ð°Ð½Ð¸Ðµ
ĠÐ±Ð ¾Ð³
² Ð¿Ð¾Ð»Ð½Ðµ
Ð ²Ð¿Ð¾Ð»Ð½Ðµ
Ð½Ð° Ð´Ð
ĠÐ¢ Ð¾Ð³Ð´Ð°
³ ÑĢÐ°Ð´
ĠÐºÐ¾Ð½ ÐºÑĥ
ÑĢÐ°Ð· Ð
Ð¾ÑĢ Ñİ
· Ð²Ñĥ
Ð ·Ð²Ð¾Ð½
ĠÐ´Ð¾Ð»Ð ³
Ðŀ Ñ
ĠÑĢÐ°Ñģ Ñ
Ġ X
Ð»Ð¸ÑĤ Ñ
ĠÐ¾Ð±ÑĢÐ°Ð· Ð¾Ð²
¾Ð ½Ð°
ĠÐ½Ð° ÑĢÑĥ
Ġ Ð¿Ð°Ð¿
ĠÐĵ Ð°
ÑĪ Ð°ÐµÑĤ
ĠÐ¾Ñģ Ð¾Ð±Ð
Ñģ ÑĤÐµÐ½
ĠÑģÐµÑĢÐ´ ÑĨÐµ
ĠÐĶ Ð°Ð¶Ðµ
µÑģÑĤÑ Į
âĢ į
ĠÑĢÐ°ÑģÑģÐºÐ° Ð·ÑĭÐ
Ġ Ð±ÑĥÐ¼
Ð »ÑĥÐ¿
ĠÐ´ÐµÐ½ÐµÐ ³
ĠÐ¾Ñģ Ð¾Ð
ÑĩÐ ½ÑĭÐ¼
ĠÐ²Ð¸Ð´Ðµ Ð¾
Ð±Ð »Ð¸
ĠÐ¶ Ð°
ĠÐ¾ÑĤ ÐºÐ°
ĠÐ´Ðµ ÑĢÐµ
ÑĤÑĢÐ¾Ðµ Ð
½Ð¸ÑĨ Ñĥ
Ġ Ð²Ð¿Ð¾Ð»Ð½Ðµ
ĠÑģÐ»Ð¾Ð² Ð¾
ĠÐ¸Ð½ÑĤÐµ ÑĢÐµÑģ
Ñ ĤÐ¾Ð³
ĠÑĦÐ¾ÑĤ Ð¾Ð³ÑĢÐ°ÑĦ
ĠÐ½Ð° ÑĪÐ¸Ñħ
Ġ E
ĠÑĩÐµÑĤÑ ĭÑĢÐµ
ĠÐĳ Ð¾Ð»ÑĮ
Ð¿ Ð¾Ñ
±Ðµ Ð
ÑĢÐ°Ñģ Ñ
ĠÐ°Ð´ Ð¼Ð¸Ð½
ĠÑĩÐ ¸ÑģÑĤ
Ġ Ð¿Ñĥ
²Ð» ÑıÑĤÑĮ
ÑĢÑĭÐ ¼
ĠÐ´Ð¾Ð ºÐ°
Ð¶Ð¸Ñ Ĥ
ÐŀÑ Ĥ
ÐµÐ½ Ð½ÑĭÐ¹
ĠÐ¾Ð±Ð½Ð° ÑĢÑĥÐ
Ĥ Ð²Ð¸Ñı
ĠÐ¿Ð¾Ñģ ÑĤÐ°Ð
Ð½Ð° Ñħ
Ñ ıÐº
Ġ ÑģÑĥÑĤ
³ ÑĢÐ°
ÐĴ ÑģÐµ
ÑĢÐµÐ ½Ð¸Ðµ
Ð¿ ÑĢÐµÐ·Ð¸
» Ð¾Ð³
ĠÐĶ Ð¾
ĠÐºÐ½Ð¸Ð ³
ÑĩÐµÑģ ÑĤÐ²Ð°
ĠÐ´ Ð°Ð»
² Ð°Ð¹
Ð¾Ð²Ð ¸
² Ð»Ð¸
ĠÐ´Ð¾Ð»Ð¶Ð ½Ð¾
ÑĤÐµÑ Ĥ
Ðĵ Ðŀ
Ð¿ Ð°Ð»
Ñĸ Ð
ÑĤÐµÐ»ÑĮÐ ½Ð¾ÑģÑĤÐ¸
Ð ²ÑĥÐµÑĤ
Ðº Ð¾Ð»
ĠÑģÐº Ð¾ÑĢÐµÐµ
ĠÐ´Ð ¾ÑģÑĤÐ°Ð
Ġ Ð¿Ð¾Ñ
ÑĢÐ ½ÑĭÐ¹
ĠÐ´Ð°Ñ Ĥ
ĠÐ³ÑĢÐ°Ð ¶Ð´
Ñģ Ð¾Ð»Ð½
Ġ Ð³ÐµÐ½Ðµ
ĠÐ½Ð¾ ÑĩÑĮ
ĠÐºÐ¾ ÑĢÐ°Ð±Ð
Ĥ Ð¸Ð²
Ġ ÑĢÑĥ
ĠÐ»ÑİÐ±Ð ¾Ð¹
ĠÐ¸ÑģÐº Ð»Ñİ
ıÑ ı
Ġ Ð·Ð²Ð¾Ð½
Ġ ÑĤÐ°Ð¹
³ ÑĥÑģ
ĠÐ¿Ð¾Ð² ÑĤÐ¾
Ġ ÑĩÐ¸ÑĤÐ°
· Ð¾Ð»Ð¾ÑĤ
a p
!! !!
ĠÐ¡ Ð¨ÐĲ
ĠÐ·Ð½Ð°ÑĤ Ñ
ĠÐ·Ð½Ð°ÑĤÑ Į
ĠÐ¿Ð¾ÑģÑĤ Ð¾ÑıÐ
ĠÐŀ ÑĩÐµÐ½ÑĮ
ÑĢÐ¸ ÑĩÐµÑģÐº
ĠÐ½Ð° Ð¼Ðµ
Ð¾ÑĢÐ ´
Ð°Ð ¶Ð´
ÑĢÑĥÑģ Ñ
ĠÐ½Ðµ Ð¼Ðµ
Ð¾Ð¿Ð° ÑģÐ
ĠÐĳ Ð
Ð¶Ðµ Ñ
ÑĤÐ°Ð »ÑĮÐ
Ð ·Ð¾Ð»Ð¾ÑĤ
Ð ¸Ñī
ÑģÑĤÐ°Ð ½Ð¾Ð²
ÑİÑī ÐµÐ¹
Ñģ ÑĤÐ²Ðµ
ÐĿ Ð«
Ð¶Ð´ Ñ
¿ÑĢÐ ¾Ð²
ĠÐ¿Ð¾Ð´ Ð¾
ÑĥÑĢÐ ½Ð°
ĠÑģÑĤÐ°Ñ Ģ
Ð¶Ð´Ñ ĭ
Ð¾ÑģÑ ı
ÑģÑĭÐ »
ĠÐķÑģÑĤ Ñ
Ġ ÐµÐ²
ĠÐķÑģÑĤÑ Į
¸ Ð¿Ð°
ÑĢÐ½ Ð
ÑĪÐµ Ñ
Ð¾Ð¼ Ð°
Ðļ Ð¾Ð³Ð´Ð°
Ð¾ÑĢÐ ¾Ð½
i g
Ġ Ð¸Ð´
½ Ð¸Ð¸
ĠÐ¥ Ð¾ÑĢÐ¾
ĠÐ»Ñİ Ð´Ñ
ÐĽ Ðĺ
² Ð¸Ð»
Ġ Ð»Ð¾
ĠÑĥ ÑĩÐµ
Ð´Ð ¾Ðº
¾ÑĢÐ ¾Ð
ĠÐ²Ñģ Ð¿Ð¾Ð¼Ð½
ÑĢÐ°Ðµ Ñ
ÑĢÐ½Ð ¸
²Ð°Ñı Ñģ
²Ð°ÑıÑģ Ñ
²Ð°ÑıÑģÑ Į
Ð²Ñ ĥÑ
ĠÑĥÑģÐ»Ð¾Ð² Ð
ĠÐ°Ð²ÑĤÐ¾Ð¼ Ð¾Ð±Ð
ĠÐ¿ÑĢÐ¸Ð ³Ð»Ð°
ÐŁ ÑĢÐ¸
Ð¾Ð²Ð° ÑĤÑĮÑģÑı
Ġ ÑģÐ¾Ð»Ð½
Ġ V
ĠÐ»ÑİÐ±Ð »Ñİ
ÑĢÐ°ÐµÑ Ĥ
Ð¾Ð ¸
Ð ¸Ð¿Ð°
ĠÑĥÐ µ
ĠÑģÐ²ÑıÐ· Ð
³ Ð»Ð°Ð²
¶Ð ¸Ðµ
ĠÑĢÐ°ÑģÑ Ĥ
ĠÐ¾Ð±Ð ¾
ĠÐ²Ð° Ð¼Ð¸
ĠÑģÐ²ÑıÐ·Ð ¸
ĠÐ·Ð° Ð´ÑĥÐ¼
ÑĢÐ¾Ð ·
Ð´ÐµÐ½Ñ Ĥ
ĠÑģÐ ¸Ð¼Ð
ĠÐ¸Ð½ÑĤÐµÑĢÐµ ÑģÐ
Ñħ Ñĥ
¹ÑģÑ ı
ĠÐ¼Ð ¸Ñģ
ĠÐĽ Ðµ
ÑīÐ° ÑĤÑĮÑģÑı
ĠÐ¿ÑĢÐµÐ´Ð »Ð¾Ð
ÑĨÐ° Ð¼Ð¸
ĠÐĹ Ð°Ð¿
ĠÐ¸ÑģÑĤÐ¾ ÑĢÐ¸Ð¸
ĠÑģÐ°Ð¼Ð ¾Ð¹
ĠÐ¿ÑĢÐ¾ ÑĪÐ»
ĠÐ´ÐµÑ ı
ĠÑĥÑģÐ»Ð¾Ð²Ð ¸
Ð¸ÑģÑĤ Ñ
ĠÐ²Ð¾Ð¹Ð½ Ñ
ĠÐ²Ð¾Ð¹Ð½Ñ ĭ
ĠÑģÐ¾ÑģÑĤ Ð¾ÑıÐ
ĠÐ¿Ð¾Ð ±Ð
ĠÐŁ Ð¾Ð
ÑĩÑ ĮÑİ
ÐºÐ°Ð »
ĠÐ°Ð ±
ĠÑĦ Ð¸Ð³
Ð ³Ð»Ð°Ð²
ĠÐ¼Ñ ı
i r
Ð »Ð¾ÑĤ
ĠÐ¾ÑĤÐ½Ð¾ ÑĪÐµÐ½
ĠÐŁ ÑĢÐ¾ÑģÑĤÐ¾
ĠÑĥÑģ Ð¿
9 0
ĠÐ¿ÑĢÐµÐ´ÑģÑĤÐ°Ð ²Ð¸
ĠÐ¾Ð´Ð½Ð° ÐºÐ¾
ĠÐ½ÐµÐ ¸Ð·
² Ð¾ÑģÐº
ĠÐ¼ÑĥÐ¶ ÑĩÐ¸Ð½Ð°
Ð¿Ð¾Ð»Ð ½
Ñģ ÑĤÐ¾Ð»ÑĮÐºÐ¾
²Ð°Ð» Ð¾ÑģÑĮ
ĠÐĺÐ ²Ð°Ð½
ÑĨ ÐµÐ¼
ĠÐ¾ ÑĪÐ¸
Ð ²Ð¾ÑģÐº
ĠÑģÑĤÑĢÐ°Ð½ Ñ
Ð¿ ÑĥÑĤÐ¸
ĠÐ¸ÑģÐº ÑĥÑģ
ĠÑģÑĤÑĢÐ°Ð½Ñ ĭ
ĠÐ»ÐµÐ³ ÐºÐ¾
ĠÑĥÐ ·
ĠÐ·Ð° ÑĢÐ°Ð
ÑĥÑ ı
ÑĪÐ ¸Ð»Ð¸
Ð½ÑĥÐ ²
²Ð° Ñİ
¾Ð» Ð
ĠÐł Ð¤
ĠÑģÐµ ÑĢÑĮÐµÐ·
Ñģ Ð¾Ð½
ĠðŁ Į
½Ð¾Ð² Ñ
ĠÐ¸Ð½ Ð¾Ð³Ð´Ð°
¾ÑĤ Ñ
² Ð¸Ð¸
ĠÐ²Ð½Ðµ ÑĪÐ
³ ÑĢÐ°ÑĦ
ĠÐ¼Ð½Ð¾Ð³Ð ¸Ðµ
½Ð¸Ðº Ð¾Ð¼
Ð»Ð¸Ñ ı
Ð ·Ð¾Ð²
ĠÐĲÐ½ Ð´
ĠÑģÑĤÐ°Ð ½
ÐĶ ÐĲ
Ñģ ÑĤÐ²Ð¾Ð¼
ĠÐ¿Ð¾Ð ¿ÑĢÐ¾
Ð¾Ð» Ð¾Ð´
ÑĩÐµÑ Ģ
Ð²Ðµ ÑĤÐ°
Ñ ıÐµÑĤ
Ð¼Ð¿ Ð
ĠðŁ Ķ
ĠÐ¼ÐµÑ ĩ
ĠÑģÐ¾Ð º
Ĥ ÑĢÐµÐ½
ĠÐº ÑĢÑĭ
ÐµÑĢÐ º
Ð±Ð ¾Ð¼
ĠÐ¸Ð· Ð¾Ð±
Ð´Ñ Ĥ
ĠÑĢÐ°Ð±Ð¾ÑĤÐ° ÐµÑĤ
ĠÑĦÐ ¸
ĠÐĹ Ð´Ð
ĠÐ¡ Ñ
ÑĢÐµ Ð¼
Ð²Ð¾Ð µ
ĠÐ³Ð¾ ÑĢÑı
ÐµÐ· Ð
ĠÐ½Ð¾Ð² ÑĭÐµ
ĠÑĢÐ¾Ñģ ÑģÐ¸Ð¹
ÑĥÑģ Ð°
ºÐ° Ñħ
¸ Ð¾Ð½Ð°
Ð ²Ð¾Ð²Ð°ÑĤÑĮ
ĠÐ³Ð»ÑĥÐ±Ð ¾Ðº
Ġ Ð¿ÑĢÐµÐ·Ð¸
ĠÐĴÐµ Ð´ÑĮ
ĠÐ»ÑİÐ±Ð¸ Ñ
ĠÐ»ÑİÐ±Ð¸Ñ Ĥ
ÑĤÐµÐ»ÑĮÐ ½ÑĭÐµ
ĠÑħ Ð¾Ð·ÑıÐ
1 1
ÑĤÐ²Ðµ ÑĢÐ´
ĠÑģÐ²Ð¾Ðµ Ð¼
ĠÐ¸Ð¼ Ñ
ĠÐºÐ¾Ð½ ÑĤÑĢÐ
ĠÐ¿Ð¾ÑģÐ»Ðµ Ð´
Ðļ Ð°
Ġ /
ĠÑģÐ¼Ð¾ÑĤ ÑĢÐµÑĤÑĮ
± ÑĢÐ¸
ÑĥÑģ ÐºÐ°
ĠÑĢÐµÐ·ÑĥÐ»ÑĮ ÑĤÐ°
ĠÐ¾Ð¿ Ñ
ĠÑĢÐ°Ð· Ð»Ð¸ÑĩÐ
Ð »ÑıÐ
Ñ ĤÑĢÐµÐ½
ÑĢÐ¸Ð ³
ĠÐ¸ÑģÐ¿Ð¾Ð»ÑĮÐ ·Ð¾Ð²
Ġ Ð²Ð¾ÑģÐº
ÐµÑ ı
Ð¿Ð »
ĠÐ·Ð½Ð° ÐµÑĪÑĮ
Ð¼Ð ¾Ñģ
ĠÐ¿Ð¾Ð¼Ð¾Ñī Ñ
ĠÐ¿Ð¾Ð¼Ð¾ÑīÑ Į
ĠÐ¼ÐµÑģÑı ÑĨ
Ð´Ðº Ðµ
Ġ Ð²ÐµÑĢ
ĠÑģÐ¸Ð»Ñ ĭ
ĠÑģÐº Ð¾ÑĢÐ¾
ÑĤÐµÐ»ÑĮÐ ½Ð¾Ð¹
Ð¾Ð»Ð¾Ð³Ð ¸ÑĩÐµÑģÐº
Ġ Ð·Ð¾Ð»Ð¾ÑĤ
Ðł Ðĺ
ĠÐ½ÐµÐ ²Ð¾Ð·
½Ð¾Ð²Ð ¸
Ð¿ ÐµÐ½
Ð»Ð° Ð²Ð°
ĠÑģÑĤÐ°ÑĤ Ñ
ÐĴ Ðŀ
ÑİÑī ÐµÐ³Ð¾
ĠÐ¥ Ð°
ĠÑģÐ¼Ðµ ÑĢÑĤÐ¸
ĠÐ´Ð¾Ð² Ð¾Ð»ÑĮÐ½Ð¾
ĠÐ¸Ð¼Ñ ı
ĠÐŁÐ ¸
ĠÐ¸Ð½ÑĤÐµÑĢÐµ ÑģÐ½Ð¾
ÑįÑ Ĥ
ÑĪ ÑĳÐ»
Ñ ĤÐ¸Ð½
ĠÑĥÐ¿ ÑĢÐ°Ð
ÑģÐº Ð¾
ÑħÐ¾Ð´ ÑıÑĤ
ĠÐ¾Ð±Ñĭ ÑĩÐ½Ð¾
ĠÑį Ð
ĠÐ¿Ð¾ÑģÑĤÐ¾ÑıÐ ½Ð½Ð¾
Ñģ Ð¾ÐµÐ´Ð¸Ð½
Ġ Ð¿ÑĥÑĤÐ¸
ĠÐŁÐ¾ÑĤ Ð¾Ð¼
ÑģÐµÐ ¹
²Ðº Ð
Ð¼Ð° Ñħ
ĠÑĤÑĢÐµ Ð±Ð¾Ð²
Ġ ÑĤÑĥÐ¿
ĠÑĢÐ°Ð· ÑĥÐ¼
¶Ð´ ÐµÐ½Ð¸Ðµ
ĠÐºÐ¾Ð¼ Ð¿Ð»Ðµ
ĠÑģÐµÐº ÑĥÐ½
ĠÑģÑĤÐ°ÑĤÑ Į
ÐµÐ »ÑĮÐ
Ġ ÑģÑĤÐµÐ½
ĠÑħÐ¾ÑĤÐµÐ» Ð¾ÑģÑĮ
ĠÐ¿Ð»Ð¾ ÑħÐ¾
²ÐºÐ ¸
ÑĪÐµ Ð´
Ñģ ÑĤÐ¾ÑıÐ
ÑĢÑģ ÐºÐ¾Ð¹
ĠÐ³Ð¾ÑĢÐ¾Ð´ Ðµ
ÑĤÐ°Ð» Ñ
Ġ a
ĠÐ·Ð° Ð´Ð
Ð¼Ð¾Ð º
ĠÐļ ÑĢÐ°ÑģÐ
Ġ *
Ð¾Ð² Ðµ
ĠÐ¼Ð¾Ðµ Ð³Ð¾
Ð»Ð¸ÑĤÑ Į
ÑİÑī Ð°
Ñģ Ñĳ
ĠÐ½Ð° ÑĪÐµÐ³Ð¾
ĠÑĥÐ´ Ð¸Ð²
ĠÐ¿Ð¾Ð² ÐµÑĢÐ
Ð¾Ð»ÑĮÐ ·
Ġ Ð²Ð¾ÑĢÐ
Ð ½ÑĥÑĤÑĮ
Ð»ÐµÐ½Ñ ĭ
Ġ ÑģÑĤÐ¾Ð»ÑĮÐºÐ¾
ĠÑģÐ¿ ÑĢÐ°
ÑİÑīÐ° Ñ
Ð½ÑĥÐ »ÑģÑı
âĢį âĻ
ĠÑģÐ¾Ð± Ð°Ðº
ĠÐ¿Ð¾Ð´Ð ³Ð¾ÑĤÐ¾Ð²
ĠÑį ÑĦÑĦÐµÐºÑĤ
Ġ Ð±Ñ
ĠÐºÐ°Ðº Ð¾Ðµ
e m
ÑĦ Ñ
»Ð ¸Ð²
ĠÐ·Ð° ÑīÐ¸
Ð»ÐµÐ½Ð¸Ðµ Ð¼
¶ Ð°Ð¹
ÑĥÑĤ Ð±Ð¾Ð»
ĠÐ¿ÑĢÐµÐ ¶Ð´Ðµ
ĠÐ¼Ð° Ð¼Ð°
ĠÑģÐ¿ ÑĢÐ°Ð
ĠÐ¿ÑĢÐ¸Ð ²ÐµÑĤ
Ð¿ Ð°Ð½
Ð ±ÑĢÐ°
ÐºÐ°Ð ·ÑĭÐ
ĠÐ±ÐµÑģÐ¿ Ð»Ð°ÑĤ
ÑĢÑģÑ Ĥ
½ Ð¾ÑģÑĤÐµÐ¹
ĠÐ½Ð° Ð¼Ð¸
Ð²Ð µÑģÑĤÐ¸
Ð¥ ÐĲ
¸ Ð¾Ð½
ı ÑĢÐº
Ðķ Ðľ
Ð²Ð°Ñ ı
ÑĤÐ°Ð½Ð ¸
ĠÑģÐ ½ÐµÐ
? )
ĠÐ¥ Ð¾ÑĤÑı
ÑĪÐµÑ Ĥ
²ÑģÑĤÐ ²Ð¾Ð²
u r
ĠÐ·Ð° ÑīÐ¸ÑĤ
ĠÑĪÐ¸ ÑĢÐ¾Ðº
ĠÐ¿ÑĢÐ¸ Ð±Ð
Ð ³ÑĢÐ°ÑĦ
ĠÑģÐ µÑģÑĤ
ĠÐ¾ÑĤ ÐµÑĨ
ĠÐ½Ð° ÑģÐµ
ÑĪÐº Ð¾Ð¹
ĠÐ¿Ð¾Ð ¿ÑĢÐ
ĸ Ð
ĠÐº Ð¸Ð²Ð
ÑĭÑĪ Ð°Ð»
Ġ l
ÐµÐ½Ð ½ÑĭÑħ
ĠÐ¿ÑĢÐ¾Ð´Ð¾Ð» Ð¶
ÐµÑĤÐ ¸
ºÐ° Ñ
Ð°Ð¹ Ñ
Ð ©
ĠÐ·Ð° Ð¿ÑĢÐµ
ĠÐ½Ð°Ð²ÐµÑĢÐ ½Ð¾Ðµ
Ġ ÑĤÐµÐ»
Ð¾Ð» Ð°
ĠÐ¿ÑĢÐ ¾Ð½
Ð±ÐµÐ »
ĠÑħÐ¾ÑĩÐµ ÑĤÑģÑı
ĠÑģÐ¾ÑģÑĤÐ¾ÑıÐ½ Ð¸Ð¸
ĠÐ³Ð¾Ð²Ð¾ ÑĢÑıÑĤ
ÐµÐ½ Ð½ÑĭÐµ
¶Ð½ Ñ
ĠÑĩÐµ ÑĤÐ²Ðµ
Ð´ Ð°ÐµÑĤ
2 5
Ġ Ð¿ÑıÑĤ
ĠN o
Ñ ıÑĢÐº
Ð´ Ð°Ð»Ð¸
¸ Ð´ÐµÑĤ
ÑĢÐ°ÑģÑ Ĥ
ÐĴ Ñ
ĠÐºÐ¾Ð¼Ð¿ Ð°Ð½Ð¸Ð¸
Ð²Ñ ı
ÑģÐ¿ Ð¾ÑĢÑĤ
Ġ ÑīÐµ
ĠÐº ÑĥÐ»ÑĮÑĤÑĥ
±Ð° ÑĤÑĭÐ
ĠÐ¶ ÑĥÑĢÐ½Ð°
ĠÐº Ð»Ð°
Ð ¸Ð´ÐµÑĤ
¸ ÑĤÐ¾Ð³
ĠÐ±Ð»Ð° Ð
Ðº Ð¸Ð¼Ð¸
Ð ¸ÑĤÐ¾Ð³
Ġ ÑģÑĤÑĢÐµÐ»
ĠÑģÐ¿Ð¾Ñģ Ð¾Ð±
ĠÑĢÐ°Ð· ÑĢÐµ
ĠÐ²Ðµ ÑīÐ¸
ÑĥÑģÑĤÑ Į
ı ÑİÑĤ
¸ ÑĢÑĥ
Ð¸Ñģ Ð°
ĠÐ·Ð° Ð´Ð°
± ÑĢÐ¾Ñģ
ĠÐ¿Ð¾Ð ·Ð´Ð
ĠÐ²ÑĭÐ ±Ð
. )
ĠÐ·Ð° ÐºÑĢÑĭÐ
ĠÐĴ ÐµÐ»Ð¸
ĠÑģÐ°Ð¼ ÑĭÑħ
ĠÐºÑĢÐµ Ð¿
¶Ð º
Ġ ÑĤÐ²Ð¾
ĠÐ¿Ð¾ÐºÐ° Ð·ÑĭÐ
ĠÐĿ Ðķ
Ġ Ð¸ÑĤÐ¾Ð³
ĠÐ»Ð¸ Ñģ
ĠÑĥÐ²Ð¸ Ð´ÐµÐ»
¶Ð¸ÑĤ Ñ
Ġ Ð¸Ð´ÐµÑĤ
ĠÑĢÐ°Ð±Ð ¾ÑĤÐµ
ĠÐ±ÐµÐ· Ð¾Ð¿Ð°ÑģÐ
ĠÐĴ ÑĭÐ
ÑĤÐ¾Ð ±Ñĭ
ĠÐ²Ð¸ Ð´Ð½Ð¾
ĠÐ¿ÑĢÐ¸ ÑĩÐ¸Ð½
ĠÐ¿ÑĢÐ°Ð²Ð¸Ð »ÑĮÐ½Ð¾
¶Ð¸ÑĤÑ Į
Ġ ÑıÑĢÐº
Ð¾Ð ·Ñı
¸Ð ²Ð°ÑĤÑĮ
ÑĢÐµ Ð»Ð¸
½Ð¾Ð²Ñ Į
²Ðµ ÑĢÑģ
ĠÐ¶ÐµÐ½Ñī Ð¸Ð½Ñĭ
ĠÐ¿ÑĢÐ¾Ð±Ð»Ðµ Ð¼Ñĭ
¸Ð²Ð° ÑİÑĤ
Ġ Ð³ÑĢÐ°ÑĦ
ĠÐ¿ÑĢÐ¾Ð º
ĠÐ²ÑĭÐ ·
ĠÐ²Ð ½Ð¾Ð²ÑĮ
¾ÑĤÑ ĭ
ĠÐ¿Ð¾ ÑģÐµ
i e
ĠÐĴ Ð¾Ð
ĠÐ° Ð¼ÐµÑĢÐ¸ÐºÐ°Ð½
³ Ð»ÑĥÐ¿
Ġ Ð³Ð»Ð°Ð²
ĠÐ¿ÑĢÐ¸Ð½ ÑĨÐ¸
ÑĤÐµÐ»ÑĮ Ð½Ð°Ñı
»Ñİ Ñģ
ĠÐ¿ÑĢÐ°Ð ²Ð°
²Ð»Ñı Ñİ
ĠÐ´ Ð°Ð»ÑĮÐ
ĠÐ²Ð¾Ð» Ð¾Ñģ
ĠÐ¾Ð¿ ÐµÑĢÐ°
ĠÐ¾Ð± ÑĢÐ°Ñī
ĭ ÑĤÐ°
ĠÑĥÐ ³Ð¾Ð»
ĠÐ¾Ð±Ðµ ÑģÐ¿Ðµ
¸ ÑĩÑĤ
ĠÑĥÐ ²Ð°Ð
Ð´Ñ Ģ
Ð ¸ÑĩÑĤ
ĠÑıÐ·ÑĭÐ º
Ð¿ ÑĥÑĤÐµ
ĠÐºÐ¾ÑĢÐ ¾ÑĤ
¶Ð´Ð° Ñ
Ð¿Ð¾Ð¼ Ð¸Ð½Ð°
ĠÑģÐ»ÐµÐ´ ÑĥÐµÑĤ
²Ð ¸Ð»Ð¸ÑģÑĮ
ĠÑĤÐµ ÑħÐ½
Ġ w
Ð¸Ð ²Ð°Ð»
ĠÑĢÐµÐ³ Ð
9 9
ĠÐ»ÑİÐ±Ð ²Ð¸
Ð¶ÐµÑ Ĥ
Ð»Ð¸ Ð²Ð¾
ĠÐ²Ð ½Ð¸Ð·
ĠÐĵ Ð¾ÑģÐ¿
ĠÑĥÐ±Ð ¸Ð¹
ĠÐ»ÑİÐ±Ð¾Ð² Ñ
ĠÐ»ÑİÐ±Ð¾Ð²Ñ Į
ĠÐ¿ÑĢÐ¾ÑĤ ÑıÐ
ĠÐ¼Ð°ÑĤÑ Į
ÑħÐ¾Ð´ Ð°
ĠÑĥÐ²Ðµ ÑĢÐµÐ½
ÑĢÐ°Ð½Ñ Ĥ
! Â»
ĠÐ¿Ð¾Ð·Ð ¸
ĠÐŁ ÐµÑĤ
Ð´ÑĤ Ð
ĠÐ²Ð µÑģ
ĠÐŁ ÑĢÐ¾Ð´
Ġ Ð±ÑĢÐ°
ĠÐ±Ð ¾Ð¹
ĠÐ¿ÑĢÐ¾Ðµ ÐºÑĤ
Ð¿ Ð¾Ñı
Ð´ÑĤÐ ¸
ĠÑħÐ¾ÑĩÐµ ÑĪÑĮ
Ð°Ð½ Ð¾Ð²
4 0
ĠÐ¿Ð¾Ñģ ÑĤÐ°
Ĥ ÑĢÑı
ĠÐ¿ÑĢÐµÐ´Ð¿ Ð¾Ð»
ĠÐ²Ð»Ð°ÑģÑĤ Ð
ĠÐ¿ÑĢÐ¾Ð¸Ñģ ÑħÐ¾Ð´Ð¸ÑĤ
ĠÐ¼Ð ³
³ ÑĢÐ°Ð½
¶Ð½Ñ ĭ
Ð°Ð ±Ð¾
ı Ð»Ð°ÑģÑĮ
ĠÑģÐµ Ñ
· ÐµÐ¹
ĠÐ¿Ð¾Ð´ Ð¿Ð¸Ñģ
ĠÐ¡ Ðº
ĠÐ¼Ðµ Ð´Ð¸
Ð ³Ð»ÑĥÐ¿
ÑĢÐ¸ Ð»Ð°
Ġ ÑģÑĤÐ¾ÑıÐ
Ð´ÐµÐ»Ñ Į
ĠÑĢÐµÐ±ÐµÐ½ ÐºÐ°
ĠÑĪ Ð°Ð³
ĠÐ¼ ÑıÐ³
ĠÐ½ÐµÐ¾Ð±ÑħÐ¾Ð´Ð¸ Ð¼Ð¾
Ð »ÑĥÐ
Ð¸ÑĨ Ðµ
ĠÐºÐ¾Ð¼ Ð½Ð°
ĠÐ¿ÑĢÐ¸ ÑĪÐ»Ð¾ÑģÑĮ
ĠÑį ÐºÐ¾Ð½Ð¾Ð¼
ĠÐ³Ð»Ð°Ð²Ð ½Ð¾Ðµ
² ÑĪÐ¸Ð¹
½Ñİ Ñİ
Ð·Ð°Ð½ Ð
Ð¾ÑĤÑ Į
ÑģÑĤÐ²ÐµÐ½ Ð½ÑĭÐ¹
Ġ Ð¸ÑģÑĤ
ĠÐ£ Ð
ÐµÐ·Ð ½
I I
ĠÐ¿Ðµ ÑģÐ½
ĠÐ³Ð»Ð°Ð·Ð° Ð¼Ð¸
ĠÐ¿ÑĢÐµ ÑģÑĤÑĥÐ¿
ÑĢÐ ½Ð¾Ð¹
ĠÐ²Ð¾Ð· Ð
ÑĢÑĭÐ ¹
ÑĩÐ¸Ðº Ð
ĠÐ±Ð¾Ð»ÑĮ ÑĪÐ
¶ÐµÐ½Ð¸Ðµ Ð¼
ÑĩÐ¸ÐºÐ ¸
ĠÑĢÑĥÐºÐ° Ñħ
ÑĢÐµ Ð¼ÐµÐ½Ð½Ð¾
Ð¾Ð ¶
ĠÐ¿Ð¾Ð¼Ð¾ ÑĩÑĮ
Ð¾ÑĤÑ ĭ
ĠÐ²Ð»Ð°ÑģÑĤÐ ¸
ĠÐ¾ÑĪÐ¸ Ð±Ð
¸ Ð´Ð¸
â ľ
Ðĺ ÐĲ
ÑĢÑıÑĤ Ñ
a k
ĠÑĩÐ ¸Ñģ
ÐĽ Ðŀ
Ð»Ðµ Ð´
Ðµ ÑģÐ»Ð¸
ĠÐ½Ð°Ñģ ÑĤÑĥÐ¿
ĠÐ¸Ð¼Ð ¿Ðµ
ĠÑĢÐ¾Ð ¶Ð´ÐµÐ½Ð¸Ñı
ĠÑĥÐ´Ð¾Ð² Ð¾Ð»ÑĮÑģÑ
Ġ ÑĢÐ¾Ð¼
ĠÐ¾Ð¿Ð° ÑģÐ
ĠÐ¾Ð´Ð ½Ð¾Ð¼
Ð¸Ð· Ð
ĠÐºÑĥÐ¿ Ð
ĠÐ²Ð· ÑıÑĤÑĮ
Ð ²Ð¸Ð¸
ÑĢÑıÑĤÑ Į
ÑĩÐ¸Ð» Ñģ
ÑĩÐ¸Ð»Ñģ Ñ
Ñĳ ÑĤÑģÑı
ÑĩÐ¸Ð»ÑģÑ ı
ĠÑįÐº ÑģÐ¿Ðµ
ÐµÑģÑĤ Ð²ÐµÐ½
ĠÐ¼Ðµ ÑĢÐµ
ĠÐ±Ð »
ĠÐ¾Ð± Ñĥ
Ġ Ð°Ð»ÑĮ
ĠÐ¿Ð¾Ñ ĩÑĥÐ
ĠÐ½Ð° Ñħ
ĠÐ¿ÑĢÐ ¾ÑıÐ
ÑĪÐ ½
² ÑĩÐµÑĢÐ°
ĠÐ¾Ð±ÑıÐ·Ð° ÑĤÐµÐ»ÑĮÐ½Ð¾
Ð ²ÑĩÐµÑĢÐ°
ĠÐ¿ÑĢÐ¸Ð ²Ð»Ðµ
ĠÐ´ÑĥÐ¼ Ð°Ð»
ĠÐĳ ÑĭÐ
Ġ Ð°Ð½ÑĤ
Ģ Ñħ
ĠÐºÑĥÐ¿Ð ¸
Ð¼Ð¾ÑĤ ÑĢÑı
¶Ð´ Ñ
ĠÐ²Ð ·Ñı
ĠÐ´Ð¾Ð¼ Ðµ
ĠÑĥÐ»Ð¸ ÑĨÐµ
ĠÐ¿Ð¾Ð¼Ð¾Ñī ÑĮÑİ
ÑģÐ¾Ð» ÑİÑĤ
ĠÐºÐ¾Ð½ ÑĨÐ°
ĠÐļ Ð¾Ð½ÐµÑĩÐ½Ð¾
ĠÑģÐµÑ Ĥ
ÑĪÐ¸ Ð¼Ð¸
ĠÐ½Ð¸Ð ·
ĠÐ´Ð°Ð»Ðµ ÐºÐ¾
ĠÐ¿Ð¾Ð¼Ð ½
ÑĢÑ ī
ĠÑĥÐ´ Ð°Ð»Ð¾ÑģÑĮ
ĠÐ¸Ð· Ñĥ
Ġ Ð³Ð»ÑĥÐ¿
ĠÐ¶Ðµ Ð»Ð°Ð½
Ð¢ Ñ
ĠÑĢÐµ ÑĪÐµÐ½Ð¸Ðµ
ĠÐ¿Ð¾Ð»Ñĥ ÑĩÐ¸ÑĤÑĮ
ĠÐ³ÑĢÐ°Ð¶Ð´ Ð°Ð½
ÑĩÐ°Ð ½
ĠÐº Ð»Ñİ
³Ð°ÑĤ Ñ
ĠÐºÐ¾Ð¼ Ð¼ÐµÐ½ÑĤÐ°
ĠÑĥÐ¿ ÑĢÐ°Ð²
i k
Ġ Ð¿ÑĥÑĤÐµ
ĠÐ¿ÑĢÐ¾Ð¸Ð·Ð ²Ð¾Ð´
¶Ð° Ð»Ð°
ĠÑĨ ÐµÐ½Ñ
ÐĴÑ ĭ
ĠÑĢÑĥÐº Ð¾Ð¹
o g
ĠÐ½Ð°Ñģ ÑĤÑĢÐ¾ÐµÐ
Ð°Ð½ Ð½ÑĭÐ¼
Ġ: )
Ð¿ Ð¾Ð³Ð
½Ð¸Ð¼Ð°Ñ Ĥ
Ġ Ð¿Ð¾Ñı
Ð¼Ð µÑģÑĤ
ĠÐº Ð¸Ð½
ĠÑģÐº Ð
ĠÐ½Ðµ Ñĳ
ĠÑıÐ ½
· ÑĥÐ
½Ð¸Ð¼Ð°ÑĤ Ñ
½Ð¸Ð¼Ð°ÑĤÑ Į
ĠÑĤÑĭÑģ Ñ
ĠÐ¿ÑĢÐ¸ ÑĢÐ¾Ð´
ĠÐ»ÑİÐ´Ñ ıÐ¼
ĠÑĤÑĭÑģÑ ı
Ð´Ð ½
i v
Ģ ÑĪ
¾Ñ ĤÐ¾
Ð¾Ð»Ð¸ Ñ
ĠÐ¾ÑĤ Ð¼ÐµÑĤ
ĠÑĥÑĩÐ°ÑģÑĤ Ð¸Ðµ
ÑĥÐ½ Ñ
Ð ³ÑĢÐ°Ð½
³ ÐµÐ¹
Ð½Ð°Ð ½
ÑĢÐ°Ð ¿
ĠÐ¿Ð¾Ð´ ÑĢÐ¾Ð±Ð
ĠÑģÐ ¸Ñħ
ĠÑĤÑıÐ ¶Ðµ
ĠÐĿ Ð
ÑĢÐµ Ð¿
Ð ¸Ð´Ð¸
ĠÐºÐ°Ð¶Ð´ Ð¾Ð³Ð¾
ĠÐ½ÐµÐ´Ðµ Ð»Ñİ
ÑĩÐ ½ÑĥÑİ
ĠÐ¸Ð³ ÑĢÑĥ
ĠÐ¼ÑĥÐ ¶Ð
ĠÐ¿Ð¸ÑģÐ° Ñ
ĠÐ¿Ð¸ÑģÐ°Ñ Ĥ
ĠÐ¿ÑĢÐ¾ÑĤ Ð¸Ð
Ð ²Ð¾Ð´Ð¸
ĠÑĢÑĥÐºÐ° Ð¼Ð¸
ĠÐ¾Ð´Ð ½Ð¸Ð¼
Ġ Ð¿Ð¾Ð³Ð
Ð¾ÑĢÐ ¾Ð´
» ÑıÐ½
Ġâ ĺ
ĠÑģÐ ¸Ð»Ð°
²Ñ ĭÑħ
Ðľ ÐĲ
ĠÐºÐ »ÑĥÐ
¶ÐµÐ ¹
Ð´ ÑĢÐ°
ÑĤÐµÐ»ÑĮÐ ½Ð¾ÑģÑĤÑĮ
¸ ÐµÐ¹
ĠÐ¿Ð¸ÑģÐ°ÑĤ Ñ
ĠÐ¿Ð¸ÑģÐ°ÑĤÑ Į
ĠÐ±ÑĭÐ ²Ð°ÐµÑĤ
ÑĤÐµÐ»ÑĮÐ ½ÑĭÑħ
ÑĥÐµ Ð¼
ĠÑģÐ ¸Ð
ĠÑģÑĤÐ° Ð½ÐµÑĤ
ĠÑĤÐ°Ðº ÑĥÑİ
Ñ ĮÑĤÐµ
ĠÐ¸Ð³ ÑĢÑĭ
ĠÐŁ Ð¾ÐºÐ°
± ÑĢÐµ
ÑĥÐ ³Ð°
ĠÐ´ÑĥÐ¼ Ð°
ĠÑĢÐ°Ð ·Ð°
ÑģÐ ¸Ð
Ĥ Ð²Ð¾Ð¹
Ð »Ñģ
Ð¢Ñ ĭ
ÑĥÑģ Ðº
Ñ ĤÐ²Ð¾Ð¹
ĠÑģÐ° Ð¼Ð¾
ĠÐ²Ð¼ÐµÑģ ÑĤÐ¾
ĠÐ½Ð° ÐºÐ°
ðŁ Ķ
ĠÐ½Ð° ÑħÐ¾Ð´Ð¸ÑĤÑģÑı
Ð¾ÑģÑĤ ÑĮÑİ
ĠÐ½Ð° Ð¿ÑĢÐ°Ð
Ð»ÐµÑĤ Ð
Ñģ ÑĤÑĭÐ
ÑģÐ ½Ð¾Ð²
Ġ Ð³ÑĢÐ°Ð½
ÑĢÐµ Ð½Ð°
ÑĢÐ¾ ÑģÐ»
³Ð¾Ð² Ð¾
ĠÑĤÐµ ÑĩÐµÐ½Ð¸Ðµ
Ð»Ðµ Ð½Ð°
ĠÑĥÐ ½Ð¸Ð
Ð¢ ÐĲ
Ð¸ÑĩÐµÑģÐº Ð¾Ð¹
ĠÑģÐ² Ð¾Ñĳ
Ġ ...
ĠÐ²Ñĭ Ñģ
i a
ÑĩÐ ¸Ð¼
Ġ Ð¸Ð½Ð°
ĠÐ´Ð°ÑĤ Ñ
ðŁĻ ı
ı Ð´Ñı
ºÐ° Ð
Ð»Ð°Ð ½Ð¸Ðµ
ĠÑģÐ ¸Ð½
ĠÑģÐµÐ ·
ÑĤÐµ Ð»ÐµÐ¼
Ð¾Ð ¶ÐµÑĤ
ĠÑĤÐµ Ð»Ð°
ÑħÐ¾Ð´ Ð¸Ð¼
ÑīÐ°Ñ Ĥ
ĠÐĴÐ»Ð° Ð´Ð¸
ĠÐ·Ð° Ð´
ĠÐ½Ð° Ð¿Ð¸
Ġ ÑĨÐ¸
Ġ ÑĢÐ¸Ñģ
e c
Ð»Ð¸ Ð²ÑĭÐ
ðŁĺ Ĭ
ÐºÐ¾ ÑĢÐµ
ĠÐ´Ð²Ðµ ÑĢÐ¸
ĠÐ½Ð¸ÐºÐ° Ðº
Ð° ÑĤÑĮÑģÑı
ĠÐŁ Ð¾Ñģ
Ñģ ÑĤÐ¸Ñħ
ĠÐ´Ð¾Ð² Ðµ
¶Ð ¸Ð½
Ð¾Ð ¶Ð½Ð¾
ĠÐĵ Ð´Ðµ
ĠÐ±Ð¾Ð»ÑĮ ÑĪÐ¸Ð½
ÑĩÐº Ð¾Ð¹
Ġ ÐµÑģÑĤ
Ð·Ð° ÑĨÐ¸Ð¸
ĠÐ½ÑĥÐ ¶ÐµÐ½
ĠÐĿÐ ¸
³Ð°ÑĤÑ Į
Ð±Ð ¾Ð¹
ĠÐ·Ð° Ð²Ðµ
ĠÐº ÐµÐ¼
Ĥ Ð²Ð¾Ð²
¶ Ð°Ð»Ð¸
ĠÐ¿Ð¾Ð´ Ð¾Ð·
ĠÐĳ ÐµÐ·
ĠÐ³Ð¾Ð´ Ñ
Ð»Ð°Ð ³
ĠÐ³Ð¾Ð´Ñ ĭ
ĠÐ²Ð¸Ð ¶Ñĥ
ĠÐ¿Ð¾Ð» ÐµÐ·
Ð¿ ÑĥÑĤÑĮ
ÑĢÐ ½Ð°
2 2
¾ÑĢÐ ¾Ð´
ÑĩÐ ½Ð¸Ðº
Ñ ıÑģÑĮ
ÑĢÐ°Ð½ ÑĨ
ÑĪÐ° Ð»Ð°
ĠÐ³Ð¾Ð»Ð¾Ð² Ðµ
ÑĩÐ¸ ÐºÐ°
Ð¸Ðº Ðµ
ĠÑĪÑ Ĥ
Ðľ Ðŀ
ĠÑģÐµ ÑĢÐ
Ð»Ð¸ Ð±Ð¾
¶ÐµÐ »
ÑİÑīÐ°Ñ ı
Ðº ÑĤÐ°
ÑĥÐ´ Ð
Ð¾ÑĢÐ ¾Ð¼
Ĥ Ð¸Ð¿Ð°
Ð¼Ð¸Ñ Ĥ
ĠÐº Ð¾ÑģÑĤ
±Ñĥ ÑĢÐ³
ĠÐ·Ð°Ð ½Ð¸Ð¼Ð°
ĠÐ½Ð¾ÑĢÐ¼ Ð°Ð»ÑĮÐ
¹Ð ½
o c
Ñ ĤÐ¸Ð¿Ð°
²Ð¸ Ð»Ð°ÑģÑĮ
Ð½Ð°Ñ ĤÑĥ
¿ÑĢÐ ¾Ñģ
Ġ Ð¿ÑĥÑĤÑĮ
ĠÐľ Ð¸Ñħ
¾ÑĤ Ð¸Ð²
ĠÑį Ð¼Ð¾
ĠÐ´ÐµÐ²Ñĥ ÑĪÐºÐ¸
ÑģÐ¸ Ñİ
ĠÑģÐ°Ð¼Ð ¾Ð»
ĠÐ¿Ð¾Ð¼Ð¾ ÑīÐ¸
²Ð°Ð» Ð¾
ĠÐ´ÑĥÐ¼Ð° Ñ
Ð ²Ð¾ÑģÑĤ
¸ Ð´ÑĤÐ¸
Ð ¸Ð´ÑĤÐ¸
ÑģÐ ¸Ð²
Ĥ Ð¾ÑıÑĤ
Ð´ÐµÐ ²
8 0
ÑĤÐµÐ»Ñ ıÐ¼
ĠÐ¾Ð¿ Ðµ
ÑĢÐµÐ» Ñ
ĠÐ¾Ð¿ ÑĭÑĤ
ĠÐ½Ðµ Ð½Ð°
ĠÐ¾Ð¿ Ð¸Ñģ
¸ ÑĪÑĮ
ĠÐ·Ð°Ð¼ÐµÑĤ Ð¸Ð»
ĠÐºÐ°Ðº Ð¸Ð¼
Ð»Ð° Ð²Ð
Ġ Ð²Ð¾Ð´Ð¸
ÐĺÐ ½
ĠÐ¾ÑĤ Ð´ÑĭÑħ
ÑĢÐ°ÑĤ Ð
ĠÐºÐ¾ ÑĢÐ¸
Ð´Ð° ÑİÑĤ
ÑĤÐ¾ ÑĢÑĭ
ĠÐ¾ÑĤÐ½Ð¾ ÑģÐ¸
Ĥ ÑĥÐ
¸ Ð±Ð¾
ÑģÐº Ð¾Ð¼Ñĥ
ĠÐľÐ¾Ð ¶Ð½Ð¾
Ġ ÑĤÑĢÐµÐ½
¸Ð»Ñ Į
Ñ ĤÑĢÑı
w s
Ġ Ð¸Ð´ÑĤÐ¸
ĠÐ²Ð¾Ð» Ð¾ÑģÑĭ
ĠÐ¸Ð½Ð° ÑĩÐµ
ĠÐ½Ðµ Ð¾Ð¶Ð¸
ĠÐ´ÑĢÑĥÐ³ Ð¾Ð¼
Ðµ Ð´Ðµ
* *
ĠÐ¾ÑĩÐµ ÑĢÐµ
Ġ ÑģÑĤÐ¸Ñħ
ĠÑģÐµÐ »
ĠÐ²Ð· ÑıÐ»
Ð ¸Ð±Ð¾
ı Ð´ÑĭÐ
Ñ ıÐ´ÑĭÐ
ĠâĢ ¢
» ÑıÐ´ÑĭÐ
ĠÐ¼Ð³ Ð½Ð¾Ð²
ĠÐľ Ð¸Ð½
ÑĢÐ°Ð »Ð¸ÑģÑĮ
³ Ð¾Ð½
ÑĩÐ° Ð¼Ð¸
ĠÐĹ ÐĲ
ÑģÐº Ñĥ
ÑĢÑ į
ðŁĺ į
ĠÐ¿Ð »
ĠÐ½Ðµ ÑĢÐ
Ġ Ð²ÑĩÐµÑĢÐ°
ĠÐµ Ð´Ð²Ð°
ĠÑģÐ½Ð° ÑĩÐ°Ð»Ð°
Ð¾Ð³ Ð°
ÑĢÑĤÑ Į
ÑĤÐµ ÑĢÐ°
± ÑĥÑĤ
ĠÑħ Ð²Ð°ÑĤ
ĠÐ²Ð° ÑĪ
ÑĢÐ ½ÑĭÐµ
Ĥ Ð²Ð¸Ð¸
Ð°Ð ¶Ð
Ġ O
ĠÐķ ÑīÐµ
Ð¾Ð½Ð¸ Ñ
Ð¾Ð² ÑĭÐµ
Ġ Ð»Ñģ
Ð ·ÑĥÐ
Ð´Ð°Ð² Ð½Ð¾
ĠÐºÐ° Ð·Ð°Ð»Ð¾ÑģÑĮ
ĠÐ¡ Ð°Ð¼
ĠÐ¿ÑĢÐ¸ Ð¾Ð±
o k
Ĥ Ð²Ð¾ÑĢ
ĠÑģÐ°Ð¼ ÑĭÐµ
Ġ Ð¿Ð°Ð»
Ñ ĤÐ²Ð¾ÑĢ
ÐµÐ»Ñ ı
Ð°Ð½ Ñģ
ĠÐ´Ñĥ ÑħÐ¾Ð²
Ĥ Ð¾Ð»ÑĮ
6 0
² Ð¸Ð²
ĠÐ¼Ð¾ Ñİ
Ġ4 0
Ð½Ð°ÑĤÑ Į
ĠÐºÐ°ÑĩÐµÑģ ÑĤÐ²Ðµ
²Ð¾Ð ¿
ĠÑĢÐ° ÑģÐ¿ÑĢÐ
Ð°Ð¹Ñ Ĥ
Ñī Ñĥ
Ĥ Ð¸ÐºÐ°
Ñģ ÑĢÐ¾Ðº
ĠÑĩÐµÐ»Ð¾Ð²Ðµ ÑĩÐµÑģÐº
Ñģ ÑĩÐµÑĤ
ĠÐĶ Ð°Ð²
Ð ±Ð°Ð»
ÑĪÐ »ÐµÐ½
ĠÐºÐ¾Ð»Ð¸ ÑĩÐµÑģÑĤÐ²Ð¾
²Ð° Ð»Ð°ÑģÑĮ
a Ñ
² Ð¾Ñı
ĠÑĦ ÑĥÑĤÐ±Ð¾Ð»
»Ð°Ð ³
ĠÐ²Ð½ÑĥÑĤ ÑĢÐ¸
Ð¸ÑĩÐµÑģÐº Ð¸Ñħ
ĠÐ¾ÑĤÐ½Ð¾ ÑĪÐµÐ½Ð¸Ñı
ĠÐ²ÑĭÐ ·ÑĭÐ
ÑĮÐ ±Ð°
Ð´Ð° Ð»Ð°
ĠÐ½Ð° Ð·Ð½Ð°
ĠÐ¶ÐµÐ »
ÑĢÐ¸Ðº Ð
Ñ ĤÐ¾ÑıÑĤ
ĠÐ¡ ÐµÐ³Ð¾Ð´Ð½Ñı
ÑĤÐ°Ð½Ð¸ Ñ
ĠÐºÑĥÐ¿Ð¸ Ñ
ĠÐ¸Ð³ ÑĢÐ°
ÐĶ Ð
ÑħÐ¾Ð´ ÑıÑī
ĠÐ·Ð½Ð° ÑĩÐ¸
ĠÐºÑĥÐ¿Ð¸Ñ Ĥ
Ð ¸ÐµÐ¹
ÑĢÐ¸ Ð»Ð¸
ÑĤÐ°Ð½Ð¸Ñ ı
ĠÐ½Ð° ÑĩÐ°Ð»ÑĮÐ
Ñģ ÑģÑĭÐ»
ĠÑĥÑģ Ð¸Ð»Ð¸
ĠÑģÐ¿Ð¾ÐºÐ¾Ð¹ Ð½Ð¾
2 4
! )
ĠÑĥÑĤ ÑĢÐ°
ĠÐ´Ð¾Ð¿ Ð¾Ð»Ð½
ĠÐ¾ ÑĨÐµÐ½
ĠÑģÐ¿ÑĢÐ¾ ÑģÐ¸Ð»Ð°
Ġ ÑģÑĢÐ¾Ðº
ĠÐ½Ð°Ð¿ ÑĢÑıÐ
ĠÐ´Ð ¸Ð²
ĠÐ¿Ð¾Ð·Ð² Ð¾Ð»Ñı
ĠÐ³ÑĢÑĥÐ¿ Ð¿Ð°
ĠÐ´ÑĢÑĥÐ³ Ð¾Ðµ
ĠÑģÐ¾Ð² ÑĢÐµÐ¼ÐµÐ½
ÑĤÑĢÐ ¾Ð¹
Ñ ĤÑĥÐ
ĠÐ´ÐµÐ»Ð° ÐµÑĤ
Ð»Ðµ Ðº
¿ Ð°
ĠÐ¼Ð¾Ð¶Ðµ ÑĪÑĮ
Ñ ĤÐ¾Ð»ÑĮ
ÑĢÐ¸ÐºÐ ¸
ĠÐ²Ð¸ Ð´ÐµÑĤÑĮ
ĠÑĢÐµ Ð´Ðº
ĠÑĥÐ »
±Ð¸ÑĤ Ñ
Ð¸Ð½ Ðº
ÑĩÐ ¸Ðµ
Ġ [
ĠÐ´Ð¾ÑģÑĤ ÑĥÐ¿
ðŁ į
ĠÐ¿ÑĢÐ¸ Ð´ÑĥÐ¼
² Ð°Ð½Ð¸Ñı
ÐºÐ¾Ð»ÑĮ ÐºÑĥ
ĠÐ¿Ð¾Ð¿ Ñ
ÑĢÐµÐ ³
ĠÐºÐ°Ð ½
ĠÑĩÐ¸ ÑģÐ»Ðµ
ĠÐ¼Ð° ÑģÑĤÐµ
Ð´Ð ½ÐµÐ
Ð¸Ðº Ñĥ
±Ñı ÑĤÐ°
ÑĢÑĤÑ ĭ
Ð°Ð½Ð ½Ð¾Ð³Ð¾
ĠÐ²Ð°ÑĢÐ¸ Ð°Ð½ÑĤ
ÑĥÑ į
ĠÐ²ÑĭÐ ±
Ð»Ð¸Ð ¸
Ġ Ð·ÑĥÐ
³ ÑĢÑıÐ
ÑģÐ¸Ð» Ñģ
Ġ ÑĤÐ²Ð¾Ð¹
ÑģÐ¸Ð»Ñģ Ñ
ĠÐ¾ÑģÐ ²Ð¾Ð
ÑģÐ¸Ð»ÑģÑ ı
ĠÑħ Ð¾Ð·Ñı
Ñĥ Ñħ
ĠÐ¿Ð¾Ð² Ñ
ĠÐ²ÑģÑĤÑĢÐµ ÑĩÐ°
ÑĩÐ ¸Ð¹
ĠÑĥÐ¼ Ð
Ġ v
ĠÐ¾ÑĦÐ¸ ÑĨÐ¸Ð°Ð»ÑĮÐ
ÑĢÐµ ÑĨ
² Ð´Ð
ĠÑħÐ¾ÑĤ ÐµÐ»Ð°
ĠÐ¿Ð° ÑĢÐµÐ½ÑĮ
¸ Ð°
ÑīÐ°ÑĤ Ñ
ĠÐ¥ Ð¾
²Ñĥ Ñİ
ÑīÐ°ÑĤÑ Į
Ġ ÑĤÐ¸Ð¿Ð°
ĠÐ²Ð¿Ðµ ÑĢÐµÐ´
ÐºÑĤ Ð¾ÑĢ
ĠÑģÐ°Ð¼ ÑĭÐ¼
ĠÑį ÑĤÐ°Ð
ĠÐ³Ð¾Ð² Ð¾ÑĢÑİ
ĠÐ¿Ð¾ÑģÐ¼Ð¾ÑĤ ÑĢÐµÐ»
ĠÐ½ÐµÐºÐ¾ÑĤ Ð¾ÑĢÑĭÐµ
±ÑĢÑĭÐ ¹
ĠÐ¿ÑĢÐ¾Ð ¸Ð·Ð½ÐµÑģ
½Ð¾Ð²Ð ¸ÑĤÑģÑı
ĠÐ±Ð ¸Ð·Ð½ÐµÑģ
Ġ Ð¿Ð°Ð½
ĠÑģÑĤÐµÐ ¿
ÑĢÐ ²ÑĭÐµ
ÑĨ ÐµÐ
ÑĢÑĭÑĤ Ñ
ĠÐ°Ð ²Ð
ÑĢÐ°Ð½Ð¸ Ñ
ÐºÐ¾Ð¼ ÐµÐ½
ÑĥÐ±Ð »Ð¸
Ġ ÑģÑģÑĭÐ»
ĠÐļ Ð¾
ĠÐľ Ðµ
ĠÐ¾ÑĤÐº ÑĥÐ´Ð°
ÑĩÐµÐ ²Ð¸
ÑĥÑ Ħ
ĠÑĤÑĢÐµ Ñħ
ĠÐº Ð¾ÑĢÐ¼
ĠÐ¿ÑĢÐ¾ÑĤ Ð¸Ð²Ð
ĠÐ¼Ð½Ð¾Ð³Ð ¸Ñħ
ĠÐºÐ¾ÑĢÐ ¾Ð»
ĠÐ·Ð° ÐºÐ°
ĠÐºÐ° ÑĢÐ¼
ĠÐ¿Ð° ÑĢÐ
ÑĤÐµÐ»Ñ ıÐ¼Ð¸
c e
Ð¾Ð»Ð¸Ñ Ĥ
Ġ Ð¿ÐµÐ½
ĠÐ¿ÐµÑĢÐµ Ðº
Ð¸Ð ²Ð°ÑĤÑĮ
Ð¼Ð ¾Ð»
ĠÐ¾ÑĩÐµÑĢÐµ Ð´ÑĮ
Ñģ Ð°Ð»
³ Ð¾Ð¼
ĠÑģÑĢÐ°Ð ²Ð½
ÑĥÐ³ Ð
ĠÐ¼Ð° ÑĤÐµ
ÐŀÐ Ļ
Ð¢ Ð¬
Ġ Ð»Ð¾Ð²
Ð ²Ð°Ð»Ð¸
²ÐµÑĢÑħ Ñĥ
Ð ³ÑĢÑıÐ
Ð ²ÐµÐ
ĠÐ²Ð° ÑĪÐ¸
ÑģÐº Ðµ
Ð¿ÑĢÐ¾ ÑĩÐµÐ¼
ÑĢÑıÐ ½
ı ÐºÐ°
Ġ2 1
Ð ·ÐµÑĢÐ
ÑģÐµÐ½ Ð
ĠÐĶ ÑĥÐ¼
Ð·Ð° Ð½Ð¾
ĠÐ·Ð° Ð¿Ð
ĠÑıÐ ²Ð½Ð¾
ĠÑģÐ¿ Ð¾ÑĢÑĤ
ĠÐ½ÑĥÐ ¶Ð½Ð°
³Ð°Ñ ı
ĠÑĢÐ°Ð· Ð½ÑĭÐµ
ĠÐ¿ÑĢÐµÐ´ÑģÑĤÐ°Ð ²
ĠÑģÐ¾Ð ¶Ð°Ð»
ĠÐ¼ÐµÐ´Ð »ÐµÐ½Ð½Ð¾
Ð¸Ð² Ð½Ð¾
ÑĩÐ ½Ð¾Ð¼
² Ð¸Ð¹
± Ñİ
ĠÑĥÑĤ Ð²ÐµÑĢÐ
Ðľ Ðĺ
ĠÑģÐ¾Ð ±Ð
ÐºÑģ Ñ
²Ð»Ñı ÐµÑĤÑģÑı
ÐŁ Ð¾Ð´
Ð»ÐµÐ½ Ð¸Ñİ
Ġ ÑĤÑĢÐ°
ĠÐł Ð°Ñģ
ÑĢÐ½ Ñ
ĠÐ´Ðµ ÐºÐ°Ð
ĠÐ¾ÐºÐ° Ð·ÑĭÐ
Ð½Ð° Ð¼
ĠÑĨ ÐµÐ»Ð¸
Ðł Ðķ
Ð½Ð°Ð´Ð »Ðµ
ĠÐº Ð¾ÑĦ
ÑĤÐµÐ»ÑĮÐ ½Ð¾Ð³Ð¾
Ð²Ð¾Ð ·
Ġ Ð²ÐµÐ·
ĠÑĥÐ·Ð½Ð° Ñ
ĠÑĥÐ·Ð½Ð°Ñ Ĥ
ÑĤÐµÐ»ÑĮÐ ½ÑĭÐ¼
ĠÐ²Ñĭ ÑĪÐµÐ»
ĠÑĥÐ·Ð½Ð°ÑĤ Ñ
ĠÑĥÐ·Ð½Ð°ÑĤÑ Į
ĠÐ° Ñģ
Ġ2 2
Ġ K
ĠÐ¼Ðµ ÑĤÐ°
ĠÐĶ Ð¾Ð±
¶Ð ¸Ð»
Ð°Ðº Ð¾Ð½
ĠÐ´Ð°ÑĤÑ Į
ĠÐ½Ð° Ð¿Ð°
ĠÐł ÐĺÐĲ
Ñ ĤÐ¸Ð²
Ġ g
ÑĩÐµÐ ·
ÑĥÐ½ Ð
ĠÐº Ð¾Ðµ
ĠÐ´Ñĥ ÑĪÐ¸
ĠÐ¿ÑĢÐ¸ Ðµ
ĠÐ²Ð¾Ð· ÑĢÐ°
ĠÐĵ ÐµÑĢÐ¼
ĠÐ¿Ð¾Ñģ ÐºÐ¾Ð»ÑĮÐºÑĥ
ĠÑģÐ¾Ð ·Ð½Ð°Ð
Ð²ÑĭÐ º
ĠÐ°Ñ Ĥ
ÑĢÐ ³Ð°
ĠÐ¿Ð¾ÑģÐ¼Ð¾ÑĤ ÑĢÐµÑĤÑĮ
¸ ÑĢÐ°
â ĺ
Ð¾Ð ¶ÐµÐ½
Ð¾ÑĢ ÑĤÐ°
ĠÐºÑĥÐ¿Ð¸ÑĤ Ñ
ĠÐ´ÑĢÑĥÐ³ Ð¸Ð¼
ĠÐºÑĥÐ¿Ð¸ÑĤÑ Į
ĠÐ²Ð°Ð ¶Ð½Ð¾
ĠÐ¿Ð¾Ð²Ñ ĭ
ĠÐ¼ÐµÑģÑı ÑĨÐ°
ĠÐ¼Ð°Ñ ı
ĠÐ¿Ð¾Ð² ÐµÑĢ
Ð°ÑģÑĤ Ñ
ĠÐ¿Ð¾Ð»Ñĥ ÑĩÐ¸Ð»
ĠÐ±Ð¾Ð» ÐµÐ·Ð½
Ð»Ð°Ð½ Ñ
ÑģÐº Ð¾Ð»ÑĮÐºÐ¾
ĠÐ§ ÑĤÐ¾Ð±Ñĭ
Ð¼ÐµÑĤÑ Į
ĠÐ°Ð± ÑģÐ¾Ð»ÑİÑĤ
ĠÐĶ Ð¶Ðµ
ĠÐ·Ð°Ð ±
Ġ n
Ġ h
ÑĢÐ°Ð·Ð ¸
ĠÐ° Ð½Ð°
ĠÑģÐ¾Ð ¿
Ð¸Ð² Ð°ÐµÑĤ
ÑģÐºÐ° Ð
¾Ð² Ð°
ĠÐ¼Ð ¸Ð»
Ġ Ð³ÑĢÑıÐ
-- --
ĠÑģÐ ²ÐµÐ
ĠÐ³Ð¾Ð²Ð¾ ÑĢÑı
² Ð·Ð°Ð
½Ð¸ÑĨ Ðµ
ÑĢÐ°ÑĤÐ ¸
ÐµÐ½Ð ½Ð¾Ð¹
ĠÑĥÐ´ Ð¾Ð±Ð
Ð ²Ð·Ð°Ð
Ġ2 3
Ġ2 4
ĠÐĲÐ»Ðµ Ðº
ĠÐĿÐ¸Ðº Ð¾Ð»
ĠÐĹÐ´Ð µÑģÑĮ
ĠÐ½Ð° ÑĩÐ¸
ĠÑģÐ²Ð¾Ðµ Ð¼Ñĥ
ĠÐ´Ðµ ÑĤÑģÑ
ĠÐ½Ð° ÑĩÐ
ĠÐ·Ð° Ð¼
ĠÐ¿ÑĢÑı Ð¼
Ð ¸ÑĪÑĮ
ĠÐ²Ð· Ð´Ð¾Ñħ
ĠÐ²ÑģÐµ Ð¼Ñĥ
ĠÐ¿Ð¾Ð´ÑĥÐ¼ Ð°Ð»
ĠÑģÐ¸ÑĤÑĥÐ° ÑĨÐ¸Ð¸
ĠÑĦÐ°Ðº Ñ
ĠÑĦÐ°ÐºÑ Ĥ
ĠÑĢÐ°Ð· Ð½ÑĭÑħ
ĠÑģÐ¿Ðµ ÑĨÐ¸Ð°Ð»
ĠÐ¿Ð¾ ÑĢÑĤ
Ð »Ð¾Ð´
Ð°Ð³Ð ¸
ĠÐ½Ð¸ÐºÐ° ÐºÐ¸Ñħ
ĠÐ¿ÑĢÐ¸ Ð´ÐµÑĤÑģÑı
ĠÐ¼Ð¾Ð ¸Ñħ
ĠÐ¿Ð¾Ð´ ÑĬ
Ġ Ð²Ð°Ð»
ĠÐ¿ÐµÑĢÐ ²Ð¾Ð¹
Ġ Ð¸Ð±Ð¾
ĠÐ´Ñ ĭ
ĠÑĨ ÐµÐ½
ĠÑĥÐ½ Ð¸ÑĩÑĤ
ÑĥÐ° Ð
ĠÑĥÑģ Ð¿Ð¾Ð
ÑĢÑ ĮÐ
ĠÐ¼Ð°ÑĪÐ¸Ð½ Ñ
ĠÐ¼Ð°ÑĪÐ¸Ð½Ñ ĭ
Ð´Ð ¸Ð¸
ĠÐ½Ð¾Ð¼ ÐµÑĢ
Ð´ ÑıÑĤ
ÑĤÐ°Ð½ Ñ
Ð·Ð°Ð½ Ñ
2 7
ĠðŁ İ
ĠÑĤÐ¾ÑĢÐ ³Ð¾Ð²
al l
Ð¼ÐµÐ½Ð¸ÑĤ Ñ
ĠÐ²Ð¾Ð·Ð¼Ð¾Ð¶Ð ½Ð¾ÑģÑĤÐ¸
ĠÐ¾Ð±Ð ¸
ĠÐ´Ð ¸Ðº
ĠÐĴ ÐµÑĢÐ
ĠÑģÐ¾ ÑĨÐ¸Ð°Ð»ÑĮÐ
Ñħ Ð°Ð»
½Ð¾Ð²Ð¸ Ñ
ÑĩÑĳ Ñ
Į ÐºÐ°
ĠÐ½Ð°Ñģ ÑĤÐ¾Ð»ÑĮÐºÐ¾
ÑĩÑĳÑ Ĥ
ÑģÐ¿ Ð°
ĠÑĢÐ ¾ÑĤ
Ð»Ð°ÑĤÑ ĭ
²Ð° ÑİÑĤÑģÑı
Ð¾ÑĤ Ð¾
Ðº ÑĢÐµÑĤ
ĠÐ¿ÑĢÐ¸ Ð½Ð°Ð´Ð»Ðµ
Ð¼ÐµÐ½Ð¸ÑĤÑ Į
Ð¼Ð¾Ð½ Ñ
Ġ ÑĤÐ²Ð¾ÑĢ
²Ð»Ñı ÐµÐ¼
Ð²Ñ ĳ
ĠÑħÐ¾ÑĤ Ð¸ÑĤÐµ
Ġ Ð±Ð°Ð»
ĠÐ½Ð¾Ð² ÑĭÑħ
ĠÑģÐº ÑĢÑĭÐ
ÑĤÐµÐ»ÑĮÐ ½Ð¾Ðµ
ĠÐŁ ÑĥÑģÑĤÑĮ
ĠÑĤÐ¾Ð²Ð° ÑĢÐ¸
Ð¿ ÑĢÑĭÐ
Ð²Ð¾Ð ·ÑĮ
ĠÐºÐ¾Ð½ÐºÑĥ ÑĢÑģ
Ð ²Ð¾Ñı
u l
ÑĩÐ¸ ÑĤÑĮÑģÑı
ĠÐ¿Ð¾ÑģÐ»ÐµÐ´Ð ½Ð¸Ð¹
ĠÐ¿ÑĢÐ¸Ð ½Ð¸Ð¼
Ð°Ð¹ Ð
ĠÑģÐ ²Ð°
Ġ Ð²Ð·Ð°Ð
ÑĢÐ°Ð² Ð´Ð°
Ðľ Ð½Ðµ
ÑĪÐ µÑģÑĤ
ÑĢÐ¸Ð ²
ĠÐ·Ð°Ð½ ÑıÑĤ
ĠÐ¡ ÐºÐ°
ÑİÐ ·
ĠÐ¿Ð¾Ð¼Ð ½Ñİ
± Ð°Ðº
Ð»ÐµÐ½ Ð¸Ð¹
Ó Ļ
ĠÐºÐ°Ðº ÑĥÑİ
Ñģ ÑĢÐµ
Ġ Ð·ÐµÑĢÐ
ĠÑĤÐ¸Ñħ Ð¾
ĠÐŃ Ñ
ÑĩÐ¸ Ð»Ð¸
ĠÐļ ÑĢÐ¾Ð¼Ðµ
ÑģÐ»Ñ Į
ĠÐ¿ÑĢÐ¸Ð¼Ðµ ÑĢÐ½Ð¾
ĠÑĨ ÐµÐ½Ð°
ĠÐ¼ Ð°Ð½
ðŁĺ ģ
Ð ²Ð´Ð
ĠÑģÑĤÐ¾ÑıÐ »
ĠÐ¤ ÑĢÐ°Ð½
Ð »Ð¾Ð¶Ð
ĠÑĤÑĢÐ°Ð ´
ĠÐ´Ð ¾Ð½
ĠÐ¾ÑĤ ÑģÑĥÑĤÑģÑ
ÐºÐ¾Ð½ Ðµ
Ðĳ Ðŀ
ĠÐ¼Ð¸Ð½ Ð¸Ð¼
ĠÐ¸Ð·Ð²ÐµÑģÑĤ Ð½Ð¾
ĠÑģÑĤÑĢÐ¾Ð ¸
ĠÐ¿ÐµÑĢÐ ²Ð¾Ð³Ð¾
ĠÐ·Ð½Ð° ÐµÑĤÐµ
ĠÐ½ÑĥÐ ¶Ð½Ñĭ
2 3
ĠÐ·Ð° ÑıÐ
Ð¿ ÐµÑĤ
² Ð¾Ð»Ð
ĠÑģÑĤÐ°Ð ½Ð¾Ð²
ÑħÐ¾Ð´Ñ ı
ĠÐ³Ð»Ð°Ð·Ð° Ñħ
Ñģ ÑĤÐ¾Ð»ÑĮ
ĠÐ¾ÑĤ ÑĨÐ°
Ð¸ÑĩÐµÑģÐº Ð¸Ðµ
ĠÐ¿ÑĢÐ¸ Ð²Ðµ
ÑĩÐ ¸ÑģÑĤ
Ĥ Ð¸ÐºÐ¸
¸Ð² Ð°ÐµÑĤ
Ð´ ÑĳÑĤ
ĠÐ·Ð° Ð±Ð¾Ð»
ar t
ĠÑģÑĤÑĢÐ° ÑĪÐ
Ĥ Ð²ÑĥÐµÑĤ
ĠÐ¡ Ð°Ð½
ĠÐ¿Ð¾Ð ·Ð°
ĠÑĢÐ°Ð¹ Ð¾Ð½Ðµ
ĠÑģÑĤÑĢÐ°Ð ½Ðµ
ĠÐĿ ÐµÐ
ĠÐ²ÑģÐµ Ð¼Ð¸
ĠÐºÐ° Ð±Ð¸
ĳÐ ½
Ð¾Ð· Ð
ĠÐ¿Ð»Ð¾ Ñħ
ı Ð»Ð¸ÑģÑĮ
ĠÑĢÐ¾Ð´ Ð
Ð²Ð° Ð»Ð°
ĠÐ¶Ð ¸Ð»
ĠÐ½Ð¾Ð² Ð¾Ð³Ð¾
ĠÐ´Ð¾ÑĢÐ ¾Ð
ĠÐ¼ ÑĥÑģ
Ð¡Ð¡ Ðł
² ÑĥÐº
ĠÐ½Ðµ Ð´ÐµÐ»Ð¸
ÑĦ ÑĦ
ĠÐ¿Ð¾Ð½ ÑıÐ»Ð°
ĠÐ½Ðµ Ðº
ÑĢÐ ½ÑĭÑħ
ĠÐ¾Ð±Ð ¾ÑĢÐ
Ĥ ÑĢÐµÐ
ĠÐ¿ÑĢÐ°Ðº ÑĤÐ¸ÑĩÐµÑģÐºÐ¸
ĠÐ¿ÑĢÐ¾Ð±Ð»Ðµ Ð¼Ð°
ĠÐºÐ° Ð·Ð°
Ð¾Ð¼Ð ¸
Į ÑıÐ
ĠÐ·ÐµÐ¼Ð »Ðµ
Ð°Ð»ÑĮ Ð½Ð°Ñı
Ñģ Ð°Ð½
ĠÐºÐ¾ÑĢÐ ¿
¶ÐµÐ½ Ð¸Ð¹
ĠÑĤÑıÐ ¶ÐµÐ»
ĠÑĦÐ¸Ð³ Ñĥ
ĠÑģÑĤÑĢÐ°Ð ´
³ Ð°Ð½
ĠÑĤÐµÑĢÑĢÐ¸ÑĤÐ¾ ÑĢÐ¸Ð¸
ĠÐ²ÐµÑģÑĮ Ð¼Ð°
ÑģÐ ½Ð¾Ð¹
ÑĢÐ ¾Ð»
Ð¸Ð ¾
4 5
ÑģÐ ¸Ð½
ÑĢÑĥÑģÑ Ĥ
ĠÐºÐ½ ÑıÐ
Ñģ ÑĤÐ¾ÑıÑĤ
ĠÐ´ÑĢÑĥÐ³ Ð¾Ð³Ð¾
ĠÐ¸Ñģ ÑĩÐµÐ·
ĠÐ¾Ð³ ÑĢÐ°Ð½Ð¸
»Ð¾Ð¶Ð ¸Ð»
Ð¿ ÑĥÐ
Ġ ÑģÑĩÐµÑĤ
ÑħÐ¾Ð´ Ð¸Ð»
ÑĢÑ ĤÐ¾
ÐĺÐ ·
ĠÐ¾ÑĩÐµ ÑĢÐµÐ´Ð
ĠÑģÐµ ÐºÑģ
ĠÑĦ ÐµÐ²
ĠÑģÑĤÐ°Ð ½Ð¾Ð²Ð¸ÑĤÑģÑı
ĠÐ¿ÑĢÐ ¾Ð»
ĠÐ´Ñĥ ÑĪÐµ
ĠÐºÐ° Ð¿
ĠÐ²Ð· ÑĢÐ¾ÑģÐ»
³Ð¾Ð´ Ð½Ð¾
ĠÐĳÐ ¸
ĠÐ¼Ð° ÑĪÐ¸Ð½Ð°
ĠÐ¼Ð¸ Ð¼Ð¾
Ð±Ð »
e st
Ġ Ð²Ð´Ð
ĠÐ¿Ð¾Ð½ ÑıÑĤÐ½Ð¾
Ð²ÑıÐ ½
Ð¾Ð² ÑĭÐ¹
ÑģÑģ Ð°Ð
ĠÐ½ÐµÑģ ÐºÐ¾Ð»ÑĮ
ĠÑģÐ¿ Ð¾
Ġ ÑģÑĢÐµ
¾ÑĤ Ñĥ
ĠÐºÐ¾Ð¼ Ð½Ð°ÑĤÑĥ
ÑĮÐµ Ñ
Ð¾Ð ·Ð°
½ Ð¾ÑıÐ
ĠÐ±ÑĥÐ´ ÐµÑĪÑĮ
ĠÐ¿Ð »Ð¾ÑĤ
ĠÑĤÐ°Ðº Ð¾Ð¼
Ð¸Ð² ÑĪÐ¸ÑģÑĮ
ĠÑĥÐ´ Ð¸Ð²Ð¸
ĠÐ²Ð½Ð¸Ð¼ Ð°Ð½Ð¸Ñı
ĠÐ¶Ð ¸ÑĤÐµ
Ñ ıÐµÑĤÑģÑı
ĠÐ±Ð»Ð°Ð ³
Ð´Ð ¶Ðµ
ĠÐ¼Ð½ ÐµÐ½Ð¸Ðµ
ĠÐ°Ð²Ñ ĤÐ¾Ð
ÑĢÐµ ÑĤÐ°
ĠÑģÐ²Ð¸ Ð´Ðµ
ĠÐ´Ð¾Ð³ Ð¾Ð²Ð¾
9 5
ĠÑĥÑĤ ÑĢÐ¾Ð¼
²ÑģÑĤÐ²Ð¾Ð² Ð°Ð»
ĠÐĲÐ½ Ð
ĠÐ¾Ð± ÑĢÐ°
Ð½Ð°ÑĤÑ ĭ
Ġ Ð²Ð¾ÑģÑĤ
ÐĽ Ðķ
Ð ½Ð¾ÑıÐ
Ð¾Ð´Ñ ĭ
ĠÐ¾ÑĤ Ð´ÐµÐ»ÑĮÐ
ĠÐ²Ð¸ Ð´Ñĥ
· Ð²ÐµÐ·
ĠÐ¾Ð´ ÐµÐ¶Ð´
¸ Ð¼ÐµÑĤÑĮ
Ð¾Ð °
²ÑģÑĤÐ² ÑĥÐ¹ÑĤÐµ
ÑĩÐ° ÑİÑĤ
Ġ ÑģÑĤÐ¾Ð»ÑĮ
ĠÑĢÐµ ÑĩÑĮ
ĠÐ¾ÐºÐ° Ð·Ð°Ð»ÑģÑı
ĠÐ¸Ð½ Ñģ
ÑĩÐ¸Ðº Ð¾Ð²
ĠÑĪ ÑĥÐ¼
Ð¸ÑĩÐµÑģÐº Ð¾Ð³Ð¾
±Ð¸ÑĤÑ Į
²Ðµ Ð´Ð
ĠÐ¿ÑĢÐ¸ ÑıÑĤ
Ð ²Ð°Ð½
ĠÐ¾Ð± ÑīÐµÐ¼
ĠÑĩÑĥÐ ²ÑģÑĤ
Ðº Ð¾ÑĢÐ
ĠÑģÐ¾Ð ±Ð°
ĠÐ¿Ñ Ĥ
Ð½ÐµÑ Ģ
ĠÐĴ Ð¾Ð»
Į Ð¼Ð¸
Ñ ĮÐ½Ð°Ñı
ĠÑĢÐµÐ·ÑĥÐ»ÑĮÑĤÐ° ÑĤÐµ
ĠÐºÐ¾Ð½ ÑĦ
· Ð¸Ð¸
ĠÐ²Ð¾Ð´ Ñĥ
Ð¾Ð²Ð° ÑĢÐ¸
ĠÑĢÐ°ÑģÐ¿ÑĢÐ ¾ÑģÑĤ
Ð·Ð°Ð½Ð ¸
ĠÑģÐ¼Ð¾ÑĤ ÑĢÐµÐ»
ÑĩÐµÐ½ Ð¸Ð¸
ĠÐ½Ð¾ ÑĩÐ¸
ĠÐ½ÐµÐ¿ ÑĢÐ¸
ĠÐ¿ÑĢÐ¾Ð¸Ð·Ð¾ ÑĪÐ»Ð¾
ĠðŁ Ļ
ĠÐ¾Ð± ÑģÑĥÐ
Ñ ĮÐ¼Ð¸
ĠÑıÐ½ Ð²Ð°
ĠÐ¿ÐµÑĢÐ¸ Ð¾Ð´
Ð°ÑģÑĤÑ Į
ĠÐºÐ½Ð¸Ð³ Ð
ĠÐºÐ½Ð¸Ð³Ð ¸
ĠÐºÐ°Ðº Ð¸Ñħ
¸Ðº Ð
Ð¸Ðµ Ð¼
Ð´Ð ¾Ð¹
ĠÐ¶Ð´ Ð°
ĠÐŃ ÑĤÐ¾ÑĤ
ĠÐ¶Ð´Ð° Ñ
ĠÐ¶Ð´Ð°Ñ Ĥ
ĠÐŃÑ Ĥ
ĠÐĿÐ° Ð´Ð¾
ÑīÐµ Ð¼Ñĥ
ĠÐ½ÑĥÐ ¶Ð
ĠÐ¶Ð´Ð°ÑĤ Ñ
ĠÐ¶Ð´Ð°ÑĤÑ Į
ĠÐº ÑĢÑĭÐ
ĠÐ¸ÑģÐ¿Ð¾Ð»ÑĮÐ· Ð¾Ð²Ð°ÑĤÑĮ
ÑĥÐ ²
ĠÑģÐ» ÑĥÐ
Ð ±ÑĥÑĤ
Ð±Ñĭ Ñ
cÑ Ĥ
Ð´Ð µÑģÑıÑĤ
Ġ Ð½ÑĭÐ
Ñģ ÑĤÑĢÐ¸
ĠÐ²Ð¿Ðµ ÑĩÐ°ÑĤ
ĠÐ½Ð°Ð ³
ĠÐ¾Ð±ÑĢÐ°ÑĤ Ð½Ð¾
ĠÐ·Ð°Ð ²Ð¾Ð´
ĠÑĦ Ð°Ð½
ĠÐ¿ÑĢÐ¸Ð ³Ð¾ÑĤÐ¾Ð²
ĠÐ¿Ð ¸Ð·
ĠÐ´ÑĥÐ¼Ð°Ñ Ĥ
Ð´Ð¸Ð ²Ð¸
ĠÐľÐ¾ÑģÐº Ð²Ðµ
ÑĢÐ°Ð· Ð´Ð¾
ĠÑĨ ÐµÐ½ÑĤ
Ð·Ð° Ð¿Ð
Ġt he
Ġ Ð½Ð¾ÑıÐ
ĠÐł ÑĥÑģ
Ð±ÑĭÑ Ĥ
ÑĥÐ½Ð° ÑĢÐ¾Ð´
ĠÐ´ÑĥÐ¼Ð°ÑĤ Ñ
ĠÐ´ÑĥÐ¼Ð°ÑĤÑ Į
ĠÑģÑĭÐ ½
Ġ ÑĩÐ°Ð¹
Ñ ĤÐ¸ÐºÐ°
Ð ·Ð²ÐµÐ·
ÑĥÐ»ÑĮÑ Ĥ
ĠÐŁÐ¾ÑĤ Ð¾Ð¼Ñĥ
Ð¿ Ð¾ÑģÑĤÐµÐ
ĠÑĦ Ð¸Ð½Ð°Ð½
ĠÐ¼Ð¸ ÑĢÐ¾Ð²
ĠÐ´Ð²Ð¸Ð ³Ð°
ÑĩÐ ½Ð¾ÑģÑĤÐ¸
ÑĮÐµ Ð¼
ĠÑĢÐµ ÐºÐ»Ð°
Ð¾Ð» Ð¾Ð³Ð¸
ĠÑĤÐµ ÑĢÐ¿
½Ð¾Ð²Ð¸Ñ Ĥ
ĠÑĥÐ²Ð¸ Ð´ÐµÑĤÑĮ
»Ð ¸Ð·
Ð ¸Ð¼ÐµÑĤÑĮ
ÐĲÐ ½
ĠÐ¼Ð ¸Ðº
ĠÐļ Ð¾ÑĢÐ
Ð¾Ð½Ð° Ð
ĠÐ¿ÑĢÐ¾ÑĦÐµÑģ ÑģÐ¸
ÐµÑĤÐµ ÑĢÐ
ÑĢÑĤ Ñĥ
Ġ ÑĤÑİ
ĠÑĢÐµ Ðº
ĠÐ´Ð½ Ð
Ð°Ð½ Ð½Ð°Ñı
¾ÑıÑĤ Ð½Ð¾
ĠÐ´Ð ²
ĠÑģÐ¿ Ð
ĠÐ¾ÑģÑĤÐ°Ð »Ð¾ÑģÑĮ
ĠÐ´Ð½Ð ¸
Ð ³ÑĢÐ°
ĠÐ½Ð¾ÑĢÐ¼ Ð°Ð»ÑĮÐ½Ð¾
ĠÐ´ÐµÐ »
ĠÐ½Ð°Ð ¸
Ð²Ð »
Ġ Ð¸Ð´Ð¸
ĠÑģÐ»Ñĥ ÑĩÐ¸Ð»Ð¾ÑģÑĮ
ĠÐ¾Ð±Ð ²Ð¸Ð½
Ġ Ð¸Ð¼ÐµÑĤÑĮ
ĠÐ¿ÑĢÐ¸ Ð²Ñĭ
ĠÐ»Ð¾ ÑĪÐ°
ĠÐ¿Ð¾Ñħ Ð¾Ð¶Ðµ
ÑĢÐµ Ð¼Ñı
³ ÐµÑĢÐ
ĠÐĶÐ ¸
ĠÐ¡ Ð¡Ð¡Ðł
Ð°Ð ²Ð¸
Ġâľ ħ
ĠÐ¾ÑĢÑĥÐ ¶Ð¸Ðµ
Ð´Ðº Ñĥ
ĠÐĵ Ð¾Ð»
ĠÐ¾ÑĤ Ð¼Ðµ
ĠÐ¿ÑĢÐ¸Ð ·
2 6
ĠÑĩÐµ Ð¼Ñĥ
ĠÐ¼Ð°Ðº ÑģÐ¸Ð¼
ĠÐļ Ñĥ
ĠÐļ Ð¾Ð»
ÑĩÐ¸ Ð»Ð°
Ð¸ÑĨ ÐµÐ¹
¸ÐºÐ ¸
ÐµÑ Ħ
¾Ð± ÑĢÐ°Ð·
Ð ½Ð¾Ð¼Ñĥ
Ġ Ð¿Ð¾ÑģÑĤÐµÐ
Ð´ÑĮ Ð¼Ð¸
7 0
ĠÐ¿ÑĢÐ¸ Ð±ÑĭÐ
ĠÐ¶ÐµÐ½Ñī Ð¸Ð½
Ġ Ð¸Ñī
ĠÐ·Ð½Ð° Ð»Ð°
ĠÐ²Ðµ ÑĩÐµÑĢ
e p
ÑĢÑģ ÐºÐ¾Ð³Ð¾
ĠÐ°Ð²ÑĤÐ¾Ð¼ Ð°
ĭ Ð½Ð°
ĠÐ·Ð°ÑıÐ² Ð¸Ð»
ĠÐ²ÐµÑĩÐµ ÑĢÐ¾Ð¼
ł Ģ
ĠÐ¿ÑĢÐ¾ÑģÑĤ ÑĢÐ°Ð½
Ð³Ð¾ÑĢÐ ¾Ð´
ĠÐ¾Ð´Ð ½
ÑĢÐ ½Ð¾Ð³Ð¾
ĠÑĢÑĥÐºÐ¾Ð² Ð¾Ð´
ĠÑĥÐ´Ð¾Ð²Ð¾Ð»ÑĮÑģÑ ĤÐ²Ð¸Ðµ
¶Ðº Ð
ĠÐ°Ð²Ð ³ÑĥÑģ
¶ÐºÐ ¸
Ð¼Ð¾Ð½Ñ Ĥ
ĠÐ±Ð ¾Ðº
ĠÑĤÑĢÐ°Ð´ Ð
ĠÑĤÑĢÐ°Ð´Ð ¸
³ ÑĢÐ¸
Ð»Ð° Ð´
ĠÐ¼Ð½ Ð¾Ð¶Ðµ
ĠÐ»Ð° Ð´Ð¾Ð½
Ð´Ð ¾Ð
²Ð¸Ð ·
ĠÐ±Ð°Ð ±Ñĥ
ĠÐ³Ð¾ÑĢÐ ´
Ð ±Ñİ
ĠÐ¿ÑĢÐ°Ð ²Ð¾
ĠÐ½Ð¾ ÑĩÑĮÑİ
± Ð°Ð·
²Ð»Ñı ÑİÑĤ
ĠÐĴ Ð¸Ðº
ĠÐ½Ð° Ð»Ð¸ÑĩÐ
ĠÐ´Ð¾Ð¼Ð° ÑĪÐ
o w
Ð¾Ð² ÑĭÑħ
ĠÐ²Ñģ ÑĤÑĥÐ¿
ĠÐ¶Ðµ Ð»ÐµÐ·
? Â»
ÑĥÐ´Ð ¸
ĠÑģÐ¾Ñħ ÑĢÐ°Ð½
Į Ðº
ĠÐ°ÐºÑĤ Ð¸Ð²Ð
Ð»Ð¸Ð ³
Ġ Ð±ÑĥÑĤ
ĠÑģÐ»Ð¾Ð² Ð°Ð¼
Ð°Ð½Ð ½Ð¾Ðµ
ĠÑĥÑģ ÑĤÑĢÐ¾Ð
ĠÐ½Ð¸Ðº Ð¾Ð³Ð¾
ĠÐ²Ð¾Ð² ÑģÐµ
ĠÐ¿Ð¾Ð´ Ðº
ĠÑģÐ²Ñ ıÑĤ
ĠÐ¿Ð¸ ÑĪÐ¸ÑĤÐµ
ĠÑĨ Ð²ÐµÑĤÐ°
ÑĥÐ¼ Ñ
ĠÐĹ ÐµÐ¼Ð
ĠÐ»Ð¸ ÑĪÐ
ĠÐ²Ð ½Ð¸Ð¼Ð°
Ĥ Ð¾Ð»Ð
Ð ²ÑĥÐº
Ñģ ÑħÐ²Ð°ÑĤ
±Ð° Ñ
ĠÑģÐ¿Ð° Ñ
ĠÐ¿ÑĢÐµ ÑģÑģ
ĠðŁĳ į
ÑĢÐ°Ð »Ð°ÑģÑĮ
Ðķ Ð¡
ÑĤÐ° Ð½Ð°
¹ÑĤ ÐµÑģÑĮ
ĠðŁĺ Ĥ
ĠÐ½Ð°ÑĩÐ° Ð»Ð¸
ÑĭÐ ²Ð°ÑĤÑĮ
ĠÑģÐ¼Ð¾Ð ¶Ðµ
ĠÐļ Ðŀ
ĠÐ½ÐµÐ²Ð¾Ð· Ð¼Ð¾Ð¶Ð½Ð¾
ĠÐ¼ÐµÑģÑı ÑĨÐµÐ²
ÑĢÐ ¾Ð³Ð¾
ĠÐ¼Ð ¾ÑĤ
ÑĥÑİ ÑĤÑģÑı
ĠÐ²Ñ ĤÐ¾
Ġ ÑģÑħÐ²Ð°ÑĤ
¶Ð° Ñī
Ð²Ð ¸ÑģÑĤ
Ð¾Ð¼ ÐµÑĤ
Ð¼Ð° ÑĤÑĢÐ¸
ĠÐ´ÑĢÑĥÐ ·ÐµÐ¹
Ġ =
ĠÐ¿ÑĢÐµÐ´Ð ¾ÑģÑĤÐ°Ð
Ñ ĤÐ²Ð¸Ðµ
ĠÑĦ Ð¾Ð½
ĠÐ¿Ð»Ð° Ð½Ðµ
Ñģ Ð±Ð
Ð±ÐµÐ ·
ĠÐ¾ÑģÐ¾Ð±ÐµÐ ½
Ñģ ÑĤÐ²Ð¸Ðµ
ĠÐ¥Ð¾ÑĢÐ¾ ÑĪÐ¾
ĠÑĥÑĤ ÑĢÐ¾
ĠÐ¼Ð¾ ÑĢÐµ
ĠÐ±ÑĭÐ ²
Ð¼ Ñģ
ĠÐº ÑĢÐ°Ñģ
ÑĢÐ¾Ðµ Ð
Ð¾Ðµ Ð
Ð¾Ð»Ð¾Ð³Ð ¸Ð¸
ĠÐºÐ° Ð¼Ðµ
ĠÐ½ÐµÐ´Ð ¾Ñģ
Ð ²Ð¸Ð¹
Ð»Ð°Ð¹ Ð
Ò Ľ
ĠÑĥ ÑĩÐµÐ
ĠÐ³ÑĢÑĥÐ¿ Ð¿Ðµ
Ð¼Ð ¾Ð³Ð¾
Ð ·Ð²Ñĥ
Ñ ıÐ´Ñı
³ Ð¾ÑģÑĤ
¸ Ð°Ð½
ĠÐ·ÐµÐ¼Ð »Ñİ
ĠÐ¾Ð±ÑĬÐµ ÐºÑĤ
ÑĤÐ°Ð ½Ð¸Ðµ
! ..
ÑģÐ¿ Ð
9 6
ĠÐ²Ð¾Ð· Ð½Ð¸Ðº
ĠÐ¿ÑĢÐ¸ ÑģÑĥÑĤÑģÑ
ĠÐºÐ°Ðº Ð¾Ð³Ð¾
ĠÐĿÐ¾Ð² Ð¾ÑģÑĤÐ¸
½ÑĥÐ »Ð¸ÑģÑĮ
ĠÐ»Ð¸ ÑĤÐµ
eÐ ½
Ġ Ð·Ð²ÐµÐ·
Ġ Ð¿ÑĥÐ
ĠÐ±Ð»Ð¸Ð ¶Ð°Ð¹
Ð¶ÐµÐ ¹
ĠðŁ¤ £
Ð¸Ð ²Ð°Ñı
ĠÐ¿Ð° ÑĢÐº
ĠÐ¿Ð¾Ð² Ð¾Ð´Ñĥ
ĠÐ²ÑĭÐ ±Ð¸
ĠÑĪ ÑĥÑĤ
ÑĩÐµ Ð½Ð¾
ĠÐ·ÐµÐ¼Ð »Ð¸
ÑģÐº Ð¸Ð¼Ð¸
a v
Ð½ÐµÐ ³Ð¾
ÑĨ Ð¸Ð½
ĠÑģÐµÐ¼ ÑĮÐ¸
ĠÐ²Ð¾ÑģÐ¿ Ð
ĠÐ²Ð¾ÑģÐ¿Ð ¸
ĠÐ¸ÑİÐ ½
ĠÐ¼Ð¾Ð» Ð
y ou
ĠÐ´ÐµÐ²Ð¾ ÑĩÐºÐ°
ÑĩÐ ¸Ñħ
ĠÐ·Ð° Ð¿Ð¸Ñģ
ĠÑģÐ¿Ð ¸
Ñ ĤÐ¾Ð»Ð
ĠÐĵ Ð
ĠÐ¿ÑĢÐ¾ ÑģÐ
Ð¼Ð ¾ÑģÑĤÑĮ
ĠÐ´Ð¾Ð± Ð°Ð²
ÑĩÐ¸ ÑģÐ»ÐµÐ½
Ðł Ð£
Ð»ÐµÐ½ Ð½ÑĭÐµ
3 7
Ð¸ÑĤÐµ Ñ
ĠÐ³ÑĢÑĥÐ¿ Ð¿Ñĥ
ĠÐ¼Ð ¾Ñģ
ÑħÐ¾Ð´Ð ¸Ð»Ð¸
ĠÐ¿ÑĢÐ¾Ð±Ð»Ðµ Ð¼
ĠÑĩÑĥÐ²Ñģ ÑĤÐ²Ð°
ĠÐ¿ÑĢÐ¸ ÑĪÐµÐ»
ÑĤÐº Ð
ÑĪÐ¸Ñħ Ñģ
ĠÐ¿Ð¾ÐºÐ° Ð·Ð°
ĠÑħ ÑĥÐ¶Ðµ
ÑĪÐ¸ÑħÑģ Ñ
ÑĪÐ¸ÑħÑģÑ ı
ĠÐ¾ÑģÑĤ Ð¾ÑĢÐ¾Ð
ĠÑĦ ÑĢÐ°Ð½ÑĨ
ÑĤÐ¾Ð ¿
ÑĩÐ ¸Ð²Ð°
ĠÐ²Ð½ÑĥÑĤ ÑĢÐµÐ½
ÑĩÐ°Ð »ÑģÑı
ĠÐ²Ð¸Ð´Ðµ Ð»Ð°
Ð¿ Ð»Ð°ÑģÑĤ
Ġâľ Ķ
ÐµÐ¹ Ð
ĠÐ¸Ð³ ÑĢÐ°ÑĤÑĮ
Ġ 000
ĠÐ³Ð¾ ÑĢÐ°Ð·Ð´Ð¾
ĠÐ¢ ÑĥÑĤ
ĠÑģÐ ¾ÑĢÐ
a b
Ñģ Ð¾Ð³
¸ ÑĨÐ¸
ĠÐ¿ÐµÑĢÐ ²ÑĭÐ¼
ĠÐĺ Ñħ
ĠÐ»Ð¸ ÑĩÐ½Ð¾
· Ð¸Ð¼Ð
Ð¡ Ðļ
Ð¸Ð½Ðº Ð
ĠÐ¼Ð°ÑĪÐ¸Ð½ Ñĥ
½Ðµ Ð¼Ñĥ
ĠÐº ÑĢÐ¾Ð²Ð¸
ĠÐ¿Ð¾Ð¿ ÑĭÑĤ
ĠÐ·Ð° Ð¿Ð¸
ĠÐ¼Ð°Ñ ĢÑĤÐ°
ĠÐ¿Ð¾Ñģ ÑĤÐ°Ð²
s k
ĠÐ»Ñİ Ð´ÑĮÐ¼Ð¸
Ð¾Ð² Ð°Ð»
Ð¾Ð½Ð¸Ñ Ĥ
¸ Ð¼ÐµÐ½Ð¸
ĠÐ²Ð° ÑĪÐµÐ¹
Ð ¸Ð¼ÐµÐ½Ð¸
± ÑĢÐ¾Ð½
Ġ Ð»Ð°Ð
ÑĪÐ µÑģÑĤÐ
Ñģ Ð¾Ð¼Ð½
ĠÐ¿ÑĢÐµÐ´ ÑĥÐ¿
ĠÐ¸ÑģÑĤÐ¾ ÑĢÐ¸Ñı
Ġ ÑģÑĤÐ¾ÑıÑĤ
ÑĪÐ¸Ð µÑģÑı
ÐŁÐ¾ ÑģÐ»Ðµ
Ð¸Ð½ÐºÐ ¸
ĠÐ¶Ðµ Ð»Ð°Ð½Ð¸Ðµ
ÑĦ Ð¸ÐºÐ°
ĠÑĤÐµ Ð°
ĠÑģÐ¼Ñĭ ÑģÐ»
ĠÐ±Ð¾Ð» Ð
ĠÑĩÐµÐ»Ð¾Ð²Ðµ ÐºÐ¾Ð¼
Ġ Ð»Ð¾Ð¶Ð
ĠÐ²Ñĭ ÑģÐ
Ð ³ÐµÑĢÐ
ĠÑģÑĥÑīÐµÑģÑĤÐ ²Ð¾Ð²
ĠÐ´Ð ¸ÑģÐº
ĠÐ²Ð¾Ð· Ð»Ðµ
Ð¼ ÑĭÐ
Ġ ÑģÐ±Ð
º Ñ
ĠÐ¿Ð° Ñģ
Ġ Ð¸Ð¼ÐµÐ½Ð¸
Ð¶ Ð°Ð»Ð°
ÑįÐ ¹
ĠÐ¿Ð¾ÑģÐ»ÐµÐ´Ð ½Ð¸Ðµ
ÑĪ Ð°Ð»
ĠÐ¿Ð¾Ð» Ðµ
ĠÐ²ÑĭÐ ²Ð¾Ð´
Ð»ÐµÐ½ Ð½ÑĭÐ¹
ĠÐ¡ ÐµÐ
Ð¸Ð¼ Ñģ
ĠÐŁ Ð¾Ð½
½Ð¾Ð²Ð¸ÑĤ Ñ
ĠÐ¼Ñĭ ÑģÐ»ÑĮ
ÑĢÐ¾ ÑĩÐ½Ð¾
½Ð¾Ð²Ð¸ÑĤÑ Į
Ð´ Ð°Ð½Ð¸Ñı
ÑģÐ½ Ñ
Ġ Ð»ÑĥÐ
Ð ¸Ð°Ð½
ĠÐ»Ð¸Ñģ Ñ
ĠÐ·Ð°Ð¼Ðµ ÑĩÐ°
ĠÑģÐ¸Ð» Ñĥ
ÑĢÑĥÐ ¿
Ð ±Ð°Ð·
²Ð¾Ð» Ñİ
Ġ ÑģÐ¾Ð¼Ð½
¶Ð´Ð°Ñ Ĥ
ÐµÐ ²Ð¾
¶Ð´Ð°ÑĤ Ñ
¶Ð´Ð°ÑĤÑ Į
3 5
ĠÑĢÐ ¾ÑģÑĤ
Ð ¸Ð°
ÑĪÐ¸ Ð½Ðµ
ĠÑĥÐ ·Ð½Ð°Ð
Ð »Ð¾Ð
ĠÑĢÐ¾Ð´Ð ¸
Ð¼ Ð¼
ĠÐ¾Ð± Ð°
ĠÐ½ÐµÐ¼Ðµ ÑĨ
ĠÐ¸Ð½ÑĦÐ¾ÑĢÐ¼Ð° ÑĨÐ¸Ð¸
ÑĢÑĭÐ µ
Ð¾ Ñħ
ÑįÑ Ģ
ı ÑģÐ½Ð¾
ĠÐĹÐ° ÑĤÐµÐ¼
ÑĢÐ¾Ð¼ Ð°
ĠÐ»ÑİÐ±Ð ¾Ð¼
ĠÐ°Ð½Ð³ Ð»Ð¸Ð¹
ĠÐ²Ðµ ÑĢÑģ
Ð¸Ð¼Ñģ Ñ
Ĥ ÑĮÑı
ĠÐ¾Ð¿ ÑĥÑģÑĤ
ĠÐºÐ¾Ð¼ Ð¼
ĠÑģÐ¾ÑģÑĤÐ¾ÑıÐ ½Ð¸Ðµ
Ð ·Ð¸Ð¼Ð
Ð±Ð¸ÑĤ Ñ
ĠÐ½Ð° Ð²Ñģ
ĠÐº Ð¸Ð»
ĠÐŀ Ð´Ð¸Ð½
ĠÐ±Ð ¾Ð¼
ĠÐ²Ð¸Ð´Ð¸ Ð¼Ð¾
½Ð¾Ð² ÑĢÐµÐ¼ÐµÐ½Ð½Ð¾
ĠÐ²Ñĭ ÑıÑģÐ½
Ð¿Ð¾Ð ·
ĠÐ½Ð°ÑĩÐ° Ð»Ðµ
Ð¼Ðµ Ð½ÐµÐ¼
ĠÐ¸Ð·Ð¾Ð± ÑĢÐ°Ð
9 8
ĠÐ¼Ð¾Ð· Ð
ÑĢÐ ½Ð°Ñı
Ð¸Ð µÑģÑı
ĠÐ¿ÑĢÐ¾Ð¸Ð· Ð²Ðµ
ĠÐ¼Ð°Ð³Ð°Ð· Ð¸Ð½
ĠÐ¿ÑĢÐµÐ ²ÑĢÐ°ÑĤ
ĠÐ²ÑĭÐ µ
Ġ Ð·Ð¾Ð²
ĠÐ¾Ñħ Ð¾ÑĤ
ĠÐ¼ÑĥÐ¶ÑĩÐ¸Ð½ Ñ
ĠÐ¼ÑĥÐ¶ÑĩÐ¸Ð½Ñ ĭ
ĠÑģÐºÐ°Ð ·
Ġ5 00
ÐŁ Ðµ
Ð¸ÑĩÐµÑģÐº Ð¸Ð¹
ÑįÐ »
Ð´ÑĨÐ°ÑĤ Ð
Ð»ÐµÐ½ Ð½Ð¾Ð¹
Ð´ÑĨÐ°ÑĤÐ ¸
ĠÐļ Ð°Ð¶Ð´
ĠÐĿ ÐµÑģ
ĠÐ¿Ð° ÑĢÐ°
ĠÐ²Ðµ ÐºÐ°
ĠÐ¼Ð¾Ð¶Ðµ Ð¼
ĠÑĩÑĥÐ²Ñģ ÑĤÐ²Ð¾
Ð¿ ÑĭÐ
Ð½Ð¸Ðº Ð¾Ð¼
ĠÐ¾ÑĤ Ð¿ÑĢÐ°Ð²
ĠÐľÐ° Ñ
ĠÐ²Ðµ Ð´
Ñģ Ð±Ð¾ÑĢÐ
ĠÐ¸ÑİÐ »
ĠÐ»Ð¸ ÑĨÐµ
ĠÐĴ ÑģÑĳ
ĠÐ¼Ðµ ÑĢÐ¾Ð¿
Ñ ĭÐ½Ð°
Ġ Ð±Ð°Ð·
ðŁĺ ī
ĠÐºÐ¾Ð¼Ð½Ð° ÑĤÐµ
ĠÑıÐ ²
½ Ð¸ÑĩÐ
ĠÐ¿ÑĢÐ¸Ð·Ð½Ð° Ð
Ġ Ð¿ÑĥÑģ
·Ñ ĢÑĭÐ
ĠÐ´ÐµÐ¹ÑģÑĤ Ð²Ð¸Ñı
ĠÑĪÐ ¾Ðº
Ð»Ð µÑģ
ĠÐ°ÑĢÐ¼ Ð¸Ð¸
ĠÑģÐµÐ½ ÑĤÑıÐ±ÑĢÑı
ºÐ° Ð¼Ð¸
Ġ Ð»Ð°Ð¹
ĠÑģÐ¸ÑģÑĤÐµ Ð¼Ñĭ
ĠÑģÐ¿Ð°Ñ Ĥ
Ð¿ o
ĠÐ»Ð¸ ÑĩÐºÑĥ
ĠÐ±Ð¾Ð»ÑĮÑĪÐ ¾Ðµ
ĠÐ¿ÑĢÐ¾ ÑĨ
ĠÑħÐ²Ð° ÑĤÐ°ÐµÑĤ
ĠÐŀ Ð±Ð
Ð ±ÑĢÐ¾Ð½
ĠÐ±Ð»Ð° Ð³Ð¾
ĠÐ±Ð¾Ð»Ð ¸
ÑĢÑıÐ »
ĠÐ¿ÑĢÐ¸ ÐºÐ°
ÑĥÑ ĤÐ¾
ĠÑĥÐ½Ð¸Ð ²ÐµÑĢÑģ
Ð ³Ð¾ÑģÑĤ
ĠÐ¾ÑĤÐ²ÐµÑĤ Ð¸Ð»Ð°
ÑĥÑĩ ÑĪÐµ
±Ð° Ð¼Ð¸
?? ?
ĠÐ¸Ñģ ÑģÐ»ÐµÐ´Ð¾Ð²
ĠÐĴ Ð¡
Ġ Ð¿Ð»Ð°ÑģÑĤ
ÑĥÑĤÑ ĭ
ĠÐ¿Ð¾Ð¿ ÑĥÐ»Ñı
ĠÐ¾ÑĤ ÑĢÐ°Ð
ÑĪÐµÐ½ Ñ
³ Ð°Ð»
Ð ¸Ð¾Ð½
ĠÐĶ Ð¶
ĠÑĢÐ°Ð·Ð²Ð¸ÑĤ Ð
ĠÑĢÐ°Ð·Ð²Ð¸ÑĤÐ ¸
ĠÑģÑĢÐµÐ´ ÑģÑĤÐ²Ð°
ĠÑĤÐµ Ð»ÐµÐ
ĠÑĢÐ°Ð·Ð²Ð¸ÑĤÐ¸ Ñ
ĠÑĢÐ°Ð·Ð²Ð¸ÑĤÐ¸Ñ ı
Ñ ıÐºÐ°
Ð½Ðµ ÑĤÑģÑı
ĠÐ°Ð¿ ÑĢÐµÐ»Ñ
Ĥ ÑĭÐ¹
Ð´ÐµÑ Ģ
ĠÐ½Ð° ÑĪÐ°
ĠÐ¿ÑĢÐµÐºÑĢÐ°ÑģÐ ½Ð¾
ĠÐ¾Ð ·Ð½Ð°
ĠÐ°Ð´ ÑĢÐµÑģ
ĠÐ´ÐµÐ»Ð° ÑİÑĤ
ĠÑģÐ¿Ð°ÑĤ Ñ
Ð»Ð¸ Ð²Ð°
ĠÑģÐº Ñĥ
e v
ĠÐ¿Ð¾Ð»Ð¸ ÑĤÐ¸ÑĩÐµÑģÐº
ĠÑĢÐµÐ· ÐºÐ¾
ĠÐ¿Ð¾ÑģÑĤ Ð¾ÑıÐ½
ĠÑģÐ¿Ð°ÑĤÑ Į
Ð¿Ñ ĮÑİ
ĠÑĦ ÑĥÐ½Ðº
Ð±Ð¾Ð» ÐµÐµ
ĠÐ·Ð°Ð ²ÐµÑĢ
Ð »ÑĭÐ
· Ð²ÑĥÐº
ĠÐ¸ÑİÐ½ Ñ
ÑĥÐ³Ð ¸
ĠÐºÐ¸Ð²Ð ½ÑĥÐ»
Ð´Ð ¶
²Ð¸ ÑĤÑĮÑģÑı
ĠÐ²Ð·Ð³Ð»Ñı Ð´Ð¾Ð¼
ÑĤÐ°ÑĤÑ ĭ
ĠÐ¾Ð±ÑĬ ÑıÐ²
Ġ Ð±Ñİ
ÐĽ Ð¯
Ð¾Ð´Ð¸ Ð½Ð°
ÑħÐ° Ð»Ð°
Ġ Ð³ÑĢÐ°
· Ð²Ðµ
ĠÐ²Ð¿Ðµ ÑĢÐ²ÑĭÐµ
ĠÐ¾ÑĤÐ²ÐµÑĤ ÑģÑĤÐ²ÐµÐ½Ð
ĠÐ½Ð° ÑĪÐµÐ¼
ĠÐ¿ÐµÑĢÐ ²ÑĥÑİ
2 8
ĠÐ³ÑĢÑĥÐ´ Ð
es s
ĠÐºÐ¾Ð½ ÐºÑĢÐµÑĤ
ĠÐ¢ Ñĥ
Ġ ÑĢÐ¾Ð²
ĠÑģÐ¾ÑģÑĤÐ°Ð ²
Ð ²Ð»Ð¸
ĠÐ¼Ðµ Ñħ
ĠÐ½Ð¾Ð² Ð¾Ð¹
Ð»Ð°Ð¹Ð ½
ÐµÐ »Ð¾Ð²Ðµ
ĠÐ¿Ð¾Ð ½Ð°
Ð²Ñ ıÑī
ÑĨÐ° Ð¼
± ÑĥÑģ
ÑĢÑĭÑĤÑ Į
( (
ĠÑħÐ¾ÑĤ ÑıÑĤ
Ð´ÐµÐ ¹ÑģÑĤ
ĠÐº ÑĢÐµÑģÑĤ
ÐµÐ½Ð ½Ð¾Ð³Ð¾
ĠÑį Ð»Ðµ
¾Ð½ Ñ
ĠÐºÐ¾Ð½ Ñģ
Ġâ Ŀ¤
ĠÑĤÐµÐ¼Ð ¿Ðµ
¶ Ð°ÐµÑĤ
¾Ð»Ð ¸
ÐĶ Ðķ
ĠÐ¼ Ð°Ð¹
½ a
ĠÑĩÐµ Ð¼Ð¿Ð
ĠÐ½ÐµÐºÐ¾ÑĤ Ð¾
Ġ Ð³Ð¾ÑģÑĤ
ĠÐµÐ ¶Ðµ
ÑİÑī ÑĥÑİ
ĠÐ¾ÑĤ Ð´Ðµ
» Ð¾Ð¶Ð¸ÑĤÑĮ
ÐŁ Ðŀ
ĠÐ·Ð° Ð´ÐµÑĢÐ
Ð¿ ÑıÑĤÐ¸
Ñ ıÑģÐ½Ð¾
ĠÐ½Ð¸Ð ¶Ðµ
Ġ Ð²Ð»Ð¸
Ð¾Ð´Ð ¸Ð»Ð¸
ĠÐ±ÐµÐ·Ð¾Ð¿Ð°ÑģÐ ½Ð¾ÑģÑĤÐ¸
Ð¸ÑĨ Ñĥ
ÑĢÑģ ÐºÐ¸Ð¹
Ñģ ÑĤÐ¾Ð¹
4 4
ĠÑģÐ»ÐµÐ´ÑĥÑİÑī Ð¸Ð¹
ÑģÐ ¸Ð»ÑĮÐ
ĠÐ¾Ð³Ð ½
ĠÑģÐ¾Ð¾Ð±Ñī Ð¸Ð»
ĠÐ¶Ð¸ Ð²ÑĥÑ
Ð°Ð»ÑĮÐ ½ÑĭÐ¹
ĠÐ´ ÑĢÐµÐ²Ð
ÐĽ Ñİ
t er
ºÑ Ĥ
ÑĥÐ¶Ðµ Ð»Ð¸
ĠÑĢÐ¾Ð´Ð¸ÑĤÐµ Ð»Ð¸
2 1
ÑĮÐµÐ ²
»ÑĮÐ µ
ÑĩÐ ¾
ÑĩÐ ½Ð¾ÑģÑĤÑĮ
ĠÑģÐ¼Ð¾Ð ¶ÐµÑĤ
ĠÐĴÐ¾Ð· Ð¼Ð¾Ð¶Ð½Ð¾
ÑģÐ ¾ÑĦ
Ġ ÑĪÐµÐ»
ĠÐ¸Ð½ÑĤÐµÑĢÐ½Ðµ Ñ
Ġ Ð¾Ð²
ĠÐ¸Ð½ÑĤÐµÑĢÐ½ÐµÑ Ĥ
Ð»ÐµÐ½ Ð½ÑĭÑħ
Ð¸Ð½Ð°Ð »
ÑģÐ ½ÑĭÐ¹
ĠÑħÐ¾ÑĢÐ¾ ÑĪÐ¸Ð¹
ÐµÐ½ÑĤÑ Ģ
p o
)) ))
Ġ Ð±ÑĢÐ¾Ð½
ĠÑĢÐ°Ð· ÑĢÑĥ
ĠÐ¡Ð¾Ð² ÐµÑĤ
Ð´ Ð°Ð½Ð¸Ðµ
ĠÑĢÐ ¾Ð»ÑĮ
ÑĢÐ°Ðµ ÑĤÑģÑı
ĠÐ¿Ð¾Ð»Ñĥ ÑĩÐ°ÐµÑĤÑģÑı
ĠÐ³ÑĢÑĥÐ´Ð ¸
ĠÐ¸ÑĤÐ¾Ð³ Ðµ
ÐŀÐ½ Ð
³ ÐµÐ½
ĠÐł Ð°Ð±Ð¾
ĠÑģÐ° Ð¼Ð¾Ð
ĠÐ¢ Ð
ĠÐ´Ð ¸Ñģ
ĠÐ¿ÑĢÐ¸ Ð¼ÐµÐ½
Ġ ÑģÐ°Ð»
ÑĢÑĤ Ð¾Ð²
ĠÐ¿Ð¾ÑĢÑı Ð´ÐºÐµ
ĠÑĤÑĢÑĥÐ´ Ð½Ð¾
ÐŀÐ½Ð ¸
Ġ Ð·Ð¸Ð¼Ð
Ġ ÑģÑĤÑĥÐ¿
ĠÐ´ÐµÑģÑıÑĤ Ñ
ĠÐ´ÐµÑģÑıÑĤÑ Į
Ð°Ð ²Ñ
ĠÐĲ Ð²Ñ
ĠÐ²Ñĭ ÑģÐºÐ°
ĠÐ²Ð¸Ð ·
ĠÑĤÐµÐ ¾
ĠÐ·Ð°Ð ¹
Ġ Ð³ÐµÑĢÐ
q u
¶Ð° ÑĤÑĮÑģÑı
ĠÐ½Ðµ Ð´Ð°Ð²Ð½Ð¾
Ġ ÑģÐ±Ð¾ÑĢÐ
ĠÐ§ ÐµÑĢÐ
²Ð» ÑıÐ»
ĠÐ¿ÑĢÐ°Ð²Ð¸Ð »ÑĮÐ
ĠÐķ Ðµ
Ð ±ÑĢÐ¾Ñģ
ĠÐľ ÐµÐ½Ñı
Ġ ÑģÐ¾Ð¼
Ð½Ð° Ð´ÑĨÐ°ÑĤÑĮ
ĠÐ¾ ÑĩÐµÐ²Ð¸
ĠÐ¾Ð±Ðµ Ñī
Ġo f
Ñ ĤÑĢÐµÐ
»ÐµÐ ½Ð¸Ðµ
ĠÐ½ÐµÐ¾Ð± ÑħÐ¾Ð´Ð¸Ð¼
Ð´Ð¸Ñ ı
Ð¼Ñ Į
»Ð¸Ð ²Ð¾
Ð ³ÑĢÐ¸
ĠÑģÐ´ÐµÐ»Ð° Ð»Ð¸
Ġ Ð·Ð²Ñĥ
e Ñ
ĠÑĢÐµÐ±ÐµÐ½ Ð¾Ðº
ÑĩÐ¸ ÑĤÑģÑı
ĠÐ±Ð»Ð°Ð³Ð¾Ð´Ð° ÑĢÑı
ĠÐ¿ÑĢÐ¾ÑĨÐµÑģ Ñģ
ĠÑĨ ÐµÐ¿
Ð±ÐµÐ» Ñ
ĠÐ²ÑĭÐ ±Ð¾
ĠÐ·Ð´Ð¾ÑĢÐ¾Ð² ÑĮÑı
ĠÑģÐµ Ð¼ÐµÐ¹
Ð ½Ð¾Ð
ĠÐ´Ð »Ð¸
²Ð¾Ð º
Ð¾Ð¸ Ñ
ĠÐ¼ÑĥÐ·ÑĭÐ ºÐ°
ĠÑĩÐµÐ»Ð¾Ð²Ðµ ÐºÑĥ
ĠÐ³Ð¾Ð»Ð¾Ð² Ñ
Ĥ Ñĳ
Ð¿Ðµ ÑĢÐ
ĠÐ³Ð¾Ð»Ð¾Ð²Ñ ĭ
Ð¼Ð¸Ñ Ģ
ĠÑĪÐºÐ¾Ð» Ðµ
ÑĢÐ¸Ð »ÑģÑı
ĠÐºÐ¾ÑĢÐ°Ð±Ð »
ÐŁ ÑĢÐ¾Ð´
Ð¾Ð¸Ñ Ĥ
ĠÑĢÐµ ÐºÐ¾Ð¼ÐµÐ½
» ÑıÐ´Ñı
ĠÐ¿Ð µÑģ
Ð ·Ð²ÑĥÐº
ĠÐ¿Ð¾Ð³ Ð¾Ð²Ð¾
ĠÑĢÐ° Ð¼Ð
ðŁĶ ¥
Ġ ÑģÐ¾Ð³
ÑĢÐ¾Ð²Ð ½
ĠÑĢÐµ Ð°Ðº
ĠÐ²ÑĭÐ´ ÐµÑĢÐ
ĠÐ¶Ðµ Ð½Ð°
ĠÐ¦ ÐµÐ½Ð°
¸Ð¼Ð ¾ÑģÑĤÑĮ
ĠÐ½Ð°Ð¿Ð¸Ñģ Ð°Ð»
ĠÐ´Ðµ Ð¼Ð¾Ð½
ĠÐ¸ÑİÐ» Ñ
ÑĩÐ ¾Ðº
ĠÐ¿ÐµÑĢÐµÐ ²Ð¾Ð´
ÐĿ Ðķ
Ð°Ð ²Ð°
¶Ð ½ÑĭÐ¹
ĠÐĺ Ð¼ÐµÐ½Ð½Ð¾
ĠÐ¸Ñģ ÐºÐ°ÑĤÑĮ
ĠÐĿ Ð¸ÑĩÐµÐ³Ð¾
ĠÐ¼Ð »Ð°
Ġ ÑıÑģÐ½Ð¾
ĠÐ¿ÑĢÐ°Ð²Ð¸ Ð»Ð°
ÑģÐ» ÑĥÐ
ĠÐ¿Ð¾Ð½Ð¸Ð¼ Ð°
ĠÐ´Ð¾ÑģÑĤ Ð¸Ð³
ĠÐ¿Ð¾Ð²ÐµÑĢ ÑħÐ
Ġ Ð¿ÑıÑĤÐ¸
ĠÑģÐ¾Ð¶Ð°Ð» ÐµÐ½Ð¸Ñİ
ĠÐ¾Ð³ Ð¾Ð½ÑĮ
Ð ½ÑĥÑĤ
ĠÑĥÐ²Ðµ Ð»Ð¸
ĠÐ´ ÑĢÐ¾Ð
ĠÐ¿ÑĢÐµÐ´Ð »Ð°Ð³
ĠÐ¼ ÑĥÐ´
ĠÐŁ Ð¾Ð¼
Ðº Ð¸Ð½
ÑģÐµÐ½Ð ¸
ĠÐ¿Ð¾ÑĤÐµ ÑĢÑı
ÑĢÐ ¾ÑģÑĤÐ¸
Ð´Ð »
ĠÑĥÐ´ ÐµÑĢÐ
Ð¾Ð» Ðµ
Ŀ Ĺ
ĠÐ²Ðµ ÑģÐµ
ĠÐ¿ÑĢÐµÐ´Ð¿ Ð¾
ĠÐĳ Ð¾
ĠÑĪÐº Ð¾Ð»Ñĭ
Ð ·Ð²Ðµ
Ð¡ Ð°
ÑĤÐµÐ »Ñİ
ĠÑģÐ¿ Ð¸Ñģ
ĠÐ¿Ð¾ ÑĢÐ°Ð
ĠÐĽ ÐµÐ½
ĠÐºÐ¾Ð½ Ñ
ÑĢÐ°ÑĤÐ¸ Ñ
ĠÑĥÑģÐ¿ ÐµÐ»
ĠÐ´Ð²Ð¸Ð ¶ÐµÐ½Ð¸Ñı
ĠÐ´ÐµÑĢÐµ Ð²Ñ
Ð´ÐµÑ ı
Ġ Ð·Ð²ÑĥÐº
ĠÐºÐ²Ð°ÑĢÑĤÐ¸ ÑĢÑĥ
ĠÑĨ ÐµÐ½Ð
· ÑĢÐµÐ½Ð¸Ñı
Ð¾Ð» Ñĥ
Ġ in
ÑģÐ ½ÑĭÐµ
Ð¾Ð³ Ñĥ
Ĥ ÐµÐ½Ñĭ
ĠÐĲÐ»ÐµÐºÑģÐ°Ð½ Ð´ÑĢ
Ð¢ Ðķ
ĠÐ¾Ð± ÑģÑĤÐ¾Ñı
ÐĿ ÐµÑĤ
ĮÑ Ĥ
Ð¢ Ðĺ
ĠÐ¢ ÐµÐ¼
ÑĢÐ¸ ÑĨÐ°
ĠÐ°Ð¿ÑĢÐµÐ»Ñ ı
Ñ ĤÐ¸ÐºÐ¸
¸ Ð¼ÐµÐ»
ĠÐ¸ÑİÐ½Ñ ı
Ð´Ð°Ð½ Ð½Ð¾
ĠÐ¿ÑĢÐ¸Ð½ ÑıÑĤÑĮ
Ġ Ð±ÑĢÐ¾Ñģ
ĠÐ¿ÑĢÐ¾Ð² Ð¾Ð´
Ð¿ÑĢÐ ¾Ñģ
ĠÐł ÐĲ
½ o
ĠÑĤÐµÐ»Ðµ ÑĦ
ĠÐ§Ðµ ÑĢÐµÐ·
ĠÐ¿ÑĢÐ¸Ð ³
Ñ ĤÑĭÐ¹
ĠÐº ÑģÑĤÐ°ÑĤÐ¸
ĠÐ°Ð±ÑģÐ¾Ð»ÑİÑĤ Ð½Ð¾
Ð¸ÑģÑĤÑ ĭ
ĠÐŀ Ð´Ð
Ĥ ÑĥÐ¼
ÑĢÐ°Ð ¸Ð½
» ÑıÑĤ
Ð¾Ð´ Ð¸Ð½
ÑĪ ÑĥÑĤ
ÑĩÐµÐ½Ð¸Ðµ Ð¼
Ð½Ðµ ÑĨ
ĠÑĤÐµÐ¿ Ð
¾Ð» Ð³Ð¾
¸ ÑĤÐµÐ»ÑĮÐ½Ð¾
Ðµ Ð²Ñģ
ĠÐ·Ð½Ð° ÑİÑĤ
3 3
ÑģÐ ¸Ñģ
³ ÐºÐ°
ĠÐ¿ÐµÑĢÑģ Ð¾Ð½Ð°
Ð¼Ð¸ Ð½Ð°
ĠÐ¯ Ð
ĠÐ²Ð¾Ð ¿
¸ ÑĩÐµÑģÐºÐ°Ñı
ÑģÐ¸ ÑĢÐ¾Ð²
Ð¾Ð» ÐµÑĤ
ĠÐ¼Ð¾Ð ½Ð°
ĠÑģÐ¾Ð¾Ð±Ñī Ð°ÐµÑĤ
Ð¾Ð ¶Ð°
» Ð¾Ð¶Ð¸
ĠÐ±Ðµ ÑģÐµ
Ġ Ð»ÐµÐ½
Ðŀ Ðŀ
ĠÐ²ÑĭÐ ¸Ð³
ÑĢÐµ Ð±Ð¾Ð²
ĠÐ¾ÐºÐ° Ð·Ð°Ð»Ð¾ÑģÑĮ
Ð¸ÑģÑ ĤÐ¾Ð²
ÑĢÐ¸ ÐºÐ°
ĠÑĢÐµ Ð°Ð»ÑĮÐ½Ð¾
ÑĩÐ¸ Ð½Ðµ
Ð¾ÑģÑ ıÑĤ
Ñģ ÑĤÐ¾Ð»Ð
Ð´Ðµ Ðº
Ġ J
Ð ¸Ð¼ÐµÐ»
ĠÐĹÐ½Ð° ÑĩÐ¸ÑĤ
ĠÑĦÐµÐ² ÑĢÐ°Ð»Ñ
Ñ ĤÑĥÐ¼
Ñģ Ð°Ð¹ÑĤÐµ
ĠÐ±ÐµÐ ³
Ñģ ÑĭÐ½Ð°
ÑĩÐºÐ° Ð¼Ð¸
o b
Ð¸ÑĢÐ¾Ð² Ð°Ð»
ĠÐ´ÐµÐºÐ°Ð ±ÑĢÑı
¶Ð ½ÑĭÐµ
ĠÑĤÐµÐ¿Ð »
Ð¼ÐµÐ½Ñ Į
ÑĢÑģ ÑĤÐ²Ð°
ĠÐĴÑģÐµ Ð¼
ĠÐĲÐ» Ñ
ĠÐĹÐ° ÑĩÐµÐ¼
ĠÐĲ Ñ
ÑĨ Ð¾
ĠÑĪÐº Ð¾Ð»ÑĮÐ
Ð°Ð¹ ÑĤÐµÑģÑĮ
ĠÑģÐ»ÐµÐ ³ÐºÐ°
ĠÐ¾ÐºÑĢÑĥÐ ¶Ð°
Ð±Ð¸ÑĤÑ Į
Ġ Ð¸Ð¼ÐµÐ»
ĠÐ½ÐµÑģÐºÐ¾Ð»ÑĮ ÐºÐ¸Ñħ
ĠÑĢÐ°Ð·Ð³Ð¾Ð² Ð¾ÑĢ
ĠÐĶ Ðŀ
Ġ Ð·Ð²Ðµ
ĠÐº ÑĢÑĥÑĤ
ĠÐ»Ñİ Ð
ĠÐ¸ÑģÐ¿ Ñ
ĠÐ¿Ð¾Ð» Ð¾Ð¶Ð¸
ĠÐ¾Ðº ÑĤÑıÐ±ÑĢÑı
ĠÑĢÐµ ÑĪÐ¸Ð»Ð¸
ĠÐļ ÐĲ
Ġ ÑģÑĤÐ¾Ð»Ð
Ð¼ÐµÐ½ÑĤ Ñ
ĠÐ´ ÑĭÑħ
ĠÐ´Ð°Ð»ÑĮÐ ½ÐµÐ¹
ĠÐ»Ñİ Ð±Ñ
Ð¼ÐµÐ½ÑĤÑ ĭ
ĠÐ¿Ð¾ÐºÑĥÐ¿ Ð°
r i
Ð°Ð² ÑĪÐ¸Ð¹
Ñī ÐµÐ½
ÑĩÐµÑģÐº Ð¸Ñħ
e x
ÐĶ Ðµ
ĠÑĢÐ°Ð¹ Ð¾Ð½Ð°
ĠÐĲ Ð´
ĠÐ¿Ð¾Ð·Ð ²Ð¾Ð½
ĠÑĦÐ¸Ð»ÑĮ Ð¼
Ð¸Ð¼ÑģÑ ı
ÑĢÐ°ÑĤ Ð¾ÑĢ
ÐºÑģÑ Ĥ
ĠÐ´Ð¾ÑĢÐ¾Ð³ Ðµ
ĠÐ±ÑĥÐ´ ÐµÑĤÐµ
Ġ ÑģÐ°Ð¹ÑĤÐµ
Ñ ĤÐ²Ð¸Ð¸
¶ÐµÐ½ Ñ
ĠÐķ Ð¼Ñĥ
½Ðµ Ñ
Ðº ÑĤÐ¾
ĠÐ¸Ð½ÑĦÐ¾ÑĢÐ¼Ð° ÑĨÐ¸Ñİ
ÑĥÑģÑĤ Ð
ĠÐ±Ð ¾Ñı
ÑĢÐ ¾ÑĦ
ĠÑĢÐ¾Ð´Ð¸ÑĤÐµ Ð»ÐµÐ¹
ĠÐľ Ð°Ð¹
Ñī ÐµÐ¹
ĠÐĿÐ° Ð´Ðµ
¾Ð ¾Ð
ÐµÐ ¶
ne ws
ĠÐ³Ð¾Ð²Ð¾ÑĢÐ¸ Ð»Ð¸
Ð»Ð° Ð¶Ð´
Ĥ Ð²Ð¾Ñı
Ð¸Ð½Ð ¸
ĠÑĢÐµ Ð»Ð¸Ð³
ĠÑģÐº Ð²Ð¾Ð·ÑĮ
Ñ ĤÐ²Ð¾Ñı
ĠÐ³Ð¾Ð» Ð¾Ð²Ð°
ĠÐ²Ð·Ð³Ð» ÑıÐ
Ġ ÐµÐ·
ĠÑĤÐ²Ð¾Ð ¸
¶Ð ½Ð¾Ð¹
7 7
ÑĢÑģ ÑĤÐ²Ð¾
ÑĤÐºÐ ¸
ÐĿÐĺ Ðķ
Ð¿ ÐµÑĢ
Ġ ÑĤÐ²ÐµÑĢÐ´
ĠÐ£ Ð¶Ðµ
ĠÐķÐ² ÑĢÐ¾Ð¿
ĠÑģÑĤÐµ Ðº
Ðł Ð°Ð·
³Ð° Ð¼Ð¸
ÑĩÐµÑģÐº Ð¾Ð¹
ĠÐºÐ°Ð¶Ð´ Ð¾Ð¹
ĭ ÑĪÐ»ÐµÐ½
¸ ÑıÐ¼Ð¸
ĠÐ¿ÑĢÐ¸Ð½ Ñ
ÑĥÐ »Ð
Ġ ÑģÑĭÐ½Ð°
ĠÐ»Ð¸Ð ½
ĠÐ´Ð¾ÑģÑĤ Ð¸Ð
Ð¿Ð¾Ð· Ð
Ġ ÑģÐ¾Ð½
ĠÑĥÐ´ Ð°Ð»
y a
ÑĤÐ° ÐºÑĤ
ĠÐ¾Ð´Ð ½Ð¾Ð²ÑĢÐµÐ¼ÐµÐ½Ð½Ð¾
ÑĭÑ ĤÑĭÐ
½ÑĥÐ² ÑĪÐ¸ÑģÑĮ
³ Ð½ÐµÐ
ĠÐ¼Ð°Ð»ÑĮ ÑĩÐ¸Ðº
¸Ð ±
ĠÑģÐ²Ñı Ð·Ð°Ð½
ĠÑģÐ²ÐµÑĤ Ð
ĠÐ±Ð¾Ð»ÑĮ ÑĪÐ°Ñı
ĠÑĥ Ñħ
Ð½ÑĥÐ »Ð¸
ĠÐ¸Ð¼Ðµ ÑİÑĤ
Ĥ Ð¸Ð¼
s h
ĠÑĥÑģÐ» Ñ
Ð¾Ð½Ð°Ð »
ĠÑĥÑģÐ»Ñ ĭ
ĠÑĤÐµ Ð¼Ñĥ
ĠÐºÐ¾Ð¼ Ð¿ÑĮÑİ
ĠÐ·Ð° ÑħÐ¾ÑĤ
Ġ Ð¿o
ÑĢÑ ĤÐµÐ
ÑģÐ»Ñĥ ÑĪ
ĠÐºÑĢÐ¾Ð² Ñ
ÑĩÐ¸Ð ²Ð¾
: )
Ġ2 8
Ð »ÑıÐ´Ñı
ĠÐ½Ð° ÑĪÐµ
ĠÑĢÐ°Ð· Ð±Ð¸
ĠÐ¿ÑĢÐµ Ð¿Ð¾Ð´
Ñ ıÑİÑĤ
Ñ ĢÑĢÐ¸
ĠÐ»Ð µÑģÑĤÐ
ÑĩÐ ¾Ð½
ĠÐ½ÐµÐºÐ¾ÑĤÐ¾ ÑĢÑĭÑħ
ĠÐ¼Ð¾Ð»Ð¾Ð´ Ð¾Ð¹
ĠÐºÑĢÐ¾Ð²Ñ Į
ĠÐ°Ð ²Ð¸
ĠÐ°Ð²Ð³ÑĥÑģ ÑĤÐ°
ĠÐ²ÑĢÐµ Ð¼ÐµÐ½Ð°
ĠÐ¿Ð¸ Ñ
Ð¾ÑĢÐ ¾Ð³
ÐŁ Ð°
»Ðµ Ñ
³Ð¾Ð´ Ð°
Ð ³Ð¾Ð½
ÑĤÑĢÐµ Ðµ
ĠÐ¿Ð¾ ÑĪÐµÐ»
ÑĥÑģÑĤÐ ¸
ĠÐŁ ÑĢÐ°Ð²Ð´Ð°
ÑĢÐ°Ð ²Ð¸Ð
ĠÑĤÑĢÐµÐ½ Ð¸ÑĢÐ¾Ð²
Ġ i
ĠÑĢÑĥÐºÐ¾Ð² Ð¾Ð´Ð¸
ĠÐºÐ¾ÑĦ Ðµ
ÑĢÐ¼ Ð°
ĠÐ¾ÑĦ Ð¾ÑĢÐ¼
ĠÐ³ÑĥÐ ±Ñĭ
ĠÑĩÐ° ÑīÐµ
ĠÐ¢Ð°Ðº Ð¶Ðµ
ĠÑģÐºÐ° Ð·Ð°Ð»Ð¸
¼ Ð¾
ĠÐ¿ÐµÑĢÐµ Ð´Ð
ÑĩÐµÐ½Ñ ĭ
ÑĥÑ Ĩ
Ð¾Ð¼ Ð°Ð½
Ð±ÐµÐ»Ñ Į
ĠÐº ÑĢÐ¸ÑĤ
ĠÑĢÐµÑĪÐ¸ Ð»Ð°
ĠÐ¶ÐµÑģ Ñ
ĠÐ¶ÐµÑģÑ Ĥ
ĠÐº Ð¾Ð²
ĠÐŁ ÑĢÐµÐ´Ð
ĠÐ¸ÑİÐ»Ñ ı
ÑĢÐ´ Ð°
Ð´ÑĢÐ°Ð ²ÑģÑĤÐ²ÑĥÐ¹ÑĤÐµ
² ÐµÐ¹
ĠÐ·Ð° ÐºÐ°Ð·
ĠÐº ÑĢÐ¸Ðº
Ð²Ñģ Ðµ
ĠÑĩÐ¸ ÑĤÐ°ÑĤÑĮ
½ÑĥÐ »Ð¸
ÐµÑĢÐ ºÐ¾Ð²
ĠÐ´Ð¾ÑĢÐ¾Ð³ Ñĥ
ĠÐ¼ÐµÑĤ ÑĢÐ¾Ð²
ĩÑ ĥ
ĠÐ½Ð° ÑĢÐº
Ð ¸ÑĩÐµÑģÐºÐ°Ñı
ĠÐ²Ð° ÑĪÐµ
Ð°Ð½Ñ Į
ĠÑĥÐ»ÑĭÐ±Ð ½ÑĥÐ»ÑģÑı
ĠÑģÐ¾Ð ±Ðµ
ÐĶ Ðŀ
2 9
ĠÐ¾Ð±ÑīÐµÑģÑĤ Ð²ÐµÐ½Ð
Ñ ĮÑıÐ½
ĠÐ´Ð ¾Ð³Ð°
Ġ Ð³ÑĢÐ¸
ĠÑĥÐº ÑĢÐ°
³ Ð¾ÑĢ
Ð±Ð¾ ÑĢÐ°
ĠÐ½Ðµ Ð´Ð¾Ð²
ĠÐ¿ÑĢÐ¸ ÐµÐ·
ĠÐ²Ð ·ÑĢÑĭÐ
Ġ2 6
¸ ÑĩÐ°
ĠðŁĺ Ĭ
ĠÐ²ÑĭÐ±Ð ¾ÑĢ
ĠÐŁ ÐłÐŀ
ĠÐºÐ¾ÑĤÐ¾ÑĢÐ¾Ð¼ Ñĥ
ĠÐ²ÐµÑĢÐ ½ÑĥÐ»ÑģÑı
ĠÐ½ÑĭÐ ½Ðµ
ĠÐ¾ÑģÑĤÐ°Ð»ÑĮÐ ½ÑĭÐµ
ĠÐĳ Ð»Ð°Ð
Ð¾Ð±Ð ¾ÑĢÐ¾ÑĤ
Ñħ Ð°Ð»Ð¸
ĠÐ¿Ð¾Ð ¶Ðµ
Ð´Ð° Ð¼Ð¸
ĠÐ½Ð¾ÑıÐ ±ÑĢÑı
ĠÑĨÐµÐ½Ñ ĤÑĢÐµ
² Ð¾ÑĢÐ¾
ĠÑģÐºÐ ¸
ĠÐ¼Ð°ÑĤÐµÑĢÐ¸ Ð°Ð»
ĠÐ¸ÑģÑĤÐ¾ ÑĢÐ¸Ñİ
ĠÐ½Ð¸ÐºÐ° ÐºÐ¾Ð³Ð¾
Ġ ÑĤÐ²Ð¾Ñı
ÑĤÐ° Ð»Ð¾
ÑĢÐ°ÑĤ Ð½Ð¾
ÑĤÐ°Ñ Ģ
ĠÐ½Ð¸Ðº Ð¾Ð¼Ñĥ
ĠÐ¿Ð¾Ð´Ð° ÑĢÐ¾Ðº
Ð ½a
Ð¶Ð ¸Ð¼
Ð ³Ð½ÐµÐ
ĠÐ²ÑĢÐµ Ð¼ÐµÐ½ÐµÐ¼
ĠÑĥÐ¼ Ð°
Ġ ÑĤÐ°Ð
ĠÑħÐ ¸
²Ð µÑģÑĤÐ¸
Ġ ÑģÑĤÐ¾
Ñ ĤÑĳ
ÐŁ ÑĢÐ¸Ð
ðŁĺ ĺ
Ð·Ð°Ð¿Ð ½Ð¾
ÑĮÐ ±Ñĭ
ÑĤÐµÑĢÐµ ÑģÐ¾Ð²
ĠÑģÑĥ Ñħ
ÑĤÑıÐ ³
ĠÐ¢Ð ¸
ĠÐ²Ð¾Ð´ Ð°
ĠÐ´ÑĥÐ¼ Ð°Ð»Ð°
ĠÐ½Ð° ÑĨÐ¸Ð¾Ð½Ð°Ð»ÑĮÐ
? ..
Ð½ÑĥÐ »Ð°ÑģÑĮ
ĠÐ½Ð° ÑĪÑĥ
ĠÑģÐ¸ Ð´ÐµÐ»
ĠÐ´Ð¾ÑĢÐ¾Ð³ Ð
ĠÐ´Ð¾ÑĢÐ¾Ð³Ð ¸
ĠÐºÐ¾Ð½ ÑĨÐ¾Ð²
ĠÑĢÐµÐ ²Ð¾Ð»Ñİ
ĠÑıÐ½Ð²Ð° ÑĢÑı
ĠÐ²Ð ²ÐµÑĢÑħ
Ð¾Ð½ Ñĥ
Ġ2 7
Ñ ĤÐµÐ½Ñĭ
Ġ ÑĩÑ
ĠÑĥÐ¼ ÐµÑĢ
ÑıÐ½ Ð
ĠÐ²Ð¾Ð·Ð²ÑĢÐ° Ñī
ĠÐĺ ÑģÐ¿
ĠÐ¼ Ð°Ð»Ñĭ
ĠÐ¾Ðº Ð½Ð°
ÑģÐ¿ ÑĥÐ±Ð»Ð¸Ðº
³ ÑĢÑĥÑģÑĤ
ĠÐŀ ÑģÐ¾Ð
² Ð¾Ð´Ð¸ÑĤ
ÑĩÐµÑģÐº Ð¸Ð¹
¾Ð²Ð° Ñ
ÑĭÑĤ Ñ
ĠÐºÐ°Ðº Ð¾Ð¼
Ð¾Ñģ Ð°
Ð»Ð° ÑĤÐ°
ĠÐ²Ð° ÑĪÐµÐ³Ð¾
ĠÐ¿Ð¾Ð ·Ð½Ð°ÐºÐ¾Ð¼
ĠÐ´Ð¾Ð» Ð»Ð°
Ð »ÑıÐ´ÑĭÐ
Ð ³ÑĢÑĥÑģÑĤ
Ġ6 0
ĠÐ¿Ð¾Ð´ ÑĢÑĥÐ
¾ÑģÑĤ Ð¾Ñı
ĠÐ²Ð¾Ð ¾ÑĢÑĥÐ
ĠÐ½ÐµÐ¿ Ð¾Ð½
ÑģÑĤÑĢÑĥÐ ¼
ĠÐľ Ð°Ð»
ĠÐ¡ Ð²ÐµÑĤ
ĠÐ¼Ð¾ Ñī
Ñİ ÑīÐµÐµ
ĠÑģÐ° Ð¼Ð°Ñı
ĠÐŃ ÑĤÐ°
Ð ³ÑĢÐ°Ð´
ĠÐ¼Ð¾Ð·Ð ³
ĠÑĦ ÑĢÐ¾Ð½
ĠÐ²Ð¾Ð´ Ð¾Ð¹
ĠÑĢÐ¾Ð´ ÑģÑĤÐ²ÐµÐ½Ð
Ð·Ð°Ð ²
er s
ĠÐ½ÐµÐ ²ÐµÑĢÐ
ÑĤÐ²Ðµ ÑĢÐ
ĠÐº Ð»ÐµÑĤ
³ Ð»ÑıÐ´Ñı
»Ð° Ð³Ð°
ÑĢÐ°Ð½Ð¸Ñ Ĥ
Ðº Ð¾Ð¼Ñĥ
ĠÐ´Ð¾ ÑĩÑĮ
Ð ·ÑĢÐµÐ½Ð¸Ñı
ĠÐ´Ð ½ÐµÐ¼
Ð ³Ð»ÑıÐ´Ñı
ĠÐ¿ÑĢÐµÐ·Ð¸ Ð´ÐµÐ½
· Ñĥ
ĠÑģÐ²Ðµ ÑĤÐµ
ðŁ ¥
Ġ Ð·ÑĢÐµÐ½Ð¸Ñı
Ð ¸ÑĢÑĥ
Ð°Ð½Ð ½
·Ñ Ĥ
ĠÐŁ ÑĢÐµÐ´
ĠÐ¿Ð¾ ÑģÐµÑĤ
Ð¥ÐĲ Ð¥ÐĲ
Ñģ ÑĤÐµÐ½Ñĭ
ĠÐ´ÐµÐ ²
ĠÐ½ÐµÑģ ÑĩÐ°ÑģÑĤ
ĠÑĥÑĢÐ¾Ð² ÐµÐ½ÑĮ
Ġ U
ÑĤÐµÑĢÐµ ÑģÐ½Ð¾
ĠÑģÐ´ÐµÐ»Ð° Ð»Ð°
¾Ð»Ñ ı
3 8
ĠÑģÐ¾Ð¾ÑĤÐ²ÐµÑĤ Ñģ
ĠÐ¿Ð¾Ð½Ð¸Ð¼Ð° Ñ
Ġ Ð³Ð½ÐµÐ
ÑĢÑ ĮÑİ
ĠÐĲÐ½Ð ³
ĠÐ¿Ð¾Ð ¸ÑģÐº
ĠÐºÐ¾ÑĢÐ°Ð±Ð» Ñ
Ð¸Ð½Ð° Ð»ÑĮÐ
Ġ9 0
ĠÑĦÐµÐ²ÑĢÐ°Ð»Ñ ı
Ġ Ð³Ð»ÑıÐ´Ñı
Ð´Ð ¸Ð»
ĠÐ¾ÑĢÐ³Ð°Ð½Ð¸Ð·Ð° ÑĨÐ¸Ð¸
ĠÐ¸Ð½ Ð
ðŁĴ ĭ
ĠÐ²Ð¾Ð·Ð´Ñĥ Ñħ
ĠÐ¾ÑģÑĤ ÑĢÐ¾Ð²
ĠÐ¸Ð· Ð²Ð¸Ð½
Ðļ ÑĤÐ¾
ĠÐ²Ð·Ð°Ð ¸Ð¼Ð
ĠÑģÐ¸ÑĤÑĥÐ° ÑĨÐ¸Ñı
ÑĪÐ ¸Ð²Ð°
ÑĥÐ¼ Ð°
ĠÑĥÑģ Ð¼Ðµ
¸ Ð»Ðµ
ÐºÐ° Ð´Ðµ
m l
ĠÑĤÑıÐ¶Ðµ Ð»Ð¾
½ ÑĢÐ°Ð
ĠÐ¿ÐµÑĢÐ ²ÑĭÐµ
Ġ ÑģÑĤÐµÐ½Ñĭ
ÑĥÐ ±
Ðº Ð¾Ð³
Ġ Ñĸ
Ġ Ð³ÑĢÑĥÑģÑĤ
ĠÐ¨ Ð°
Ð´Ð¸ ÑĪÑĮ
ĠÑĥÐ³ ÑĢÐ¾Ð
ĠÐºÐ¾Ð½ÑĤÑĢÐ ¾Ð»
ÑģÐºÐ° Ð¶Ð¸ÑĤÐµ
ÑıÐ ½Ð¸Ðµ
ĠÐ¼Ð¸Ð½ÑĥÑĤ Ñĥ
Ġâ łĢ
Ð»Ð¸ Ð·Ð°
ĠÑıÐ ¹
ĠÐ±Ð¾ ÑĢÑĮÐ
ÑĢÐµÐ ¶Ð´
Ð²Ð°Ð» ÑĮÐ
Ġ Ð³Ð¾Ð½
Ð¾ ÑĢÑı
Ñģ ÑĥÐ±Ð
ĠÑģÐ» Ð¾Ð¶Ð½Ð¾
ĠÐ¿Ð°Ð¼ ÑıÑĤÑĮ
ðŁĺ Ħ
ÐµÑģÑĤÐ²ÐµÐ½ Ð½Ð¾
ĠÐ²ÑĭÐ ¹
ĠÐ¿ÑĢÐ¸ ÐµÑħ
ĠÐ¿Ð¾Ð· Ð¶Ðµ
ĠÑģÐ¾Ð±ÑĭÑĤ Ð
Ð°Ð½Ð ½ÑĥÑİ
ĠÐº Ð¾Ð»ÑĮ
ĠÐ±Ð »Ð¾Ðº
ĠÐ»Ð° Ð´Ð½Ð¾
ĠÑĤÑĢÐ°Ð ²
ĠÑħÑĥÐ´ Ð¾Ð¶Ð
ĠÐ´ÑĢÑĥÐ³ Ñĥ
¶Ð ºÐ°
Ñģ ÑĦÐµ
ĠÐ¼ÑĥÐ¶Ð ¸Ðº
ĠÐ¿ÑĢÐ¸ ÑıÑĤÐ½Ð¾
½ÑĥÐ ¶Ð´
ĠÐ½ÐµÑģ Ð¼Ð¾ÑĤÑĢÑı
Ð¿Ð¾Ð·Ð ¸
Ð°Ð ±
ĠÐ¶Ð¸Ð²Ð¾ÑĤ Ð½ÑĭÑħ
ĠÑĥÐ´ Ð¸Ð
ÑĢÐ°ÑĤÐ¸Ñ Ĥ
Ð¼ÐµÐ½Ñ ĭ
Ġ ÑĤÑĢÐ¾Ð
ĠÑģÑĥÐ´ Ñ
Ð ½ÑĢÐ°Ð
ĠÐ´ ÑĢÐ°Ðº
ĠÐ¿ÑĢÐ¸ ÑĪÐ»Ð°
ĠÐ½Ð°Ð´Ðµ Ð¶Ð´
Ð¼Ð ½Ðµ
ĠÐ½Ð° Ð¾Ð±Ð¾ÑĢÐ¾ÑĤ
ĠÐºÐ¾Ð¼Ð°Ð½ Ð´Ñĭ
ĠÐ¡ÐµÑĢÐ ³ÐµÐ¹
ĠÐłÐ¾Ñģ ÑģÐ¸Ñı
ĠÑħÐ°ÑĢÐ°Ðº ÑĤÐµ
ĠÐľÐ° ÑĢÐº
ĠÐ°Ð´Ð¼Ð¸Ð½ Ð¸ÑģÑĤÑĢÐ°
ĠÐº ÑĢÐ¾Ð²Ð°ÑĤ
» Ð¾Ð±
Ð°Ð¹ Ñģ
ĠÑģÐ¾Ð ¿ÑĢÐ¾Ð²
ĠÐ¾ÑĤ ÑĩÐ°
ĠÐ·Ð°Ð±Ð¾Ð» ÐµÐ²
ĠÑĤÐµÐ»ÐµÑĦÐ¾Ð½ Ñĥ
ĠÐ±Ð»Ð¸Ð ¶Ðµ
ĠÐ·Ð°Ð²Ð¸ ÑģÐ¸ÑĤ
ĠÐ½Ð° Ð¿Ð¾Ð¼Ð¸Ð½Ð°
ÐµÑĤÐµÑĢÐ ±ÑĥÑĢÐ³
ÑĤÐ°Ð¹ ÑĤÐµ
ÑĭÐ ´
Ð¸Ñģ ÑĤÐµ
ĠÐ½Ð° ÑģÐºÐ¾Ð»ÑĮÐºÐ¾
Ð¾Ð± ÑĢÐ°Ð·
ĠÑĢÑĭÐ ½
ĠÐ¿ÑĢÐ¾ ÑĨÐµ
ĠÐ½Ð° ÑĪÐ»Ð¸
Ĥ ÐµÑģ
ĠÐ¸ÑģÐ¿ ÑĭÑĤÑĭÐ
ĠÐ¼ÑĥÐ ¶Ð°
ĠÑĤÐ²Ð¾Ðµ Ð
ĠÐ¿Ð¾Ð¼ Ð¾Ð¶ÐµÑĤ
Ð°Ð½Ð ½Ð¾Ð¼
ĠÐ¼Ð¾ ÑĢÑı
ĠÑĤÐ²Ð¾ÐµÐ ¹
ĠÐ²Ð µÑģÑĤÐ¸
ĠÑģÐ´Ðµ ÑĢÐ
ĠÐ¸ÑģÐ¿Ñ ĭ
ĠÑĢÐµÐ³Ð ¸
ĠÐ´ÐµÐ²Ñĥ ÑĪÐºÑĥ
²Ð ½Ð¾Ð¹
ÑĢÐ° ÑİÑģÑĮ
ÑĢÐ¸ ÑıÑĤÐ¸Ñı
c l
ĠÑĢÐ°ÑģÐ¿ÑĢÐ¾ÑģÑĤ ÑĢÐ°Ð½
Ġ ÑĢÑĭ
p h
Ĥ Ð¸Ð²Ð
ĠÐºÐ¾ÑģÑĤ Ñİ
ĠÐ½ÐµÐ¸Ð· Ð²ÐµÑģÑĤ
ĠÐ¿Ð°Ð¼ ÑıÑĤÐ¸
ĠÐ¸Ð½ Ð´Ð¸Ð²Ð¸
Ð¼Ð°ÑĤ ÑĢÐ¸Ð
² Ð¾Ð»Ð½
ºÐ°Ñ Ĥ
ĠÑĢÐ°Ñģ ÑĪÐ¸
Ðº ÐµÑĤ
ĠÐ´ ÑĭÐ¼
ĠÐŃÑĤ Ð
ĠðŁ į
Ð ²Ð¾Ð»Ð½
Ð¼ ÑĥÑĤ
Ð°Ð° Ð°Ð°
ĠÐ³Ð¾ÑģÑĥÐ´Ð°ÑĢÑģ ÑĤÐ²ÐµÐ½Ð
¸ Ð´Ð
ĠÑĢÐµÐ·ÑĥÐ»ÑĮ ÑĤÐ°ÑĤ
ĠÑģÐ» ÑĭÑĪÐ°Ð»
ĠÑģÑĤÑĢÐ° Ñģ
ĠÑĥÑģÐ»Ð¾Ð²Ð¸ ÑıÑħ
ÑĩÐ° Ð»Ð¾
Ð ¸ÑĩÐ°
ĠÐŁ ÑĥÑĤ
ĠÐ½Ð° Ð¿Ð¾Ð»Ð½
Ð±Ð »ÐµÐ½
ĠÑĤÐ¾ ÑĩÐºÐ¸
ĠÐ±ÑĭÑģ ÑĤÑĢÐµÐµ
» Ð¾Ð³Ð
Ġ19 4
Ġ Ð¸Ð¼Ð¸
ÑĢÐ°Ð ³
ĠÑģÐ²Ðµ ÑĤÐ°
Ð¸ÑĢÑĥÐµ Ñ
Ð¸ÑĢÑĥÐµÑ Ĥ
ĠÐ°Ð»ÑĮ Ð±Ð¾Ð¼
ĠÐ±Ð° Ñ
ĠÑĢÐ¸ ÑģÐº
âĢįâĻ Ĥ
Ð·Ð°Ð½Ñ ĭ
Ðľ Ð
ÑģÑĤÐ°Ð »
Ġ Ð»Ð¾Ð´
ĠÐ¿Ð¾ ÑĢÐ°
ÐµÐ½Ð ½Ð¾Ðµ
ĠÑģÐ¼Ðµ ÑĢÑĤÑĮ
ÑĥÐ ¶Ð½Ð¾
Ð ½Ñİ
ĠÐ¿Ð¾Ð½ ÑıÑĤ
ĠÑģÐµÑĢÐ´ ÑĨÐ°
ĠÐº ÑĢÑĥÑ
3 6
ĠÐ¾ÑĤÐ»Ð¸ ÑĩÐ½Ð¾
Ġ3 00
ÑĩÐ¸ ÑĤÐµÐ»ÑĮÐ½Ð¾
ÑĥÐ´ Ñ
ĠÑĩÑĥÐ ¶Ð
ĠÐ¿ÑĢÐ¸ ÑħÐ¾Ð´
Ñī Ð¸Ð¹
ĠÑĦÑĢÐ°Ð½ÑĨ ÑĥÐ·
ĠÐ¿Ð¾Ð·Ð´Ð ½Ð¾
ÑģÐ ¸Ðº
ÐĶÐ »
ĠÐ²ÐµÐ· Ð´Ðµ
ĠÐ·ÐµÑĢÐ ºÐ°
ĠÐ¿Ð¾Ð½ ÑĢÐ°Ð²
ÑĭÑĤÑ Į
Ġ Ð²Ð¾Ð»Ð½
ĠÐ¡Ñ Ĥ
ÐĶÐ» Ñ
Ð´Ðµ ÑĪÑĮ
ÐĶÐ»Ñ ı
ĠÐ½ÐµÐ ²Ð
ÑĢÐ¸ Ð¼ÐµÑĢ
ĠÐºÑĢÐ°Ð¹ Ð½ÐµÐ¹
ĠÐĿÐ° Ð¼
ĠÐŃÑĤÐ ¸
ĠÐ¾ÑģÐ¾Ð±Ð ¾
ĠÑģÐ»Ð¾Ð² Ð°Ð¼Ð¸
on e
ĠÐŀÑĤ Ðº
ĠÐ³Ð¾ÑģÑĥÐ´Ð°ÑĢÑģ ÑĤÐ²Ð°
Ð¾Ð» Ð¾Ð³
Ð´Ð° ÑĩÐ¸
Ġ Ð¿ÑĢÑĭÐ
ĠÐ³Ð¾ÑĤÐ¾Ð² Ñ
ĠÐ£ÐºÑĢÐ°Ð ¸Ð½Ñĭ
ĠÐ¿Ð¾ÑĤ ÑĢÐµÐ±Ð
»ÐµÐ ³
ĠÐ³ÑĢÑıÐ ·
ĠÐ¾Ñģ ÐºÐ¾ÑĢÐ
²Ð»Ðµ ÐºÐ°
Ġ ÑģÑĤÑĭÐ
ĠÐ½Ð°Ð·Ð ²Ð°Ð½Ð¸Ðµ
½ ÐµÑģÑĤÐ¸
ĠÐ½Ð¾Ð² ÑĥÑİ
ı ÑİÑĤÑģÑı
ĠÐ·Ð° ÑħÐ²Ð°ÑĤ
²Ð ¸Ñģ
¶ Ð½Ð°Ñı
ĠÐ°Ñ Ģ
3 4
ĠÐ´Ð¾ÑģÑĤ Ð¾Ð¹
ÑĥÐ½ ÐºÑĤ
Ð¾ ÑģÐµ
¿ ÐµÐ½Ð½Ð¾
Ð½Ð¸Ðº Ñĥ
ĸ Ñ
ĠÐ¼Ð ¸Ð³
ĠÐ²Ñĭ ÑĤÐ°
Ð°ÐºÐ¾Ð½ ÐµÑĨ
¸ Ð»Ð
Ġ ÑģÑĥÐ±Ð
Ð²Ñĥ ÑİÑĤ
Ð¿ Ð¾Ð»Ñı
ÑĢÑĥÐµ Ñ
Ð¾Ð´Ð ½Ð¾Ð¹
ÑĢÑĥÐµÑ Ĥ
ĠÐº Ð¾ÑĢ
ÑĩÐ¸ Ð»Ð°ÑģÑĮ
Ð»Ð°Ð½Ñ Ĥ
¾Ð²Ð°Ñ Ĥ
ĠÑĢÐ°Ð· Ð´ÑĢÐ°Ð
ĠÐ¿ÐµÑĢÐ ²ÑĭÑħ
ĠÑģÑĥÑīÐµÑģÑĤÐ ²ÑĥÐµÑĤ
ÑĦÐ¸ ÑĨÐ¸
ÑģÑĤÐ²ÐµÐ½ Ð½ÑĭÐµ
ÑĥÑģ Ð¾Ð²
½ ÑıÐºÐ°
ĠÐ²Ñĭ ÑĪÐ»Ð°
ÑĩÐµÑģÐº Ð¸Ðµ
Ġ k
ĠÐ´ÑĢÑĥÐ³ Ð¸Ð¼Ð¸
¶ Ð°ÐµÐ¼
ĠÐ´Ð¾ÑĢÐ¾Ð³ Ð°
ĠÐ½Ðµ Ð¾Ð±Ñĭ
ÑĤÐ°Ñ ıÑģÑĮ
¸Ð»Ð¾ ÑģÐ¾ÑĦ
Ñģ Ð°Ð
ÑħÐ¾Ð´Ð¸ ÑĤÐµ
Ġ ÑģÐ¾ÐµÐ´Ð¸Ð½
ĠÐºÐ»Ð°Ñģ Ñģ
ÑģÑĤÐ²ÐµÐ½Ð ½Ð¾Ðµ
ĠÑģÐµÐ¼ ÑĮÐµ
ĠÐ½Ð°ÑĩÐ¸Ð½Ð° ÐµÑĤ
ĠÐ³Ð° ÑĢÐ°Ð½ÑĤ
ĠÐ²ÑģÑĤÑĢÐµ ÑĩÐ¸
ĠÐ¸Ð³ ÑĢÐ¾Ðº
Ð¾Ð· Ð´ÑĢÐ°Ð
Ð¾Ð¶Ð ¸Ð»
·Ð½Ð° Ñ
ĠÐ¿ÑĢÐ¸ Ð²ÑĭÐº
ĠÑħÐ²Ð°ÑĤ Ð
ĠÑħÐ²Ð°ÑĤÐ ¸
ÑģÑĤÐ²ÐµÐ½ Ð½ÑĭÐ¼
ÑĥÐ¼Ñ ı
ĠÑģÐ ¸Ð³
Ġ ÑĩÐ¸Ð½
ĠÑĥÐ ³Ð¾Ð´Ð½Ð¾
ĠÑģÐµÐ¼Ñ ĮÑı
Ð´Ð°Ñ ı
Ð»Ð¸Ð »
ĠÑħÐ²Ð°ÑĤÐ¸ Ñ
ĠÑĥÐ »ÑĥÑĩ
ĠÑħÐ²Ð°ÑĤÐ¸Ñ Ĥ
ĠÐ¾ÑģÑĤÐ°Ð »ÑģÑı
ĠÑĤÐµ Ðº
ĠÐ´ÐµÑı ÑĤÐµÐ»ÑĮÐ½Ð¾ÑģÑĤÐ¸
ĠÐ¼ÐµÑĤ Ð¾Ð´
ĠÐ´Ð²Ð° Ð´ÑĨÐ°ÑĤÑĮ
Ġ ÑĤÑĢÑı
ĠÐºÐ°ÑĢÑĤ Ð¸Ð½
ıÑģÑ ı
ÑĢÐ°Ñı Ñģ
ĠÑĩÐµÑģÑĤ Ð½Ð¾
ĠÑģÐ¼Ñĭ ÑģÐ»Ðµ
Ð¾Ð²Ð¸ Ñ
ĠÐ¾ÑģÐ ²Ðµ
ÑĤÐµÐ ³Ð¾
ÑĢÐ°ÑıÑģ Ñ
ĠÐ¾ÑĤ ÑĢÐµ
ÑĩÐ°Ð »ÑĮÐ½Ð¾
ĠÐł ÐµÐ
ÑĢÐ°ÑıÑģÑ Į
ĠÐ¾ÑĤ Ð¿ÑĥÑģ
ÑĪÐ° ÑİÑĤ
ĠÑĤÐ°Ðº Ð¸Ð¼Ð¸
ĠÑģÑĩÐ°ÑģÑĤ ÑĮÑı
ĠÑĤÑĭÑģÑı ÑĩÐ¸
Ð »Ð¾Ð³Ð
Ġ Ð¾Ð»
ĠÑĥ ÑĢÐ¾Ðº
¾ÑĢÑĥÐ ´
¶ Ð°Ð½
ĠÐ½Ð°ÑĢÐ¾Ð´ Ð°
ĠÐ½Ð¾Ð² Ð¾Ðµ
ÑĤÐµÐ ³
ÑĢÐµ Ð¼ÐµÐ½Ð
ĠÑħÐ »Ð¾Ð¿
ĠÑĥÑģ ÑĤÑĢÐ°Ð
Ð¼Ð ¸Ð¸
ĠÐ³Ð¾Ð²Ð¾ÑĢÐ¸ Ð»Ð°
Ģ ï¸ı
ĠÑĥÑģÐ¿Ð¾Ð º
ĠÑħ Ð¾Ð´Ð¸ÑĤÑĮ
ĠÐ¿Ð¾Ðº Ð¾Ð»
Ġ Ð»Ð¾Ð¼
ĠÐ½Ð°Ð¿Ð¸Ñģ Ð°
³ Ñ
ĠÑĢÐµÐ±Ñ ĳÐ½
ĠÑģÐ¸Ð»ÑĮÐ ½ÐµÐµ
ĠÑį ÐºÑģ
ĠÐ½Ð° ÑĩÐ°ÑĤÑĮ
ĠÐ¿Ð¸Ñģ Ð°Ð»
ĠÐ´ÑĢÑĥÐ³ ÑĥÑİ
² Ð¾Ð»ÑĮÐ
ĠÐ½Ð°Ð¿Ð¸ÑģÐ° Ñ
ĠÑĤÐµÐ¼Ð¿Ðµ ÑĢÐ°ÑĤÑĥ
ĠÐ¶Ðµ ÑĢÑĤ
ĠÐ½Ðµ ÑĩÐµÐ³Ð¾
ĠÐ½Ð°Ð¿Ð¸ÑģÐ°Ñ Ĥ
... Â»
ÑĢÐ°Ð·Ð¸ Ñ
ĠÐ¾ ÑĢÐ¸Ð³
ÑĨ Ð¾Ð¼
Ð°Ðº Ð¾Ð²
Ð¡ Ð¿Ð°ÑģÐ¸Ð±Ð¾
Ñ ĮÐº
ĠÐ¿ÐµÑĢÐµ ÑģÑĤÐ°
³ÑĢÑĥÐ ·
Ð±Ðµ Ñ
Ð¸Ð· Ð¼
ÑħÐ¾Ð´Ð¸ Ð»Ð°
ĠÑģÑĤÑĢÐ° ÑĪÐ½Ð¾
ĠÐ²Ð¸Ð´Ðµ Ð»Ð¸
ĠÐ²Ð»Ð°ÑģÑĤ Ñ
ĠÐ¿Ð¸Ñ Ĥ
ĠÐ²Ð»Ð°ÑģÑĤÑ Į
Ð±Ð ¸Ð»
ĠÑĥÐ²Ð¸ Ð´ÐµÐ»Ð°
ĠÑĢÐ°Ð· Ð¾Ð±
Ð¿Ð° ÑĢÐ°ÑĤ
ĠÐ¿Ð¾Ð´Ð½ ÑıÐ»
ĠÐ·Ð° Ñģ
Ġ Ð½ÑĢÐ°Ð
ÑĦÑ Ĥ
ĠÐ½Ð°Ð¿Ð¸ÑģÐ°ÑĤ Ñ
ĠÐ¼Ð¾Ð³ Ð»Ð¾
ĠÐ½Ð°Ð¿Ð¸ÑģÐ°ÑĤÑ Į
ĠÐºÐ¾Ð½ ÐµÑĨ
ĠÑĪÐ µÑģÑĤÑĮ
ĠÐĶ Ð¾Ð½
ĠÐ¶Ð ¸Ð»Ð¸
ÑĢÐ¸Ð½ Ñ
ĠÐ¼ÐµÐ¶Ð´ ÑĥÐ½Ð°ÑĢÐ¾Ð´
ĠÑĢÐ°Ð· Ð¾
ÑĤÐ¾ÑĢÐ ¾Ð²
Ð¿ ÑıÑĤÐ
ĠÐ¿Ð¾Ð´ ÑĢÑĥÐ³
Ð¸ÑĩÐµÑģÐº Ð
Ð¸ÑĩÐµÑģÐºÐ ¸
ĠÑĥÐº ÑĢÐ°Ð¸Ð½
¶Ð°Ñ ı
ðŁĺĤ ðŁĺĤ
ĠÐ¿Ð¾Ð³Ð ¸Ð±
ĠÐºÐ¾Ð¼ Ð¸Ñģ
² Ð¾Ð´Ð¸ÑĤÑĮ
ÑģÑĭÐ ¿
Ð´ Ð°Ð»ÑģÑı
Ð¾Ð² ÐµÑĤ
Ð»ÐµÑ ĤÐ²Ð¾
ĠÐ¾ÑĤÐºÐ° Ð·Ð°
» ÑĮÑı
ĠÐ¿ÑĢÐ¾Ð ·
Ñ ĭÑĪÐ»ÐµÐ½
ĠÐ½Ð° ÑĤÑĥ
ĠÑĨÐµÐ» Ð¾Ð¼
Ð¸Ðº Ð¾Ð¼
aÑ Ĥ
Ð¼Ð º
ou r
9 7
¶ Ð°Ð²
³Ð¾ÑĢÐ ¾Ð´
ĠÐ¾Ð´ ÐµÐ
ÑĤÐ° ÑĨÐ¸Ð¸
ĠÐŁÐµ ÑĢÐµ
ÑİÑī Ð¸Ð¼Ð¸
ĠÐº Ð¾Ð¶Ð¸
ĠÑģÐ¿ Ð¸Ð½Ð¾Ð¹
Ð¾Ð³Ð ¸Ðµ
ĠÐ¸Ð½ ÑģÑĤÑĢÑĥÐ¼
ĠÑģÐ¾Ð»Ð½ ÑĨÐµ
oÐ ²
ÑĩÐ° Ñİ
ĠÐ¿Ð¸ ÑĪÐµÑĤ
ĠÐ¾ÑģÐ½Ð¾Ð² Ð½Ð¾Ð¼
ĠÐ° Ñį
ĠÐĳÐ¾Ð³ Ð°
ĠÐ½Ð° ÑĪÐµÐ»
¾Ð½Ñ ĭ
ht ml
ĠÐ¾ÑģÑĤÐ°Ð ²
ĠÑģÐ¸ÑģÑĤÐµ Ð¼Ð°
ĠÑģÐ°Ð¼Ð ¾ÑģÑĤÐ¾Ñı
eÑ Ĥ
ĠÐºÐ¾Ð¼ Ð½Ð°ÑĤÑĭ
ĠÑĢÐ°Ð ²Ð½
Ñ ĤÐµÑģ
ÑĢÐ°Ð±Ð¾ ÑĤÐ°ÑĤÑĮ
ĠÑĥÐ¿ Ð¾Ð¼
ĠÑĩÐ »ÐµÐ½
ĠÐ»Ð¸ÑĨ Ð¾Ð¼
ÑĩÐº Ð¾Ð²
ĠÑģÐºÐ° Ð¶Ðµ
ĠÑĪ Ð°Ð½Ñģ
ĠÐ±Ð »Ðµ
ÑĩÐµÑģ Ñ
ı ÐµÐ¼
ĠÐ±ÐµÑģÐ¿Ð»Ð°ÑĤ Ð½Ð¾
ÐºÐ¾ÑĤ Ð¾ÑĢÑĭÐµ
ĠÐ¿Ð¾Ð´ Ð¾Ð¹
ĠÑģÐ¾Ð¼ Ð½ÐµÐ
= =
ĠÐ¿Ð¾Ð´Ð ½Ð¸Ð¼
ĠÐºÐ²Ð°ÑĢÑĤÐ¸ ÑĢÐµ
Ġ ÑģÐ°Ð½
ĠÑĢÐ°Ð¹ Ð¾Ð½
ÐµÐ» Ð¾ÑģÑĮ
ĠÐ¾Ð¿ ÑĢÐ°Ð²
Ð¡ Ð¯
½ Ð¾Ð¶Ð
ĠÐľ Ð¾
ÐŁ ÑĢÐ¾
ĠÐ²Ð¾Ð· Ð½Ð¸ÐºÐ°
Ñģ ÑĩÐµ
ĠÐ¿Ð¾Ðº Ð¸Ð½
ĠÐ²Ð¾ÑģÐº ÑĢÐµ
»ÑİÑģ Ñ
ÑīÐ¸ÑĤ Ñ
ĠÐ½Ð°Ð¸ Ð±Ð¾Ð»ÐµÐµ
Ġ ÑģÑĦÐµ
Ġ ÑıÐº
ÐµÐ½ Ð½Ð°Ñı
Ð¾Ðº Ð¾
Ð·Ð°Ð½Ð¸ Ñ
ĠÐ¿ÑĢÐ¸ ÑĪÐ»Ð¸
ÑģÑİ Ð´Ð°
¾Ñ ĳ
in e
6 6
ĠÐ¼Ð¾Ð ¸Ð¼
ĠÐ¾Ð±ÑĬÐµ Ð´Ð¸Ð½
ĠÑĢÐ¾Ð´ Ð°
Ð¶ Ð°Ð»Ð¸
ĠÑĥÑĩÐµ Ð±Ð
² Ð°Ð¹ÑĤÐµ
ÑĥÐ »ÑģÑı
¾Ð²Ð°ÑĤ Ñ
ÐĴ Ðµ
Ð¸ÑĤÐµ ÑĤÐ°
ĠÐ´Ð² ÑĥÐ¼Ñı
Ð·Ð°Ð½Ð¸Ñ ı
ÐĴ Ðĺ
Ì ģ
¾Ð²Ð°ÑĤÑ Į
ĠÐŃÐ ½
Ð ²Ð¾Ð»Ð
ĠÐ¼Ð°Ñ ĢÑĪ
ĠÐ±Ð¾Ð»ÑĮ ÑĪÐ¸Ðµ
Ð ±ÑĢÐ°ÑĤÑĮ
Ð ³Ð¾ÑĤ
Ñ ĤÐ²Ð¸Ñı
ÐµÐ ±
ĠÑĩÑĳ Ð¼
Ò £
ĠÐ¼Ðµ Ð´
Ġ Ð»Ð¾Ð³Ð
5 5
ÑĢÐº Ñĥ
ĠÑĦÐ¸Ð½Ð°Ð½ ÑģÐ¾Ð²
ĮÐµ Ð
ÑģÐµ Ð´Ð°
· Ð¸Ð½
ĠÐ²ÑĭÐ ¼
ĠÐ´Ð¾Ð¿Ð¾Ð»Ð½ Ð¸ÑĤÐµÐ»ÑĮÐ
ÑĢÐ¸ÑģÑĤ Ð¸Ð°Ð½
ĠÑĥ ÑĢÐ¾Ð²Ð½
ĠÐ¿Ñĭ ÑĤÐ°Ð»ÑģÑı
ĠÐĶÐ¶Ð ¾Ð½
Ġ and
ĠÑĢÐ°Ð ½ÐµÐµ
Ð¾Ñģ ÐºÐ¾Ð²
ÑĪÐµÐ ²
ĠÑĢÐµÐ ±ÑıÑĤÐ°
ĠÑĥÑ ĤÐ¾
Ð¾ÑĤ ÑĢÐµÐ±Ð
Ġ Ð¿Ð¾Ð»Ñı
ĠÐ·Ð° Ñħ
Ð»Ð¸ÑģÑ Ĥ
ÑĢÐµÑģÑĤ Ð
ĠÑĢÐ°ÑģÑģÐºÐ° Ð·Ð°Ð»
ĠÐ¿ÑĢÐ¸ ÑĩÐ¸Ð½Ð°
²Ð¸Ñ ĩ
ĠÑĤÐµ ÑĢÐ¼
ĠÐ¿Ð¾Ð´ Ð´ÐµÑĢÐ
ı Ð´
ĠÐ½Ðµ Ð±Ð
Ġ Ð½a
ĠÐ½Ð¾Ð² Ð°
ÑģÐ¿ Ð¾Ñģ
±Ð ¾Ð
ĠÑĩÐ »Ðµ
ĠÑĦÐ ¸Ð»Ð¾ÑģÐ¾ÑĦ
ÐºÐ° Ð»Ð°
ĠÑıÐ²Ð»Ñı ÑİÑĤÑģÑı
Ñģ Ð±Ðµ
ÑĢÐ¾Ð ¸
ĠÐ·Ð½Ð° Ð»Ð¸
2 00
ĠÐ¼Ð¸Ð½Ð¸Ð¼ ÑĥÐ¼
Ð»ÐµÐ½ Ð½Ð¾
Ð »Ð¾Ð±
ĠÐ·Ð° ÑĤÐ¾
ĠÑģÑĤÑĢÐµ Ð¼Ð¸
ĠÐ´Ð¾ ÑĩÐµ
ÑĤÐ°Ð»Ñ Į
Ñĥ ÑĢÐ°
ĠÑĪÐ ¾
³ ÑĥÑģÑĤ
Ðµ ÐµÑĤÑģÑı
ĠÐ²Ð¾Ð ¸Ð½
ĠÐļÐ°Ð¶Ð´ ÑĭÐ¹
ĠÑģÑĤÑĢÐ°Ñģ Ñ
ĠÐ±ÑĥÑĤ ÑĭÐ»
Ð»Ð¸ Ð½Ð°
ĠÑģÑĤÑĢÐ°ÑģÑ Ĥ
Ð¿ Ð»Ð°Ð
âĢįâĻĤ ï¸ı
________ ________
ĠÐºÐ° Ð½Ð°
ĠÐ°Ð²Ñ ĤÐ¾ÑĢ
ĠÐ²Ð° ÑĪÐ¸Ñħ
ĠÑĪÐ ¿
ĠÐ·Ð° ÑĢÐ¿
ĠÐ¾ÑĤ Ð·ÑĭÐ
ĠÑģÐ¾Ð±ÑĭÑĤÐ ¸
ĠÐ´Ð ²Ð¾Ðµ
ĠÐ°Ð ²Ð°
ĠÐ½Ð°ÑĩÐ° Ð»Ð¾
ĠÑģÑĤÐµÐ ½Ðµ
ÑĩÐ¸Ñ ı
ĠÐ¿Ð¾ ÑħÐ¾Ð´
Į ÑĦ
ĠÑĥÐ¿ÑĢÐ°Ð² Ð»ÐµÐ½Ð¸Ñı
ĠÐ¿ÑĢÐ¾ÑĦÐµÑģÑģÐ¸ Ð¾Ð½Ð°Ð»ÑĮÐ
¶Ð ½ÐµÐ¼Ñĥ
²ÐµÑĢÐ ½Ð¾Ðµ
ĠÑģÐ ½Ð¸Ð¼
ĠÐĲ Ðº
ĠÐ³Ð¾ÑĤÐ¾Ð²Ñ ĭ
ĠÐ¿ÐµÑĢÐ ²Ð¾Ð¼
Ðļ Ð£
Ġ8 0
Ġ Ð±ÑĢÐ°ÑĤÑĮ
ÑĩÐµÑģÑ Ĥ
ĠÐľ Ðŀ
ÑħÐ° Ñħ
¸Ð»Ñ ı
ĠÐ²Ð¾ÑģÐ¿ Ð¾Ð¼
ĠÐ¢Ðµ Ð±Ðµ
ĠÐ¿Ð¾Ð´ ÑĩÐ¸Ð½
Ð´ ÐºÐ°
ĠÑĢÐµÐ ¶Ð¸Ð¼
¶Ð ½ÑĭÑħ
Ġ Ð¿ÑıÑĤÐ
ĠÐ¿ÑĢÐ¾ÑĤÐ¸Ð ²Ð¾Ð¿
² Ð°Ðµ
ÐĹ ÐĲ
ÑħÐ ½ÑĥÑĤÑĮ
Ġ Ð»ÐµÑ
ÑĪÐµÐ ³
Ġ ÑĤÑĥÐ¼
ĠÐ¿ÑĢÐ¾ ÑĪÐ
ĠÐ´Ð¾Ð ¶Ð´
ĠÐºÐ° ÑĤÐ°
Ð²Ñ ĮÑĤÐµ
Ð´Ð° Ñħ
ĠÐ¿Ð¾Ð² ÐµÐ·
ĠÐ¿Ð¾Ð¿ÑĢÐ ¾Ð±Ð
ĠÐ¿Ð¾Ð»Ñĥ ÑĩÐ¸Ð»Ð¾ÑģÑĮ
ĠÐĽÑİ Ð´Ð¸
ĠÑĦÐ¾ÑĢÐ¼ Ðµ
ĠÐĴ ÐĲ
Ð±Ð ¸Ð½
ĠÐ²Ð° ÑĪÐ°
ĠÐ½ÐµÐ¿ Ð»Ð¾
Ð´ Ð°Ð»Ðµ
ĠÐłÐ°Ð· Ð²Ðµ
ĠÐ·Ð° ÑģÐµ
i z
ĠÐ¿ÑĢÐ¾ ÑĩÐ¸
ĠÐ¸ÑģÑĤÐ¾ ÑĩÐ
Ð ¸ÑıÐ¼Ð¸
Ð ½Ð¾Ð¶Ð
ĠÐ¾ÑĤÐ²ÐµÑĤ Ð
ĠÐ¼ ÑĢÐ°
ÐµÑģÑĤ Ð²Ð°
o Ñ
ĠÐ¿ÑĢÐ¾ÑģÑĤ Ð
ÑģÐ ²ÐµÑĤ
ĠÐ½ÐµÐ¾Ð¶Ð¸ Ð´Ð°Ð½Ð½Ð¾
ÑĢÐ°Ð½Ñ ĭ
ĠÑħÐ¾ÑĤ ÐµÐ»Ð¸
ĠÐ¿Ð¾ÑıÐ² Ð¸Ð»ÑģÑı
ĠÐ»Ð°Ð ³Ðµ
ÑĩÐµÐ½ Ð½ÑĭÐµ
ĠÑħ ÑĥÐ¹
ÑĢÑģ ÐºÐ°Ñı
ÑĢÐ¾Ð¿ ÐµÐ¹
ĠÑģÐ²ÐµÑĤÐ »
¾ÑĢÐ ³
ĠÑģÑĩÐ°ÑģÑĤ ÑĮÐµ
Ð¿ p
ĠÐ¼Ðµ ÑĢÑĤ
Ð»Ðµ Ð½Ð¾
i st
ĠÐ·Ð° Ð¶Ð
ĠÐ´Ðµ Ð»Ð°Ð»
ĠÐ½ÐµÐ±Ð¾Ð»ÑĮ ÑĪÐ¾Ð¹
ÑĢÑģ ÐºÐ¸Ñħ
ĠÐ¾ÐºÐ°Ð·Ð° Ð»Ð°ÑģÑĮ
ĠÑħ Ð»ÐµÐ
Ð²Ñĥ ÑĪÐºÐ°
ĠÐ¸Ð· Ð±Ðµ
ĠÐ¿Ð¾Ð» ÑĥÐ
ÑĩÐµÑģÐº Ð
Ð¾Ð½Ð ½
ÑĩÐµÑģÐºÐ ¸
i f
½Ð¾ÑģÑĤ ÑĢÐ°Ð½
Ġ Ð³Ð¾ÑĤ
ĠÐ§ ÐµÐ»Ð¾Ð²Ðµ
ĠÑģÐºÐ° Ð¶Ñĥ
Ð´Ð ½ÑĭÐ¹
Ð»Ð°Ñ ĤÑĥ
ĠÑĥÑģ ÑĤÑĢÐ¾Ð¹
ĠÐ¿Ð»Ðµ ÑĩÐ°Ð¼Ð¸
Ñ ĤÐ¸Ð²Ð
ĠÐ¿Ð¾Ð»Ð¾Ð ¶ÐµÐ½Ð¸Ðµ
ĠÐ¼Ð ¾ÑĢÐ¾Ð
ĠÐ¿Ð¾ÑģÑĤ ÑĢÐ°Ð´
Ð²Ð°Ð»ÑĮÐ ½Ð¾
Ð¶ ÑĥÑĤ
ĠÐ·ÐµÐ¼Ð »
ĠÐŀ Ðº
ĠÐ±ÐµÐ· ÑĥÐ¼
ĠÐ²Ð »Ñİ
Ð¿ ÑĥÐ±Ð»Ð¸
Ð¾Ð² Ð¾Ð³Ð¾
t e
ĠÐĵ ÐµÐ½
ĠÑĢÐ°Ð º
ĠÐºÐ° ÑĤÐµÐ³Ð¾
ĠÑĢÐµ Ð¼Ð¾Ð½ÑĤ
ĠÑħ ÑĢÐ°Ð½
8 8
½ ÑĳÐ¼
ĠÐĶ ÐµÐ½
ĠÐ¿ÑĢÐ¸Ð±Ð »Ð¸Ð
ĠÐĲÐ½Ð´ ÑĢÐµÐ¹
ÑĢÐ°ÑĤÐ¸ÑĤ Ñ
a z
ÑĢÐ°ÑĤÐ¸ÑĤÑ Į
¾ ÑĤÐ°
Ð¾Ð ¸Ð½
ÑĢÐ¸ ÑĤÑĮÑģÑı
ÑĩÐµÐ½ Ð½ÑĭÐ¹
ĠÐ¿Ð¾ÑģÐ»ÐµÐ´Ð ½ÐµÐµ
Ð¾ÑĢÐ ¾ÑĤ
ĠÐ¿Ð¾Ð ¶Ð°
ĠÑģÐ»ÐµÐ´ ÑĥÑİ
² Ð°Ð²
ĠÐº Ð¼
ĠÑĥÑĢÐ¾Ð² Ð½Ðµ
ĠÐ·Ð°Ð½Ð¸Ð¼Ð° ÑĤÑĮÑģÑı
ÑĢÐ°Ñ ĩ
ĠÐ´ Ð°Ð½Ð½ÑĭÐ¼
ÑĢÐ½Ñ ı
ÐĴ ÐĶ
ĠÑģÑĤÐ¾ÑĢÐ¾Ð½ Ðµ
ĠÐ±ÑĭÑģ Ñ
ĠÐ±ÑĭÑģÑ Ĥ
ĠÐŁÐ¾Ð´ ÑĢÐ¾Ð±Ð
²Ð»Ñ ıÑı
ÐµÑģÑĤÐ ²
ĠÐ¿ÑĢÐ¾Ð¹ Ñ
ĠÐ¿ÑĢÐ¾Ð¹Ñ Ĥ
Ġ ÑĩÐ°ÑģÑ
½Ð¸ÐºÐ° Ð¼Ð¸
ĠÐ¡ ÐºÐ¾Ð»ÑĮÐºÐ¾
Ð¾ ÑĢÑĭ
ĠÐ¾Ð´Ð ½Ð¾Ð¼Ñĥ
ĠÐºÐ°Ñģ Ð°ÐµÑĤÑģÑı
ĠÐ¶Ð¸Ð²ÑĥÑ Ĥ
ĠÐ¿Ð¾ ÑĪÐ»Ð°
¶Ðµ Ð¼
ĠÐľÐ¾ÑģÐº Ð²Ñĭ
ÐĶ Ðĺ
»Ð¾Ð² Ð°
ĠÐ¼Ð°Ð³ Ð
Ð¿ ÑĥÐ½ÐºÑĤ
ĠÐ½Ðµ Ð±Ð¾
ĠÐ¿ÑĢÐ¾ Ñħ
Ñģ ÑĥÐ´Ð°
ĠÐĲ Ñħ
ĠÐ²Ð½Ð¸Ð¼Ð° ÑĤÐµÐ»ÑĮÐ½Ð¾
ĠÐ¼Ð¾Ð» ÑĩÐ°
Ġ Ð¿Ð»Ð°Ð
Ñī Ð¸Ð½Ð°
ĠÐ¾Ð±Ñı Ð·Ð°Ð½
ÑĩÐµÐ »
ĠÐ´ÐµÐ²Ð¾ ÑĩÐºÐ¸
ĠÐĳ Ð¾Ð»
Ð½Ð°Ð ²
Ð§ Ðµ
ĠÑĢÐµ ÑĪÐµÐ½Ð¸Ñı
ĠÐ±Ð »Ñİ
ĠÑĤÐµÑ Ģ
ÑĤÐ°Ð½Ñ ĭ
¿Ð° Ñ
Ðĵ Ð»Ð°Ð²Ð°
ĠÑĨ ÐµÐ½Ñĭ
ÑĪÐ ¾Ðº
ÑĩÐµ ÑĢÐº
ĠÐ·Ð°Ð »
Ð¾ÑĢÐ ¾Ðµ
ÑĢÐ°ÑĤ Ð¸Ð²Ð
ĠÐºÐ¾ÑĢÐ ¾Ð±Ð
Ð²Ð¸Ñ ĩ
ĠÑģÐ¾Ð» Ð´Ð°ÑĤ
ĠÐ¿ÑĢÐ°Ð·Ð´Ð ½Ð¸Ðº
ĠÐ´Ð°Ð² Ð°Ð¹
ĠÐ¼Ð°Ð»ÐµÐ½ÑĮ ÐºÐ¸Ð¹
Ð»ÐµÑ Ģ
ĠÐºÐ° Ð¼Ð½
ĠÐ¿Ð¾Ñı ÑģÐ½
ĠÐ·Ð° Ð¿
ÐµÑ ĤÐ¾
ĠÐ½Ð°Ð·ÑĭÐ ²Ð°ÐµÑĤÑģÑı
Ð ²Ð¾ÑĢÐ¾
ĠÐºÐ¾Ð» Ð»ÐµÐºÑĤ
e b
Ð´Ð ¸Ðº
ÑĩÐµ Ð½Ð°
ĠÐ¿Ð¾Ð½ Ðµ
ÑĨ ÐµÐ»
ĠÐ¼Ñĭ ÑĪ
ÑĥÑī Ð¸Ð¹
ĠÐ¿Ð¾Ð¿ Ð°
ĠÐ¿Ð¾ÑģÐ¼Ð¾ÑĤ ÑĢÐµÐ»Ð°
Ð¾Ð²Ð° Ð»Ð°ÑģÑĮ
ĠÐĽÑİ Ð±Ð
ĠÑģÑĤÐµÐ¿ ÐµÐ½Ð¸
Ð²Ðµ Ð»Ð¸
ÑĩÐµÑģ ÑĤÐ²Ðµ
ĠÐĿÐ° Ñģ
ĠÐºÐ¸ ÑĤÐ°Ð¹
ĠÐ¿Ð¾ ÑĪÐ»Ð¸
ĠÐĿÐ°Ð¿ ÑĢÐ¸Ð¼ÐµÑĢ
ĠÑĢÐ°Ñģ ÑģÐ¼Ð¾ÑĤ
Ġ Ð³ÑĢÐ°Ð´
ĠÑĥÐ±Ðµ Ð¶Ð´
Ð¾ ÑĩÐºÐ¸
ĠÐ²ÐµÑĢÐ ½ÑĥÑĤÑĮÑģÑı
ĠÐŀ ÑģÑĤÐ°Ð
ĠÐ¿Ð¾ ÑĢÑĥ
Ð°Ð ±Ð°
ĠÐ¿Ð¾Ð» Ð½Ð¾
ĠÐ·Ð°Ð±Ð ¾ÑĤ
ĠÐ¢ Ðŀ
ĠÐ¿Ð° ÑģÑģÐ°Ð
ĠÐ¼Ð½Ð¾Ð¶Ðµ ÑģÑĤÐ²Ð¾
ĠÑģÑĢÐµÐ´ Ñģ
ĠÐ´Ðµ Ð²ÑıÑĤ
ĠÑģÑĢÐµÐ´Ñģ Ñ
Ðŀ Ð´Ð½Ð°
ĠÑģÑĢÐµÐ´ÑģÑ Ĥ
ðŁ¤ Ĺ
Ð°Ð½Ñ ı
ĠÐ¾ÑĤÐ²ÐµÑĤÐ ¸
ĠÐºÐ° ÑĦÐµ
Ġ Ð¿ÑĥÐ±Ð»Ð¸
ÑĢÐ° ÑĨÐ¸Ð¸
ĠÐ²ÑĭÐ »Ðµ
Ġ Ð½Ð¾Ð¶Ð
ĠÐ¿ÑĢÐ¾Ð² ÐµÑģÑĤÐ¸
ĠÐ¿ÑĢÐ°Ð²Ð¸ Ð»Ð¾
ĠÐ¾ÑĤÐ²ÐµÑĤÐ¸ Ñ
ĠÑģÑĢÐµÐ´ÑģÑĤ Ð
ĠÑģÑĢÐµÐ´ÑģÑĤÐ ²
ĠÑĥÑĤÐ¾ ÑĩÐ½
ĠÐ¾ÑĤÐ²ÐµÑĤÐ¸Ñ Ĥ
ĠÐ´ Ð°Ð½Ð½ÑĭÐ¹
ĠÐºÐ¾Ð¼Ð¿ Ð°Ð½Ð¸Ñı
³ Ð¾ÑģÑĤÐ¸
Ġ Ð»Ð¾Ð
ÑĪÐµ Ð±Ð
ĠÑģÐ¾Ð¾Ð±Ñī ÐµÐ½Ð¸Ñı
ĠÐ¿Ð»Ð°ÑĤ ÑĮÐµ
ĠÐ´Ð²Ð¸Ð ¶ÐµÐ½Ð¸Ðµ
ĠÐ¾Ð´Ð½ Ð
² ÐºÐ°
ĠÑģÐ°Ð¼Ð¾Ð¼ Ñĥ
ĠÐ¾Ð´Ð½Ð ¸
ĠÐ²ÑĭÐ ½ÑĥÐ¶Ð´
ĠÐ¿Ð¾Ð» Ð¸ÑĨÐµÐ¹
Ð´ Ð°ÐµÑĤÑģÑı
ĠÐļ ÑģÑĤÐ°ÑĤÐ¸
ðŁĺ Ĩ
Ð´ÐµÐ½ Ð¸Ð¸
ĠÐ¿ÑĢÐ¸ ÑĩÐµÐ¼
ĠÑģÐµÐ¼Ñ Į
ĠÐ´Ñĥ ÑĪÑĥ
ĠÐĴ Ð¿ÑĢÐ¾ÑĩÐµÐ¼
Ĥ ÐºÐ°
ÑĢÐ ·
ĠÑĢÐ°Ð· Ñĥ
Ð ¸ÑĤÐµÐ»ÑĮÐ½Ð¾
ĠÐ°Ðº ÐºÑĥ
ÐĴ Ð
p p
ÑĢÐ¸ ÑģÑĤÐ°
Ñģ Ð°Ð¹ÑĤ
ĠÐ³Ð¾Ð»Ð¾Ñģ Ð¾Ð¼
ĠÐ¿ÑĢÐ¾Ð´Ð¾Ð» Ð¶Ð°Ð»
ĠÐ´ Ð°ÐµÑĤ
ĠÑģÐ»ÑĥÑĩÐ°Ð¹ Ð½Ð¾
Ð½Ð° ÑĩÐ°Ð»Ð°
Ã ©
Ð ±ÑĢÐ¸
ÑĪÐµÐ³ Ð¾ÑģÑı
Ġ Ð²Ð¾Ð»Ð
ÑĩÐ¸Ð ½Ð¾Ð¹
ĠÑģÑĤÐ¾Ð»Ð ¸ÑĨ
ĠÐ¿ÑĢÐ¾ÑģÑĤÐ ¸
ÑĤÐµÐ ¿
ĠÐ¢ Ð¾ÑĤ
u d
Ġ Ð²Ð¾ÑĢÐ¾
ÑĢÑĨ Ð°
ÐµÑĢÐº Ð²Ð¸
Ġ ÑĥÑĩ
ĠÐ¿ÑĢÐ¾ÑĪÐ »Ð¾Ð¼
ĠÐ²ÑĭÐ ¹ÑĤÐ¸
ĠÐĿ Ð¸ÐºÐ°
ĠÐ²Ð¾Ð· Ñ
ĠÐŀ ÑĤÐµ
ĠÑģÑĤÑĢÐ°Ð½ Ð½Ð¾
ĠÐ° ÑĢÑĤ
ĠÐĵ Ðµ
ĠÐ±Ð¾Ð»ÑĮÑĪÐ¸Ð½ ÑģÑĤÐ²Ð¾
Ñģ ÑĤÐ²Ð¸Ñı
ĠÑĥÑĤÐ²ÐµÑĢÐ ¶Ð´
ĠÐ¸Ð· Ð±Ð°Ð
ĠÑģÐ»Ðµ Ð´Ð¾Ð²
Ð´Ð» Ñ
Ð°Ð ²Ð°ÑĤÑĮ
ĠÐ¨ Ð
ĠÑĦÐ¾ÑĢÐ¼ Ð°
Ġ ÑģÑĥÐ´Ð°
ĠÐ´ÑĢÑĥÐ ¶Ð
Ð ³Ð¾ÑģÑĤÐ¸
ĠÐ§ Ð°
ĠÐ³Ð¾Ð²Ð¾ÑĢÐ¸ ÑĤÑģÑı
ĠÐ¾Ð´ Ð¸Ð½Ð¾
ÑĩÐ ½ÑĭÐ¼Ð¸
Ð¾Ð½Ð¸ÑĤ Ñ
ĠÐ½Ð°ÑģÐµ Ð»ÐµÐ½Ð¸Ñı
Ð¾Ð ±ÑĢÑĭÐ¹
ĠÐ½Ð° Ð¿ÑĢÐ
Ġ8 9
! "
ÑģÑĤÐ²ÐµÐ½Ð ½Ð¾Ð¹
at ion
Ġ Ð»Ñĥ
Ñ ĤÐ²Ð¾Ð²
ĠÐ»Ð¸ÑĤÐµ ÑĢÐ°ÑĤÑĥ
ĠÐ³ÑĢÑĥÐ´ Ñ
ĠÐ¿Ð¾Ð´ ÑĤÐ²ÐµÑĢÐ
ĠÐº Ð¸Ð½Ð¾
ÑģÑĤÐ²ÐµÐ½ Ð½Ð°Ñı
ĠÐĸ ÐµÐ½
Ġ ÐĻ
Ð¼Ð ¾Ð´
ĠÐľ Ð¾Ð¹
Ð¼Ð ¿Ðµ
Ð¾Ð½Ð¸ÑĤÑ Į
½ÐµÑ Ĥ
ĠÐ±Ð¸ Ñ
or t
ĠÐĵ Ð¾Ñģ
Ð»ÐµÐ½Ñ Į
ÑģÐµÐ½Ð¸ Ñ
ðŁ ĩ
ÑĥÑģÑĤÑ ı
ÐŁ ÐĲ
ĠÐ²Ð¾Ð·Ñ Į
ÐŁ Ð¾ÑĤ
ĠÐ¶Ð¸Ð ²ÐµÑĤ
ĠÐ´ Ð°Ð»Ð¸
Ġ ÑģÑĤÑĢÑĥÐº
ĠÐ±Ð°Ð½ Ðº
ÑĳÐ ·
Ġ Ð¿ÑĥÐ½ÐºÑĤ
ĠÐ²ÑĭÐ³Ð»Ñı Ð´Ð¸ÑĤ
ÑĢÐµÐ½Ñ ĭ
Ñĳ Ñģ
Ðĳ Ð
ĠÐ¾ÑĤÐ½Ð¾ÑĪÐµÐ½ Ð¸Ð¸
ĠÐ·Ð½Ð° Ðº
ÑħÐ¸ Ñ
ĠÐ¾ÐºÐ¾Ð½ ÑĩÐ°
ÑĭÐ ²Ð°ÐµÑĤ
ĠÑĩÐ°ÑģÑ ĭ
ĠðŁĺ ī
ĠÐ¿Ð¾ÑģÑĤÐ°Ð ²Ð¸ÑĤÑĮ
ĠÐ¿Ð¾ÑĩÑĥÐ ²ÑģÑĤÐ²
² Ð´Ð¾Ñħ
ĠÐľÐ¸Ñħ Ð°Ð
ĠÐ½ÐµÐ·Ð° Ð²Ð¸
Ð¿ Ð¾Ð³Ð¸
ĠÐ¶ Ð°Ð»ÑĮ
ðŁĮ ¹
ĠÐ·Ð° Ð»Ðµ
ĠÐ¿Ð¾Ð»ÑĥÑĩÐ¸ ÑĤÑģÑı
ÑģÐµÐ½Ð¸Ñ ı
ĠÐłÐ¾Ñģ ÑģÐ¸Ð¹
ĠÐĳ ÐµÑĢÐ
Ġ3 5
· Ð»Ð¾
Ð¢ Ðµ
ĠÐ¸Ð ½Ð¾ÑģÑĤÑĢÐ°Ð½
Ð ²Ð´Ð¾Ñħ
Ð¿ Ð»ÐµÐ½
ĠÐĳ ÐµÐ»
ĠÑĢÐ°Ð¼Ð ºÐ°Ñħ
ĠÑĥÐ ±Ð¸
ÐµÑģ Ð°
ĠÐ±ÐµÑģ ÐºÐ¾Ð½Ðµ
ÑıÐ½Ð ¸
ÑĨÐµ Ð½Ð°
ĠÐ¸Ð½Ð´Ð¸Ð²Ð¸ Ð´
ĠÐ¼Ð¸Ð½ ÑĥÑĤÑĭ
ĠÑģÐ¾Ð² Ð¼ÐµÑģÑĤ
ĠÐ½Ð°Ð²ÐµÑĢÐ ½ÑıÐºÐ°
Ð¡ Ð
ĠÑĥÐ·Ð½Ð°Ð »
ĠÑģÑĤÐ¾Ñı Ð»Ð°
ĠÐ¾ÑĤÐ½Ð¾ ÑĪÐµÐ½Ð¸Ðµ
Ĥ Ð¾ÑıÐ½
Ð²Ð µÑģ
· ÑĢÐ¸
Ð¾Ð²Ð¸Ñ ĩ
ĠÑģÐ¾Ð¾ÑĤÐ²ÐµÑĤ ÑģÑĤÐ²Ñĥ
ĠÐºÐ°Ð±Ð¸ Ð½Ðµ
·Ð½Ð°Ð ½
Ñ ĤÐ¾ÑıÐ½
Ġ Ð¿Ð¾Ð³Ð¸
ĠÐļÐ° ÑĢÐ
ÑĥÐ»Ñ ĭ
ĠÐ¾ÑģÑĤÐ°Ð ²Ð¸ÑĤÑĮ
ĠÑĢÑĥÐº Ðµ
ĠÐ½Ð¾Ð²Ð° Ñ
Ġ Ð³Ð¾ÑģÑĤÐ¸
ĠÐ¿ÑĢÐµÐ ²ÑĢÐ°
ÑĨ ÐµÐ½ÑĤ
ĠÐ½Ð¾Ð²Ð°Ñ ı
âĢ ¢
ĠÐ¿Ð¾Ð· Ð´ÑĢÐ°Ð
Ġ7 0
Ġ Ð¿ÑĭÐ
ĠÐ±Ð¾Ð»ÑĮ ÑĪÐ¸Ð¼
ĠÐ¾Ð´Ð½Ð° Ð¶Ð´Ñĭ
ĠÐł Ñ
Ð°Ð»ÑĮÐ ½Ð¾Ð¹
ĠÑĤÑĢÑĥÐ´ Ð¾Ð¼
ĠÑĤÑĢÐ°Ð½ ÑģÐ¿Ð¾ÑĢÑĤ
ÑĩÐ ½ÐµÐµ
ĠÐ½Ð°Ð¿Ð¸Ñģ Ð°Ð½Ð¾
ĠÑģÐ²Ñ ıÑī
± ÑĢÐ°Ð»
²Ð »Ñİ
ĠÐ¿Ð¾Ð ¸Ñģ
ĠÐ²Ð¾Ð¹ ÑģÐºÐ°
âĢįâĻ Ģï¸ı
ĠÑģÐ¿ ÐµÑĨ
Ð¿Ð »Ð¾Ð¼
ĠÐŀ Ð¢
ĠÐ¿ÑĢÐ¾ ÑīÐµ
ĠÐ·Ð° Ð¸Ð½
Ð»Ð° Ñħ
ĠÐĴÐ»Ð°Ð´Ð¸ Ð¼Ð¸
ĠÐľ ÐĲ
ĠÑģÐ¿ ÑĥÑģÑĤÑı
Ġ Ð¾Ð´Ð¸Ð½Ð°
ÐµÐ ²Ð¸
ĠÐ¾ÑĤÐº ÑĢÑĭ
ĠÐ¾Ñħ ÑĢÐ°Ð½
½ Ð¾Ð·
Ġ2 9
Ð¾ÑĤ Ñĥ
ÑĥÑģÑĤÐ¸ Ñ
ÑĩÐ° ÑĢÐ¾Ð²
ÑĥÑģÑĤÐ¸Ñ Ĥ
ĠÑĪÐºÐ¾Ð» Ñĥ
Ð¿ ÑĢÐµÐ·
i b
ĠÐ´Ñĥ ÑĪÐ°
ĠÑĩÐµÑģÑĤ Ñ
ĠÑĢÐ¾Ð ¶Ð´
ĠÐ¿Ð¾Ð·Ð² Ð¾Ð»Ð¸ÑĤ
ı Ð¿Ð¾Ð½
ĠÑĩÐµÑģÑĤÑ Į
ĠÐ° ÑĢÐ¾Ð¼Ð°
a st
ĠÐ¿Ð¸ÑģÑĮ Ð¼Ð¾
ÑĮÐµÐ ¹
Ð ¸Ð»Ð
ÑĥÐº Ð¾Ð²
Ñ ıÐ¿Ð¾Ð½
ĠÐ´Ð¾Ð»Ð»Ð° ÑĢÐ¾Ð²
ĠÑĥÑģ ÑĤÐ°Ð
ÑĢÐº Ðµ
ĠÐ´Ð¸ ÑĢÐµ
ÑĪÐ¸Ð¹ Ñģ
ĠÐºÑĢÑĥÐ³ Ð
ÑĪÐ¸Ð¹Ñģ Ñ
ÑĪÐ¸Ð¹ÑģÑ ı
ÑģÐ¸ ÑĤÐµ
ĠÑĥÑģÐ»Ð¾Ð²Ð¸ Ñ
ĠÑĥÑģÐ»Ð¾Ð²Ð¸Ñ ı
ĠÐ²ÐµÑĢÐ ½Ð¾
½ Ñĸ
³ ÑĢÐ¾Ð·
²Ð» ÑıÑĤÑĮÑģÑı
ÑĩÐµÐ½ Ð¸Ñİ
ĠÐ¾Ð±Ðµ Ð
ĠÐ¾Ñģ ÑĥÑīÐµÑģÑĤ
ĠÐ¾Ð±ÑīÐµÑģÑĤ Ð²Ð°
Ġ %
ĠÐ·Ð°Ð ³Ð°
ÑĢÐ°Ð½Ð ¸ÑĩÐ
² ÑĢÑıÐ´
ĠÐ¿ÑĢÐ¸ ÑħÐ¾Ð´Ð¸ÑĤÑģÑı
¿Ð°Ñ Ĥ
»Ðµ Ð¼
Ð¾Ð²Ð° ÑĢÐ¸Ð
ĠÐ¿Ð¾Ð¿Ñ ĭÑĤÐ°
ĠÑģÑĩÐ¸ ÑĤÐ°ÑĤÑĮ
ÐĲÐĲ ÐĲÐĲ
ĠÐ¾ÑĤ ÑģÑĤÑĥÐ¿
ĠÐ¸Ð½Ñģ Ñ
ĠÐ¿ÐµÑĢÐµ Ð¼Ðµ
ĠÐ¸Ð½ÑģÑ Ĥ
ĠÐ¾Ðº Ð½Ð¾
Ð½Ð¸ÐºÐ° Ð¼Ð¸
ĠÑĪ ÐºÐ°
) ;
ĠÐºÐ ³
Ð´ÐµÐº Ð²Ð°ÑĤ
ĠÐ¥ Ð¾ÑĤ
ĠÐ¾Ð½ Ð»Ð°Ð¹Ð½
Ð ±ÑĥÐ
ĠÐ¸Ð½ÑĦÐ¾ÑĢÐ¼Ð° ÑĨÐ¸Ñı
ĠÑģÐ¾Ð´ÐµÑĢÐ ¶
ĠÐºÐ¾ÑĤÐ¾ÑĢÑĭÐ¼ Ð
ĠÐºÐ¾ÑĤÐ¾ÑĢÑĭÐ¼Ð ¸
ĠÐ·Ð°ÑĢÐ°Ð ±Ð°ÑĤÑĭÐ
Ð ³ÑĢÐ¾Ð·
ĠÑĥÐ´Ð° Ñ
on t
ÐµÐ½Ð¸Ñ Ĥ
ĠÐ¡ ÑĤÐ¾Ð
ĠÐ½Ðµ ÑĩÑĤÐ¾
ĠÑĤÑĢÑĥÐ ±Ð
ĠÑģÑĤÐ¾Ð» Ðº
Ð¸Ð² Ð½ÑĭÐµ
ÑĢÐ°Ðµ Ð¼
ĠÐ»ÐµÐ³ ÑĩÐµ
Ġ Ð½Ð¾Ð
ĠÑĢÐ°Ð·Ð ²Ð¸Ð
Ð´Ð»Ñ ı
ĠÐ¾ÑģÑĤÐ° ÐµÑĤÑģÑı
ĠÐ·Ð°Ð²Ð¸ ÑģÐ¸
Ð ²ÐµÑĢÑħ
± ÑĢÐ¾Ð´
Ð½Ð¾Ð² Ð°
» Ð¾Ð±Ð
ĠÑģÐ° ÑħÐ°
ĠÐ¼Ð½Ð¾Ð³ Ð¾Ðµ
Ñį Ðº
Ġ ÑĤÑĳ
ĠÐ¾ÐºÐ°Ð·Ð° Ð»Ð¸ÑģÑĮ
ÑĪÐµÐ ¹ÑģÑı
ÑĥÐ ±Ðµ
ĠÐ¾ÑģÑĤÐ° Ð»Ð¸ÑģÑĮ
ĠÐĺ ÑģÑĤÐ¾
ĠÑħÐ¾ÑĢÐ¾ ÑĪÐµÐ³Ð¾
ĠÐ¿Ð¾Ð· Ð²Ð¾Ð»
ÑħÐ¾Ð´Ð¸ Ð»Ð¾
ĠÐ¡ Ð¾Ð»
ĠÐĵ Ð»Ð°Ð²Ð
Ò ĵ
ĠÑĩÐµ ÑĢÑĤ
ÐºÐ° ÐµÑĤ
ÑģÐ½Ñ ĭ
ĠÐ¼Ð½ ÐµÐ½Ð¸Ñİ
ĠÐ¿Ð°Ð¿ Ð°
±Ñ ıÑĤ
± Ð°Ð¹
ĠÐ¿Ð¾Ð´ Ð²Ðµ
ĠÑģÐ»Ð° Ð´Ðº
Ġ ÑģÐ±Ðµ
ĠÑģÑĤÑĢÐ ¾Ð¹
ĠÐºÐ°Ð ·
ĠÑģÑĤÑĭÐ ´
ĠÐºÐ¾Ð¼Ð°Ð½ Ð´Ð¸
² Ð°Ð³
ĠÑĢÐ¾Ð ·
ĠÐ¡ Ð¼Ð¾ÑĤ
³ ÑĥÐ»
ÑīÐ° ÑİÑĤ
ĠÐĲÐ»ÐµÐºÑģÐ°Ð½ Ð´
ĠÐ³ÑĢÑĥÐ´Ñ Į
. "
ĠÐ§ ÐµÐ¼
ĠÐ¿Ð¾Ð³ ÑĢÑĥÐ
ĠÐĵ Ð¾Ð²Ð¾
ĠÐ¿Ð¾Ð¿ Ð°Ð´
ÑĥÑ ĩÑĥ
ÑĪÐµÐ½ Ð¸Ð¹
ĠÐ¾Ð±ÑĬÑıÑģÐ½ Ð
ĠÐ¾Ð±ÑĬÑıÑģÐ½Ð ¸
Ġ Ð±ÑĢÐ¸
ĠÑĤÐµÐ»ÐµÐ ²Ð¸Ð·
Ġ Ð³ÑĢÐ¾Ð·
ĠÑĥÐ´Ð¾Ð² Ð»ÐµÑĤÐ²Ð¾
Ġ Ð²ÐµÐ
ĠÐ¿Ð¾ÑĤ ÑĢÑı
ĠÐ¿Ð¾Ð» Ð½Ð¾Ð¹
ĠÐ·Ð¾Ð² ÑĥÑĤ
ðŁĳ ı
ĠÑĦ Ð°Ð¼Ð¸
Ñī Ð°ÐµÑĤ
ĠÐ¿ÑĢÐ¾Ð´ÑĥÐº Ñ
ĠÐ¿ÑĢÐ¾Ð´ÑĥÐºÑ Ĥ
½Ð¾ÑģÑĤÑ ıÐ¼Ð¸
ĠÑĥÐ´Ð°Ñ Ģ
ĳÐ »
ĠÐ¡ Ð¾Ð
ĠÐº ÑĥÐ»Ð°
ÑĢÐ°Ð·Ð¸Ñ Ĥ
ĠÐ´Ð¾Ð ±Ð
ĠÐ½Ð°ÑģÑĤÐ¾Ñı ÑīÐµÐµ
ÐºÐ¾ÑĢÐµ Ðµ
ðŁ ĵ
ÑĢÑĥÐ º
ĠÐºÑĥ Ñħ
âĿ¤ ï¸ı
Ð¸ÑĤÐµÑ Ĥ
ĠÑģÐ¿ ÑĢÑı
ĠÐ½Ð°Ñģ Ð»Ð°Ð¶Ð´
ĠÑĥÑģ ÑĤÐ°
ĠÐ²ÑĢÐµ Ð¼ÐµÐ½
ÑĤÑģÑ ĤÐ²Ð¾
ĠÐ¸ÑģÑĤÐ¾ ÑĢÐ¸ÑĩÐµÑģÐº
ĠÐ¼Ð¾Ð ±Ð
ĠÐ½ÐµÐ ·Ð½Ð°ÐºÐ¾Ð¼
ĠÐ·Ð°Ð¿Ð° Ñħ
Ð¸Ð ²Ðµ
ĠÐ¡ Ðŀ
Ð¶Ð ½Ð¾
ÑħÐ¾Ð´Ñ ĭ
Ðº ÑĨÐ¸Ð¸
Ð »ÑıÑĤ
ĠÐŁ Ð¾Ð²
³ ÑĢÐ°Ð¼
ĠÐ±Ð»Ð°Ð³ Ð¾Ð¿
¾ÑĢÑĥÐ´ Ð¾Ð²
ĠÐ¾ÑĤÐ´ÑĭÑħ Ð°
ÑģÐµÐ½ Ñ
ÐĿ Ð¾Ð²
ĠÐ¿ÑĢÐµÐ´ÑģÑĤÐ°Ð ²Ð¸ÑĤÑĮ
ĠÐ¾ÑģÐºÐ¾ÑĢÐ ±Ð
Ĥ Ð²Ð¾Ð²Ð°ÑĤÑĮ
Ġ ÑĢÐ¸ÑĤ
ĠÐ¼ÐµÐ´Ð¸ ÑĨÐ¸Ð½
Ġ Ð²ÐµÑĢÑħ
ĠÐ¿Ð¾Ð´ Ð¾Ð±
ĠÐ¶ÐµÑģ ÑĤÐ¾Ðº
ĠÐ½Ð°Ð´Ðµ ÑİÑģÑĮ
ĠÐ¿Ð¾Ð´Ð¾ ÑĪÐµÐ»
Ġ ÑģÐ°Ð¹ÑĤ
ĠÐ¿ÑĢÐ¸ ÑģÐ¾ÐµÐ´Ð¸Ð½
Ġ Ð²Ð´Ð¾Ñħ
Ð°Ð¹Ñģ Ñ
ĠÑĢÐ°Ð· Ð´Ðµ
ĠÐ¾ÑĤÐ ½
ĠÐ¿ÑĢÐ¾Ð¹ÑĤ Ð
ĠÐ¿ÑĢÐ¾Ð¹ÑĤÐ ¸
ĠÐ¿Ð¾Ð» ÐºÐ¾Ð²
ĠÐĶÑĥÐ¼ Ð°Ñİ
ĠÐºÐ° ÑĢÑĤÐ¾
ĠÐ±ÑĥÐ´ Ñ
ĠÐ»Ñİ Ð±ÑĭÐ
ÐµÐ½ Ð½ÑĭÐ¼
ĠÐ±Ð¾Ð»ÑĮ ÑĪÑĥÑİ
ĠÑģÐµ ÑĢÐµÐ±
ĠÐ¼Ð° ÑĪÐ¸Ð½Ðµ
Ðĵ ÐĲ
ĠÐ¿Ð»Ð°ÑĤ Ð
ĠÑģÑĩÐ¸ÑĤÐ° ÐµÑĤ
ĠÐ´ÐµÑĤ ÑĮÐ¼Ð¸
Ð¾ÑĤ Ð¾Ð²
ĠÐ´ÐµÑĢÐ ¶Ð°ÑĤÑĮ
ı ÑĤÐ¾
ĠÑĢÐ°Ð±Ð¾ ÑĤÐ°Ð»
ĠÐ¶Ð¸ÑĤÐµ Ð»ÐµÐ¹
ĠÐĶ ÑĢÑĥÐ³
ĠÐ¿Ð¾Ð¼Ð¾Ð³ Ð°ÐµÑĤ
ĠÐ¿Ð»Ð°ÑĤÐ ¸
ĠÑĨÐ¸ ÑĦ
ÑĩÐµÐ½ Ð¸Ð¹
ĠÐ¼Ð°Ð³Ð°Ð· Ð¸Ð½Ð°
ÑĢÑĤÐ¸ Ñ
Ġ Ð²Ð¾Ð½
ĠÑģÑĤÑĢÐ° Ñħ
ĠÐ¾ÑĤ ÑģÑİÐ´Ð°
ĠÐ²Ñģ ÐºÐ¾ÑĢÐµ
ĠÐĶ Ð¾Ð¼
ĠÑĥÐ³Ð¾Ð» Ð¾Ð²
ĠÐºÐ½Ð¸Ð ³Ñĥ
¾ÑĢÐ ¼Ð¾
ĠÑģÐ¼Ð¾ÑĤ ÑĢÐ¸
ÑĢÐ°Ð ±
ĠÐ´Ð¾Ð¼ Ñĥ
Ġ Ð¿Ð»ÐµÐ½
ĠÑįÐ»ÐµÐºÑĤ ÑĢÐ¾Ð½
ĠÑĥÐºÐ° Ð·ÑĭÐ
o ok
Ð ²ÑĢÑıÐ´
ĠÐ¿Ð¾ÐºÐ° Ð·Ð°Ð»Ð¾ÑģÑĮ
ĠÐ¿Ð¾ÑģÑĤÐµÐ ¿ÐµÐ½Ð½Ð¾
ÑģÐ° Ñ
ĠÑģÐ¸Ð» Ð¾Ð¹
¸ Ð±Ð
ĠÐ¿Ð¾Ð» Ð½Ð¾Ð¼
Ð ³Ð¾ÑĢ
ĠÐ´Ð¾Ð±Ð°Ð² Ð¸Ð»
c c
ÑĩÐµÑģÐº Ð¾Ð³Ð¾
ÑĤÐµÐ»ÑĮÐ ½ÑĥÑİ
ĠÐĽÐ° Ð´Ð½Ð¾
ĠÑĥÑģÐ¼Ðµ Ñħ
ÐºÐ° Ð»Ð¸
ĠÐ²Ð¾Ñģ ÑģÑĤÐ°Ð½Ð¾Ð²
ĠÐºÐ¸Ð» Ð¾Ð¼ÐµÑĤ
Ġ ÑĢÐ¾
Ð´Ð ½Ð¾Ð¹
ĠÐ¢ Ð¾Ð¼
ĠÐ¿ÑĢÐ¸Ð ·ÑĭÐ
ĠÑĤÑĢÑĥÐ´ Ð°
ÑİÑīÐ¸Ñħ Ñģ
ÑĪÐµ Ð¿
ÑİÑīÐ¸ÑħÑģ Ñ
ÑīÐ¸ÑĤÑ Į
ÑİÑīÐ¸ÑħÑģÑ ı
ĠÑĨ ÐµÑĢÐºÐ¾Ð²
ĠÐ±ÑĥÐ´Ñ Į
ðŁĳį ðŁĳį
Ð°Ð» Ð¸Ð·
ÑĢÐ°Ð½Ð¸ÑĤ Ñ
ĠÑĢÐ°Ð±Ð¾ÑĤÐ° ÑİÑĤ
Ð¼Ð¾Ð ½Ð°
9 4
ÑĩÐµÑģ ÑĤÐ²ÐµÐ½Ð
ÑĪÐ° Ñİ
ĠÐĴ Ðŀ
ĠÐ¿Ð¾Ð·Ð²Ð¾Ð»Ñı ÐµÑĤ
ĠÑĤÐ¾Ð» Ñģ
ĠÑģÐ¸ Ð´ÐµÑĤÑĮ
ĠÐ¶ÐµÐ»Ð°Ð½ Ð
Ġ Ð½Ð¸Ð±ÑĥÐ´ÑĮ
ĠÑĢÐ°Ð· Ð²ÐµÑĢÐ
ĠÐ´Ð°Ð» ÐµÐµ
ĠÐĿ Ðŀ
Ĥ ÑĭÐµ
ĠÐ·Ð°Ðº ÑĢÑĭÑĤ
ĠÐ¿Ð¾Ð» Ð½ÑĭÐ¹
Ñ ĤÐ¸Ð¼
ĠÑĥÑģ ÑĤÐ°Ð»
Ð½Ð°Ð ²Ð»Ð¸
ÑĢÐ°Ð½Ð¸ÑĤÑ Į
ĠÐ¼Ð¾Ðµ Ð¼Ñĥ
Ġ ÑģÑĩÐµ
ĠÐ²Ð¾Ð¿ÑĢÐ¾Ñģ Ð°Ð¼
ÑĪÐºÐ° Ð¼Ð¸
ĠÐºÐ½Ð¸Ð ³Ð°
ĠÑĤÐ¾ÑĢÐ ¾Ð¿
ĠÑĥÑĩÐ°ÑģÑĤ Ð
ÑĩÐ°Ð½ Ð
Ð¸ÑĩÐµÑģÐº Ð¾Ðµ
ĠÐ¿Ð° ÑĢÐ½Ñı
Ð¸Ð² Ð½ÑĭÐ¹
¶Ð ½Ð¾Ð³Ð¾
ĠÐ¶ÐµÐ»Ð°Ð½Ð ¸
ĠÑģÐ¼Ð¾ÑĤ ÑĢÐµÐ»Ð°
ĠÐ¿ÑĢÐµÐ´Ð»Ð¾Ð ¶ÐµÐ½Ð¸Ðµ
ĠÐ¾Ñģ Ð¼Ð¾ÑĤ
Ð°Ð² ÑĪÐ¸Ñħ
ÑĢÐ° Ð¼Ð°
ĠÐ½Ð° ÑħÐ¾Ð´Ð¸
Ð²Ñ Į
Ð¿Ð° Ñ
Ð¸Ñģ ÑĤÐ°
ĠÐ¿ÑĢÐ¾ ÑĪÐ»Ð¾
ĠÐľ Ð¾Ð»Ð¾Ð´
ĠÐ¸Ð½ÑģÑĤ Ð
Ġ Ð¿ÑĢÐµÐ·
Ð »Ð¾Ðº
ĠÐ¸Ð½ÑģÑĤÐ ¸
¶Ð ºÑĥ
ĠÐ²Ð¾ÑģÑĤ Ð¾ÑĢÐ
Ð»ÐµÑĤ Ñ
¸ Ð´ÐµÑı
ĠÐ°Ð³ ÐµÐ½
ĠÐ´Ð¾Ð ¶Ð´Ñ
ĠÐ¿ÑĢÐ¾Ð ¸Ð³
ÑĢÑģ ÐºÐ¸Ðµ
Ð ¸Ð´ÐµÑı
Ĥ ÐºÐ°Ð½
Ðķ Ñģ
¶ÐµÐ½ Ð½ÑĭÐ¹
ĠÐ´Ð¾Ð±Ð°Ð ²Ð¸ÑĤÑĮ
ĠÐ·Ð½Ð°Ð ½
ĠÐľÐ°Ñ Ĥ
ĠÐ³ÐµÐ½Ðµ ÑĢÐ°Ð»
²Ñ ıÑĤ
ĠÐĺ Ñģ
ÐµÐ½Ð ½
Ð°Ð¹ÑģÑ ı
ĠÐ½Ð¸ÐºÐ° ÐºÐ¾Ð¹
ðŁİ ī
ÑģÐ ½Ð¾Ðµ
ÑĪÐ ½Ð¸Ð¹
ĠÐ²ÐµÑĩÐµ ÑĢÐ°
ĠÑģÐµÐ» Ñ
ĠÑĢÐ°ÑģÐ¿Ð¾Ð» Ð¾Ð¶ÐµÐ½
Ñ ĤÐºÐ°Ð½
ĠÑĢÐ°Ð·Ð»Ð¸ÑĩÐ ½ÑĭÑħ
ĠÐ¿Ð¾ÑĢÑı Ð´Ð¾Ðº
ÑĩÐ°Ð ½Ð¸Ðµ
ĠÑĥÐ¿ÑĢÐ°Ð ¶Ð½
ĠÐĶ Ñĥ
Ð¾ÑĢÐ¾ ÑĩÐµ
ĠÐ¼Ð°Ñģ ÑĤÐµÑĢ
ĠÐ±Ð¾Ð»ÑĮÐ ½Ð¾
ĠÐ¸Ð´ ÑĥÑĤ
ĠÐºÐ¾Ð½ ÑĤÐ°ÐºÑĤ
Ð±Ð° Ñ
ĠÐ¾Ð±Ðµ ÑĢÐ
ĠÑĪ Ð»Ð°
Ð¾Ðº Ð
ĠÐ¼Ñĭ ÑģÐ»ÐµÐ
²Ð° ÑĢÐ¸
ĠÐľÐ ½
ĠÐ°Ð» ÐºÐ¾Ð³
ĠÑģÐµ ÑĢÐ¸
ĠÐ´Ð¸ Ð·Ð°Ð
e g
Ð ·Ð»Ð¾
ĠÐ²Ñĭ ÑģÑĤÐ°Ð
ĠÐ¿Ð¾ÑıÐ ²Ð¸Ð»Ð°ÑģÑĮ
ĠÐ¿Ð¾ÑĤ Ð¾Ð»
ĠÐ·Ð° Ñ
ĠÐ±ÑĥÐº Ð²Ð°Ð»ÑĮÐ½Ð¾
ĠÐ¿Ð¾Ð´ÑĥÐ¼ Ð°Ð»Ð°
²Ð¸ ÑĤÑģÑı
. :
ĠÐ´ÐµÑĤ ÑıÐ¼
ĠÑĢÐ°Ð ½Ð¾
ÑĢÐ ½Ð¾Ðµ
¸ Ð²Ñĭ
ĠÐ¼Ð° ÑģÐ»Ð¾
ĠÐ¼Ð»Ð° Ð´
Ð¾Ñ ĩ
ĠÐ½Ð°Ð »Ð¾Ð³
ĠÐ»Ðµ ÐºÐ°
ĠÐĴÐ»Ð°Ð´Ð¸ Ð¼Ð¸ÑĢ
ĠÐ¿Ð¾Ð´ ÑĤÐ²ÐµÑĢÐ´
ÑģÐ ¾ÑĢ
ĠÐ¿ÑĢÐµÐ ¶Ð
Ġ Ð²ÑĢÑıÐ´
ĥÑ ĥÑ
7 5
ĠÐº ÑĢÐ¾
Ð°Ð½ Ð½Ð¾
ĠÐľ ÐµÐ¶Ð´
a il
ĠÐ¤ ÐµÐ´Ðµ
ĠÐ·Ð°ÑĢÐ°Ð ½ÐµÐµ
ÐŁ ÐµÑĢÐ
ĠÐ½Ð°ÑģÑĤÑĢÐ¾ÐµÐ ½Ð¸Ðµ
ÐķÑģ Ñ
½Ðµ ÑĤÑģÑı
ĠÐ¼Ð¸Ð»Ð»Ð¸ Ð¾Ð½Ð¾Ð²
ĠÐ¿ÑĢÐ¸ ÑģÑĤÑĥÐ¿
ÑĭÐ »Ð°
aÐ ½
ĠÑĤÐ°Ðº Ð
ĠÑģÐ²ÑıÐ ·ÑĮ
ÑĢÐ¸Ð ³Ð°
ÑĢÐ¾Ð ºÐ°
Ð½Ð¸Ðº Ðµ
ÐķÑģÑ Ĥ
ĠÑĢÐ ¾Ð»
ĠÑĤÐ°ÐºÐ ¸
ĠÐ·Ð°Ð¿Ð¸ ÑģÐ¸
ĠÑĤÐµÐ¼Ð ½
ĠÑģÐ¾Ð· Ð´Ð°
ĠÐ¾Ð´Ð¸Ð½Ð° ÐºÐ¾Ð²
Ð¸ÑĢÐ¾Ð² Ð°Ð»Ð¸
ĠÐ½Ðµ Ð±Ðµ
ĠÐ¾ÑĤÐºÑĢÑĭÐ »
ĠÐ»ÑİÐ±Ð ¸Ð¼Ð
n d
Ðł Ðµ
ĠÐ´ÑĥÐ¼ Ð°ÐµÑĪÑĮ
ĠÐºÐ°Ð¶Ð´ Ð¾Ð¼
ĠÑĦÐ¸ ÑĢÐ¼
ĠÐĶ Ð¼Ð¸ÑĤ
±Ñ Į
ÑĥÐ ²Ðµ
ĠÐ»ÑİÐ±Ð ¾Ð¿
Ð ³ÑĥÐ»
½Ð¸Ðº Ñĥ
ĠÐ¿ÑĢÐ¾Ð¸Ð·Ð ²Ð¾Ð´Ð¸
s p
ĠÐ´ÐµÑĢÐµ Ð²ÑıÐ½
ĠÐ¿Ð¾Ð»ÑĥÑĩÐ¸ Ð»Ð¸
ĠÐ¿ÑĢÐ°Ðº ÑĤÐ¸Ðº
Ð¾ÑĤ Ð
¾ÑģÑĤ ÑĮÑİ
ĠÐ¼Ð¾Ðµ Ð¼
ĠÑģÐ ²ÐµÑĢÑħÑĥ
ÑĥÑī Ð¸Ñħ
Ð»Ð» Ñ
ÐŁ Ð
ÑĢÐ°Ð ½Ðµ
h at
ĠÑģÐ¿ÐµÑĨÐ¸Ð°Ð»ÑĮÐ ½Ð¾
ĠÐ»Ð¸ÑģÑ Ĥ
ĠÐ¼Ð ¾ÑģÑĤ
ĠÐ²Ð½Ðµ Ð·Ð°Ð¿Ð½Ð¾
ÑĢÑģÑ ĭ
ĠÐ¢ ÐĲ
an t
Ñģ Ð¼ÐµÐ½
Ð¸ÑĢÐ¾Ð² Ð°Ð½Ð¸Ðµ
ĠÐºÐ¾Ð¼ ÑĦ
Ġ ÑıÐ¿Ð¾Ð½
ÑĢÐ° Ð½Ð°
Ð¿ÑĢÐµÐ ¶Ð½ÐµÐ¼Ñĥ
»Ð ½
Ð»Ð¸Ð »ÑģÑı
»ÐµÐ½ Ð
ĠÐ³Ð»Ð° Ð²Ð°
Ġd e
ĠÐ¸ÑģÑĤ Ð¸Ð½
ĠÐ±ÐµÑĢÐµÐ ³Ñĥ
ĠÐ¸Ð´ ÑĳÑĤ
ĠÐ¿Ð°ÑģÑģÐ°Ð ¶Ð¸
²Ð½ Ð
ĠÐĺ Ð³Ð¾
âĿ¤ âĿ¤
ĠÐ½Ð¸Ð ¶Ð
ĠÑĤÐµ ÐºÑģÑĤ
6 5
ĠÐ²Ñģ ÑĤÐ°Ð
ĠÐ²Ñģ ÑĤÐ°Ð»
Ð¾ ÑĩÐºÐ°
ĠÐ¿ÐµÑģÐ½ Ð
ĠÑħÐ¾ÑĢÐ¾ ÑĪÐ¸Ðµ
ĠÐ¿ÐµÑģÐ½Ð ¸
ĠÐ»ÐµÐ³ ÐµÐ½
ĠÐ¡ Ð»Ð¾Ð²
ÐºÐ¾Ð» ÐµÐ¿
ĠÑĨ ÐµÐ»ÑĮ
ĠÐºÑĢÐ°ÑģÐ¸Ð ²Ð¾
Ġ Ð©
ĠÑĥÐ ¹
ĠÑģÑĤÐ¾Ñı Ð»Ð¸
ĠÑĪÐ »Ð¸
Ġ Ð·Ð»Ð¾
Ġ Ð¿ÐµÑĤ
ĠÐºÐ° ÑĢÑĮÐµ
ĠÐĲÐ»Ñ Į
¶Ð ¸Ð²Ð°
ĠÑĥÐ¼Ð ¸
ĠÑģÐ¾Ð±Ðµ ÑģÐµ
ĠÐĴ Ð°Ð»
ÑĤÐ¾Ð ½Ð°
ĠÐ¿Ð¾ÐºÐ° Ð·Ð°ÑĤÑĮ
Ð¾Ð´Ð ½ÑĭÑħ
ĠÐ´ÐµÐ¹ÑģÑĤ Ð²Ð¸Ð¹
ĠÐ²Ð¾ÑģÐº Ð»Ð¸Ðº
½ ÐµÐ½
ÑģÐ¿Ð° ÑģÐ¸Ð±Ð¾
ÑģÐµ ÑĢÐ
Ð¾Ð ¶ÐµÐ½Ð¸Ðµ
ĠÑĥÐ»ÑĭÐ±Ð ½ÑĥÐ»Ð°ÑģÑĮ
ĠÐ¿Ñĭ ÑĤÐ°ÑıÑģÑĮ
²Ð½Ð ¸
ÑģÐ ½ÑĭÑħ
ĠÐ±Ð»Ð ¸Ð½
Ñģ Ð°Ð¹
³ Ð»Ñĥ
ĠÐ¿ÐµÑĢÐ ²Ð¾Ðµ
Ñį Ð¼
ĠÐ¿Ð»Ð°ÑĤÐ¸ Ñ
ĠÐ¾Ð±Ð »ÐµÐ³
ĠÐ¿Ð»Ð°ÑĤÐ¸Ñ Ĥ
ĠÐ´ Ð°Ð½Ð½ÑĭÐµ
Ð°Ð ³Ð¾Ð²
ĠÐĿ ÑĥÐ¶Ð½Ð¾
ÑĥÐ½Ñ ĭ
Ġ ÑīÐ°
»ÐµÑ Ĥ
ĠÐļ Ð°Ð»
¾ Ñħ
ĠÐ°ÑĤ Ð¼Ð¾Ñģ
ĠÑģÐ¾ÑĤÑĢÑĥÐ´ Ð
²Ð»Ñı Ð»Ð¸
Ð¾ÑĤ Ðº
ÑģÐµ Ð¼ÑĮ
ĠÐºÑĢÐ¾Ð²Ð°ÑĤ Ð
ĠÐºÑĢÐ¾Ð²Ð°ÑĤÐ ¸
Ġ19 8
ĠÐŀÐ »ÑĮÐ
¶Ð ¸Ð»Ð¸
ĠÐ´ÐµÑģÑıÑĤ Ð
ĠÑģÐ¿ÑĢÐ°Ð ²ÐµÐ´Ð
Ñģ Ð¼Ð°
r am
ÑĨÐ¸Ñı Ñħ
Ġ Ð¸Ð´ÐµÑı
ÑģÐµ Ðº
ĠÐ¾ÑĤ ÐºÐ°Ð·ÑĭÐ
Ð³Ð° Ñ
ĠT he
ĠÐ¾ÑĤ ÑĢÑı
ĠÐ±Ð¸ Ð±Ð»Ð¸
ĠÐºÐ°ÑĩÐµÑģ ÑĤÐ²Ð°
ĠÐ²Ñĭ ÑĢÐ
ĠÐ¿ÑĢÐµÐ´Ð »Ð¾Ð¶Ð¸Ð»
ĠÑħÐ¾Ð´ Ðµ
ÑĢÐµÑģÑĤÐ ¸
ĠÐ½Ð° Ð¼Ð½Ð¾Ð³Ð¾
ĠÑĥÑĢÐ¾Ð²Ð½ Ñ
Ð¼Ñģ Ñ
ĠÐ´ÐµÑģÑıÑĤÐ ¸
ĠÐºÐ¾Ð» Ð¾Ð½
ĠÑĥÑĢÐ¾Ð²Ð½Ñ ı
ĠÐ¾Ð±Ð¼ ÐµÐ½
ÑĢÑĥÐ ·ÑĮÑı
ĠÐ²Ð¾Ð¿ÑĢÐ¾Ñģ Ð¾Ð²
· ÑĢÑı
ĠÐ¾ÑģÑĤÐ¾ÑĢÐ¾Ð ¶Ð½Ð¾
Ðµ Ð±Ð
ĠÐ´Ðµ Ð¿Ñĥ
ĠÐ¼Ð ¾Ñĳ
ĠÐļ ÑĢÑĭÐ¼
ÑĩÐ°Ð½Ð ¸
ĠÐľ Ð¾Ð»
ĠÐ¾Ð ±ÑĭÐ
Ð ¸Ð»Ðµ
Ġ Â
ĠÐ¿Ð°ÑĢÑĤ Ð¸Ð¸
ÑĩÐº Ð¾
² Ð¼Ðµ
ĠÐ¾Ð¿ ÑĥÐ±Ð»Ð¸Ðº
Ð¸Ð·Ð ½
ĠÑĨ ÐµÐ½ÑĤÑĢ
ĠÑģÐµÑĤ Ð
ĠÑįÐ½ÐµÑĢÐ³ Ð¸Ð¸
ĠÑģÐµÑĤÐ ¸
Ð¼ÐµÐ ½Ð¾Ð²
ÑįÐ» Ñ
ĠÐ·Ð°Ð±ÑĭÐ »
Ð¾Ð´ Ð¾Ð»
ĠÑĢÐ°ÑģÑģÐºÐ° Ð
ÑģÐ¿Ð¾Ñģ Ð¾Ð±Ð
ĠÐ¿Ð¾Ð»Ð¸ ÑĨÐ¸Ð¸
ĠÑģÐ¼Ñĭ ÑģÐ»Ð°
ÑĥÑģÑ ĭ
ĠÐļÐ°Ðº Ð¾Ð¹
ĠÑģÐ¾Ð» Ð½Ðµ
ºÐ°Ñ ı
ĠÐ¼Ð¾Ð»Ð ¸
± ÑĢÐµÐ
Ð´Ð°Ð ²Ð°ÑĤÑĮ
ĠÑĨÐµÐ» ÑĮÑİ
Ġ ÑĤÐºÐ°Ð½
Ð¸Ð½Ð³ ÑĢÐ°Ð´
ĠÐ»ÑİÐ±Ñ ıÑĤ
ĠÑĥÐ»Ð¸ ÑĨÑĥ
ĠÐºÐ¾Ð¼Ð¿Ð»Ðµ Ðº
Ð¾Ð² ÑĭÐ¼
l y
ĠÑĢÑĥÐ ±Ð°
Ð ·ÑĢÐ¸
ĠÑĤÐ¾ÑĢÐ ¶Ðµ
ĠÐ¸ÑģÐ¿ ÑĥÐ³
Ġ1 000
ĠÐ·Ð° Ð±ÑĭÑĤ
ÑģÐ¸ Ð»Ð°ÑģÑĮ
ĠÐ¿ÑĢÐ¾ ÑĪÐµÐ»
ĠÐ²Ð·Ñı Ð»Ð°
Ð¢ Ð¾
ĠÐ±Ð¸Ñ Ĥ
ĠÐ²Ð¾Ð· Ð´ÐµÐ¹ÑģÑĤ
Ñ ĮÐºÐ°
ĠÐĿÐ¸Ðº ÑĤÐ¾
ĠÐĳÐ»Ð°Ð ³Ð¾Ð´Ð°
ÑĢÐ°Ð²Ð¸ ÑĤÑĮÑģÑı
ĠÐºÐ»Ð°Ñģ ÑģÐ°
ĠÐ¼ÐµÑģ ÑĤÐ°Ñħ
ĠÑĥÐ ¹ÑĤÐ¸
Ð´Ð ¾ÑĢ
Ð¾ÑĢÑĭÐ ¼
ĠÐ´Ñĥ ÑĢÐ°
ĠÐ¶Ð´ ÐµÑĤ
Ð°Ð ²Ð
ĠÑĦÐ¾ÑĤÐ¾Ð³ÑĢÐ°ÑĦ Ð¸Ð¸
ĠÐ¿Ð¾Ñģ Ð²ÑıÑī
ĠÐ½Ð° ÑĪÐ¸Ð¼
ÑĢÑ ĸ
Ð°Ð»Ñ ı
ĠÐ¿ÑĢÐ¸ Ñ
ĠÐ¾ÑĩÐµÑĢÐµÐ´Ð ½Ð¾Ð¹
ĠÑģÑĤÑĢÑĥÐº ÑĤÑĥ
ĠÐ° Ð½Ð°Ð»
Ð¸ÑĢÐ¾Ð² Ð°Ð½Ð¸Ñı
Ð´ÐµÐ ¸
Ð¾Ð´Ð° Ñ
ĠÑĤÑİ ÑĢÑĮ
ĠÐ¿ÑĢÐµÐ·Ð¸ Ð´ÐµÐ½ÑĤ
Ð ¸Ð²Ñĭ
ĠÐłÐ°Ð±Ð¾ ÑĤÐ°
ĠÐ±Ð°Ð ±Ð
ÑĮÐ ±Ñĥ
ĠÐ²Ðµ ÑģÐµÐ»
ĠÐ±Ð¾Ð³Ð° Ñ
Ðļ Ð¾Ð½
ĠÐ¾ÑģÐ½Ð¾Ð² Ðµ
Ð´Ð° Ñİ
ÑıÐ ¹
Ġ ÑıÑī
ĠÑģÑĤÐ°Ð ²
ĠÐĴ Ð¼ÐµÑģ
ĠÑģÐµÐºÑĥÐ½ Ð´
Ð½ÐµÑĤ Ñ
ĠÐ²Ð¾Ð·Ð ±ÑĥÐ
¶Ð¸Ð ²Ð°ÑĤÑĮ
±ÐµÐ ½Ð½Ð¾
ĠÐ¾Ð±ÑĬÑıÑģÐ½Ð¸ Ñ
ĠÐ¾Ð±ÑĬÑıÑģÐ½Ð¸Ñ Ĥ
ĠÑįÑĤ Ð¸Ð¼Ð¸
ÑĩÐµ ÑĪÑĮ
ĠÐ·Ð½Ð° ÐµÐ¼
s e
ĠÑģÐ ²Ð¸Ð½
ĠÐ¡ Ð»Ñĥ
ĠÐ¿Ð¸ÑĤ Ñ
Ġ Ð³ÑĥÐ»
ĠÑģÐ¼Ðµ ÑĢÑĤ
ĠÑģÐ¸ÑĤÑĥÐ° ÑĨÐ¸Ñİ
Ð´ÐµÐ »ÑĮÐ½Ð¾
ĠÐ¿ÐµÑĢÐ ²Ð°Ñı
ĠÐľ ÑĥÐ¶
ĠÐºÐ¾ÑĢÐ¸ Ð´Ð¾
3 9
Ġ Y
ĠÐ¼Ð° ÑģÑģ
Ġ Ð·ÑĢÐ¸
Ð ²Ð¼Ðµ
ĠÐ±ÑĢÐ¾ ÑģÐ¸Ð»
ĠÐ¿ÑĢÐ¾ ÑĪÑĥ
ĠÐ¾ÑĤÐºÑĢÑĭÑĤ Ñ
ĠÑĢÐµÐ´Ðº Ð¾
ÑĩÐµÐ½ Ð½ÑĭÑħ
ĠÐŁ Ð¾Ð±Ðµ
Ð¾ Ñī
» Ð¾Ð¹
Ñģ Ð°Ð¿
ĠÐļÐ° Ñ
ĠÐ¿Ð »Ñİ
ĠÐŁ Ð°Ð²
ÑģÐ¿Ðµ ÐºÑĤ
Ð¼Ð ±Ð
ĠÐºÐ»Ð°Ñģ ÑģÐ¸
ÑĢÐ »Ð¸
ĠÑĢÐµÐ±Ñ ıÑĤ
Ð´Ð »ÐµÐ½Ð½Ð¾
ĠÐ¼Ð »
ĠÐ¿Ð¸ÑĤÑ Į
ÑĦÐµ ÑĢÐµÐ½
ÑĢÐ°Ð ·Ð°
ÑģÑĤÑĢÐ ¾Ð¹
¸ ÑĩÐ½Ð¾
ĠÐ¸Ð· Ð½Ð°
ĠÐ²Ð¿Ðµ ÑĢÐµÐ´Ð¸
»Ð°Ð ½
ĠÑĨÐµÐ» ÑĭÐ¹
² ÑħÐ¾Ð´
ÑĢÑı ÐµÑĤ
ĠÐ»ÑİÐ±Ð ¾Ð³Ð¾
ĠÐºÐ°Ð¿Ð¸ ÑĤÐ°Ð½
Ð°Ð½Ñ ĤÐ¾Ð²
Ð°Ð»ÑĮÐ ½ÑĭÐµ
Ð ²ÑħÐ¾Ð´
Ġ Ð¿p
Ġ ÑĤÐµÑģ
ÐŁÐ¾ ÑĩÐµÐ¼Ñĥ
ÑĢÑıÐ´ ÐºÐ°
ĠÐ´Ð¾ ÑħÐ¾Ð´
ĠÐ·Ð° Ð±ÑĥÐ´
oÐ ¹
Ñ ıÐ»Ð°ÑģÑĮ
ÑĳÐ ³
ĠÑĢÑı Ð´
Ð´ÐµÐ½ Ð¸Ð¹
Ġ ÑģÑĤÐ¾Ð¹
ĠÑħÐ¾Ð·Ñı Ð¸Ð½
Ñģ ÑĤÐ²Ð¾Ð²
ĠÐ¿Ð ¸ÑģÑ
ÑĩÐ°Ð½Ð¸ Ñ
ÑĩÐ°Ð½Ð¸Ñ ı
ĠÐ½Ð°Ð·Ð ²
»ÐµÐ½Ð ¸
ĠÐ½Ð°Ð¿ÑĢÐ ¾ÑĤÐ¸Ð²
Ð¾ÑĢÐ º
ĠÐĿÐµ ÑĥÐ¶ÐµÐ»Ð¸
ĠÑģÐ¼Ð¾ÑĤ ÑĢÐ¸ÑĤ
ĠÐ½Ð°Ñģ Ñ
ĠS t
Ð ·ÑĢÑı
ĠÐºÐ¾Ð½ ÑģÑĤÑĢÑĥÐº
Ġ Ð²Ð¼Ðµ
ĠÐ´ÑĢÑĥÐ ³Ð°Ñı
ĠÐ¿Ð°Ð»ÑĮ ÑĨÑĭ
Ð¡ Ðĺ
Ð¼Ð°Ñ ĤÐ¸ÑĩÐµÑģÐº
ĠÐĽ Ð¡
Ð¼ÑģÑ ı
ĠÐĴÐ ·
ÑĩÐ¸Ð ²Ð°ÑĤÑĮ
Ĥ ÑĥÐ»
ÑĢÑģ Ðº
Ð ³Ð»Ñĥ
ÑĢÑ ĮÑı
ĠÑģÐ¸ Ð´Ð¸ÑĤ
ĠÑĢÐ°ÑģÑģÐºÐ° Ð·Ð°ÑĤÑĮ
ÑĢÐµ Ð´Ðµ
Ñī Ð¸Ñħ
ĠÐºÐ¾Ð½ ÑĤÑĢÐ°Ð
¶ÐµÐ½Ñ ĭ
ĠÐ²Ð½ÑĥÑĤ ÑĢÐµÐ½Ð
il l
ĠÐ±Ñ ĢÑİ
ĠÐ¶ÐµÐ»Ð°Ð½Ð¸ Ñ
ĠÐ¶ÐµÐ»Ð°Ð½Ð¸Ñ ı
4 8
ĠÐŁÐ¾Ð» Ñĥ
Ð´Ð ¶ÐµÑĤ
ÐµÑģÑĤ Ð¸Ð²Ð°Ð»
ĠÐºÐ¾Ð¼Ð°Ð½ Ð´Ð°
ÑĢÐ°Ð· ÑĥÐ¼
Ð ¸ÑĢÐ°
Ð½Ð¸ÐºÐ° Ð¼
ĠÑģÐ¾ÑģÐµ Ð´Ð
ĠÐ²Ð¾Ð·ÑĢÐ° ÑģÑĤÐ°
ĠÐ¼ÐµÑ ĤÑĢÐ¾
Ð »Ð¾Ð±Ð
ĠÐ¿ÑĢÐ¾Ð ºÑĥ
ĠÐĽ ÑĥÑĩÑĪÐµ
ÑĤÐµÐ»ÑĮÑģÑ Ĥ
ÑİÑī Ð¸ÐµÑģÑı
Ð¸Ð»ÑĮÐ ½Ð¸Ðº
ĠÐ¿Ð¾Ð½Ð¸Ð¼ Ð°ÐµÑĪÑĮ
Ġ Ð³Ð¾ÑĢ
Ñ ĤÐ²ÑĥÐµÑĤ
ĠÐ¾Ð±ÑĬ ÑıÐ
Ġ Ð¸Ðº
ĠÐ´Ð¾ÐºÑĥÐ¼ ÐµÐ½ÑĤÑĭ
ĠÐ¿Ð¾Ð»Ñĥ ÑĩÐ°
Ð¦ Ðĺ
ĠÐ·Ð°Ð¼ÐµÑĤ Ð¸Ð»Ð°
ĠÐ°Ð²ÑĤÐ¾Ð ±ÑĥÑģ
ÑģÐ ¾Ñģ
Ñģ ÑĨ
ÑĢÐµÑ ı
ĠÑģÐ¾Ð³ Ð»Ð°Ñģ
ĠÐ¿ÑĢÐ¾ÑĨÐµ Ð´Ñĥ
ĠÑĩÐ¸ ÑģÐ»Ð¾
ĠÑģÐ¾Ð· Ð´Ð°ÑĤÑĮ
ĠÑĪÑ ĤÑĢÐ°
ĠÑĥÐ ±Ð¸ÑĤÑĮ
ĠÑĩÐ¸Ñģ ÑĤÐ¾
ĠÐ²Ð´Ð ¾Ð»ÑĮ
ĠÑģÐ»ÑĥÐ¶Ð ±Ñĭ
ĠÐ§ Ð
ÐµÑĢÐ ¾Ð¼
ĠÑģÐµ Ð²Ðµ
¶ÐµÐ½ Ð¸Ñİ
ĠÐ¶Ð ¾Ð¿
ĠÑĪ ÑĤÐ°
± ÑĢÐ°Ð½
¸ ÑĤÐµÑģÑĮ
ĠÐ¾ ÑĪÐ¸Ð
ĠÑĥÑĩÐ°ÑģÑĤ Ð½Ð¸ÐºÐ¾Ð²
ÑĦÑ ĭ
¶Ð´Ñ ĭ
ÑĢÐ ½ÑĭÐ¼
ÑĨÐ¸Ñı Ð¼Ð¸
Ðķ ÐĻ
ĠÑĥÑ ĩÑ
ĠÐ·Ð° Ð¿Ð¾Ð»Ð½
Ñĳ ÑĪÑĮ
ĠÐĵ Ð¾
ĠÑģÐ¾ÑģÑĤ Ð¾Ñı
Ð²ÑĭÐ µ
ĠÐ¿Ð¾Ð¹ Ñ
ĠÐºÑĥÐ»ÑĮÑĤÑĥ ÑĢÑĭ
ĠÐ¿Ð¾Ð¹Ñ Ĥ
ĠÐ¼Ð¾Ð¼ ÐµÐ½ÑĤÐ°
ĠÐ´Ð° ÑİÑĤ
ĠÐ·Ð´Ð¾ÑĢÐ¾Ð² ÑĮÐµ
ĠÐ¿Ð¾Ð¹ÑĤ Ð
ĠÐ¿Ð¾Ð¹ÑĤÐ ¸
ĠÐ¾ÑĤÐ²ÐµÑĤÐ¸ÑĤ Ñ
ar d
ĠÐ¾ÑĤÐ²ÐµÑĤÐ¸ÑĤÑ Į
¶ÐµÐ½ Ð½ÑĭÐµ
p ro
Ð°Ðµ Ð
ĠÐĲ ÑĦ
ĠÑģÐ¾Ð±ÑĭÑĤ Ð¸Ð¹
ĠÐĺÐ ³
ĠÑģÑĤÐ¾Ð» Ð°
ÐĴ Ð¾
ĠÐº ÑĢÐ°Ñı
ĠÐµÐ¶Ðµ Ð´Ð½ÐµÐ
± ÑĢÐ°Ðº
» ÑıÑĤÑĮ
ĠÑģÐ¿Ð¸Ñģ Ð¾Ðº
ĠÐ¿ÑĢÐ¸ Ð½Ð¾
ÑĤÐ¾ ÑĢÑĥ
ĠÑĦÐ¾ÑĢÐ¼ Ñĥ
ĠÐ¾Ð±Ð ¾ÑĢÑĥÐ´Ð¾Ð²
¶Ð°Ð» Ñģ
ı Ð±Ð
¶Ð°Ð»Ñģ Ñ
Ð¸ÑģÑĤÑ Ģ
o st
Ð° Ð»Ð°ÑģÑĮ
ĠÐ¿ÑĢÐ¾Ð³ Ð¾Ð²Ð¾
ĠÑģÑĤÐ° ÑĢÑĭÐ¹
¶Ð°Ð»ÑģÑ ı
ĠÐµÐ² ÑĢÐ¾Ð¿ÐµÐ¹
ĠÐ·Ð½Ð° ÑĩÐµÐ½Ð¸Ðµ
ÑĪÐµÐ½ Ð¸Ð¸
Ġ Ð±ÑĥÐ
ĠÐ½Ð°Ð²Ñģ ÐµÐ³Ð´Ð°
ĠÑĥÐ¿ Ð¾ÑĤÑĢÐµÐ±Ð
ĠÑĢÐ°Ñģ ÑĤÐµ
ĠÐĵÐµÑĢÐ¼ Ð°Ð½Ð¸Ð¸
Ð¡ Ðŀ
Ġt o
ĠÑĥÐ»ÑĭÐ ±Ð°
ĠÐ¸Ð½Ð´Ð¸Ð²Ð¸Ð´ ÑĥÐ°Ð»ÑĮÐ
ĠÐ¿Ð¸ÑģÑ ĤÐ¾Ð»
ĠÐ´Ð¸ Ð¿Ð»Ð¾Ð¼
ĠÐŁÑĢÐ¸Ð ²ÐµÑĤ
ÐĴ Ð°
ĠÐł Ð¾Ð´
ĠÐ¾ÑīÑĥÑī ÐµÐ½Ð¸Ðµ
ÑĢÐ°ÑĤÑ ĭ
ĠÐ³Ð»ÑĥÐ±Ð¾Ðº Ð¾
ÑĥÐº Ñĥ
ĠÐķÐ ¹
ĠÑģÑĩÐ¸ÑĤÐ° Ñİ
ĠÐ²Ðµ ÑĤÐµÑĢ
»ÑĮÐ ½ÑĭÐµ
Ð ¸ÑĩÐ½Ð¾
ĠÐ¿Ð¾Ð² Ð¾Ð´
ĠÑģÐ¾ÑĤ Ð
ĠÐ±ÑĢÐ° ÑĤÐ°
ĠÐ¢ Ð¾Ð»
ĠÐ»Ð¸Ð ½Ð¸Ð¸
ĠÐ¿ÑĢÐ¸ Ñģ
ĠÑģÐ¸Ð¼Ð ²Ð¾Ð»
Ĥ ÑīÐ°
Ñ ĤÑīÐ°
ĠÐ½ÐµÐ ²
ÑĤÐµÐ»ÑĮÑģÑĤ Ð
ĠÑĦÐ¾ÑĢÐ¼ Ñ
ÑĤÐµÐ»ÑĮÑģÑĤÐ ²
Ġ e
ĠÑģÐ¿ Ð°Ñģ
ĠÐ¶Ð¸ Ð´Ðº
ĠÐ¶Ð¸Ð·Ð½ ÑĮÑİ
ĠÑĦÐ¾ÑĢÐ¼Ñ ĭ
ĠÑģÐ½ÐµÐ ³
³ Ð¸Ð³
ĠÐĶ Ð¶ÐµÐ¹
ĠÑģÐ¾ ÑİÐ·
ĠÐ½Ðµ ÑĢÐµ
ÑĤÑģÑ ĤÐ²Ð°
Ð±Ð ¸Ð
ÑĪÐ ½Ð¾Ð¹
Ð¿Ð¸ Ñ
ĠÑģÐ ½Ð¸Ð
Ġ y
ÐºÐ° Ð½Ð°
Ðº Ð¾Ð²Ð°
ĠÑģÑĤÐ¾ÑĢÐ ¾Ð½Ð°
ĠÐ¼Ð³Ð½Ð¾Ð² ÐµÐ½Ð¸Ðµ
ĠÐºÐ¾Ð ¶Ñĥ
ĠÐ¿ÑĢÐ¸ Ð¼ÐµÑĢ
ĠÐ¿ÑĢÐ¸Ð½ ÑıÐ»
²Ð»Ñı ÑİÑĤÑģÑı
Ñħ Ð¾Ð¶Ðµ
ĠÐ½Ð¾Ð³ Ð°Ð¼Ð¸
Ð°ÐµÐ¼ Ñģ
Ð»Ð° Ð¼
ĠÑģÐ» Ð¾Ð¼
ĠÑģÐ¿ Ð¸Ð½Ñĥ
ĠÑģÐµÐº ÑĢÐµÑĤ
ĠÐľ Ð¾ÑģÐºÐ¾Ð²
ÑĮÐµÑ Ģ
ĠÐ¡ Ð»ÐµÐ´
Ð¿Ðµ ÐºÑĤ
ĠÑģÐ¾ÑĤÐ ½
Ġ Ð³Ð»Ñĥ
Ñħ Ð¾ÑĢÐ¾
Ġ ÑĤÑīÐ°
Ð°ÐµÐ¼Ñģ Ñ
ĠÑĢÐ°Ð· ÑĢÐ°Ð±Ð¾ÑĤ
Ð°ÐµÐ¼ÑģÑ ı
Ð¾Ð» Ð¾Ð¶Ð
ĠÐ¾Ð·Ð½Ð° ÑĩÐ°ÐµÑĤ
ĠÐ¾ÑĤ Ð¿ÑĥÑģÑĤ
ĠÑĥÑģ ÑĤÑĥÐ¿
ÑĪ Ð°Ð¹
ĠÐ³ÑĥÐ ±Ðµ
Ġ Ð·ÑĢÑı
ĠÑģÐ¼Ð¾Ð³ Ñĥ
Ð¢ Ð¾Ð»ÑĮÐºÐ¾
Ñī Ð¸Ðº
¸ ÑĦ
ĠÐ¿Ð¾Ð½Ðµ Ð´ÐµÐ»ÑĮÐ
ĠÐ¿Ð¾Ð±Ðµ Ð´Ð¸
Ð´Ð ½ÑĭÑħ
º Ð½Ð¾Ð²
ĠÐ¿ÑĢÐ¾Ðµ ÐºÑĤÐ°
ÑĪÐ¸Ð ²Ð°ÑĤÑĮ
Ð»ÐµÐ¹ ÑĤÐµ
ĠÐĳÑĭÐ »Ð¾
ĠÑģÐ¸Ð ³Ð°
Ġ Ð²ÑħÐ¾Ð´
ĠÐĴ ÑĤÐ¾ÑĢÐ
ĠÐ¿Ð¾ ÑģÐ¿Ðµ
ĠÐ¿Ð°Ð¼ ÑıÑĤ
ĩ ÑĢÐµÐ·
Ð´Ðµ ÑĨ
Ñ ĩÑĢÐµÐ·
»Ð ¸Ð·Ð
±ÑĢÐ° ÑģÑĭÐ
ĠÐ»ÑİÐ ±
ĠÑĢÐ°Ð· Ð¼Ñĭ
ÐºÐ°Ð ¹
ĠÐ²ÑĤÐ¾ÑĢÐ ¾Ð³Ð¾
ĠÐ¿Ð¾ Ñį
Ġâ ļ
ĠÑĥ ÑĪÐµÐ»
ĠÐ¿ÐµÑĢÐµÐ ¶Ð¸Ð²
Ðŀ ÑĩÐµÐ½ÑĮ
ĠÐºÐ° Ð¼ÐµÐ½
ĠÐ¿ÑĢÐµÐ´Ð »Ð°Ð³Ð°
ĠÐ¿Ð¾Ð¿Ñ ĭ
Ðº ÑĢÐ°ÑģÐ
ĠÐºÐ²Ð°ÑĢÑĤÐ¸ ÑĢÑĭ
ĠÑģÐ¾Ð±Ð »Ñİ
ĠÑĢÐ°Ð· Ð¼ÐµÑĢ
Ð¾Ñģ ÑĢÐµÐ´
ĠÐ¿Ð¾Ðº Ð»Ð¾Ð½
ĠÐ²Ñģ Ð»ÐµÐ´
ĠÐ¿Ð¾Ð³Ð¾Ð²Ð¾ ÑĢÐ¸ÑĤÑĮ
ĠÐ½Ðµ ÑĥÐ´
ĠÑĩÐµÐ¼Ð¿Ð ¸Ð¾Ð½Ð°
Ð·Ð°Ð ½Ð¸Ðµ
Ð¡ ÐµÐ³Ð¾Ð´Ð½Ñı
ÑģÐ»Ðµ Ð´Ð
ĠÐ¿ÑĢÐ¸ ÐºÐ°Ð·
ÑĥÑģÑĤÐ¸ÑĤ Ñ
ÑĥÑģÑĤÐ¸ÑĤÑ Į
Ð ±ÑĢÐ°Ðº
ÐµÐ²Ð¾ ÑĩÐºÐ¸
ĠÑĢÐ°Ð´ Ð¾ÑģÑĤ
ĠÑĤÑĢÐµÑĤ Ð¸Ð¹
ĠÐ½Ð° Ð¿Ð¾Ð¼Ð½
ĠÐŁÑĢÐ¾Ð´ Ð°Ð¼
ÑĢÐ°Ð·Ð¸ÑĤ Ñ
ĠÑĢÐ°Ð ²Ð
Ð¸Ð½ Ð¾Ð²
Ð ³Ð¸Ð³
½Ð¸ÐºÐ° Ð¼
ĠÐĴ Ð«
ĠÑĤÐµÐ¿ Ð»Ð¾
½Ð¸ÑĨ ÐµÐ¹
ĠÐ½Ðµ Ð´Ð¾
ĠðŁĳ ī
ĠÐ¿ÑĢÐ¾Ð³ÑĢÐ°Ð¼ Ð¼Ñĭ
ÐķÑģÑĤ Ñ
¸ Ð¼Ð¾
ÐķÑģÑĤÑ Į
Ð ±Ð°Ðº
ĠÑģÑĥÐ±Ð ±Ð
ĠÐ¿ÑĢÐ¾Ð´Ð¾Ð» Ð¶Ð
Ð ½Ð¸Ðµ
ĠÐ¼Ðµ ÑĩÑĤ
ĠÑĢÐ°Ð´ Ð°
ĠÑģÐ¾Ð ¿ÑĢÐ
ĠÐºÑĥÑĢÑģ Ðµ
Ñ ĮÑĦ
ĠÐ¿Ð¾ÑĤ ÑıÐ
ĠÐ²Ñģ Ðº
ĠÑģÐµÐ»Ñ Į
Ðº ÑĥÐ¿
Ð°Ð»ÑĮÐ ½Ð¾Ðµ
ĠÐ²Ð¾Ð·ÑĢÐ° ÑģÑĤÐµ
ĠÐ¿ÑĢÐ¾Ð³ ÑĥÐ»
ĠÐµ ÑħÐ°ÑĤÑĮ
ĠÐ·Ð° Ð¿Ðµ
ĠÐ»Ðµ Ð¶Ð¸ÑĤ
Ġ ÑĤÐ¾Ðº
Ðĳ Ð°
ĠðŁĺ į
¶Ð° Ñİ
ĠÑĢÐµ ÑĨÐµÐ¿
Ġ ÑĤÑĥÐ°
ĠÐŁ ÑĢÐ¾Ð
Ð¸ÑģÐ° Ñ
Ð¾Ð ¸ÑĤÑģÑı
³ Ð»ÑıÐ
ĠÑĥÐ ½Ð¸ÐºÐ°
ĠÐ¼Ð »Ð½
ĠÐĿÐ°Ð ²ÐµÑĢÐ½Ð¾Ðµ
Ġ( Â«
ĠÐºÑĢÐ°Ð¹ Ð½Ðµ
ĠÐ¾ÑĤ ÑĤÑĥÐ´Ð°
Ġ ÑģÐ¼ÐµÐ½
ĠÑĥÐ´Ð¾Ð²Ð¾Ð»ÑĮÑģÑĤÐ²Ð¸Ðµ Ð¼
ĠÐ¾Ð±Ð ¸Ð
¾ÑģÑ Į
ĠÑħÐ¾ÑĢÐ¾ ÑĪÐ°Ñı
ĠÐ³Ð¾ÑĤ Ð¾Ð²Ð°
ÑĩÐ¸Ð² Ð°ÐµÑĤÑģÑı
Ñ ıÐ±Ð
ĠÐ´Ð¾ÐºÐ° Ð·Ð°
ÑĢÐ¾ÐµÐ ½
ĠÐ²Ð° ÑĪÑĥ
ÐĴ Ð¾Ð
Ĥ Ð¸Ð¿
ĠÐ¿Ð¾Ð¿ÑĢÐ ¾Ð±
ĠÐŁ Ð¾Ð¿
ĠÐ±Ð¾Ð ¶Ðµ
Ðĵ Ðĺ
Ġ ÑĩÑĢÐµÐ·
² Ð¾ÑģÑĮ
Ð »ÑıÐ½
ĠÐľ Ñĥ
ĠÐ±ÑĥÐ´ÑĥÑī ÐµÐµ
ĠÐ¸Ð¼Ðµ Ñİ
Ð½Ðµ ÑĢÐ°
ĠÐ²Ð¾Ð¹ Ð½Ð°
ĠÑĤÐµÐ»ÐµÑĦ Ð¾Ð½Ð°
ĠÑĢÐµÐ³ ÑĥÐ»Ñı
ĠÐ¼Ð ¸Ð»Ð¸
ÐĺÐ¢ Ðķ
Ðº Ð¾Ð³Ð´Ð°
ĠÐ²Ð¾Ð» ÑĪÐµÐ±Ð
Ð»ÐµÐ ³Ð°
ĠÑįÐºÑģÐ¿Ðµ ÑĢÐ¸
ĠÐ²Ð¾Ð· ÑĢÐ°ÑģÑĤ
Ð¸Ð ³Ð°
ÐŁ Ðĺ
ĠÐŁÐµ ÑĢÐµÐ´
Ð¸Ð½Ð°Ð½ Ð
ĠÐ´Ðµ ÑĪÐµÐ
ĠÐ¿Ð¾Ð´ÑĬ ÐµÐ·
Ġ15 0
ĠÐ¾Ð±Ð¼ Ð°Ð½
ÑıÐ ¹ÑĤÐµ
ÑĥÑģ Ð»Ð¾Ð²
ÑģÐ ²Ðµ
6 8
Ð¸Ð½Ð°Ð½Ð ¸
ĠÐ´ÐµÐ»Ð° Ð»Ð¸
ĠÐ¾Ð±ÑĬÑıÑģÐ½Ð¸ÑĤ Ñ
ĠÐ¾Ð±ÑĬÑıÑģÐ½Ð¸ÑĤÑ Į
ĠÐ»Ð¸ Ð´Ðµ
ĠÐ¾ÑĤÐ½Ð¾ÑĪÐµÐ½ Ð¸Ð¹
ĠÐ¿ÑĢÐ¾ ÑĪÐµÐ¿
Ð°Ð»ÑĮÐ ½Ð¾Ð³Ð¾
ĠÐĶ Ð¾Ð»
Ñ ĤÑĥÐ»
7 8
ÑģÐµÑ Ģ
ĠÐ»ÑĥÑĩ ÑĪÐ¸Ð¹
Ð¼ÐµÐ» Ñ
ĠÑģÐ¾Ð±ÑģÑĤÐ²ÐµÐ½Ð ½Ð¾Ð¹
ĠÐ½Ðµ ÑĥÐ´Ð°
ĠÐ¿Ð »ÑİÑģ
e k
ĠÐ¾Ð±Ð ½
Ġ Ð±ÑĢÐ°Ðº
ĠÐ²Ð¸ Ð´Ð¸ÑĤ
Ð¾Ð±ÐµÐ ½
Ð»Ð°Ð½ Ð
ĠÐ²ÑĭÐ´ Ð°
ĠÐ½Ð°ÑģÑĤÐ¾ÑıÑī Ð¸Ð¹
ĠÐ·ÑĥÐ ±Ñĭ
ĠÐľ Ð°Ñģ
ÑĤÐ° Ñģ
ĠÐķ ÐºÐ°
Ð§ ÐĲ
ĠÐ´Ð²Ð¾ ÑĢÐµ
ĠÑĢÑĥÑģ ÑģÐºÐ¸Ð¹
ĠÐ³Ð¾Ð» Ð¾Ð´
Ðĸ Ðķ
.. ...
ĠÑĢÐµ ÑģÑĥ
ÐµÐ½Ñ ĤÐ¾Ð¼
ÑĤÐ¾ ÑĢÐ¸Ð¸
ÑĥÐ ¸
Ð°Ð² ÑĪÐ¸ÑģÑĮ
ĠÐ¾ÑģÐ²Ð¾Ð ±Ð¾Ð
ÑĨÐ° Ñħ
p a
o f
ĠÑĢÑĥÑģ ÑģÐºÐ¸Ñħ
ĠÐ¼Ñĭ ÑģÐ»
ĠÑģÐ¼Ð¾ÑĤ ÑĢÑİ
ĠÐ³ÑĢÐ¾Ð¼ ÐºÐ¾
ĠÐ¾ÑĤÐº ÑĢÐ¾Ð²
ĠÐ¿Ð»Ðµ ÑĩÐ¸
ÐµÐ¼ Ñģ
ÑĢÑ ĤÑģ
ÐĿÐ« ÐĻ
ĠÐĲÐ ¹
ĠÑħ ÑĢÐ¸ÑģÑĤÐ¸Ð°Ð½
Ð¸ÑģÐ°Ñ Ĥ
ĠðŁĵ Į
oÐ ³
Ð»Ñİ Ñģ
ĠÐ¿ÑĢÐ¾Ð´ Ð°
ĠÑģÐ¾Ð±ÑĭÑĤÐ¸ Ñ
ĠÑģÐ¾Ð±ÑĭÑĤÐ¸Ñ ı
ĠÑĥÐ¼ ÐµÐ½ÑĮ
ĠÑĢÐµ Ð´Ð°
Ðļ Ð¾Ð¼
ĠÐĲ Ð»Ð¸
Ġ ÑģÐ¼Ð°
ĠÐ¿ÑĢÐ¸Ð ½Ð¸Ð¼Ð°ÑĤÑĮ
ĠÐĵ Ðŀ
ĠÐ´ÐµÐ²Ñĥ ÑĪÐµÐº
ĠÐ´Ð¾Ð ±ÑĢÑĭÐ
Ñ ĤÐ¸Ð¿
ĠÐŃÐ ¹
ĠÑĤÐ²Ð¾ Ñİ
ĠÑĤÑĢÐµÐ± ÑĥÐµÑĤÑģÑı
ĠÐ²ÑĭÑħ Ð¾Ð´Ð¸ÑĤ
ÑĩÐ ¾Ð¼
ĠÐ»ÐµÑ ĤÐ¾Ð¼
Ð¸Ð ²Ð°Ð»Ð¸
el l
Ð¸Ð ²Ð°ÑİÑĤ
Ð´Ð ½ÑĭÐµ
ĠÐ¢ ÑĢÐ¸
Ð° ÑĢÐ´
ÑĩÐ¸ Ð»Ð¸ÑģÑĮ
ĠÐ·Ð° ÐºÐ°Ð½
ĠÐ¾ÑĤ Ð´Ð°Ð»
Ð¾Ñģ ÑĤÐ°Ð²
ÐµÐ½Ð ·
ĠÐ²ÐµÑī ÐµÐ¹
ĠÐ¾ÑĤÑģÑĥÑĤÑģÑ ĤÐ²Ð¸Ðµ
±Ð°Ñ Ĥ
ÑĩÐµ Ðµ
ĠÑģÐµÑĢÑĮÐµÐ· Ð½Ð¾
ÐµÑĢÐ ½
Ġ ÑģÑĨ
Ð¡ ÐĲ
ĠÐ¿ÑĢÐ¸Ð »Ð¾Ð
ÐµÐ¹ Ðº
Ġ Ð¸Ð»Ð
ĠÐ¿Ð° ÑĨÐ¸
ĠÐ¿Ð¾Ð´ ÑħÐ¾Ð´Ð¸ÑĤ
Ġ ÑĤÑĭÐ
ĠÐ¾ÑĤÐ»Ð¸ÑĩÐ ¸Ðµ
ĠÐŁÐ¾Ð ¶Ð°Ð»
ĠÐ¿ÑĢÐ¸ÑħÐ¾Ð´ Ð¸Ð»Ð¾ÑģÑĮ
ĠÐ½Ð° ÑĪÐ»Ð°
ĠÐ¿ÑĢÐ¾ ÑħÐ¾Ð´Ð¸ÑĤ
ÑħÐ¸Ñ Ĥ
Ð°Ðº Ð
ĠÐ¡ Ð²ÑıÑĤ
ÑĪ Ð°Ð»Ð¸
ĠÐ±ÐµÑģÐ¿ Ð¾Ðº
ĠÑĢÐ¾Ð ±Ð
ÑģÑĤÐ²ÐµÐ½Ð ½Ð¾Ð³Ð¾
ĠÐŁ Ñĥ
ÑıÐ½Ð¸ Ñ
ÑĢÐµÐ´Ð¸ Ð½Ðµ
ĠÑģÑĥÑĤ Ð
Ñģ ÑĢÐ¾ÑĩÐ½Ð¾
ĠÐ½ÐµÐºÐ¾ÑĤ Ð¾ÑĢÐ¾Ðµ
ÐŁÑĢÐ¾Ð´ Ð°Ð¼
ÑĢÐ°Ð»ÑĮÐ ½Ð¾Ð³Ð¾
ĠÑģÑĥÑĤÐ ¸
ĠÐ²Ð ½Ñĥ
¶ Ñ
ĠÐ³Ð¾Ð»Ð¾Ñģ Ð¾Ð²
ĠÐŃÐ »
ÑĪÐ¸ Ð»Ð°
ĠÐĺÐ½ Ð¾Ð³Ð´Ð°
ðŁ¤ Ķ
¶Ð ¸Ñģ
ĠÐ·Ð°Ðº Ð¾Ð½Ð°
ĠÐ¸Ð·Ð¼ÐµÐ½ ÐµÐ½Ð¸Ñı
ĠÐĴ ÐµÑĢ
ĠÐ¸Ð½ÑĤÐµ ÑĢÐ
ĠÐ½Ð°ÑģÑĤÑĢÐ¾ÐµÐ ½
Ĥ ÐµÑģÑĤ
ÑĢÐ¸Ð½ Ð
ĠÐ¿Ð¾Ð» Ñİ
ÑģÐ» Ð¾Ð¼
Ð°Ð»ÑĮÐ ½ÑĭÑħ
ÐµÐ¼Ñģ Ñ
ÑĢÐµÐ´Ð ¾ÑĤÐ¾
Ĥ ÑĢÐ¾Ð²
ĠÐ¿Ð¾Ð´ÑĥÐ¼ Ð°
ÑĢÐ°Ð· Ð¸Ð»
Ġ Ð°Ð¹
1 00
ĠÐ·Ð°Ð¿ÑĢÐµ Ñ
ĠÐŁ ÐłÐĺ
ĠÐ¿Ð¾Ð´ÑĥÐ¼Ð° Ñ
ĠÐ²Ð¾Ð· Ð¼
ĠÐ·Ð°Ð¿ÑĢÐµÑ Ĥ
7 4
ĠÐ¾ÑģÑĤÐ° Ð½ÐµÑĤÑģÑı
ĠÐºÐ°Ð¶Ð´ ÑĭÐ¼
² Ð½Ð°
ĠÐ¿Ð¾Ð´ÑĥÐ¼Ð°Ñ Ĥ
ĠÐ²Ð¾Ð´ Ðµ
ĠðŁĺ ģ
en d
ÑĤÐµ ÑĢÐµÑģ
ÑĢÐ¸ ÑĢÐ¾Ð²
ĠÑģÑĤÑĢÐµ Ð¼Ð
ĠÐ²Ðµ ÑĢÐ¸ÑĤÑĮ
ĠÐ»Ð° Ð¼Ð¿
± ÑĢÑĮ
ĠÐ¿Ð¾Ð´ÑĥÐ¼Ð°ÑĤ Ñ
ĠÐ¿Ð¾Ð´ÑĥÐ¼Ð°ÑĤÑ Į
ÑģÐ¿ÑĥÐ±Ð»Ð¸Ðº Ð
ÑģÐ¿ÑĥÐ±Ð»Ð¸ÐºÐ ¸
ÐµÐ¼ÑģÑ ı
ĠÐ¸ÑģÐº ÑĢÐµÐ½
ĠÑĢÐ°Ð´ Ð¾ÑģÑĤÑĮ
ĠÐ¿ÑĢÐ¸Ð ½ÐµÑģ
Ñģ ÑĦ
ĠÐ§Ð ¸
ĠÐºÐ°Ð¶Ð´ Ð¾Ð¼Ñĥ
ÑģÐ ¸Ð»Ð¸ÑģÑĮ
Ġ ÑģÐ°Ð¿
ÑĢÐ°Ð²Ð¸Ð »ÑĮÐ½Ð¾
ĠÐ²Ñĭ ÑĪÐ»Ð¸
ĠÑıÐ·ÑĭÐ ºÐµ
Ð·Ð° ÑĨÐ¸Ñı
ĠÐ¼Ð°Ð»ÑĮ ÑĩÐ¸
Ðµ ÑĢÐµ
ĠðŁĶ ¥
±Ð° Ñħ
ĠÑģÐº Ð»Ð¾Ð½
Ð°Ð³ Ð°Ð½
Ð¾Ð±Ð ¸
ÑĩÐ°Ð» Ð¾ÑģÑĮ
ĠÑģÑĤÐµÐ½ Ñĥ
»ÐµÐ½Ð¸ Ñ
ĠÐ²Ðµ ÑĢÑĤ
ÑıÐ½Ð¸Ñ ı
ĠÐ·Ð° ÑħÐ¾
Ð¿Ð¸Ñ Ĥ
Ð¢ Ð°
Ñ ĤÐµÑģÑĤ
ÑĢÑĮ ÑĳÐ·
ÑģÐ»ÐµÐ´ Ð¾Ð²Ð°
² Ð²Ðµ
Ð¸ÑģÐ°ÑĤ Ñ
ÑĢÑį Ð
ĠÐ¾ÑģÑĤÐ°Ð½Ð¾Ð² Ð¸Ð»ÑģÑı
Ñ ıÐ»Ð¸ÑģÑĮ
Ð¾Ð» Ð¾Ñģ
ÑĢÑĥÑ ı
Ñģ ÑģÐ°
Ð¿ÑĢÐ¾Ñģ ÑĤÐ¾
ĠÐ¿ÑĢÐµÐ´ Ð½Ð°
Ð°ÑģÑĤ Ð
Ð¾Ð³ ÑĢÐ°Ð´
ĠÐ³Ð¾Ð´ Ð¾Ð²
Ð ²Ð²Ðµ
ðŁĺ ĥ
ÑĢÐ°Ð»ÑĮÐ ½ÑĭÐ¹
ĠÑģÑĥÑĤ Ðº
ĠÑģÑĥÑĤÐº Ð
ĠÑģÑĥÑĤÐºÐ ¸
in d
ĠÐ»ÐµÐ ·
ĠÐ¾ÑģÑĤÐ°Ð»ÑĮÐ ½ÑĭÑħ
ĠÐ¿Ð¾ÑıÐ ²Ð¸Ð»Ð¸ÑģÑĮ
Ġ Ð±Ð°Ðº
ĠÐ²Ð¾Ð·Ð´Ñĥ ÑħÐµ
Ð¡ Ðµ
ÐµÐ½Ð ½ÑĥÑİ
ĠÑģÐ ³
Ð ³Ñ
»Ñİ Ð
Ġ ÑĥÑĤÐµ
Ð»Ð°Ð¹ ÑĤÐµ
Ð²Ñ ĤÐ¾
ĠÐ½Ð°Ð· Ð²Ð°ÑĤÑĮ
ÑĨÐ¸ Ð¾Ð½Ð°
Ð ²Ð¾ÑģÑĮ
ĠÐļ ÑĥÐ¿
ĠÑģÐ¾Ð³Ð»Ð° ÑģÐ¸Ð»ÑģÑı
²Ð° ÑİÑģÑĮ
ĠÐ²Ð·Ð´Ð¾Ñħ Ð½ÑĥÐ»
Ð´Ð¸Ñ Ģ
ÑĤÐ°Ñ ĤÐ¾Ð²
ÑĢÑĭÐ ²
ĠÑģÐ¾ÑĤÑĢÑĥÐ´Ð ½
Ġ Ð»Ð¾Ðº
ĠÐ·Ðµ Ð»Ðµ
you t
ĠÐ¿Ð¾Ð»Ð¸ ÑĤÐ¸Ðº
ĠÐ°Ð½ÑĤ Ð
¶Ð¸Ñ ı
ÑģÐ »Ð
ĠÑĤÑĢÑĥÐ ¿
ĠÐ¿Ð¾ÑĩÑĥÐ ²ÑģÑĤÐ²Ð¾Ð²Ð°Ð»
ĠÐ»ÑİÐ±Ð¸ÑĤ Ñ
ĠÐ»ÑİÐ±Ð¸ÑĤÑ Į
ĠÑģÐµÐ· Ð¾Ð½
ĠÑģÑĩÐ¸ÑĤÐ° ÑİÑĤ
ĠÐŀ Ð½Ð¾
ĠÑĩÐ°ÑģÑĤ Ð½Ð¾ÑģÑĤÐ¸
Ð¸ÑģÐ°ÑĤÑ Į
ĠÑĤÐ° Ð»Ð°Ð½ÑĤ
ÑĢÐ°Ð ±Ð°ÑĤÑĭÐ
ĠÑħÐ°ÑĢÐ°Ðº ÑĤÐµÑĢ
ĠÑģÐµÐ¼Ñ ĮÑİ
ĠÐ²Ð¾ÑģÐ¿ ÑĢÐ¸Ð
ÑĢÐ¸ Ð»Ð°ÑģÑĮ
Ð¸Ð· Ð¼Ð°
ÑĢÐ¸Ð½Ñ ĭ
ĠÐ¾Ð±ÑĢÐ°Ð·Ð¾Ð² Ð°Ð½Ð¸Ñı
ĠÐ¤ Ð°
Ð»ÑĮÐ ½ÑĭÐ¹
ĠÐ·Ð° Ð±Ð¸
ĠÐĵÐ ¸
ÑĢÐ°Ð·Ð¸ÑĤÑ Į
ÑĪÐ ¸ÑģÑĤ
Ð ½ÐµÐ½
Ġ Ð³Ð¸Ð³
ĠÐ¡Ð° Ð¼Ð°
ĠÐĶÐ°Ð² Ð°Ð¹
ĠÑģÐ»Ñĥ ÑĩÐ°Ñ
ĠÐ¡ Ð¼Ðµ
ÐµÑģÑĤ Ð²ÐµÐ½Ð
Ġ |
cl ub
ÑĢÐ¸Ñ ıÑħ
Ðº Ð¾Ð¿
¸ÑģÑ ı
Ġ Ð¾Ð¼
ĠÐ³Ð¾ÑģÐ¿ Ð¾Ð´Ð¸Ð½
ĠÐ±Ð» Ñ
ĠÐ¿ÑĢÐ¾Ñģ Ð¼Ð¾ÑĤ
ĠÑĢÐµÐ»Ð¸Ð³ Ð
ĠÑĢÐµÐ»Ð¸Ð³Ð ¸
ĠÐĿÐ°Ð´Ðµ ÑİÑģÑĮ
ĠÐ¿ÑĢÐ¾ÑĤÐ¸Ð²Ð ½Ð¸ÐºÐ°
ĠÐĴÐ¡ Ðķ
Ð²ÑĭÐ ¼
¾Ñ ĩÑĥÐ
ĠÑİ Ð½Ð¾
ĠÐ´Ðµ Ð»Ð¸
ĠÐ´Ð ½ÐµÐ
Ð »Ð¾Ð¿
ĠÑįÐ ½
ĠÐ´ÐµÐ¹ÑģÑĤ Ð²Ð¸Ðµ
Ñ ĤÑĢÐ¾Ð²
ĠÐ¿Ð¾Ð½Ð¸Ð¼ Ð°Ð»
ĠI n
ĠÑĢÐ°Ñģ ÑģÐ»Ð°
ĠÐ¼Ð°Ñģ ÑģÐ¾Ð²
Ġ Ð²Ð²Ðµ
ĠÐ¸Ð· ÑĥÐ¼
Ð¼Ð »
ĠÐ¤ Ð
Ġ3 1
ĠÐ½Ð¾Ð² Ð¾ÑģÑĤÐ¸
ĠÑĥÐ¶Ð° Ñģ
ÑĥÐ°Ð »
Ð²Ð µÑģÑĤÐ
ĠÐ¾ÑĤÐ¼ÐµÑĤ Ð¸Ð»
u p
ÑģÐ» ÑĭÑĪ
ÑĪÐ ½ÑĭÐµ
ĠÐļ Ð°Ð¿
ÐĹ Ð´ÑĢÐ°Ð²ÑģÑĤÐ²ÑĥÐ¹ÑĤÐµ
Ñ ĤÑĮÑı
Ð°ÑģÑĤÐ ¸
»ÐµÐ½Ð¸Ñ ı
ÑĢÑĥ ÑİÑĤ
ĠÐŁ ÑĢÐ¾Ð²
ÑħÐ¾Ð ¶Ñĥ
ĠÐĲÐ½ ÑĤÐ¾Ð½
ĠÐ±Ð»Ð¸Ð· ÐºÐ¾
oÑ Ĥ
ĠÑĢÐµÐº Ð
ĠÐ´Ð¾Ð ±Ð¸
ÑĭÐ ³
Ġ4 5
ĠÐŁÐ¾ÑģÐ»Ðµ Ð´Ð
ÑģÐ ½Ð¾Ð³Ð¾
Ð¼ ÑĥÐ½
7 9
¶ÐµÐ½ Ð½ÑĭÑħ
ĠÐ¾ÑĤ Ðµ
ĠÐ½ÐµÐ¿ Ð¾ÑģÑĢÐµÐ´
ĠÐ´Ñ Ģ
oÐ »
Ð²Ð ³
ĠÐ¼Ð¾Ð· Ð³Ð°
ĠÐ¿Ð»Ðµ ÑĩÐ¾
ĠÑģÐ¾Ð¾Ð±Ñī Ð¸Ð»Ð¸
ĠÐ²ÐµÑģÐµ Ð»Ð¾
ÑĦ Ñĥ
ðŁĮ ·
Ð ²Ð°Ð³
ĠÐĳ Ñĥ
ĠÑģÐ¿ÑĢÐ° ÑĪÐ¸Ð²
Ñģ Ð¾Ð»ÑĮ
ĠÐ´ÐµÐ »Ñĥ
ĠÐ´ Ð°Ð¹
ĠÐ½ÐµÐ¾Ð±ÑħÐ¾Ð´Ð¸ Ð¼Ð¾ÑģÑĤÐ¸
ĠÑıÐ·ÑĭÐ ºÐ°
²ÑĭÐ¼ Ð
ÑĢÐ¾Ð ¿Ðµ
ÑĤÐ° ÑĤÑĮÑģÑı
²ÑĭÐ¼Ð ¸
Ĥ ÑĥÐº
Ð¸Ð»Ñ ı
¸Ð» Ð¾ÑģÑĮ
ĠÐ¿ÑĢÐµÐ·Ð¸Ð´ÐµÐ½ ÑĤÐ°
Ð ģ
ĠÐ¾Ð± ÑģÑĤÐ°Ð½Ð¾Ð²
ĠÐ¿ÑĢÐ¸ ÑħÐ¾Ð´Ð¸ÑĤ
ĠÐ¿Ð¾Ð¿ Ð°Ð»
ĠÐ´ÐµÐ² ÑĩÐ¾Ð½
ÑĮÐµÑ Ĥ
ĠÑĢÐµÐºÐ ¸
ÐĶ Ð¾Ð±
ĠÐłÑ ı
Ð»ÐµÐ½ Ð½Ð°Ñı
ÑĢÐ¸ Ð»Ð¸ÑģÑĮ
Ġ ÑĥÑī
ÑİÑ Ģ
ÑĢÐ°Ð»ÑĮÐ ½Ð¾Ð¹
± Ð°Ð²
ĠÐ¡ Ð½Ð°ÑĩÐ°Ð»Ð°
ĠÐ¶ÐµÐ½Ñī Ð¸Ð½Ñĥ
ĠÐĶ ÐµÐ½ÑĮ
ĠÐ¼Ð ¾ÑĢÐ
ut m
ĠÐ¿Ð»Ð¾ÑīÐ° Ð´Ð¸
ĠÐ¿Ð¾Ðº ÑĢÑĭÑĤ
ÑīÐ ¸Ð»Ð°
ĠÐ¿ÑĢÐµÐ ¸Ð¼
Ð°Ð ¸
ĠÐļ ÑĥÐ´Ð°
Ðµ Ð´
Ĥ ÑĢÑĥÑģ
ĠÑĥ ÑİÑĤ
Ð»Ðµ Ðµ
Ðĳ ÐĲ
ĠÐ¿Ð¾Ð½Ð¸Ð¼Ð°Ñ Ĥ
Ð±Ð ¸Ð»ÑĮÐ
ĠÐ»ÐµÑģ Ñĥ
ĠÐ¿ÑĢÐ ¾ÑĢÐ
6 4
ĠÐĳÐ¾Ð»ÑĮ ÑĪÐµ
ĠÑĥÑģÐ» ÑĭÑĪÐ°Ð»
ĠÑĤÐ²Ð¾Ðµ Ð³Ð¾
ÐµÑĤ Ñĥ
ÐµÑģÑĤ Ð²Ð¾
ÑĩÐ°Ð ²
ÐµÐ ²Ð¸Ñĩ
Ġ201 6
ĠÐ¿Ð¾Ð½Ð¸Ð¼Ð°ÑĤ Ñ
ĠÐ¿Ð¾Ðµ Ð·Ð´Ð
ĠÐ¿Ð¾Ð½Ð¸Ð¼Ð°ÑĤÑ Į
ĠÐ¿Ð¾Ð´Ð½ ÑıÐ»ÑģÑı
ĠÐ¿Ð¾Ð¿ Ð°ÑģÑĤÑĮ
ÑģÐ¿ Ð¾
ĠÐ¿Ð¾Ð¹ Ð¼
¸ ÑĤÐ¾
Ñģ ÑĦÐ¾ÑĢÐ¼
ÑĩÐ¸Ð½ Ñ
ĠÐ³Ð»Ð°Ð² Ð½ÑĭÐ¹
ºÐ°Ð »
ĠÐ»ÑİÐ±Ð ¸Ð»
Ñİ Ð·Ð°
ĠÑģÐ¾Ð±Ð° ÐºÐ°
ĠÑĥÐ»Ð¸ ÑĨÑĭ
ÑĢÐ »Ð°
Ð²ÑıÐ ·
ĠÐ»Ð° ÑģÐº
ĠÐ¿Ð° ÐºÐµÑĤ
Ñħ Ð½ÑĥÐ»
ĠÐ½Ð¾Ð² ÑĭÐ¼
¸ÑģÑ ĤÐ¾Ð²
ÑĥÐ »ÑĮÐ
ĠÐ²Ð¾ ÑģÐµÐ¼ÑĮ
ĠÑģÐ¾ÑĤÑĢÑĥÐ´Ð½ Ð
ĠÐ´Ð°Ð² Ð°Ð¹ÑĤÐµ
ĠÑģÐ¾ÑĤÑĢÑĥÐ´Ð½Ð ¸
ĠÐ¼Ð° ÑĢÐº
ĠÐ²ÐµÐ»Ð¸ ÐºÐ¾Ð»ÐµÐ¿
Ð¿ Ð»Ð¸
Ð¾Ðº Ð¾Ð»
ĠÑįÐ »
Ġ201 4
Ð¾Ðº Ðµ
ĠÐ¿Ð° Ñ
ĠÐ·Ð½Ð°Ð½ Ð
Ġ201 5
± ÑĢÐ¾Ð²
Ð¡Ð¢ ÐĲ
ĠÐºÐ°Ð½ Ð´Ð¸
ĠÐ¿ÑĢÐ¾ ÑĪÐ»Ð°
ĠÐ´Ð¾ÑģÑĤ Ð¾Ð¸Ð½
ĠÐºÐ°Ð¶Ð´ ÑĥÑİ
Ñ ĤÐºÐ°
Ġ ÑĤÐ²Ð°
ĠÐ¿ÑĢÐ°Ð² Ð´Ñĥ
ĠÐ¾Ðº Ðµ
Ð¸ÑģÑ ĤÑĢÐ¸
ĠÐ¿Ð ¸Ð»
ĠÐ¿ÑĢÐµÐ´ ÑĭÐ´
ĠÐ½Ð°Ð»Ð¸ÑĩÐ ¸Ð¸
ĠÑĩÐµ ÑĢÐµ
ðŁ¤£ðŁ¤£ ðŁ¤£
¸ Ð´ÐµÐ¸
ÐĴ Ð«
ÑĢÑĤ Ð¾Ð¼
ĠÐ¶Ð°Ð» ÐºÐ¾
ĮÐ ¸
ĠÐ²Ñ Ĭ
ĠÐ²Ð° Ðº
ĠÐ¶ÐµÐ½ Ñ
ĠÐºÐ½ Ð¾Ð¿
ĠÐ»ÑĥÑĩ ÑĪÐ¸Ñħ
ĠÐ°Ð³ ÑĢÐµÑģ
Ð ¸Ð´ÐµÐ¸
ÑĢÐ° ÑİÑĤ
ĠÐŀÑģÐ¾Ð ±ÐµÐ½Ð½Ð¾
ĠÐĲ ÑĢÐ¼
ĠÐļ Ð¾ÑĤ
ĠÑģÐµÐºÑĥÐ½ Ð´Ñĥ
ĠÐ½ÐµÐ½Ð° Ð²Ð¸ÑģÑĤ
ĠÐ»ÐµÐ ¶Ð°Ð»
ĠÐ¿Ð¾Ð´ Ñĥ
Ġ ÑıÐ±Ð
â ĿĹ
Ð´Ð ¸Ð¹
²Ð°Ð» ÑĮÐ
¶Ð¸ Ð»Ð°
² ÑĢÐ°Ñĩ
¸Ð² Ð°ÐµÑĤÑģÑı
Ġ Î
ĠÐ²ÐµÑĢÐ ½ÑĥÑĤÑĮ
ĠÐ¿ÑĥÑĤÐµ ÑĪÐµÑģÑĤÐ
Ð´ ÑĢÐ¸
ĠÐ¿Ð¾Ð»ÑĮÐ· Ñĥ
ĠÐĹ Ð°Ðº
¸ ÑĤÐµÐ»ÑĮ
ĠÐ¾Ð¿Ñ ĭ
ÑĨÐ¸Ð¾Ð½ Ð½Ð¾Ð¹
ĠÐ¾ÑģÐ²Ð¾Ð ±Ð¾Ð´
ĠÐ¾Ð³ÑĢÐ¾Ð¼ Ð½Ð¾Ðµ
ĠÑį Ð¿Ð
Ð¿ ÑĥÑĤ
ĠÐ½ÐµÐ¼Ðµ Ð´Ð»ÐµÐ½Ð½Ð¾
ĠÐ½ÑĭÐ½Ðµ ÑĪÐ
ĠÐ½Ð¾Ð³ Ñĥ
²Ð¸Ð ³
ĠÐĴ Ñģ
¸Ð»Ð¸ Ð
Ġ ÑģÑĢÐ¾ÑĩÐ½Ð¾
ĠÑģÑĩÐ¸ ÑĤÐ°Ð»
Ð·Ð° Ñħ
ÐµÑĢÐ ´
Ð ¸Ð±Ð
ĠÑĤÑĢÐ ¾Ð½
ĠÐ·Ð½Ð°Ð½Ð ¸
Ñī Ð°Ð»
âľ ¨
ĠÑģÐ¼Ð¾Ð³ Ð»Ð°
Ð ³ÐµÐ½
ÑĪ Ð°ÐµÑĤÑģÑı
ĠÐ¾ ÑĢÐ¸
ĠÐ¿Ð¾ ÑģÐ»Ñĥ
ĠÐľ Ð¾Ð½
c t
ĠÑĩÑĥÐ ²ÑģÑĤÐ²Ð¾Ð²Ð°Ð»
Ð´Ð ¸Ð²
Ð¾Ð»Ð ³
Ðł ÐµÐ
ĠÐ¿ÑĢÐ¾ÑĤÐ¸Ð ²Ð¾
ĠÑĦÐ¸Ð»ÑĮ Ð¼Ð°
ĠÑĨÐµÐ½Ñ ĤÑĢÐ°
ĠÑħÐ ²Ð¾ÑģÑĤ
ĠÐ¾Ð±ÑģÑĤÐ¾Ñı ÑĤÐµÐ»ÑĮÑģÑĤÐ²Ð°
ĠÑĥÐ²Ðµ ÑĢÐµÐ½Ð
ĠÐļ ÑĢÐµ
ĠÑĪÐ µÑģÑĤ
ĠÐ½ÐµÐ ²Ðµ
ĠÑĨ ÐµÑĢÐºÐ²Ð¸
ĠÐ¢Ð°Ðº Ð¸Ð¼
ĠÐ¾Ð´ Ð¾Ð±
Ðľ Ð¾Ð¶ÐµÑĤ
ÑĢÐ¸Ñģ ÑĤÐ¾Ð²
ĠÐ¼Ð¾Ñģ ÐºÐ¾Ð²
Ð°Ð ¶
ĠÐĳ Ð¾Ð¶Ðµ
±ÑĬ Ðµ
ĠÐ¿Ð¾Ðº Ð
Ð»ÐµÑĤÑ ĭ
ÐµÐ¹Ð ½
ÑĩÐºÐ° Ñħ
ĠÐ¶Ð´ Ñĥ
Ð¸ÐºÐ° Ð¼Ð¸
ÑĥÑģ Ð
ĠÑĢÐ°Ñģ ÑģÐµ
· Ð»Ð°
ĠÐ¿Ð¾Ð´ ÑĢÐ¾ÑģÑĤ
Ñī Ð¸Ðµ
---- ----
ĠÐ¿Ð¾ÑģÑĤÐ°Ð² Ð¸Ð»
ĠÐ¾ÑģÑĤÐ° ÑĤÑĮÑģÑı
ĠÑĥÐ´Ð° ÑĩÐ¸
ĠÐ²Ð¾ÑĢÐ ¾ÑĤ
ĠÐľÐ¸ Ñ
Ð´Ð¾Ð² Ð°Ð»
ĠÑģÐ¸ÑģÑĤÐµ Ð¼Ñĥ
.... ....
ĠÐ²Ð·Ñı Ð»Ð¸
Ġ ;
ĠÐ¾ÑĤ ÑĩÐµÑĤ
ĠÐ¿ÑĢÐµÐ´Ð ²Ð°ÑĢÐ¸
ðŁĻı ðŁĻı
ĠÐ²Ðµ Ðº
ĠÐ²ÑģÑı ÐºÐ¸Ð¹
Ð±Ðµ Ð»Ð¸
Ð¢ ÐµÐ¿ÐµÑĢÑĮ
Ð¥ Ðŀ
ĠÐľÐ° ÑĢÐ¸
ĠÐ²Ð¸ Ð´Ð¾Ð¼
ÑĢÐ¸ ÑĤÑģÑı
ĠÐ¿Ð¾ÑĢÐ ¾Ð´
ĠÐ¾ÐºÐ°Ð·ÑĭÐ ²Ð°ÐµÑĤÑģÑı
? "
Ð½Ð°Ð² Ð»Ð¸Ð
ĠÑħÐ¾ÑĢÐ¾ ÑĪÐµÐµ
ÐµÐ ²Ð¾Ð¹
ĠÐ° ÑĢÐµÐ½
ĠÑģÐ»ÑĥÑĩÐ°Ñ ıÑħ
ÐµÐ¹ÑģÑ ı
ĠÐºÐ°ÑĢÑĤ Ñ
ÐĿ Ð¸Ðº
Ð»Ð¸ ÑĩÐ½Ð¾
ĠÐºÐ°ÑĢÑĤÑ ĭ
ÑĢÐ¾Ð²Ð¸ Ñ
ĠÐ¿ÑĢÐµ Ð´ÐµÐ»Ð°
as h
Ð²Ñģ ÐºÐ¸Ð¹
ĠÐ¿ÐµÑĢÐµ ÑģÐµ
Ð ¸ÑĤÐ¾
ĠÑģÐ¼ ÑĥÑī
ĠÐ¾ÑĢÐ ´
ÑĩÐ° Ñħ
ĠÐ¸Ð³ ÑĢÐ°ÐµÑĤ
ĠÐľÐ°Ðº ÑģÐ¸Ð¼
Ġ Ð²Ð¾ÑģÑĮ
¾Ð± ÑĢÐ°Ð
ĠÐļÐ¾Ð½ ÑģÑĤÐ°Ð½
ĠÐ¿ÑĢÐ¸Ð¼Ðµ ÑĢÑĥ
ĠÐ¿ÐµÑĢÐµ Ð´Ð°
ĠÑģÐ ½Ð¸Ð·
Ð¼Ð ¸Ð³
½ e
Ð¾ÑĢÐ ½Ð¾
ĠÐ´ÑĭÑħ Ð°Ð½Ð¸Ðµ
Ð¿ÑĢÐ ¾Ð´
ĠÑģÐ»Ñĥ ÑĪÐ°ÑĤÑĮ
ĠÑĢÐµÐºÐ¾Ð¼ÐµÐ½ Ð´
ĠÑĢÐ ¾Ð»Ð¸
ĠÐ±Ð» ÑıÑĤÑĮ
ðŁĮ ¸
ĠÐ½ÐµÐ ³Ð°ÑĤ
p r
ĠÐ¿Ð¾Ð´ ÑģÐºÐ°
ĠÐ²ÑĤÐ¾ÑĢÐ ¾Ð¼
ĠÐ³Ð¾ ÑĢÐµ
ĠÐ¼Ð° ÑģÐ»Ð°
Ð¾Ðº Ð¾Ð¼
Ð¾Ð´Ð¸ Ð»Ð°
ĠÐŀ Ðĳ
Ñħ Ð¾Ð¹
ĠÑģÐº ÑĢÐ¸
ĠÐ´Ð¾ÑĢÐ¾Ð³ Ð¾Ð¹
ĠÐŁÐ¾Ñģ Ð¼Ð¾ÑĤ
ÑĪÐµ Ð½Ð¾
n a
ĠÐ½ÐµÐ ¿ÑĢÐ
ĠÐ½Ð°ÑĩÐ¸Ð½Ð° ÐµÑĤÑģÑı
ÑĤÐµ ÑĢÐ¿
ÑĢÐ¸ ÑģÐ¾Ð²
ĠÑģÑĤÑĢÐ° ÑħÐ°
ĠÑģÐºÐ°Ð ½
ĠÐ½Ð°Ð ³ÑĢÐ°Ð´
ĠÐ¾ÑĤÐ²Ðµ ÑĤÐ°
ĠÐºÐ°ÑĢÑĤ Ñĥ
ĠÐĴÑģÐµ Ð³Ð¾
ĠÐķ ÑīÑĳ
ĠÑģÐ¾Ð¿ÑĢÐ¾Ð² Ð¾Ð¶Ð´
ĠÐ¸Ð· Ð³Ð¾ÑĤÐ¾Ð²
Ġ Ð²Ð°Ð³
ĠÐ¿ÑĢÐµÐ´ ÑģÐµÐ´Ð°
ĠÐ±Ð ¾Ð´
ĠÐ¿Ð¾ÐºÐ° Ð·Ð°Ð»
ĠÐľÐ¾ÑģÐº Ð²Ð°
ÑĢÐ°Ð»Ñ Į
ĠÐ¿ÑĢÐ¾ÑĪÐ» Ð¾Ð³Ð¾
ĠÐ¿Ð¾Ð²ÐµÐ· Ð»Ð¾
ÑĪ Ð¾Ð¼
ÑħÐ ½Ð¸ÐºÐ°
ĠÐĺ Ð¼
ĠÐ¼ÐµÑĢÐ¾Ð¿ ÑĢÐ¸ÑıÑĤ
Ð°Ðµ ÑĪÑĮÑģÑı
Ð°Ð½ Ðº
ÑĩÑĤ Ð
Ð¸ÑĢÑĥÐµ ÑĤÑģÑı
ĠÐ¾ÑĢÑĥÐ ¶Ð¸Ñı
ĠÑģÐ¼Ð¾Ð³ Ð»Ð¸
Ð¸Ð²Ð ¸Ð»Ð¸
ĠÐ¾ÑĤ Ð¾ÑĢÐ
ÑĢÐ ¾ÑģÑĤÑĮ
Ñģ Ð¾Ð»Ð¸
Ð²Ð° ÑĢÑĤÐ¸
ĠÐĴÐ° ÑģÐ¸Ð»Ð¸
ÑģÐ ¾ÑĤ
ĠÐ¯Ð ½
ĠÐ¿ÑĢÐ°Ð²Ð¸ ÑĤÐµÐ»ÑĮÑģÑĤÐ²Ð°
Ð°ÐºÐ ¸
Ð¸ÑĤÐµ Ð»Ð¸
³ Ð¾ÑģÑĤÐµÐ¹
Ð ³Ñĥ
ĠÐĿ Ð¸Ð
ĠÐĿÐ¾Ð² ÑĭÐ¹
ĠÐĿ Ð°ÐºÐ¾Ð½ÐµÑĨ
ĠÐ²Ð¾ÑģÐºÑĢÐµ ÑģÐµÐ½
ĠÐ¿ÑĢÐ¾Ð¹ Ð´ÐµÑĤ
Ð»Ð¸Ð²ÑĭÐ ¼
Ð¾ÐµÐ ½
Ð»ÐµÐ½ Ð½Ð¾Ð³Ð¾
Ð ³Ð¾ÑģÑĤÐµÐ¹
Ð»ÐµÑĤÐ ½Ð¸Ð¹
Ð¾Ð² Ð°Ð»Ð¸
Ð¼ÐµÐ½ ÑĤÐ¾Ð²
ĠÑģÐº ÑĢÐ¾Ð¼
ĠÐ¾Ñģ ÑĤÐ°ÑĤ
ĠÐºÑĢÐµ Ð¿Ð¾ÑģÑĤ
ĠÑĢÐ°Ð· ÑĬ
ĠÐ²Ð¿ÐµÑĩÐ°ÑĤ Ð»ÐµÐ½Ð¸Ðµ
ĠÐºÑĢÐ°ÑģÐ¸Ð ²Ð°Ñı
ĠÐ¾ÑģÑĤÐ° Ð»Ð°ÑģÑĮ
ĠÑĥÐ ³Ð°
ĠÐĲÐ»ÐµÐº ÑģÐµÐ¹
ĠÐ° ÑĤÐ°
ĠÐ³Ð¾Ð»Ð¾Ñģ Ð°
ĠÐ±ÑĥÐ´ÑĥÑī ÐµÐ¼
i p
ĠÐĲÐ½ Ð½Ð°
Ð¾Ð½Ñ Ĥ
Ġ ÑģÐ°Ð¹
ĠÐ¶Ð¸ Ð²Ñĳ
¸Ð ²Ð¾
Ðł Ð¾Ñģ
Ð¾Ð½ Ð¾Ð¼
ÑĩÑĤÐ ¸
Ñģ ÑĩÑĳÑĤ
ÑĤÐ°Ð½ Ð¸Ð¸
Ġ Ð¿ÐµÑĢ
ĠÐ´Ð¾Ð¼ Ð¾Ð²
ĠÐ¶ÐµÐ½Ñ ĭ
Ð ²ÑĢÐ°Ñĩ
ĠÑĢÐ°Ð·Ð²Ð¸ÑĤ Ð¸Ðµ
³ Ð´Ð°
ĠÐ±Ð ¾ÑıÑĤ
Ð±Ð »Ð°
ÑĢÐ°Ð »Ð
ĠÐºÐ¾ ÑģÐ
ĠÐļÐ°Ðº Ð¸Ðµ
Ġ Ð¾Ð²Ð¾
ıÐ ·
ĠÑĤÑĢÐµÐ± ÑĥÐµÑĤ
ĠÑĥÐ¿ Ð°Ð»
ĠÐ½Ð° ÑģÑĤÐ°
ĠÐ½Ð°ÑħÐ¾Ð´ Ð¸Ð»ÑģÑı
ĠÑĥ ÑĩÐ¸ÑĤÑĭÐ
ĠÐ·Ð°Ð²Ð¸ÑģÐ¸ Ð¼Ð¾ÑģÑĤÐ¸
ĠÐ¾Ð± ÑĢÐµ
Ñģ ÑĨÐµÐ½Ð°
ĠÑĪÐ »
ĠÐĿ Ð¸ÐºÐ¸
ĠÐ´ÐµÑĤÑģÑ ĤÐ²Ðµ
ĠÐ¼Ð¸Ñģ ÑĤÐµÑĢ
Ð»Ð° Ð¼Ð¸
ĠÐ¿Ð¾Ð ¸Ð½
ĠÑĩÐµÑĤÑĭÑĢÐµ Ñħ
ĠÑĢÐ°ÑģÑģ ÑĩÐ¸ÑĤÑĭÐ
ĠÑĢÐ°Ð´ Ð¾ÑģÑĤÐ¸
Ð°Ð ²Ðµ
Ó ©
ĠÑĢÐ°Ð·Ð ½Ð¾Ð
Ð¸ÑĩÐµÑģÐº Ð¸Ð¼
ÑĩÐº Ð¾Ð¼
ĠÐº ÑĥÐº
¾Ð ±Ðµ
³ ÑĢÐ¾Ð
Ð´Ðº Ð¾Ð¹
ÐµÑĢÐ ¿
ĠÐ¿ÑĢÐµÐ´ ÑĥÑģ
ĠÑĢÐµ ÑĩÐ¸
Ð¿ Ð¾Ð»ÑĮ
¸Ð²Ð° ÑĤÑĮÑģÑı
ĠÑģÐ¾Ñģ ÑĢÐµÐ´Ð¾ÑĤÐ¾
¾Ð³Ð° Ñ
ĠÑĥÐ»ÑĭÐ±Ð ºÐ¾Ð¹
ĠÐ¸ÑģÐºÐ»Ñİ ÑĩÐ¸ÑĤÐµÐ»ÑĮÐ½Ð¾
ÑĥÐµ ÑĪÑĮ
ĠÑį Ð¿Ð¾
ÑĪÐ ½ÑĭÐ¹
Ġ Ð¸Ð´ÐµÐ¸
ub e
ĠÑģÑĤÐ° ÐºÐ°Ð½
ĠÑģÐ¾Ð³Ð»Ð° ÑģÐ½Ð¾
Ñ ıÐ´
ĠÐ¿ÑĢÐµÐ´Ð½Ð° Ð·Ð½Ð°
ĠÐ´ÐµÐ »Ð¾Ð¼
Ġ Ð³Ð¾ÑģÑĤÐµÐ¹
ĠÐ¾Ñģ ÑĥÐ
¶Ñ Į
ĠÐº Ð»Ðµ
Ġ '
ÑıÐ ·
ĠÐ¾Ð ·Ð°
½ÑĥÑĤ Ñģ
Ð¾Ð½Ñ ı
Ð°Ð»Ð¸ Ñ
Ġ ÑĤÐµÑģÑĤ
¶Ð° ÑİÑĤ
½ÑĥÑĤÑģ Ñ
ĠÐ¡ ÑĤÑĢÐ°
ÑĩÐ¸Ð½Ñ ĭ
½ÑĥÑĤÑģÑ ı
ĠÐ·Ð´ ÑĢÐ°Ð
ÐŁÑĢÐ¸Ð ²ÐµÑĤ
ĠÐ§ÐµÐ»Ð¾Ð²Ðµ Ðº
ĠÑģÐ°Ð¼Ð¾Ð» ÐµÑĤ
ÑĢÐ¸ Ðµ
ĠÐĸ ÐµÐ»Ð°
ĠÐ½Ðµ ÑĤÑĥ
ĠÐ¾Ð¿ÐµÑĢÐ° ÑĨÐ¸Ð¸
ĠÑģÐ¿ Ð°Ð»ÑĮÐ
ĠÐ¿Ð¾Ñħ Ð¾Ð¶
ĠÑĪÑ ĤÑĥ
» ÑĥÐº
· Ð´Ð°
ĠÐ§ ÐµÐ³Ð¾
ĠÐºÐ¾Ð¼Ð°Ð½ Ð´
ĠÐ·ÐµÐ¼Ð» Ñ
ĠÐ³Ð¾ÑĤÐ¾Ð² Ð
ÑĳÑ Ģ
ĠÐºÐ¾Ð» ÐµÐ½Ð¸
ĠÑģÐµ Ð»Ð°
ĠÐ±Ð¾Ð³Ð°Ñ Ĥ
ÐĴ ÑģÐµÐ¼
ĠÐ¾ÑĤÐ½Ð¾ÑģÐ¸ ÑĤÐµÐ»ÑĮÐ½Ð¾
ĠÐ´Ð¾Ðº ÑĤÐ¾ÑĢ
Ġ ÑĤÐ¾ÑĢ
ĠÐ·Ð° Ð±Ðµ
ĠÑħ Ð¾Ð´Ñĥ
ĠÑģÐº Ð¾
ĠÐ³ÑĢÑĥÐ ·
Ð¾Ð² ÑĥÑİ
Ð° ÑĨÐ¸Ð¸
ĠÐ¿ÑĢÐ¸ Ð½Ðµ
Ĥ Ð²Ð¸
ĠÑĩÐ¸Ð½ Ð¾Ð²
ÑĪ Ð°ÐµÐ¼
ĠÐ²Ð¾Ð·Ð´Ñĥ ÑħÐ°
Ð±Ð¾Ð² Ñ
ÑģÐ° Ð¼
ĠÐ·ÐµÐ¼Ð»Ñ ı
Ð¥ Ð¾ÑĢÐ¾
Ð§ Ðĺ
ĠÐ¡ Ð¾Ð³Ð»Ð°
ĠÐ¿ÑĢÐ¸ ÑģÑĤÐ°Ð
ĠÐ¿Ð¾Ð¼Ð½ Ð
ĠÐ¿ÑĢÐµÐ ±ÑĭÐ
ĠÐ·Ð½Ð°Ñ ı
ĠÐ²ÐµÑĢÐ ¾ÑıÑĤÐ½Ð¾
ĠÑģÐ¿ ÑĥÑģÑĤ
ĠÐ²Ñģ Ð¿
Ð¾Ð» Ñİ
ĠÐºÐ° ÑĩÐµÑģÑĤÐ²Ð¾
²Ð¸Ð ³Ð°
ĠÐ¿Ð¾Ð¼Ð½Ð ¸
ĠÐ°Ð½ÑĤÐ ¸
ĠÐ¿Ð¾ÑĤ ÐµÐ½
ĠÐµÑģÑĤ ÐµÑģÑĤÐ²ÐµÐ½Ð½Ð¾
ĠÐ¼Ð½Ð¾Ð³Ð¾ ÑĩÐ¸ÑģÐ»ÐµÐ½
ĠÑħÐ¾Ð·ÑıÐ ¹
ĠÐ¿Ð¾Ð¿ÑĢÐ¾Ð±Ð ¾Ð²Ð°ÑĤÑĮ
ĠÐ¼Ð¾Ð½Ð° Ñģ
ĠÐ¿Ð¾Ð²Ðµ Ð´ÐµÐ½Ð¸Ðµ
ĠÐ¼Ð¾Ð½Ð°Ñģ Ñ
ĠÐ¼Ð¾Ð½Ð°ÑģÑ Ĥ
ĠÑģÐ¾ ÑĩÐµ
ĠÐľ Ð°Ð½
Ġ2 000
» ÑĭÐ¹
ĠÐ²ÑģÐ¿Ð¾Ð¼Ð½ Ð
ĠÐ²ÑģÐ¿Ð¾Ð¼Ð½Ð ¸
ĠÐļÐ°Ñ Ĥ
Ð±Ð¾Ð²Ñ Į
ÐĴ Ð¾Ð·
ĠÐ²ÑģÐ¿Ð¾Ð¼Ð½ Ð¸Ð»
ĠÐ¿ÑĢÐµÐ´ÑģÑĤÐ°Ð ²Ð»Ñı
ĠÐ¼Ð ¾ÑĤÐ¾
ĠÐ¤ÑĢÐ°Ð½ ÑĨÐ¸Ð¸
o y
ÑĢÐ¸ ÑĨ
ĠÐ¿Ð¾Ð´ Ð±Ð¾ÑĢÐ
ĠÐ²Ñ ĸ
ĠÐ½Ðµ Ð´ÐµÐ»ÑĮ
¸ ÑĩÐµÐ¼
ĠÐ¼Ð¾Ð´ ÐµÐ»Ð¸
¸ Ð´ÑĭÐ
ĠÐ½Ð°Ð·ÑĭÐ ²Ð°ÑİÑĤ
ÑĥÑī Ð¸Ðµ
ĠÐŁ ÑĢÐµ
ĠÑĦ Ð¾Ð½Ð°
ĠÑĢÐµ ÑģÑĤÐ¾
ĠÐľÐ¸ÑħÐ°Ð ¸Ð»
ĠÐ»Ðµ ÑĤÐ°
Ġ ÑĢÐ¾Ðº
ĠÐ²ÐµÑĢÐ ¾ÑıÑĤ
ÑĥÐ »Ðµ
Ð ¸Ð´ÑĭÐ
ĠÐ°ÑĤÐ¼Ð¾Ñģ ÑĦÐµ
ÑģÑĤÐ°Ð² Ð¸Ð»
Ðł Ð«
7 6
ĠÐ¸Ð½ Ð¶Ðµ
Ð¾Ð ¿ÑĢÐ
ĠÐ¿ÑĢÐ¸Ð½ÑĨÐ¸ Ð¿Ðµ
ĠÐ±Ð»Ñ ı
ĠÐ³Ð¾ÑģÑĤ Ð¸Ð½
Ñģ Ð¼Ð¸
ĠÐ¸Ð½ÑĤÐµÑĢÐ½Ðµ ÑĤÐµ
Ðº Ð»Ð°Ñģ
ĠÐ·Ð° Ð¿Ð»Ð°ÑĤ
ĠÐĽ Ð¾Ð½
ĠÐ±ÑĥÐ¼ Ð°Ð³
ĠÐ´ÑĢÑĥÐ³ Ð¾Ð¼Ñĥ
ĠÐ½Ð°Ð¿ÑĢÐ°Ð² Ð»ÐµÐ½Ð¸Ð¸
ÑĩÐ° Ð¼
ĠÑģÐºÐ¾ÑĢÐ ¾ÑģÑĤÑĮ
ĠÐ¿ÑĢÐ¾Ð¼ ÑĭÑĪÐ»ÐµÐ½
ĠÐ¾Ð´ÐµÐ¶Ð´ Ñĥ
ĠÐ½Ð°ÑħÐ¾Ð´ ÑıÑĤÑģÑı
Ð¸Ð»Ð¸ Ð
Ð¼Ð ¾Ð³
ĠÐ¿ÑĢÐµÐ´Ð¿Ð¾Ð» Ð°Ð³
ĠÐ½ÐµÐ·Ð°Ð²Ð¸ ÑģÐ¸
ĠÐ¿Ð¾Ðº Ð¾Ð¹
ĠÐ¤ Ðµ
ĠÐºÑĢÐ°ÑģÐ ¸Ð²
ĠÐ¿Ð¾Ð´ ÑĩÐµÑĢÐº
ÐĹ Ð½Ð°
ĠÐºÐ »ÑĥÐ±Ð
ÑĢÐµÐ ²Ð°
ĠÐº ÑĢÐµÑģ
ĠÐ¿Ð¾ ÑĨÐµÐ»
ĠÑģÐºÐ »
ĠÐĵÐ»Ð°Ð²Ð ½Ð¾Ðµ
ĠÐ¿Ð¾Ð»ÑĥÑĩÐ¸ Ð»Ð°
¶ÐµÐ½ Ð½Ð¾
¸Ð ²Ð°Ñı
ĠÐ® Ð
ĠÐļÐ° ÐºÐ°Ñı
Ð»Ð°Ð½ Ð´
Ġ ÑĨÐ
ĠÐŁÐ¸ ÑĪÐ¸ÑĤÐµ
ĠÑĢÐµÐ±ÑĳÐ½ ÐºÐ°
Ð¿Ñ Ĥ
Ð¿ ÑĥÐ±Ð»Ð¸Ðº
Ñ ĤÑĭÐµ
ĠÐ¿Ñ Ģ
ĠÑģÐ¾ÑģÑĤÐ°Ð ²Ðµ
ĠÐ¿Ð¾Ð¿ÑĢÐ¾ ÑģÐ¸Ð»
Ð ¸ÑĩÐµÐ¼
ĠÐ¸Ð· Ð¼ÐµÐ½Ð¸ÑĤÑĮ
Ð ¸ÑĤÐµÐ»ÑĮ
Ð±ÐµÐ ³
ÑĢÐ¾Ð²Ð¸Ñ ĩ
ĠÐŃ Ðº
ÑĪÐµÐ½Ð¸ ÑıÑħ
ĠÐ¼ÐµÑĩ ÑĤÐ°
ĠÑĢÐµÐ³Ð ¸Ð¾Ð½Ð°
ĠÑĤÐµÑĢ ÑĢÐ¾
ĠÐ´Ð ¸Ð½Ð°
± ÑĢÐ¸Ð³Ð°
ðŁ Ĳ
Ð±Ð ¾ÑĢ
ĠÐ´ÐµÑĢÐµÐ²Ñ ĮÑı
Ñī Ð¸ÐºÐ¾Ð²
ĠÐº Ð¾Ð´
Ġ ÑĤÑĢÐµÐ
ÑĢÐ ·Ð°
Ðļ Ð
ÑĤÐµÑĢÐ¸ Ð½Ð°
ĠÐ´ÑĥÐ¼ Ð°ÐµÑĤÐµ
ĠÐ¿Ð¾Ð´ ÐµÐ»Ð¸
Ð¸ÑĤÐµ Ð»ÐµÐ¹
ĠI I
Ð°Ð¹ Ð»Ð¾Ð²
ĠÑĦ ÐµÐ´Ðµ
ĠÐ±Ð¾Ð»ÑĮ ÑĪÐ¸Ñħ
Ñģ ÑħÐµ
ĠÐ¶Ð´ Ð°Ð»
Ðķ ÐĹ
ĠÐł Ð
Ð ¸ÑĤÐµÑģÑĮ
ÑĪÐµÑģÑĤ Ð²Ð¸Ñı
ĠÐ´ÐµÐ»Ð° Ñİ
Ð¼ÐµÑ ı
ÑĭÑ Ģ
ĠÐĿÐ¸ÐºÐ¾Ð» Ð°Ð¹
ĠÐ²Ð¾Ð´Ð¸ ÑĤÐµÐ»ÑĮ
ĠÐ¡ Ð¾Ð±
ĠÐĲÐ»ÐµÐºÑģÐ°Ð½ Ð´ÑĢÐ°
ðŁĺ Ń
ĠÑģÐ¿ÑĢÐ¾ ÑģÐ¸ÑĤÑĮ
Ġ201 7
E R
ĠÐ¾ÑĤÑĩÐ° ÑıÐ½
ĠÐ¿ÐµÑĢÑģ Ð¿ÐµÐºÑĤ
ĠÐ·Ð°Ð¸Ð½ ÑĤÐµÑĢÐµÑģÐ¾Ð²
ĠÐ¯ Ð¿Ð¾Ð½
ĠÐ°Ñģ ÑģÐ¾
ĠÐ¸Ð· Ð´Ðµ
ĠÐº ÑĥÐ±Ð
ĠÐºÐ¾ÑĢÐ¾Ð» ÐµÐ²Ñģ
ĠÐ¿ÑĢÐµÐ ²Ð¾Ñģ
ĠÑĥÐ±Ðµ Ð´Ð¸
²Ñ ĮÑİ
ĠÑģÐ¼Ð¾Ð¶Ðµ ÑĤÐµ
Ð±Ð ¾ÑĤ
ÑİÑīÐ¸Ð¹ Ñģ
Ð»Ðµ ÑĨ
ĠÐľ Ð¾Ñı
ÑİÑīÐ¸Ð¹Ñģ Ñ
ÑİÑīÐ¸Ð¹ÑģÑ ı
ĠÐĴÐ¾Ð ¾Ð±ÑīÐµ
r y
ĠÐ¾ÑĦ Ð¸ÑĨÐµ
ĠÐµ Ð´Ñĥ
k a
ĠÐ²Ð¸Ð½ Ð¾Ð²Ð°ÑĤ
ĠÑģÑĥÐ¿ ÐµÑĢ
ÑĪÐµÐ½ Ð¸Ñİ
3 2
Ò ¯
Ð¼ÐµÐ»Ñ Į
ĠÑĩÐ°ÑģÑĤ ÑĮÑİ
ĠÐ·Ð° Ð¿Ð¾Ð¼Ð½
ĠÑģÐ¾Ð±Ð°Ðº Ð
ĠÑģÐ¾Ð±Ð°ÐºÐ ¸
Ġ ÑģÐ¾Ð»ÑĮ
ĠÐĵÐ° ÑĢÑĢÐ¸
Ñģ ÑĤÑĢÐ¾
ÑĤÐ¾ ÑĢÐ¸Ñı
Ñ ĤÑĢÑĥÑģ
Ðº Ð½ÑĥÐ»
·Ð½Ð°Ñ ı
ĠÐ¡Ð°Ð½ ÐºÑĤ
ĠÑģÐµ ÑĢÐ¸Ð¸
ĠÐ¥Ð¾ ÑĩÑĥ
ĠÐ¸Ð³ ÑĢÐµ
Ġ ÑģÐ¾Ð»Ð¸
ĠÐ¾ÑģÑĥÑīÐµÑģÑĤ Ð²Ð»
ĠÐ¾Ð±Ð ¾Ð¹
Ð¾Ð¹ Ñ
Ĥ ÑĢÐ°ÑĤ
ÑĢÐ ½ÑĥÑİ
± Ð°Ð³
ĠÐ²Ðµ Ð´Ð¾Ð¼
ĠÐ±Ð° Ñģ
ĠÐ¿Ðµ Ð´
ĠÐ¿Ð¸ ÑĪÑĥÑĤ
ĠÑĢÐ¸Ñģ ÑĥÐ½
Ġ ÑģÑĨÐµÐ½Ð°
ĠÐľÐ½ Ð¾Ð³Ð¸Ðµ
ĠÐŁ Ð¾ÑģÑĤ
ĠÐĿ ÐµÐ¿
Ð´ÐµÐ»Ñ ı
ÑĤÐ°Ð»Ñ ĮÑıÐ½
ĠÐ¿Ð¾Ñģ Ð°
Ð²Ð° ÑĢÐ´
Ð²Ð° ÑĤÑĮÑģÑı
ĠÑĢÐ°ÑģÐ¿ Ð¾
Ð ±ÑĢÐ¸Ð³Ð°
» ÑĭÐµ
ĠÐ¿Ðµ ÑĢÐµÐ½
ðŁ¤ ¦
Ð½ÑĥÐ »Ð¾
ĠÑģÑĤÐ¾Ð ¸Ð¼Ð¾ÑģÑĤÑĮ
Ðļ ÑĢÐ°ÑģÐ
ÐµÐ ¸
ÑĪÐ½ Ð
ÑģÐºÐ°Ñ Ĥ
ÐĶ Ð¾
·ÑĤ Ð
Ð¿ÐµÑĢÐ ²ÑĭÑħ
ĠÐ¿Ð¸ÑģÑĮ Ð¼Ð°
¸ÑĨÐ¸ Ð°
¾ÑĢÐ ¾Ð¼
ĠÑģÐ¾Ð·Ð½Ð°Ð ½Ð¸Ðµ
Ġâ ŀ
²Ñ ĥÑ
Ð¸Ð·Ð½ Ñ
Ð¿Ð¾Ð¼Ð ¸
¶Ð ½Ð¾ÑģÑĤÑĮ
ĠÐ¼Ð¾Ð½Ð°ÑģÑĤ Ñ
ĠÐ²ÐµÑī Ñ
ĠÑĤÑĥ ÑĢÐ½Ð¸
ĠÐ¿ÑĢÐ¾Ð ¶Ð¸Ð²
ĠÐ¾Ð±ÑģÑĥÐ ¶Ð´
ĠÐ²ÐµÑīÑ Į
ĠÑģÑĤÐ¾Ð» Ðµ
ĠÐ°Ð½ Ð¾Ð½
ĠÐ¾Ð´ÐµÐ¶Ð´ Ñ
·ÑĤÐ ¸
ĠÐ¾Ð´ÐµÐ¶Ð´Ñ ĭ
ĠÐ¿Ð¾Ðº ÑĢÑĭÐ
ĠÑĢÐ°Ð·Ð ½Ð¸ÑĨÐ°
ĠÐ¾ÑĤ ÑĢÐ¸ÑĨÐ°
ÐµÐ ²Ðµ
ĠÐ¿ÑĢÐ¾ ÑĪÐ»Ð¸
ĠÐ¾Ð¿ Ð»Ð°
ÑĪÐº Ð¸Ð½
Ð»Ðµ ÑĤÐ°
º Ð¾
ĠÐ±ÑĥÐ¼ Ð°Ð³Ð¸
ĠÐ¿Ð¾Ð²ÐµÑĢÐ ½ÑĥÐ»ÑģÑı
ĠÐ³Ð¾ ÑĢÑĭ
Ð²ÐµÐ ·Ð´Ð
ĠÐ¿ÑĢÐ¾ÑĤÑıÐ ½ÑĥÐ»
ÑĤÐµÑĤ Ñ
ĠÐŁ Ð¾Ð»ÑĮ
ĠÐĳÐ¾Ð» ÐµÐµ
ÑĥÐµ ÑĤÐµ
ĠÐĴ ÑĭÐ¿
ĠÐºÐ»ÑĥÐ ±
ÐµÑĤÑ Ģ
ĠÐ¿Ð»Ð°ÑĤÐ¸ÑĤ Ñ
ÑģÐ° Ð¼Ð¸
ĠÐ¿Ð»Ð°ÑĤÐ¸ÑĤÑ Į
ĠÑĩÐ¸Ñģ Ð»Ð°
Ð²ÑĭÐ ¹
ĠÐ¿ÑĢÐ¸Ð ²ÐµÐ·
ĠÐ´ÐµÑĤÑģÑ ĤÐ²Ð°
Ġ Ð²Ð°Ð½
Ġ Ð²ÑĢÐ°Ñĩ
Ð¿ Ð¿
ÐµÑĢÐº Ð
iv e
ĠÐ´Ñĥ Ñħ
Ġ19 5
ĠÑģÐ° Ð´
ĠÐ¾ÐºÐ¾Ð½ÑĩÐ° ÑĤÐµÐ»ÑĮÐ½Ð¾
Ðŀ ÐĿ
ÑĨÐ¸ Ð½Ð°
ĠÐ²Ð¾Ð¹ ÑģÐº
ĠÐĹÐ°Ð ²Ñ
ĠÐ¿ÐµÑĢÐ ²Ð¾Ð
ÐµÐ³ Ð¾ÑģÑı
ĠÐ´Ð ²Ð¾Ð¹
ĠÐ½Ð° ÑĢÑĥÐ
ĠÐºÐ¾Ð» Ð»ÐµÐ³
Ñī Ð¸Ð»
ĠÑĢÐ°Ð·Ð³ Ð¾Ð²Ð°ÑĢÐ¸
Ð¸Ð½ ÐºÐ°
Ð¾Ð»Ð¾Ð³Ð¸ Ñ
ĠÐ¿ÑĢÐ¸ ÑĪÐ»Ð¾
ÑĤÐ° ÑĨÐ¸Ñı
ĠÑĢÐ°Ð· Ð»Ð¸
ĠÐ´ÑĥÐ¼ Ð°ÐµÑĤ
ĠÑĢÐ¾Ñģ ÑĤÐ°
ĠÐľ ÐµÑģ
ĠÐ·Ð´ Ð°Ð½Ð¸Ñı
ĠÐ°Ðº ÑĨÐ¸Ð¸
ÐµÐ¹ Ñ
. -
ĠÐ½Ð¸Ðº ÑĥÐ´Ð°
Ð¿ ÑĥÐ³
ĠÐ¡ Ð¿Ðµ
ĠÐ¿ÑĢÐ¾ÑģÑĤ Ð¾Ð¹
Ð²Ð¸ Ð´Ð¸
ĠÐ½ÑĥÐ ¶Ð´
ÑħÐ ¸ÑĤÐµ
ĠÐ° Ð´ÐµÐºÐ²Ð°ÑĤ
ÑħÐ°Ñ Ģ
ĠÑĤÐµ Ð¼Ð°
ĠÑģÑĤÑĢÐ°Ð½ Ñĥ
ĠÐºÑĢÐµÐ¿ ÐºÐ¾
ĠÑĥÐ ²Ð»Ðµ
Ñģ ÑĥÑĤÑĮ
Ð´Ð ¾Ñģ
ĠÐ¶Ð´ ÑĥÑĤ
as s
Ð¢ Ð«
Ð¾Ð ¶Ñĥ
ÑĢÑı Ð¼
Ð¾Ð»Ð¾Ð³Ð¸Ñ ı
ÑģÐ¿Ð ¸
3 1
ĠÑģÐ»ÐµÐ ·Ñĭ
ĠÑĥÑģÐ¿Ð¾Ðº Ð¾Ð
ĠÐ»Ðµ ÑĤÐ¾
ĠÑģÐ¸Ð¼Ð ¿Ð°ÑĤ
ĠÑģÐµÑģÑĤ ÑĢÐ°
ĠÑģÐ½ ÑıÑĤÑĮ
ÐµÑĤÐ¸ Ñ
ĠÑĢÐ¾Ð ·Ð¾Ð²
ĠÐ¿ÑĢÐ¸ ÐºÑĢÑĭÐ
ÐµÐ½Ñ ĤÑĥ
ÐľÐ ¸
ĩ ÑĥÑĤ
ĠÐĶÐ°Ð² Ð°Ð¹ÑĤÐµ
ÑģÐµÐ ³Ð´Ð°
ĠÐŁÐµÑĢÐ ²ÑĭÐ¹
Ð¾Ð´Ð¸ ÑĤÑģÑı
Ð¸Ð½Ð°Ð½Ð¸ Ñ
Ð¸Ð½Ð°Ð½Ð¸Ñ ı
ĠÑģÐ²Ð° Ð´
ĠÐ° ÐºÐ°Ð´Ðµ
» Ð¾Ð³Ð¸
ĠÐķ Ð´Ð¸Ð½
ĠÐ¼Ð¾Ð±Ð ¸Ð»ÑĮÐ
ĠÐ´ Ð°Ð½Ð½ÑĭÑħ
Ð°Ð»Ñ ĭÑĪ
ÑĭÐ ²Ð°Ñı
ĠÐ±Ð¾Ð»ÐµÐ·Ð½ Ð
ĠÐ±Ð¾Ð»ÐµÐ·Ð½Ð ¸
Ð»Ð¸Ð²ÑĭÐ ¹
ĠÐºÐ¾Ð» Ð»ÐµÐº
ĠÐľ Ðĺ
ĠÐ½Ð°Ð±Ð ¾ÑĢ
ÑĢÑĳ Ñħ
ĠÑģÐ»ÐµÐ´ Ð¾Ð²Ð°
ĠÑģÐ¾Ð¾Ð±Ñī ÐµÐ½Ð¸Ðµ
ĠÐºÑĥÐ¿ Ð¸Ð»
ĠÐ¾ÑĩÐµÐ²Ð¸ Ð´Ð½Ð¾
ĠÐ¿ÐµÑĢÐµ ÑħÐ¾Ð´
ÑĨÐ¸Ð¾Ð½ Ð½ÑĭÑħ
ºÐ°Ð ½
ĠÑģÐ ½Ðµ
Ð»ÐµÐ¹ÑĤÐµ Ð½Ð°Ð½
Ġ ÑģÑĩÑĳÑĤ
Ð ½Ð¸Ð¹
Ġ j
ĠÐ±Ð ¾ÑĢÐ¾Ð´
ĠÐºÐ° Ð¼Ð
ĠÐ° ÑĢÐ³
ĠÐ½Ð° Ð²Ðµ
ĠÐĶ Ð²Ð°
ĠÐ¿ÑĢÐ¾Ð¸Ð·Ð²Ð¾Ð´ ÑģÑĤÐ²Ð°
ĠÐºÐ° Ñ
Ð¨ Ðĺ
ĠÑģÐ»Ð° Ð±Ð
Ð¸Ð½ ÑĥÐ»
ĠÐ¿ÑĢÐ¸ ÐµÐ¼Ð
ĠÐ¼Ðµ Ð»Ð¾
ĠÐ¾ÑģÑĤÐ°Ð ²Ð¸Ð»
ĠÐ¸Ð½ ÑģÑĤÑĢÑĥÐº
ĠÑĢÐ°ÑģÑģ Ð¼Ð°ÑĤÑĢÐ¸
Ð´ Ð°Ð½Ð¸Ð¸
f or
ĠÐ·Ð½Ð°Ð½Ð¸ Ñ
Ð½Ð¾Ð² ÐµÐ½Ð¸Ñı
ĠÐ·Ð½Ð°Ð½Ð¸Ñ ı
Ĥ Ð¸Ð¼Ð
Â» ?
ĠÐºÐ¾ÑĢÐ°Ð±Ð»Ñ Į
½Ð¸Ð¼Ð° ÑİÑĤ
ĠÐºÐ¾Ð¼Ð°Ð½ Ð´Ñĥ
ĠÑģÐ¼Ð¾Ð³ ÑĥÑĤ
ĠÑĦÐ°Ð½ ÑĤÐ°Ð
³ÑĥÐ »Ð¸
Ð¾Ð ±Ð°
ÑĪÐ½Ð ¸
ĠÑĥÑģ ÑĤÐ°Ð²
Ð° Ð´Ð°
ĠÑĥ ÑĪÐ¸
ÑĢÐ° ÑİÑĤÑģÑı
ĠÐ½Ð°Ð´Ð ¿
ĠÐ²Ð¸ Ð½Ð°
ĠÐ·Ð°Ð±ÑĭÑĤ Ñ
Ñģ ÑģÐ¾
ÑģÐ µÑģ
Ð¾ÐºÐ ¸
ĠÐ¿ÑĢÐ¾ÑĤÐ¸Ð²Ð¾Ð¿ Ð¾Ð»Ð¾Ð¶Ð
ÐĶ Ð£
Ġ ÑģÑħÐµ
ĠÐ¿ÑĢÐµ Ð¼
ĠÐ²Ñģ Ð¿Ð¾Ð¼Ð¸Ð½Ð°
ÑĢÐ° ÑĤÐ°
³ ÑĢÑĭ
Ð´Ðº Ð¾
ĠÑĢÐ°ÑģÐ¿Ð¾ ÑĢÑıÐ
ĠÐ¼Ñı ÑģÐ¾
ĠÐ´Ð¾Ð³ Ð¾Ð²
ÑĢÐ ½Ð¾ÑģÑĤÑĮ
ĠÐ»Ð°Ð¹ Ðº
ĠÑģÐ¾ÑģÑĤ Ð¾Ð¸ÑĤ
Ġ Ð±ÑĢÐ¸Ð³Ð°
ÑĢÐµÐ ¶Ð´ÐµÐ½Ð¸Ñı
· Ð´Ðµ
ĠÐ¿Ð¾Ð´ ÑħÐ¾Ð´
ĠÑĩÑĥÐ´ Ðµ
ĠÑĪÐµ Ñİ
ĠÐ¿Ð¾Ñģ ÑĤÐ°Ð½Ð¾Ð²
ÐµÑ ıÐ
Ð ¸ÑĦ
ÐĿÐĺ Ð¯
Ð²Ð ¸Ñģ
ĠÐµÐ´Ð¸Ð½ ÑģÑĤÐ²ÐµÐ½Ð½ÑĭÐ¹
ĠÐ¾ÑĤÐºÑĢÑĭÑĤÑ Į
Ð¾Ð¶Ðµ Ð½Ð¾
ĠÐ±Ðµ Ð´
ĠÑģÐ¾Ð·Ð´ Ð°Ð½Ð¸Ñı
ĠÐº Ð¾Ðº
ĠÐ¾Ð¿Ñ ĭÑĤÐ°
ĠÐ¾ÑģÐ ½Ð¾Ð²Ð°
³ ÑĢÐ¾
ÑĥÑİÑī Ð¸Ð¹
o Ð¼
Ĥ ÑĢÐµÐ²
ÑįÐ»Ñ Į
Ġ201 8
ÑĪ ÑĤÐ°
ĠÐ¿ÑĢÐµ Ð´Ñ
ĠÑģÐ¾Ð³Ð»Ð° ÑģÐµÐ½
ÑıÑĤÑ ĭ
cÑ ı
Ð¢ Ð°Ð¼
ĠÑĩÐµÐ »
ĠÑģÐ¾Ð±ÐµÑģÐµ Ð´Ð
Ñī Ð°ÐµÑĤÑģÑı
¸Ð½ Ð
ĠÐ±Ð°Ñ Ģ
Ð´Ðµ ÑĤÐµ
Ð ½ÑĳÐ¼
ĠÑģÑĤÐ¾Ð» Ð¾Ð¼
ĠÐ¼Ðµ Ð½Ðµ
ÑĢÐ¸ ÐµÐ¹
ÑģÐ ¸ÑģÑĤ
Ð¡Ð¢ Ðŀ
Ð¾Ð¹Ñ Ĥ
ĠÑĢÐµÐ·ÑĥÐ»ÑĮ ÑĤÐ°ÑĤÑĭ
ĠÐ¿Ð¾Ð½Ð¸Ð¼ Ð°ÐµÑĤ
ĠÐ²ÑĭÐ¿ ÑĥÑģÐº
ĠÐ¾ÑĤÐ²ÐµÑĤÑģÑĤÐ²ÐµÐ½Ð ½Ð¾ÑģÑĤÑĮ
ĠÐ¸Ð¼Ð ¿
ĠÐĲÐ ³Ð°
ĠÑģÑĥÐ´ ÑĮÐ±Ð°
ĠÐĲ Ð½Ð°
ĠÐ¿ÑĢÐµ Ð¾Ð´Ð¾Ð»
ÑĥÑī ÐµÐ³Ð¾
ÐŀÐ ±
ĠÐºÐ° Ð´
ĠÐ¼Ð¸ ÑĢÑĥ
ĠÐ¿ÑĢÐµÐ´ÑģÑĤÐ°Ð ²Ð»ÑıÐµÑĤ
ÑĢÐ¸ ÑĪÑĮ
ÑĪ Ð½Ð°Ñı
ĠÑģÐº Ð»Ð°
ÑīÐ¸ Ð½Ðµ
ÑĩÐ¸Ð² Ð°ÐµÑĤ
ĠÑģÑĥÑĤ Ð¾Ðº
ĠÐ»ÑİÐ± ÑĥÑİ
ĠÐ¿ÑĢÐµ Ð´Ð°
ÑĭÐ »Ð¾
ĠÐ¾ÑģÑĤÐ°Ð»ÑĮÐ ½Ð¾Ðµ
² ÑĢÑĥ
Ðĳ Ðµ
ÐķÐĿ Ð¬
ĠÐ¿Ð¾Ð» Ð¾ÑĤ
Ñ ĤÑĢÐµÐ²
ĠÑĢÐµÐ³ Ð¸ÑģÑĤÑĢÐ°
ĠÐ¿Ð¾Ð» Ð°
ĠÐ·Ð°ÑīÐ¸ÑĤ Ñ
ĠÑĤÐ¾ÑĢÐ ¼
ĠÐºÑĢÑĥÑ ĤÐ¾
ĠÐ´ Ð°Ð½Ð½Ð¾Ð¼
ĠÐ¿ÑĢÐ¾Ð±Ð ¾ÑĢÐ¼Ð¾
ĠÐ·Ð°ÑīÐ¸ÑĤÑ ĭ
Ðµ Ð´Ð¸
ĠÐ²ÐµÑĢ Ñİ
ĠÑģÑĩÐ°ÑģÑĤ Ð»Ð¸
Ð¾Ð·Ð´ÑĢÐ°Ð ²Ð»ÑıÑİ
» ÑĳÐ³
ĠÑģÑĥÐ´Ñ ı
Ġ ÑģÑĥÑĤÑĮ
4 6
Ġ4 00
¶ Ð°ÐµÑĤÑģÑı
± ÑĢÐµÐ´
ĠÑĢÐ¾Ð² Ð½Ð¾
ÑĭÐ» Ñ
ÑĪÑĥÑİ Ñģ
ĠÐ¿Ð¾Ð¿Ñĭ ÑĤÐ°Ð»ÑģÑı
ÑĪÑĥÑİÑģ Ñ
ĠÐ½Ð° ÑĢÐµ
Ĥ ÐµÐ½Ð¸
Ð¸Ð½Ñ Į
ÑĪÑĥÑİÑģÑ ı
ĠÐ²Ð¸ Ð´Ð°
ĠÐ²Ð»Ð° Ð´ÐµÐ»ÑĮ
ĠÑħ Ð¸Ð¼Ð¸
ÑĢÐ¾Ð ½Ð°
ĠÐ²Ð¾Ð¹ Ð½Ñĥ
ĠÐ²ÑĭÐ ·Ð¾Ð²
ÑĢÐµÐ ¸
ĠÐ° ÑĥÐ´Ð¸
ĠÐ·Ð° ÑĢÐ°Ð±Ð¾ÑĤ
Ñ ĤÐµÐ½Ð¸
ĠÐ´Ð¾Ñģ ÑĤÐ°Ð»
ĠÐłÐ¾Ñģ ÑģÐ¸Ñİ
ĠÐ¿Ð¾ÑĢÐ ¾
ĠÑĪ ÑĤÐ°Ð
½ Ðº
ĠÐŁ Ð¾Ðº
Ðĳ Ð¾Ð»ÑĮ
ĠÐ¿Ð° ÑĤÑĢÐ¸
ĠÐ¾ÑĤÐº Ð»Ñİ
Ð ²ÑĢÑĥ
ĠÐ²Ð¾Ñģ ÑħÐ¸
ĠÐ¡ÐµÐ ²ÐµÑĢÐ
ĠÑģÐ¾ÑģÑĤÐ°Ð ²Ð»ÑıÐµÑĤ
ĠÐ½ÐµÐ´Ð¾Ñģ ÑĤÐ°ÑĤ
ĠÑĢÐµ Ð¿Ð¾ÑģÑĤ
ĠÐ»ÑİÐ±Ð ¾Ðµ
ĠÐºÐ¾Ð¼ÑĦ Ð¾ÑĢÑĤ
ĠÐ¶ ÑĥÑĤ
· a
Ĥ ÑĥÑĨ
ĠÑĢÐ°ÑģÐº ÑĢÑĭÐ
Ð»Ð¸ ÐºÑĤ
ĠÐ²Ð¾Ð¹ Ð½Ðµ
ÑĩÐµÐ½ ÐºÐ¾
Ñ ĤÑĥÑĨ
ÐŁ Ð¾ÐºÐ°
ÑħÐ »Ð¾Ð¿
ĠÐº ÑĢÐ°ÑĤ
ĠÐľÐ¾ÑģÐº Ð²Ñĥ
Ð¼Ð°ÑĤ Ñ
ĠÐĿ ÑĮÑİ
Ġ Ð¸ÑģÑ
ĠÑĤÐµ ÐºÑģ
ĠÐ¿ÑĢÐµÐ´Ð¿ ÑĢÐ¸Ð
ĠÐ·Ð°Ð ³Ð¾Ð²Ð¾
ÑĥÐµ Ð
ĠÐ½Ð°Ñħ ÑĥÐ¹
ĠÐ¾ÑĤ ÑĤÐµÐ½
ĠÐ»ÑİÐ±Ð ¸ÑĤÐµ
p e
ĠÑĩÑĥÐ²ÑģÑĤ Ð²ÑĥÑİ
ÑĩÐ¸Ðº Ð¾Ð¼
ĠÐ´Ð¾ÑĩÐµ ÑĢÐ¸
ĠÐ¼Ð¾Ð º
Ġ Ð½ÑĳÐ¼
Ð¡Ð¢ Ð¬
g e
ĠÐ¼ÐµÐ½Ñ Į
ĠÑģÑĥÐ¼ Ð¼Ñĥ
ĠÐ¼ÐµÑħ Ð°Ð½Ð¸Ð·
Ġ Ð»ÑĮÐ
ÑģÐ¿ Ð¾ÑĢÑĤÐ°
ĠÐ¿Ð ¸Ðº
ĠÐ·Ð°Ð¼ ÑĥÐ¶
ĠÐºÐ¾ÑĢ ÑĢÐµ
t h
ĠÐ±Ð¾ ÑİÑģÑĮ
ĠÑģÐ¾ ÑĢÐµÐ²Ð
ĠÐ±ÐµÑģÐ¿ Ð¾ÐºÐ¾Ð¹
Ð ²Ð»Ðµ
² Ð¸Ðº
Ġ ÑĩÑĥ
ĠÑģÐ¾ÑĤÐ½ Ð
ĠÑģÐ¾ÑĤÐ½Ð ¸
Ð·Ð° Ð´Ð¸
Ð´Ð¾ ÑħÐ½ÑĥÑĤÑĮ
ÐĴ Ðķ
ÑĭÐ ²Ð°Ð»
ĠÐ¸Ð½ÑĤÐµ Ð»Ð»Ðµ
Ð´Ð½ Ñ
ĠÐ»Ð¸ ÑĩÐ½Ð¾ÑģÑĤÐ¸
ĠÐºÑĢÐ°ÑģÐ¸Ð ²ÑĭÐµ
ĠÐ¸ÑģÑģÐ»ÐµÐ´Ð¾Ð² Ð°Ð½Ð¸Ñı
ĠÐ¿ÑĢÐ¸ÑĢÐ¾Ð´ Ñ
Ġ ÑĤÑĢÐµÐ²
Ð°Ð½ Ñĥ
ĠÐ¿ÑĢÐ¸ÑĢÐ¾Ð´Ñ ĭ
ĠÐķÐ²ÑĢÐ¾Ð¿ Ñ
ĠÐ¿Ð¾ÑģÐ»ÐµÐ´Ð ½Ð¸Ñħ
ĠÐ¿Ð¾Ð´Ð¾Ð· ÑĢÐµÐ
ÑĤÐ¾ÑĢÐ ¾Ð¼
ĠÐºÐ° Ð¼ÐµÐ½ÑĮ
ĠÐĽ Ð¾
ĠÑĦ Ð¾Ð½Ðµ
ÑĮÐµ Ð³Ð¾
ĠÐķÐ²ÑĢÐ¾Ð¿Ñ ĭ
ĠÑģÐµÐºÑģ ÑĥÐ°Ð»ÑĮÐ
ĠÐ½ÐµÐ¿ ÑĢÐ¸ÑıÑĤ
ĠÐ¿Ð¾ÑĤ ÑĢÐµÐ±Ð¾Ð²
ĠÐ¿Ð¾Ð½ÐµÐ´ÐµÐ»ÑĮÐ ½Ð¸Ðº
ĠÐ¿ÑĢÐ¸ ÑĩÐ¸Ð½Ðµ
ĠÐ±Ð ¾ÑĤ
ĠÐ½ÐµÐ¿ Ð¾Ð´
ĠÐ°Ð²ÑĤÐ¾ ÑĢÐ°
ĠÐĹÐ° ÑĤÐ¾
ĠÐ²ÑģÐ¿Ð¾Ð¼Ð½Ð¸ Ñ
ĠÐ²ÑģÐ¿Ð¾Ð¼Ð½Ð¸Ñ Ĥ
ĠÐ¿Ð¾Ð¼Ð¾Ð³ Ð°
Ð°Ð¶Ðµ ÑĤÑģÑı
ĠÐ²Ðµ ÑĩÐ½Ð¾
ĠÐ´Ð ²Ð¸Ð½
Ð»Ð »Ð
ĠÐŁ Ð¾Ð¹
ĠÐ¾Ð± ÑĥÐ
Ð¿ÑĥÑģÑĤ Ñ
Ð¸Ð·Ð½Ñ Į
ĠÐ¼Ð¾Ð»Ð¾Ð´ ÐµÑĨ
ĠÐ°Ñ ĢÑħ
ĠÐĸ Ð
ĠÐ¶Ð¸ Ð²Ñĥ
ĠÐ¿Ð° ÑĢÐ½Ð¸
² Ð¾Ð»Ð¸
ĠÐ¾ÑĤÐ»Ð¸ ÑĩÐ°
Ġ Ð²ÑĢÑĥ
ĠÐ° Ñħ
ĠÐ¸ÑģÐ¿ ÑĢÐ°Ð
ĠÐ¢ ÐµÐ
½ ÑĢÐ°Ð²
ĠÑģÑĤÑĢÐ° ÑĤÐµÐ³
ĠÑĥÑģÐ¼ÐµÑħ Ð½ÑĥÐ»ÑģÑı
ĠÑĥÐ»ÑĭÐ ±
ĠÑģÐ²Ðµ ÑĢÐ
ĠÐºÐ¾ÑĢÐ¿ ÑĥÑģ
ĠÐ¶Ð¸ÑĤÐµ Ð»Ð¸
ÑĢÐµÐ ¶
ĠÐĲ Ð¼ÐµÑĢÐ¸
ĠÐŀ Ð±Ñĭ
Ð¿ÑĢÐµ Ñģ
Ð ²ÐµÐ»
ĠÑģÑĤÐ°Ð½ Ð´Ð°
ĠÐ¼Ð°Ð³Ð°Ð· Ð¸Ð½Ðµ
ĠÐ²ÑĭÐº Ð»Ð°Ð´ÑĭÐ
Ð ±ÑĢÐµÐ´
ÑĢÐ°Ð²Ð¸ Ð»Ð°ÑģÑĮ
Ðµ ÑĪÑĮÑģÑı
ÑĢÐ¾Ð² Ð¾Ð¹
ÑĪÐ½ Ñ
ĠÐ³ÑĢÑĥÐ ·Ð¾Ð²
ĠÐ·Ð°Ð±ÑĭÑĤÑ Į
ĠÑĤÑīÐ° ÑĤÐµÐ»ÑĮÐ½Ð¾
Ð ½e
ÑģÐ° Ñħ
ĠÐĲÐ½Ð´ ÑĢÐµ
ĠÐ»Ðµ Ð´
Ð²Ñģ ÐºÐ¾Ð³Ð¾
ĠÐ²ÑĭÐ¹ Ð´ÐµÑĤ
Ð »ÑĥÐº
ĠÐ¡Ð »
ĠÑĤÐµÑħ Ð½Ð¸ÐºÐ¸
ÑĢÐµÑģ Ñģ
ĠÐ¼Ð°Ð»ÐµÐ½ÑĮ ÐºÐ°Ñı
ĠÐ»ÑĥÑĩ ÑĪÐ¸Ðµ
ĠÐ·Ð½Ð°ÑĩÐ¸ ÑĤÐµÐ»ÑĮÐ½Ð¾
ĠÑĥ ÑĢÐ¾Ð´
Ð ³ÑĥÑģ
Ð¾Ð²Ð°Ñ Ģ
ĠÐºÑĢÐ°Ñģ Ð°Ð²Ð¸
ĠÐĴ ÑĢÐµÐ¼Ñı
Ð¾ÑĢÐ¾Ð³ Ð¸Ðµ
Ð´ ÑĢÐ°ÑĤ
Ñģ ÑįÑĢ
ĠÐ¿Ð¾Ð»Ñĥ ÑĩÐ°ÑĤÑĮ
ÑģÐµÐ ½Ð¸Ðµ
ĠÐºÑĥ ÑħÐ½
ĠÐ±ÐµÑĢÐµÐ ³
Ð¼Ð¾Ðµ Ð¼Ñĥ
ĠÐ°ÐºÑĤ Ð¸Ð²
Ġ ÑĤÑĢÐ¾Ðµ
Ð¾Ð³ Ð¾Ð²
ĠÐ³Ð¾Ð²Ð¾ÑĢÐ¸ ÑĪÑĮ
ÐŁ ÐµÑĤÐµÑĢÐ±ÑĥÑĢÐ³
ÑĢÐº Ð¾Ð²
ĠÑįÑĤÐ°Ð ¶
ĠÑģÐ¸ Ð´ÐµÐ»Ð°
ĠÐºÐ¾Ð½Ñ Ĥ
ĠÐ±ÑĭÐ ²Ð°ÑİÑĤ
ĠÑģÐ¾ÑģÑĤ Ð¾Ð¸ÑĤÑģÑı
Ð¸Ð¼ Ñ
ĠÐ¿ÑĢÐ¸Ðº Ð»Ñİ
ĠÐ»Ð¸ÑĨ Ñĥ
ĠÐºÐ¸Ð²Ð ½ÑĥÐ»Ð°
ĠÐ´Ð ²Ð¾ÑĢ
Ñģ ÑģÐµ
ĠÐ½Ð° Ð±Ðµ
ĠÐ´ÑĢÑĥÐ·ÑĮÑı Ð¼Ð¸
ĠÐ°ÑĢÐ¾Ð¼Ð° Ñ
ĠÐ°ÑĢÐ¾Ð¼Ð°Ñ Ĥ
s s
³ Ð¸Ð¿
9 3
²Ð» ÑıÐ»ÑģÑı
ĠÑĢÑĥÑģ ÑģÐºÐ¸Ðµ
ĠÑģÑĤÑĢÐ° Ð½Ð°
Ð½Ð° Ð´ÑĨÐ°ÑĤÐ¸
Ġ Ð¿ÑĥÐ±Ð»Ð¸Ðº
, ,
ĠÐ½ÐµÐ ¶Ðµ
ĠÐ¾ÑģÑĤÐ°Ð ²Ð°Ð»Ð¾ÑģÑĮ
ĠÐºÐ¾Ð¼Ð¼ÐµÐ½ÑĤÐ° ÑĢÐ¸Ð¸
ĠÑĩÐ¸ ÑĤÐ°Ð»
ĠÐ¿ÑĢÐ°Ð² Ð¾Ñģ
ĠÑģÑĤÑĢÐ ¾Ð³Ð¾
ĠÐ²Ð· Ð´
½Ð¾ÑģÑĤÑ ıÑħ
ÑĥÐ ·Ð°
Ð°Ð² ÑĪÐ¸Ðµ
ÑĩÑĳ Ð¼
ĠÑģÑĤÐ°Ð½ ÑĨÐ¸Ð¸
ĠÐ¸Ñģ ÑĩÐµ
ĠÑģÑĤÐ°Ð ²Ð¸ÑĤÑĮ
ĠÐ¿Ð¾ÑĢÐ ¾Ð³
ĠÐļ Ðµ
ĠÐ¿Ð°Ð»ÑĮ ÑĨÐ°Ð¼Ð¸
ĮÐµÐ ²
Ð ³ÑĢÐ¾
ĠÐĴ Ð°Ð»Ðµ
ĠÐ³Ð¾Ð²Ð¾ÑĢÐ¸ ÑĤÐµ
ÑĪÐ°Ñ ıÑģÑı
Ð¾Ð¿ Ð
Ð¸Ð² Ð°ÐµÑĤÑģÑı
ĠÐ¾ÑĤ Ð´ÐµÐ»
ĠÐĶÐµ Ð»Ð¾
Ð°Ð½ Ð¾Ð¼
ĠÑĢÑĥÑģ ÑģÐºÐ¾Ð³Ð¾
ĠÐ¿ÑĢÐ¾Ð² ÐµÑĢÐ
Ð²ÑĥÑ ı
Ñ ıÐµÐ¼
ĠÑĩÐµÑĢÐ ½ÑĭÐ¹
ĠÑĪÐ¸ ÐºÐ°
Ð ³ÑĥÑģÑĤ
ĠÐ¿Ð¾Ð²ÐµÑĢÑħÐ ½Ð¾ÑģÑĤÐ¸
ĠÐ¾Ð±Ð»Ð°ÑģÑĤ Ñ
ĠÐ¿ÑĢÐ¾Ð² Ð¾Ð´Ð¸ÑĤÑĮ
ĠÑģÐ´Ðµ Ð»Ð°Ð½
ĠÐ¿ÑĢÐµÐ¸Ð¼ ÑĥÑīÐµÑģÑĤ
Ð°Ð¿ Ð°
ĠÐ¿ÑĢÐ¾ÑĨ ÐµÐ½ÑĤÐ¾Ð²
ĠÐĴÑģ Ñ
ĠÐ¸ÑģÑĤÐ¾ ÑĩÐ½Ð¸Ðº
ĠÐ¾Ð±Ð»Ð°ÑģÑĤÑ Į
ĠÑįÐº Ð·Ð°
ĠÐ½ÐµÐ½Ð° Ð²Ð¸
ĠÐ¾ÑĤ ÑĢÑĭÐ
ÑĤÐµÐ»ÑĮÑģÑ ĤÐ²Ñĥ
ĠÐ¦ Ð°
¸ Ð¼ÐµÐ
ĠÑĥ ÑĪÐ»Ð°
Ð ±Ð°Ð³
ĠÐ¿Ð¾Ð½ÑĢÐ°Ð² Ð¸Ð»Ð¾ÑģÑĮ
ÐµÐ½ Ð¾Ð¼
ĠÐ¼Ð°Ð»ÑĮ ÑĩÐ¸ÐºÐ°
ĠÑģÐ»Ð¾Ð² Ð¾Ð¼
ĠÐķ Ð²Ð³
ĠÐ´Ð½ ÑĳÐ¼
ĠÐļÑĢÐ°ÑģÐ ½
ĠÐºÐ ²
ĠÐºÐ½Ð¸Ð ³Ðµ
Ġ ÑĤÐ¸Ð¿
ĠÑģÐ¾ÑĤÑĢÑĥÐ´ Ð½Ð¸ÐºÐ¾Ð²
ĠÐ¿Ð¾Ñģ Ð¾Ð²ÐµÑĤ
i o
Ð§ Ðķ
ÐµÐ »Ð¾Ð²
Ġ ÑĤÑĢÑĥÑģ
Ġ ÑĤÑĥÐ
ĠÐ¼ÑĥÐ·ÑĭÐ ºÑĥ
Ġ ÑģÑįÑĢ
ÑĢÑģÑĤ Ð
id e
Ð¾ ÑĩÐºÑĥ
ĠÐ¿Ð¾Ñħ Ð¾Ð¶Ð
ĠÐ²Ñĭ ÑĤÑıÐ
ĠÐ¿ÑĢÐ¾Ð²Ðµ Ð´ÐµÐ½Ð¸Ñı
ÑĭÑĪ Ð°Ð»Ð¸
ĠÐ¼Ð¾Ð»Ð¾Ð´ ÑĭÑħ
Ð ³ÑĢÐ¾Ð
¶Ð´Ð° ÑİÑĤ
ĠÐºÐ¾Ð½Ñģ ÑĥÐ»ÑĮ
ÑĩÐ°ÑģÑĤ Ð
ĠÐ½Ðµ Ð¾Ð
²Ñ Į
ĠÑģÐ¿ ÑĢÐ°Ð²
ĠÑĢÐ¾Ð´ Ð¸Ð»ÑģÑı
ĠÐ·Ð´Ð¾ÑĢÐ¾Ð² Ð¾
ÑĢÐµÐ½ Ð½Ð¾
ĠÐºÑĥ ÑĢÑĤ
ĠÑĪÐ° Ñħ
ĠÐ½Ð°ÑĩÐ¸Ð½Ð° ÑİÑĤ
ĠÑĨÐ²ÐµÑĤ Ð¾Ð²
ĠÐ½Ð° Ð±Ð¸
ĠÐ¿Ð¾ÑĢÐ ¾Ð¹
ĠÐĺ ÑĤÐ°Ðº
ĠÐĶÐ¼Ð¸ÑĤ ÑĢÐ¸Ð¹
ÐĽ Ð£
Ġ Ð³ÑĥÑģÑĤ
ÑģÐºÐ°ÑĤ Ñ
Ð´ Ð°Ð¹
n y
8 5
ĠÐĸ Ðµ
ĠÐ²ÑĭÐ ±ÑĢÐ°ÑĤÑĮ
ĠÐ½Ð¾Ð¼ ÐµÑĢÐ°
ĠÑĥÑģÐ¿Ðµ Ð»Ð°
ĠÐ¿Ð¾ÑģÐ»ÐµÐ´Ð ½ÐµÐ³Ð¾
ĠÐ²Ð¸Ð· Ð
ĠðŁĻ ı
ĠÐ¿ÑĭÑĤÐ° ÐµÑĤÑģÑı
ĠÐ¿Ð°Ð»ÑĮ ÑĨÐµÐ¼
ĠÐ¸Ð½ Ñ
Ð½Ð°Ð ¹
ĠÐ¾Ðº ÑĢÑĥÐ³
ĠÐ½ÐµÐ¾Ð¶Ð¸ Ð´
ĠÐ½Ð°ÑĢÐº Ð¾ÑĤ
ĠÐ¿ÑĢÐ¸ÑĩÐ¸Ð½ Ñ
ĠÐ¿ÑĢÐ¸Ð²Ð»Ðµ ÐºÐ°
Ð ½ÑĢÐ°Ð²
¶Ð ¸Ð¹
Ð»Ð¸ Ñİ
Ð¶Ð ½Ð¾Ð¹
Ð²Ð° ÑİÑĤ
ĠÐ²ÐµÑĢÐ ½
ĠÐ¸ÑģÐºÑĥÑģ ÑģÑĤÐ²Ð°
ĠÐ¡ Ð¿Ð°
ĠÐ¿Ð¾Ð½ ÑıÐ»Ð¸
ĠÐ¿ÑĢÐµ Ð²Ñĭ
ĠÑįÑĦÑĦÐµÐºÑĤ Ð¸Ð²Ð
ĠÐ¼Ð ¾ÑĢÐ´
Ð¾ÑģÐº Ð
ÑĤÐµ ÑĢÐ½Ðµ
ĠÐºÐ¾Ð½ ÑĨ
ĠÐ´Ð° Ñģ
ĠÐ¾ÑĤ Ð²ÐµÑĢÐ
ĠÐ¿Ð¾Ð¶Ð°Ð» ÑĥÐ¹
ÑĢÑĥÐ ±Ð
ĠÐľ Ñį
ĠÐĴÑģÑ ı
ĠÑģÐ¾Ð± ÑģÑĤÐ²ÐµÐ½Ð½Ð¾
ĠÑĢÐµ Ð¼Ð¾Ð½
ĠÐŀ Ñħ
ÑĢÐµÐ½Ñ Ĥ
ĠÐ´Ð°Ð ²Ð°ÑĤÑĮ
ĠÑĥÑģÐ» ÑĥÐ³Ð¸
ĠÑĨ Ð¸Ð²Ð¸Ð»Ð¸
ĠÐ¿ÑĢÐ¾ÑĤÑıÐ ¶ÐµÐ½Ð¸Ð¸
Ġ Ð³ÑĢÐ¾
ĠÐ·Ð°Ð¿Ð ¸ÑģÑĮ
ĠÐ¿ÑĢÐ¾Ð² ÐµÐ»
Ġ !!!
ĠÑģÐ¾Ð·Ð½Ð°Ð ½
ĠÑıÐ¹ ÑĨÐ°
g o
ĠÑį ÑĦÐ¸
ĠÑĤÐ²Ð¾Ð ¸Ñħ
b e
ĠÑģÐ°Ð¼Ð¾ÑģÑĤÐ¾Ñı ÑĤÐµÐ»ÑĮÐ½Ð¾
ĠÐ¿Ð¾ÑĤÐµ ÑĢÑıÐ»
Ð ±ÑĢÐ¾Ð²
ĠÐ³ÑĢÐ° Ð¼Ð¾ÑĤ
ĠÑģÐ¿Ð¾Ñģ Ð¾Ð±ÐµÐ½
ĠÐ¿ÑĢÐµÐ´ ÑģÑĤÐ¾Ñı
ÑĢÐµÑĤÑ ĭ
ÑİÐ ½
ĠÑĥÐ¼ ÐµÑĢÐ
ĠÐ¾Ð ·Ðµ
ÑĩÐ°Ð¹ Ð½Ð¾
Ġ Ð½ÑĢÐ°Ð²
ĠÐ¾Ð ·
ĠÐ½Ðµ Ð¼Ð½
ÑģÐºÐ°Ð ·
ĠÐ²ÑĭÑħ Ð¾Ð´Ð°
ĳÐ ½Ð¾Ðº
ĠÐ±Ð»Ð°Ð³Ð¾Ð¿ Ð¾Ð»Ñĥ
Ð°Ð½ ÑĤÐ°
Ĺ ı
ĠÐ¶ÐµÐ ½Ñĥ
ĠÐºÐ°Ð±Ð¸ Ð½ÐµÑĤ
ĠÐ²Ð¾Ð·Ð¼ ÑĥÑī
ĠÑĪ Ð°Ð¿
ÐĿ Ð£
Ð¾Ð·Ð ¸
ĠÐĸÐ ¸
ĠÐ±Ð¾Ð»ÑĮÑĪÐ ¾Ð³Ð¾
Ġ x
ĠÐ¿Ð¾Ð»ÑĮÐ· Ð¾Ð²Ð°
ĠÐ¿Ð¾Ð´ Ð°Ð
ĠÑĤÐµÐ¼Ð ½Ð¾
ĠÐ¿ÑĢÐ¾Ð²Ðµ ÑĢÐ¸ÑĤÑĮ
ĠÐ¿ÑĢÐ¸ Ð´ÐµÑĤ
ĠÑĪÐ »Ñİ
ĠÐ¾Ð±Ð¾Ð ·Ð½Ð°
ĠÑģÐ¿ ÑĥÑĤ
ðŁĺ ı
Ñģ Ð»Ð°Ð
ÑģÐ¸Ð ²Ð
ÐµÐ½ ÐºÐ¾
ĠÐ£ÐºÑĢÐ°Ð ¸Ð½Ðµ
Ð¾Ð´Ñ ı
ĠðŁĺ Ħ
ÑĩÐ¸ ÑĤÐ°ÑĤÑĮ
ÑĪÐµÐ½Ñ Į
Ð¾Ð²Ð° Ð½Ð°
ĠÐ¾ ÑĩÐ¸
Ð ¸Ð´Ð
ĠÑĢÐ° ÑģÐºÐ°
ĠÐ¾ ÑģÐµÐ½
Ð´Ð ²Ð¾Ð
ĠÑĪÑĤÑĢÐ° ÑĦ
Ð »ÑĳÐ³
ĠÐ²Ð¾Ð² ÑĢÐµÐ¼Ñı
² ÐµÑĤÐ¾
½Ð¸Ð¼Ð°Ñ ı
ĠÑĦ ÐµÑģÑĤÐ¸Ð²Ð°Ð»
Ð¸Ð ±
Ĥ Ð¸Ð»ÑĮ
ĠÑĩÑĥÐ´ Ð¾
Ñģ Ð´Ð°
ĠÐ¾ ÑĢÐµ
ĠÐ¾Ð±Ð¾Ð ¸Ñħ
ĠÑģÐ¾ ÑĩÐ¸Ð½
ÑħÐ¾Ð ¶Ð´ÐµÐ½Ð¸Ñı
ĠÐ±ÐµÐ ½
ĠÐ¿Ð¾Ð´Ðº Ð»Ñİ
ĠÐł ÑĭÐ
Ġ ÑĤÐµÐ½Ð¸
ĠÑĥÑĩÐ°ÑģÑĤÐ ¸
ĠÐ¿ÐµÐ½ ÑģÐ¸
Ġ ÑģÐ°Ð
ĠÐ½ÐµÐ ²Ð¸
ðŁĮ º
ĠÐ·Ð°Ð¼ÐµÑĤ Ð
Ġ ÑģÐ¼Ð¸
ĠÐ½Ð°Ð´Ð ¾Ðµ
ÑĤÐµ Ðº
Ġ qu
Ð´Ð ¶Ð°
ĠÐ»ÐµÑģ Ð°
ĠÑĦ Ñĥ
Ĥ ÑĢÐ¾Ð¼
ĠÐ´ÐµÐ¹ÑģÑĤ Ð²Ð¾Ð²Ð°ÑĤÑĮ
ĠÐ¡ Ð²Ð¾Ð
Ð ³ÑĢÐ°Ð¼
?? ??
ĠÐ·Ð° ÑģÐ»ÑĥÐ¶Ð
ĠÐ¿Ð »ÑıÐ
ÑĩÐµÐ½ Ð½Ð¾Ð¹
Ð»Ð° Ð½Ð°
ac k
ĠÐ²ÑĭÐ ±Ðµ
Ð»ÐµÐ½ Ð½ÑĭÐ¼
ĠÐ¸Ð½ ÑĦ
Ð ±ÑĢÐ¾Ð´
ĠÐ²Ð½ÑĥÑĤ ÑĢÑĮ
ĠÐ¿ÑĢÐ¸ Ð²ÐµÑģÑĤÐ¸
ĠÐ·Ð½Ð° ÑĩÐµÐ½Ð¸Ñı
ĠÐ¿Ð »Ð¾Ð´
ĠÐ·Ð° ÑģÑĤÑĭÐ
ĠÑģÐµ Ð¼Ð¸
ĠÐ²Ð¸Ð´Ð¸ ÑĪÑĮ
Ð°Ð½ Ð½ÑĭÐ¼Ð¸
ĠÐ¿ÑıÑĤÐ ½Ð¸ÑĨÑĥ
ĠÐ³Ð»Ð° Ð²Ðµ
ĠÐľ ÐµÐ´Ð
5 00
ĠÑģÐ²Ð¾Ñĳ Ð¼
ĠÑģÑĭÐ ³
Ġâ ĸ
ÑĨÐ¸Ð¾Ð½ Ð½ÑĭÐ¹
ÑģÐ»Ð¾Ð² Ð
Ð²Ñ Ĩ
ĠÐļ ÑĥÐ
Ð°Ñİ Ñģ
ĠÐ³Ð¾ ÑĢÐ¸Ð·
ÑģÑĤÑĢÐ ¾ÑĦ
r an
ĠÐ·Ð½Ð° Ð¼ÐµÐ½Ð¸ÑĤ
ĠÑģÐ¼Ð¾ÑĤ ÑĢÐµÐ»Ð¸
ĠÐ¸Ð½Ð ¸ÑĨÐ¸Ð°
ÑĥÑģÑĤ Ð¸Ð»
Ġ Ð±ÑĢÐµÐ´
ĠÐł Ð°Ð½
Ð³Ñ Ģ
ĠÑģÐ°Ð¼Ð ¸Ð¼
ĠÐ¿Ð¾Ðµ Ð
¸ Ð¼ÐµÐ½
ÑĢÑİ Ðº
Ñģ ÑĤÐ²Ð¸Ð¸
ĠÐ¿ÑĥÑĤÐµ Ð¼
ĠÐ½Ð° ÑĥÐº
ĠÐ¿ÑĢÐ¸ÐµÑħ Ð°Ð»
ĠÐ°Ð´Ð¼Ð¸Ð½ Ð¸ÑģÑĤ
ĠÐ±ÐµÐ» ÑĭÐ¹
aÑĤ Ñ
ĠÐ²Ð¾ ÑĪÐµÐ»
ĠÐĶ Ð¾Ðº
7 2
ĠÐľÐ¾Ð ¸
ĠÑħÑĥÐ´ Ð¾Ð¶Ðµ
Ñ ĤÐ¸Ð»ÑĮ
Ð°ÑİÑģ Ñ
ĠÐĶ Ñį
ĠÑĥÑĩÑ ĳ
ĠÐ¿Ð¾Ð¼Ð½Ð¸ Ñ
ĠÐ¿Ð¾Ð¼Ð½Ð¸Ñ Ĥ
ÑĢÐ¸Ð ³Ð¾
Ð¾Ð´Ñ Į
ĠÑģÐ¾ ÑĨ
ĠÐŁ ÑĢÐ¾ÑģÑĤ
\" .
ĠÑĪÐ¸ÑĢÐ¾Ðº Ð¾
ĠÐ¿ÐµÑĢÐµÐ ²Ðµ
ĠÑģÐµ Ð²ÐµÑĢÐ
Ð°ÑİÑģÑ Į
Ä ±
ÑĸÐ ²
ÐµÐ¹Ñ Ĥ
Ð¢ Ð£
ĠÐ¿Ð¾Ð¼Ðµ Ñī
ĠÑģÐ¾Ð±Ð¸ ÑĢÐ°Ð»ÑģÑı
¸ ÑģÐ¸
ĠÑģÑĥÐ±Ð±Ð ¾ÑĤÑĥ
ÑĤÑĢÐ ¾Ð½
½Ð¸Ðº Ðµ
Ñ ĤÑĢÐ¾Ð¼
Ð¾Ð¶Ð´ ÐµÐ½Ð¸Ðµ
ÐŀÐ´Ð½Ð° ÐºÐ¾
ĠÑģÐ¸ Ð´ÐµÐ»Ð¸
ĠÑģÐ¾ÑģÑĤÐ¾ÑıÐ½ Ð
¸ ÑĤÐ°Ð½
ĠÐ¾ÑĤ Ð¾Ð·
³ Ð¾ÑģÑĤÑ
ĠÑģÐ¾ÑģÑĤÐ¾ÑıÐ½Ð ¸
ĠÐ¿ÑĢÐ¾ÑĤÐ¸Ð²Ð¾ ÑĢÐµ
Ñ ĮÑıÐ
ĠÐĺÐ½ ÑĤÐµÑĢÐµÑģÐ½Ð¾
ĠÐºÑĢÐ° ÑģÐ¸
ÑģÑĤÐ¾Ð ¸
ĠÑĢÐµ ÑģÐ½
ÑģÐ¸ Ð¿Ðµ
Ð½Ðµ ÑĪÑĮ
ĠÐ½Ð°Ð²ÐµÑĢÐ ½Ð¾
ÑĤÐµÐ»ÑĮÐ ½ÑĭÐ¼Ð¸
ĠÐ³Ð¾ÑĤÐ¾Ð²Ð ¸
ĠÐ¡ ÐĲ
ÑģÐ¸Ð»ÑĮÐ µ
ĠÐ¿ÑĢÐ¸Ð½ ÑıÑĤ
Ð ³Ð¾ÑģÑĤÑ
² Ð¾Ð²Ð°Ð»Ð°
ĠÑĥÐ´Ð¾Ð±Ð ½Ð¾
ĠÐ¾Ð³Ð½ Ñ
ĠÐ±Ð° ÑĤÐ°
ÑĤÑĢÐµ ÑĩÑĥ
ĠÐ²Ðµ Ð»Ð¾
ĠÐ¾ÑĤÐ½Ð¾ÑģÐ¸ ÑĤÑģÑı
ĠÐºÐ¾Ñģ Ð¼ÐµÑĤ
ĠÐ´Ð°Ñģ Ñ
ĠÑĤÑĢÑĥÐ±Ð ºÑĥ
Ð¾Ð½Ð° Ñħ
ĠÑĤÑĢÐµÐ ²Ð¾Ð
ĠÐ·Ð°Ð½ ÑıÑĤÐ¸Ñı
ĠÐ¾Ð ±Ñ
ĠÐ´Ð°ÑģÑ Ĥ
ĠÐ»Ð¸ Ðº
ĠÐ¾ÑĢÑĥÐ ´
ĠÐ¾Ð± ÑģÐ»ÑĥÐ¶Ð
ĠÑģÐµ ÑĢÑĮÑĳÐ·
Ġ19 0
ĠÑĥÑģÐ» ÑĥÐ³
ĠÐ¾ÑĤ Ð´ÐµÐ»Ð°
ĠÐĺ Ð¼Ð¿Ðµ
Ð ¸ÑĤÐ°Ð½
ĠÐ¿Ð¾Ð´Ð¾Ð±Ð ½ÑĭÐµ
Ñ ıÑİÑĤÑģÑı
ÑīÐ° ÑİÑĤÑģÑı
Ð½ÐµÑĤÑ ĭ
ĠÑģÐ¿Ðµ Ðº
Ð»Ð¾ ÑĢÑĥÑģ
Ġ Ð³ÑĢÐ¾Ð
ĠÐľ Ð¸Ñģ
Ð¿ÑĢÐ¸ Ð
ĠÐĴÐ° ÑĪ
ĠÐ´Ð¾ÐºÑĥÐ¼ ÐµÐ½
ĠÐ¼Ðµ ÑĢÑĭ
Ġ Ð»ÑĥÐº
ĠÐłÐ ¸
² Ð¾Ñĳ
ĠÑĢÐµÐ ¹
ĠÐ´ÐµÑı ÑĤÐµÐ»ÑĮÐ½Ð¾ÑģÑĤÑĮ
ĠÐ¿Ð¾Ð´Ð¾Ð±Ð ½Ð¾Ðµ
ĠÐ¿ÑĢÐ¾Ð´ÑĥÐºÑĤ Ñ
ĠÐ¿ÑĢÐ¾Ð´ÑĥÐºÑĤÑ ĭ
ĠÑģÑĤÑĢÐ ¾Ð³
ĠÐºÐ»ÑĥÐ ±Ð°
ĠÑĢÐ°ÑģÑģÐºÐ°Ð ·
ĠÐ¸Ð¼Ðµ Ð»Ð¸
ĠÑģÐ¾Ð¼Ð½ ÐµÐ½Ð¸Ñı
ĠÐ²Ð¾Ð ¾Ð±ÑĢÐ°Ð
ĠÐ³Ð° ÑĢÐ¼
ĠÐ¿Ð¾Ñģ ÑĤÐµÐ»Ð¸
Ð»Ñİ Ð±Ð
ĠÑģÐ°Ð¼ ÑĥÑİ
ĠÐ¿ÑĢÐ¾Ð´Ð¾Ð» Ð¶Ð°
ĠÐ¿ÑĢÐ¾ÑıÐ ²
Ġ Ð±Ð°Ð³
Ð´Ð ½Ð¾Ðµ
Ð»ÐµÐ »
ĠÑģÐ¾Ð»Ð½ ÑĨÐ°
· ÑĥÐ±Ð
ĠÐºÐ²Ð°ÑĢÑĤÐ¸ ÑĢÐ°
ĠÐĲÐ²Ñ ĤÐ¾ÑĢ
ĠÐ¿Ð°ÑĢÑĤ Ð½Ðµ
ĠÑĤÐ¾Ð²Ð°ÑĢÐ¸ Ñī
ĠÐł Ðŀ
ĠÐ¾Ð±Ð ½Ð¾Ð²
Ġ Ð»ÑĳÐ³
Ð´Ð¸ Ð»Ð°
ĠÑĨÐ²ÐµÑĤ Ñ
½ Ð¸ÑĩÐµÐ¼
ÑģÑĤÐ¾Ð¸ Ñ
Ð¡Ðļ ÐĴÐĲ
ÑģÑĤÐ¾Ð¸Ñ Ĥ
Ð ½Ð¸ÑĩÐµÐ¼
¸ ÑĤÐ°Ð»ÑĮÑıÐ½
³ ÐµÐ»ÑĮ
Ð²ÐµÐ½ Ð½Ð¾
ĠÐºÐ »
9 2
ĠÐ¾Ð³Ð½Ñ ı
ÑĦ Ð¸Ðº
ĠÐ°Ñį ÑĢÐ¾Ð¿
Ġ Ð³Ð¾ÑģÑĤÑ
ĠÐ½Ð°Ð ³ÑĢÑĥÐ·
ĠÑĦÐ°Ðº ÑĤÑĥ
ÐµÑĢ ÑĪÐµÐ½
ÑģÑĤÑĢÐ¾Ð µ
ÑīÐ° Ð»Ð°
ĠÐ¸Ð³ ÑĢÐ°Ð»
Ð ¸ÑĤÐ°Ð»ÑĮÑıÐ½
ÐĲÐ »
Ġ ))
ÑĢÐ°ÑĤ ÑĥÑĢÐ
ĠÐĿÐ¸Ðº Ð¾Ð³Ð´Ð°
¸Ð½ Ñĥ
ĠÐł Ð°Ð¹
ĠÐ¶Ð¸Ð ²Ðµ
u a
ÑĢÐµ Ð¼Ð¾Ð½
Ð¾Ð» ÐµÐ·
9 1
ĠÐ¿ÑĢÐ¾ÑģÑĤÑĢÐ°Ð½ ÑģÑĤÐ²Ð¾
ĠÑįÐº Ð¸Ð¿
ĠÐ¼Ð° Ð¼Ñĭ
ĠÐ°Ð´Ð¼Ð¸Ð½Ð¸ÑģÑĤÑĢÐ° ÑĨÐ¸Ð¸
²Ð¾Ð ¾Ñħ
ĠÐ¼Ð µÑģÑĤÐ
ĠÑĨÐ²ÐµÑĤÑ ĭ
ÑģÐºÐ°ÑĤÑ Į
ĠÐ¿Ð»Ð°Ð½ Ñ
Ð»ÐµÐ½Ð ½ÑĥÑİ
ĠÐºÑĢÐ°ÑģÐ ¾ÑĤ
¶Ð ½ÑĭÐ¼
ĠÐ¿ÑĢÐ¸ Ð²Ñı
¶Ð´Ð°Ñ ı
ĠÑģÐ²Ð¾Ð±Ð¾Ð´ Ñ
ĠÑĥÐµ Ð
ĠÐ·Ð°Ðº ÑĢÐ¸
ĠÐ¿ÑĢÐµÐ´Ð»Ð¾Ð ¶ÐµÐ½Ð¸Ñı
ĠÐ³Ð¾ÑĤÐ¾Ð²Ð¸ Ñ
ĠÐ³Ð¾ÑĤÐ¾Ð²Ð¸Ñ Ĥ
ÑĥÐ ·ÑĭÐ
Ðµ ÑĢÐ¾Ð²
ĠÑģÐ²Ð¾Ð±Ð¾Ð´Ñ ĭ
ĠÐ½ÐµÐ¿Ð»Ð¾ ÑħÐ¾
Ð¡Ð¢ Ðĺ
ĠÐļ Ð°Ð
ĠÑģÑĤÐ¾Ð¸ Ð»Ð¾
ĠÐ¿Ð»Ð°Ð½Ñ ĭ
Ġâľ ¨
Ð²Ðµ ÑĢÐ´
ĠÐ´ ÑĢÐ°Ð
Ġ Ð±ÑĢÐ¾Ð´
Ġ ÑģÑĤÑĢÑĥÐ
ĠÐ°Ðº Ðº
Ñĳ ÑĤÐµ
Ðĵ Ð´Ðµ
Ġ Ð½ÐµÐ½
ĠÑĢÐµ ÑĪÐ¸ÑĤÑĮ
Ġ ÑģÑĤÑĢÐ¸
Ð»ÐµÐ ²
ÑĩÐµ ÑĤÑģÑı
ÐĿ Ð¯
Ð¨ Ðķ
Ñī ÐµÐ³Ð¾
¹Ñģ ÑĤÐ²Ð°
ĠÐ¿ÑĢÐ¸ÑĩÐ¸Ð½Ñ ĭ
ĠÐ´Ð¾Ð¶Ð´Ñ Į
ÑĥÑī ÐµÐ¹
ĠÐ¾ÑĤ Ñ
ĠÑģÑĤÐ° ÑĢÑĥ
Ñī Ð¸ÐºÐ¸
ĠÑħÐ²Ð° ÑĤÐ°Ð»Ð¾
ĠÐ²ÑĭÑĢÐ°Ð ¶ÐµÐ½Ð¸Ðµ
ĠÐ¿Ð¾Ð¹ Ð´Ñĥ
Ġ Ð½e
m e
ÑĢÐ ²Ð°
ĠÐ¾ÑĤÐ²Ðµ ÑĩÐ°ÐµÑĤ
ĠÐ¾Ð±Ð ¾ÑĢÐ¾ÑĤ
ĠÐ°ÐºÐºÑĥ ÑĢÐ°ÑĤÐ½Ð¾
ĠÐ¼ÐµÐ½ ÑıÑĤÑĮ
Ð¸Ð½ ÐºÑĥ
ĠÐ²Ð¾Ñģ ÑĤÐ¾
Ð¿Ð¸Ñģ ÑĭÐ
ĠÑĢÐ°ÑģÑģ ÑĤÐ¾ÑıÐ½
ĠÑĢÐ°Ð·Ð»Ð¸ÑĩÐ ½ÑĭÐµ
ĠÐ¿ÑĢÐ¸Ð½ ÑıÐ»Ð¸
ĠÐ¡ ÑĤÑĢÐ°Ð½
ÑĩÐ¸Ð ²Ð°Ñı
ĠÐ²Ð¾ÑģÐºÑĢÐµÑģÐµÐ½ ÑĮÐµ
ĠÐ½Ð°Ñģ ÑĩÐµÑĤ
ĠÐº Ðµ
ÑĢÐ°Ð ¶
ÑħÐ¾Ð´Ð ¸Ð»Ð¸ÑģÑĮ
ĠÐ¶Ðµ Ð½Ð¾Ð¹
ĠÐ¿Ð¾Ð¹ Ð´ÐµÑĤ
ĠÐł Ðķ
Ð¾Ð¿Ð° Ñ
ĠÐ½Ð°Ð·Ð² Ð°Ð½Ð¸ÐµÐ¼
Ġ ÑĤÐµÐ½
± ÑĢÐ°Ð»Ð¸
Ġ Ð½Ð¸ÑĩÐµÐ¼
ĠÑĤÑĢÐµÐ±Ð¾Ð² Ð°Ð½Ð¸Ñı
ĠÐ¿Ð¾Ð´Ð¾Ð±Ð ½ÑĭÑħ
ÐŃ Ð
Ð±ÐµÑ Ĥ
ĠÐ¿Ð¾Ð´ ÑĢÑıÐ´
ÑĥÐ¼ Ð
ĠÑģÐºÐ° Ð¶ÐµÑĤ
ĠÑģÑĤÑĢÐ° ÑħÐ¾Ð²
ĠÐ¿Ð¾ÐºÑĥÐ¿Ð° Ñ
ĠÑĤÐ¾ÑĢÐ ³
ÑĤÑĢÐµ Ð¼Ð
ÑĥÐ½ Ð´
³ ÐµÑĢÐ¼
ĠÐ±Ð¸Ð±Ð»Ð¸ Ð¾ÑĤÐµ
Ð´ ÑĳÑĤÑģÑı
ı ÑĤÐ°
ĠÐ¾Ð³ÑĢÐ¾Ð¼ Ð½ÑĭÐ¹
ĠÐ¤ Ð¸Ð»Ð¸
Â Ń
Ĥ ÐµÐ½ÑĮ
ĠÐ¾ÑĩÐµ ÑĢÐµÐ´Ð¸
ĠÐľÐ° Ð¼Ð°
Ð¸ÑĢÐ¾Ð²Ð° ÑĤÑĮÑģÑı
Ð¾Ð³Ð ¸ÑĤÐµ
ĠÑģÐ¼Ðµ ÑĪÐ½Ð¾
ÑĤÐµÐ»ÑĮÑģÑ ĤÐ²Ð¾Ð¼
ÑĢÐ¸ ÑĦ
ĠÐ¿ÑĢÐ¸Ð½Ñ ıÑĤÐ¾
ÑģÐ¸ ÑĤÑģÑı
ÑĢÐ°Ð±Ð¾ ÑĤÐ°
ĠÐ¸Ð· Ð¼ÐµÐ½Ð¸
³ Ð»Ð¸
ĠÐ³Ð¾ÑģÑĥÐ´Ð°ÑĢÑģ ÑĤÐ²Ð¾
ĠÐ¶Ð° ÑĢÐº
ĠÐºÐ° Ð½Ð°Ð»
ĠÐºÐ¾Ñģ Ð¼Ð¸
ĠÑģÐ ²Ð°Ð»
ĠÐ·Ð° Ð¼ÐµÐ½
Ĥ Ð¸Ð
Ð ²Ð°Ð½Ð¸Ðµ
ÑģÐ¾ Ñħ
Ð¼Ð¾Ð¼ Ñĥ
ĠÑĤÐ° ÑĢÐµÐ»
ĠÐ¼Ð¸ÑĢÐ¾Ð² Ð¾Ð¹
· Ð¾Ð½
ĠÐ¿ÑĢÐ¸Ð ¹ÑĤÐ¸
ĠÐ±Ð»Ð µÑģ
ĠÐºÑĢÐ°ÑģÐ ¾ÑĤÑĭ
Ð²Ð¸ÑĤ Ñ
Ð ·ÑĥÐ±Ð
ı Ñİ
ÐµÑĢÐºÐ ¸
Ĥ Ð²Ð¾Ð»
ÑĢÑĥÐ ¶Ð¸
ÑĢÑģ Ð°
ÑĢÐµÐ± ÑĥÐµÑĤÑģÑı
ĠÐºÑĢÐµ Ð´Ð¸ÑĤ
Ñ ĤÐ²Ð¾Ð»
6 7
ĠÐ¿Ð¾ÑģÑĤ Ñĥ
ĠÐ´Ñĥ ÑĢÐ°Ðº
ĠÐ¿Ð¾Ð·Ð¸ ÑĨÐ¸Ð¸
ĠÐĴ Ð¾Ñģ
ĠÐ¿Ð¾Ð½Ð° Ð´Ð¾Ð
Ð»ÑĮÐ ½ÑĭÐµ
ĠÑģÐº Ð¾Ð»ÑĮÐ·
ĠÐ²ÑģÑı ÐºÐ¸Ñħ
ĠÐ¾ÑĢÐ¸Ð³ Ð¸Ð½Ð°Ð»ÑĮÐ
² Ð°ÐµÑĪÑĮ
ÑĢÐ¸ ÑģÐ°
ĠÐ±ÐµÑĢÐµÐ ³Ð°
z h
Ð¿ ÐµÐ»
Ð·Ð° Ð¼Ð¸
ÑĢÑģ Ð
ĠÐĿÐ°Ð¿ Ð¾Ð¼
ĠÑģÑĤÐ¾ÑıÑĤ Ñ
ĠÑģÑĤÐ¾ÑıÑĤÑ Į
ĠÐ²ÐµÐ ¶Ð
ĠÐ½Ð°ÑĩÐ°Ð»ÑĮÐ ½Ð¸Ðº
ÑĤÐµÐ»ÑĮÐ ½Ð¸ÑĨÐ°
ĠÐ¿Ð¾Ð»ÑĮÐ ·Ð¾Ð²
ĠÐ¿Ð¾Ð» Ð¾Ð¶Ð¸Ð»
ĠÑĨÐµÐ½ Ñĥ
ĠÑįÐ¼Ð¾ ÑĨÐ¸Ð¸
ĠÐ¾Ð´Ð ½Ð¾Ð
ĠÐº ÑĢÐ¾Ð²Ð°ÑĤÑĮ
Ð°Ð ¶Ð°
Ð¼Ð¾Ðº ÑĢÐ°ÑĤ
ÑĥÐ½Ñ Ĥ
ĠÐŀ Ð»Ð¸
ÑĢÑı Ñİ
ĠÑĥÐ²Ðµ Ð»Ð¸ÑĩÐ
¶Ð ½Ð¾ÑģÑĤÐ¸
ĠÐ¸Ð¼Ðµ ÐµÑĤÑģÑı
Ð ¸Ð¾Ð½Ð°
ÑĥÐ »Ð°ÑģÑĮ
ĠÐ´ÐµÑĢÐ ¶Ð°
ĠÐ²Ð° ÑĪÐ¸Ð¼
Ġ ÒĽ
ĠÐ¢ Ðķ
ÑĢÐµ Ð¿Ð»
ĠÐ³Ð¾Ð» ÑĥÐ±Ð
ĠÐĿÐµ ÐºÐ¾ÑĤÐ¾ÑĢÑĭÐµ
ĠÐ¾ÑĤ Ð´Ð°ÑĤÑĮ
»ÑĮÐ ½ÑĭÐ¹
Ġ Ð±ÑĢÐ¾Ð²
ÑĩÐµÐ »Ð¾Ð²Ðµ
ÑĨÐ¸Ñ Ĥ
ÐĶ Ð¾Ð±ÑĢÑĭÐ¹
ĠÐ·Ð°Ð³ Ð»ÑıÐ
ĠÐ´Ð¾Ð± ÑĢÐ¾Ð²
it y
ĠÐŁ Ð¾Ð»Ð
ĠX V
ĠÑĥÑĩÐ¸ ÑĤÑĮÑģÑı
ĠÐ¿Ð¾ÑģÐ»ÐµÐ´Ð ½ÐµÐ¹
Ñģ ÑĤÐ¾Ð½
ÐĿÐ« Ðķ
ĠÐ¼ÐµÑĤÐ° Ð»Ð»Ð¸
ÐºÐ¾Ð² Ð¾Ð¹
·Ð´Ð ¾ÑĢÐ¾Ð²
ÐµÐ½ÑĮ ÐºÐ¾
Ġ201 9
ĠÐ¾Ð±Ñĥ ÑĩÐµÐ½Ð¸Ðµ
Ð´ ÑĳÐ¼
ÑĢÑĮ ÑĤÐµ
Ð¢ ÑĥÑĤ
ĠÐ¾Ð±Ñī ÐµÐ³Ð¾
ĠÐ¿Ð¾Ð» Ð¾Ñģ
ĠÐ¿Ð¾ ÑĨÐµÐ
ĠÐµ Ñİ
ı ÑģÐ
ĠÐł Ð¾ÑģÑĤ
· ÐµÐ»
â Ĥ
â ļ
ÑĪ Ð°Ð¹ÑĤÐµ
ĠÐ³Ð¾Ð» ÑĥÐ
Ð¿ Ðº
ĠÐ¼Ð°ÑĤÐµÑĢÐ¸ Ð°Ð»Ð°
Ð¾ÑģÐºÐ ¸
f o
ĠÑĪÐ µÑģÑĤÐ¸
ĠÑħÐ¾Ð»Ð¾Ð´ Ð¸Ð»ÑĮÐ½Ð¸Ðº
ĠÐ¿Ð¾Ð¼ ÐµÐ½
ĠÐ²ÑĭÑģÐºÐ° Ð·ÑĭÐ
ĠÐ´ Ð°Ð½Ð½Ð¾Ð¹
ĠðŁ ¥
ĠÐ°Ð²ÑĤÐ¾Ð¼Ð¾Ð±Ð ¸Ð»ÑĮ
ĠÐ¿Ð¾Ð¼Ð¾Ð³Ð° Ñ
ĠÐ¾ÑĢÐ³Ð°Ð½Ð¸Ð· Ð¼Ð°
ĠÐ¿ÑĢÐ°Ð² Ð¸Ð»
Ð¸ÑĩÐµÑģÐº ÑĥÑİ
Ð¿ÑĢÐ ¾Ð¼
ĠÐ³Ð»Ð°Ð² Ð½ÑĭÐ¼
Ġ Ð¿Ð¾Ð»ÑĮ
ĠÐ¼Ð°Ð»ÐµÐ½ÑĮ ÐºÐ¸Ðµ
ĠÑĪ Ð°Ð³Ð¾Ð²
ĠÑĢÑĭÐ ±Ð
ĠÐ²ÑĤÐ¾ ÑĢÐ°Ñı
ÑĪÐ ½ÐµÐ³Ð¾
ÑĢÐ°Ð±Ð¾ ÑĤÐ°Ð½
ĠÐ¸Ð¼Ð¿Ðµ ÑĢÐ°
ĠÐºÐ¾ÑĢÐ ¾Ð»Ñı
ĠÐ²Ñĭ ÑģÑĤÐ°Ð²
ĠÐľÐ° ÑĢÐ¸Ñı
ÑĢÐ´ Ðµ
½ÐµÐ ²
ĠÐ¿Ð¸ÑģÑĤÐ¾Ð» ÐµÑĤ
ĠÑĢÐ°Ñģ ÑģÑĥÐ
ĠÐ¿ÑĢÐ¸Ð±ÑĭÐ »
ĠÐ¾ÑĤ Ð¾
Ðľ Ð¾Ð¶Ð½Ð¾
ĠÐ¨Ð ¸
ĠÐŀÐ ³
ĠÑģÐ¾Ð·Ð½Ð°Ð½ Ð
ĠÑģÐ¾Ð·Ð½Ð°Ð½Ð ¸
ĠÐ»ÑİÐ±ÑĭÐ µ
ĠÐĵ Ð»Ð°
ĠÐŁ Ð¾Ð³
ĠÐĲÐ½ Ñ
ĠÑģÐµ ÑĢÐµÐ´Ð¸Ð½Ðµ
ĠÐ»ÑİÐ±Ð¾Ð² ÑĮÑİ
ÑĤÐ°Ð ¶
ĠÐ´Ð¸ÑĢÐµ ÐºÑĤÐ¾ÑĢ
Ð ½Ð¾ÑģÑĤÑĮÑİ
Ð¾Ð² Ñ
Ð¾Ð³Ð ¸ÑĩÐµÑģÐº
ĠÐ²Ð· ÑıÑĤ
Ñģ ÑĥÑģ
ðŁĺ İ
ĠÐ¿ÑĢÐ¾Ð´ÑĥÐº ÑĤÐ¾Ð²
Ð ³ÐµÑĢÐ¼
ÑĭÐ º
ĠÑģÐ¾Ð·Ð½Ð°Ð½Ð¸ Ñ
ĠÑģÐ¾Ð·Ð½Ð°Ð½Ð¸Ñ ı
ĠÐ¿ÑĢÐ°Ð²Ð¸ ÑĤÐµÐ»ÑĮÑģÑĤÐ²Ð¾
ĠÐºÑĢÐµÑģÑĤ ÑĮÑıÐ½
ĠÐ²ÑĭÐ¿ Ð
Ð ³Ð¾Ð¼
ĠÑģÐ¾ÑģÑĤÐ¾ÑıÐ½Ð¸ Ñ
ĠÑģÐ»ÑĥÑĩÐ° ÐµÐ²
ĠÑģÐ¾ÑģÑĤÐ¾ÑıÐ½Ð¸Ñ ı
ĠÐ¾ÑģÐ¾Ð ·Ð½Ð°
ĠÐ¿ÑĢÐ¾ÑĨÐµÑģ ÑģÐµ
ĠÑģÐµÑĢÐ´ Ðµ
ÑĢÐ¸ ÑĤÐµÐ»ÑĮÐ½Ð¾
½Ð¾Ð²Ð ¸Ð»Ð°ÑģÑĮ
ĠÐ²ÑģÐ¿Ð¾Ð¼Ð½Ð¸ÑĤ Ñ
ĠÐ²ÑģÐ¿Ð¾Ð¼Ð½Ð¸ÑĤÑ Į
ĠÑĥÑģÐ¸Ð»Ð¸ Ð
ÑĪÑ Ĥ
Ð´Ð ¶Ð
ĠÐ¡ÐµÑĢÐ ³Ðµ
\" ,
ĠÐķÐ² ÑĢÐ¾Ð¿Ðµ
ĠÐ°ÐºÑĤ Ð¸Ð²Ð½Ð¾
ĠÑĢÑĥÑģ ÑģÐºÐ¾Ð¹
ÑĢÐ°Ñģ Ð½Ð°Ñı
ĠÐ»Ðµ Ð´Ð¸
ĠÐ±Ñİ Ð´Ð¶ÐµÑĤ
ÑĢÑĨ Ð¸Ð¸
²ÑıÑĤ Ñģ
ĠÑģÐºÐ° Ð·Ð°Ð½Ð¾
²ÑıÑĤÑģ Ñ
²ÑıÑĤÑģÑ ı
ĠÐŁ ÑĢÐµÐ
¶ ÑĥÑģÑĮ
ĠÐ¼ Ð¼
ÑĢÐ¼ Ð°Ð½
³ ÑĢÐµÐ´Ð¸
ĠÐ¾ ÑĨ
at ch
ĠÐ½Ð°Ñģ Ð¼Ðµ
ag e
Ð¼Ð¾Ð ¶ÐµÑĤ
ĠÐ³Ðµ ÑĢÑĨ
ĠÐº ÑĢÑĥ
ÑĨÐ¸Ð¾Ð½ Ð½ÑĭÐµ
ĠÐ²Ð¾Ð· ÑĮÐ¼Ð¸
p l
ĠÑĤÑĢÐ¸ Ð´ÑĨÐ°ÑĤÑĮ
ĠÐ²Ð¾ÐµÐ½ Ð½ÑĭÑħ
ĠÐ¾ÑĦ Ð¸ÑĨ
ÑıÐ½ Ñ
Ñ ĤÑĥÐº
Ð±Ð ¸Ð»Ð¸
Ð»ÑĮÐ ½Ð¾
ĠÑĢÐµ Ð°Ð»Ð¸
ĠÐ¿Ð° ÑĢÐ°Ð´
ĠÐ¸Ð½ÑĤÐµÑĢÐ ²ÑĮÑİ
ĠÐ¿Ð° Ñħ
ĠÑĥÐ²Ðµ ÑĢÐµÐ½Ð°
»ÑĮÐ ½Ð¾Ð¹
ig ht
ĠÑģÑĤÐ° ÑĢÑĭÐµ
g l
ÑĪÐ¸Ð¼ Ñģ
ĠÐ¼ÑĥÐ ·
ÑĪÐ¸Ð¼Ñģ Ñ
ÑĪÐ¸Ð¼ÑģÑ ı
ÑıÑī Ð¸Ñħ
ĠÐ³Ð¾ÑĢÐ¾Ð´ Ñĥ
Ð½Ð° Ñģ
ĠÐ¡ Ð¾Ð»Ð½
ÑĥÑİ Ñģ
ĠÐĹÐ°Ð²Ñ ĤÑĢÐ°
ĠÑĢÐ°Ñģ ÑģÐ»ÐµÐ´Ð¾Ð²
ÑıÐ ¹ÑĤÐµÑģÑĮ
Ð¾Ð ¶ÐµÐ½Ð¸Ñı
ĠÐ¡ Ð¾ÑĦ
Ð¸Ð½ Ð³Ð°
ĠÑģÐ¿ Ð°ÑģÑĤÐ¸
Ġ ÑģÑĦÐ¾ÑĢÐ¼
ĠÐ¾Ð¿ÑĢÐµ Ð´ÐµÐ»
ĠÑĨ ÐµÐ½Ðµ
Ð¡ ÑĤÐ°
ĠÐ»ÐµÑģÑĤÐ ½Ð¸ÑĨÐµ
ĠÑĢÐ°ÑģÐ¿ Ð¸Ñģ
ÑĥÑİÑģ Ñ
ĠÐ¿Ð¾Ð´Ð´ÐµÑĢÐ¶Ð ºÑĥ
ĠÑģÐ¾ÑĢÐµÐ²Ð ½Ð¾Ð²
Ñģ ÑĤÐ²Ð¾Ð»
ÑĩÐ¸ ÑĤÐµ
ĠÐ½Ð¾Ð² Ð¾Ð¼
ĠÐľ Ð°Ð³
ĠÐĺÐ³Ð¾ ÑĢÑĮ
ĠÑģÐ¿ Ð»Ð¾
ĠÑĢÐ°Ð· Ð±Ðµ
ĠÐŀ Ð»ÐµÐ³
ĠÐ¿ÑĢÐ¸ Ð¿Ð¾Ð´
ĠÐ´Ð¾Ð ±ÑĢÑĭÐ¹
Ð¾ÑĤ Ð²Ð¾
ĠÑīÐ° Ñģ
ĠÐ¡ ÐľÐĺ
Ġ Ð³ÑĢÐ°Ð¼
ĠÐ¾Ð±ÑĢÐ°ÑĤ Ð¸Ð»ÑģÑı
Ð¸ÑĤÐµÐ»ÑĮÐ ½ÑĭÐ¹
oÐ ½
' s
ĠÐ¤Ð ¸
¶Ð¸ ÑĤÑģÑı
ar k
Ġ Ð·ÑĥÐ±Ð
ĠÐ·Ð°Ð¼ÐµÑĤÐ ¸
Ð°Ð½Ð½ Ñ
ĠÐŁÑĥÑĤ Ð¸Ð½
ÑĤÑģ ÐºÐ°Ñı
ÑģÐ ²Ð¾Ð
ĠÐ¼Ð¾Ð´ ÐµÐ»ÑĮ
Ĥ ÑĥÑĢ
Ð´Ð ¸Ñģ
ĠÐĴÑĤÐ¾ÑĢÐ ¾Ð¹
ĠÐ±Ð¾ ÑĢÑĮ
ĠÐ½Ðµ Ð¾Ð¿
ÐĿÐĲ Ð¯
Ð·Ð° Ðº
Ð¾Ð¹ÑĤ Ð
ĠÑģÐµÐ· Ð¾Ð½Ð°
ĥ £
ÑĩÑ ĮÐµ
ĠÑĢÐ°Ð·Ð¾ ÑĩÐ°ÑĢÐ¾Ð²
ĠÐ´ ÑĢÐµÐ
ĠÐ·Ð°Ð¼ÐµÑĤÐ¸ Ñ
ĠÐ·Ð°Ð¼ÐµÑĤÐ¸Ñ Ĥ
Ð»Ð¾ ÑĤÐ°
ĠÐ±Ð¸ Ð»ÐµÑĤ
Ġ Ð°Ð²
Ð¾Ð¹ÑĤÐ ¸
¶Ð°ÐµÐ¼ ÑĭÐµ
»Ð°Ð ·
ÑĢÐ¸Ð ¶
ĠÐ½Ð°Ð¿Ð¸Ñģ Ð°Ð»Ð°
² ÐºÑĥ
ĠÐĴÐ° ÑģÐ¸Ð»ÑĮÐµ
ÑģÐº Ð¾ÑĢÐµ
4 9
Ð´Ð ¾Ð±
ĠÑĪ Ð°Ð½
ĠÐ²Ñĭ ÑĢÐ¾Ñģ
ĠÐ¾Ð´Ð ½Ð¾Ðº
ĠÐºÐ¾Ð¼ Ð½Ð°ÑĤ
ĠÐ¡ ÑĤÐµÐ¿
ÑĢÐµÐ ½Ð¸ÐµÐ¼
Ðķ Ð³Ð¾
ÑĢÑģ ÐºÐ¾Ð¼
ĠÐ¼Ð°Ð³Ð ½
ĠÐ½Ð°Ð· Ð²Ð°Ð»
ĠðŁĺ Ĩ
ĠÐ´ÐµÑĢÐ ¶Ð°Ð»
ĠÑįÐ½ÐµÑĢÐ³ ÐµÑĤ
Ġ Ð¿ÑĥÑĤ
ÑĪ ÐºÐ¾
ĠÑĢÐ°Ñģ ÑĤÐ²Ð¾
Ġ Ð²ÐµÐ½
ÑĢÐ°Ð ²Ð½
or e
ĠÐ·Ð°Ð ±ÑĢÐ°ÑĤÑĮ
ĠÐºÐ¾Ð ¶Ð°
ĠÑĤÐµ Ð¼Ðµ
ĠÐĽ ÐµÐ³
ĠÐ¡ ÑĥÐ´
ĠÐĶ Ð²Ðµ
ĠÐ²ÑĭÐ ²Ðµ
Ġ Ð²ÐµÐ»
ĠÑģÑĤÐ¾Ð ¿
ĠÑĦ ÑĢÐ°Ð·
Ñģ Ð¼ÐµÐ»
ĠÐ²ÐºÐ»Ñİ ÑĩÐ°Ñı
Ð´Ñ ıÑī
ÑĢÐ ½Ð¾Ð¼
ĠÐ²ÑĢÐ°Ð ³Ð°
ĠÐ¤ ÐµÐ´Ð
ĠÐ±Ð°Ð±Ñĥ ÑĪÐºÐ°
ĠÐ±Ð¾Ðµ Ð
ÑĩÐµÑģ ÑĤÐ²Ð¾Ð¼
Ðĳ Ð£
ĠÐ¿ÑĢÐ¾Ð³ÑĢÐ°Ð¼ Ð¼Ð°
Ð¾Ð° Ð
ĠÑĪÐ¾ Ñĥ
ĠÐĲÐ´ Ð¼Ð¸Ð½
ĠÐłÐ¾ÑģÑģÐ¸Ð¹ ÑģÐºÐ¾Ð¹
ÑĸÐ ½
ÐŁ ÐĽÐĲ
ÑģÐµÐ½Ñ Į
ĠÐ¾Ð±ÑĢÐ°Ð·Ð¾Ð² Ð°Ð½Ð¸Ðµ
ĠÐ¿Ð¾ÐºÑĥÐ¿Ð°Ñ Ĥ
ÐľÐŀ Ð¡ÐļÐĴÐĲ
ĠÐĶÐµ Ð²ÑĥÑĪÐºÐ°
ĠÐºÑĥÑħ Ð½Ðµ
ĠÑĤÐ¾ ÑĩÐºÑĥ
ĠÐ´Ð¸Ð·Ð°Ð ¹
Ð ·a
Ñ ĤÑĥÑĢ
ĠÐł Ð¾
ĠÐ´Ð¸ ÑĢÐµÐº
ĠÐŀÑĤÐº ÑĥÐ´Ð°
ĠÐ¾ÑĤÐ ²Ð»Ðµ
Ð¸Ð»Ñ ĭ
ĠÐ¿Ð¾ÐºÑĥÐ¿Ð°ÑĤ Ñ
ĠÐ°ÑĢ ÑħÐ¸ÑĤÐµ
Ð¾Ð´Ð ²Ð¸Ð
ĠÐ¿Ð¾ÐºÑĥÐ¿Ð°ÑĤÑ Į
ĠÐĵÐ¾ÑģÐ¿ Ð¾Ð´Ð¸
Ð²ÑĤÐ¾ ÑĢÑĭÑħ
al b
ĠÐĳÐ¾Ð³ Ñĥ
Ð¾Ð² Ð¾Ðµ
»Ð¾Ð¶Ð¸ Ð»Ð°
ĠÐ°Ð ¶
ĠÐ±Ð¾Ð»ÑĮ ÑĪÐµÐ¹
Ðľ Ð£
Ð¿Ð ¸ÑĢÐ¾Ð²
ĠÐºÐ¾ÑĢÐ ¾Ð»ÑĮ
ĠÐ¢ Ð¸Ñħ
ĠÐºÐ¾Ð½ÑĦ Ð»Ð¸ÐºÑĤ
ĠÑĢÑĭ ÑĨÐ°
ÑīÐ° Ñİ
ĠÑģÑĤÑĢÐ° Ð½Ð°Ñħ
Ġ ÑģÑĤÐ²Ð¾Ð»
ÑĢÐ¸ Ð´Ð¸
ĠÑģÐºÐ° Ð¶Ð¸
² ÑħÐ¾Ð´Ð¸ÑĤ
Ġ vk
± ÑĢÐµÐ½
ÑĤÑıÐ ±ÑĢÐµ
Ñħ Ñħ
Ð ²ÑħÐ¾Ð´Ð¸ÑĤ
ĠÐ·Ð°Ð¿ÑĢÐµ Ñī
ĠÐł ÐµÐ·
Ġ Ð¸ÑĤÐ°Ð»ÑĮÑıÐ½
ĠÐ¼Ð¾Ð½Ð°ÑģÑĤÑ ĭ
½ÑĥÑĤ ÑĢÐ¸
ĠÐ´Ð° Ð¼
i al
ĠÐĲ ÑĢÑĤ
ĠÑĢÐ¾Ñģ ÐºÐ¾
ĠÐ²Ð° ÑĪÐµÐ¼Ñĥ
ĠÑģÐ¾ÑĢÐ ¾Ðº
ĠÐºÐ»Ð¸ ÐµÐ½ÑĤÐ¾Ð²
ĠÐĶ Ð°Ð½
ÑĤÑĢÐ°Ð ´
ÐĹ Ð°Ð¿
ĠÐ¿ÑĢÐ¾Ð² Ð¸Ð½
ðŁĴ ¥
ĠÐ²Ðµ Ð´ÐµÑĤ
ĠÐ¦ ÐµÐ½ÑĤ
ĠÑħÐ¾Ð·ÑıÐ ¸Ð½Ð°
ĠÐŃ Ð¢Ðŀ
ĠÐ°Ð½Ð° Ð»Ð¸Ð·
ĠÑĥÐ¼Ðµ ÐµÑĤ
ĠÑĢÐµ Ð°Ð»Ð¸Ð·
ĠÐ¸Ñī ÐµÑĤ
Ð¸ÑĩÐ ½ÑĭÐ¹
ĠÑģÐ ²ÐµÑĢÑħ
) :
Ñģ Ð·Ð°Ð´Ð¸
Ð»ÐµÐ½Ð ½Ð¾Ðµ
ÑĢÐ°Ð½Ð¸Ñ ı
Ð¾ ÑĢÑĥ
b l
ĠÐĴ Ð¿Ðµ
ĠÑģÐ»Ñĭ ÑĪÐ°Ð»Ð°
a Ðº
ĠÐ¸Ð½ÑĤÐµÑĢÐµ ÑģÐ¾Ð²
ĠÐ¾Ð±Ñī ÐµÐ½Ð¸Ñı
ĠÐ´Ð½ÐµÐ ²Ð
ĠÐ°ÑĢÐ³ ÑĥÐ¼
ĠÐºÐ°Ð¶Ð´ Ð¾Ðµ
aÑĤÑ Į
ĠÐ²Ð»Ð° Ð´Ðµ
ÑĪÐµÐ½ Ð½ÑĭÐ¹
ĠÐ£ Ð¶
ĠÐ²Ðµ ÑĢÑĥ
ĠÑıÐº Ð¾Ð±Ñĭ
ÑģÐµÐ» Ñ
ĠÐº ÑĢÐ¸Ð·
ic h
ĠÐºÐ°ÑĩÐµÑģ ÑĤÐ²ÐµÐ½
¸ ÑĤÑĥÑĨ
ÑĨÐ¸Ð¾Ð½ Ð½Ð¾Ð³Ð¾
Ð ¸ÑĤÑĥÑĨ
ĠÐ±Ð¾ÑĢÑĮÐ ±Ñĭ
ĠÐ²Ð¸ Ð´Ð¸Ð¼
Ð¾ ÑĩÐµÐ½ÑĮ
ĠÑģÐ¾Ñħ ÑĢÐ°Ð½Ð¸ÑĤÑĮ
ĠÐ¼ ÑĥÐ»ÑĮÑĤ
Ĥ Ð¸ÑĤÑĥÑĨ
Ñ ĤÐ¸ÑĤÑĥÑĨ
ĠÑĦ ÑĥÐ½
ĠÐ°Ð ±Ð
ÑĩÐµÑģ ÑĤÐ²Ñĥ
ĠÑģÑĤÐ° ÑĢÐ°ÑıÑģÑĮ
Ġ ÑģÐ¼ÐµÐ»
ĠÐº Ð»Ð¸Ð½
, -
Ð§Ðµ ÑĢÐµÐ·
ec t
»Ð¾Ð¶Ð ¸Ð»Ð¸
ĠÐĹÐ´Ð ¾ÑĢÐ¾Ð²
ĠÑĢÐ°Ð·Ð½Ð¾Ð ¾Ð±ÑĢÐ°Ð·
ÐµÐ½Ñ ĤÑĢÐ°
Ñī Ð¸Ð½Ñĭ
ĠÐ½ÐµÐ²ÐµÑĢÐ ¾ÑıÑĤ
ĠÐº ÑĥÐ
± Ð°Ð»Ð
ĠÐ¾Ð± ÑīÐ°ÑĤÑĮÑģÑı
ĠÐ¿Ðµ ÑīÐµ
Ġ Ð³ÑĥÑģ
ÐĴ Ð¡
ĠÐ¸Ð ½Ð¾Ð¹
Ñį Ñį
Ðł Ð°
ÑĥÐ´Ñ ı
ĠÐ¿Ð¾ ÑĢÑıÐ´ÐºÐ°
ĠÐ±ÑĢÐ¸ ÑĤÐ°Ð½
ĠÐ§ Ð¢Ðŀ
ĠÑģÐ´ÐµÐ»Ð° ÐµÑĤ
Ġâ ĿĹ
ÑĤÐ°Ðº ÑĤÐµ
Ð´Ð°Ð»Ðµ ÐºÐ¾
ĠÐºÑĢÐ°ÑģÐ¸Ð ²ÑĭÐ¹
ĠÐ·Ð°Ð´Ð° ÑĩÐ°
ÑĢÐ° ÑģÑĤÐ°
Ð²Ð°ÑĤ Ð
ĠÐ¿Ð¾Ð»ÑĮÐ· Ð¾Ð²Ð°ÑĤÑĮÑģÑı
ĠÐ²Ñ Ĥ
ÑĥÐ· Ð
ĠÐ¿ÑĢÐ¾ Ñī
ĠÑĢÐµÐ»Ð¸Ð³Ð¸ Ð¾Ð·
ÑĤÐµÑĤÑ Į
Ġ you
Ð¼Ð µÑģÑĤÐ¸
ĠÐŀÐ»ÑĮÐ ³Ð°
ĠÐ°Ð²ÑĤÐ¾Ð¼Ð° Ñ
ĠÐ¾ÑģÑĤÐ°Ð ²Ð°ÑĤÑĮÑģÑı
ĠÐºÐ¾ÑĢÐ ¾Ð½Ð°
ĠÐ°Ð²ÑĤÐ¾Ð¼Ð°Ñ Ĥ
ĠÐ¿Ð¾Ð ¾Ð±Ðµ
ĠÐºÐ¾Ð»Ð¸ ÑĩÐµÑģÑĤÐ²Ð°
a x
ĠÐ¿ÑĢÐ¾Ð· ÑĢÐ°
ĠÐ¸Ð¼ ÑĥÑīÐµÑģÑĤ
ĠÐ²ÐµÑĢÐ ½ÑĥÐ»Ð°ÑģÑĮ
ĠÐ·Ð° ÑĢÑı
ÑĤÐµÐ»ÑĮÐ ½Ð¾Ð¼
ÑĢÑĤÐ ²
ĠÐ´ÑĢÑĥÐ ¶Ðµ
ÑģÐ¼Ðµ ÑıÐ»ÑģÑı
ÐµÐº Ð
±ÑĬÐµ ÐºÑĤ
ĠÐ¿Ð¾Ð» Ð°Ð³
Ð¾ÑĤ Ð¾Ð³ÑĢÐ°ÑĦ
ĠÐ´Ð¾ÑĢÐ ¾Ð³Ð¾
ĠÐ²Ð¾Ð·Ð±ÑĥÐ ¶Ð´
ĠÐ¿Ð ¸ÐºÐ°
ĠÐºÐ¾Ð» Ðµ
±Ñı Ð·Ð°
ĠÐ¾ÑĤÐ¿ÑĢÐ°Ð² Ð¸Ð»ÑģÑı
ĠÐ¾ÑĤÐ²Ðµ ÑĩÐ°ÑĤÑĮ
Ð ³Ð»ÑıÐ
ĠÑĥÐ³ Ð»Ñĥ
ĠÑħÐ¾ÑĢÐ¾ ÑĪÐµÐ¼
Ð°Ð ±ÑĢÐ¸
ĠÐ±ÑĥÐ´ÑĥÑī ÐµÐ³Ð¾
½Ð¸ÐºÐ° Ñħ
ĤÑĢÐ°Ð º
ĠÐ¸Ð· Ð±Ð¸
ĠÑĢÐ°Ð·ÑĥÐ¼ ÐµÐµÑĤÑģÑı
Ġ ÑģÐ·Ð°Ð´Ð¸
Ðķ ÑīÐµ
ĠÐ·Ð° Ð¼Ð¾Ðº
ĠÑĥÑĩÐ°ÑģÑĤÐ¸ Ñ
ĠÑĤÑĢÐ¾Ð ¿
ÑħÐ°Ñ ı
Ð ¸Ð¼ÐµÐ
. ).
ÑĥÑİÑī Ð¸Ðµ
ĠÐ¿ÑĢÐ¸ÐºÐ° Ð·Ð°Ð»
ĠÑĥÑĩÐ°ÑģÑĤÐ¸Ñ ı
ÑĤÐµ Ð»Ð°
Ġ Ð²Ð»Ðµ
ĠÐ²ÑĢÐ°Ð ³
ĠÑĥÐºÐ° Ð·Ð°Ð½
ĠÐ·Ð°ÑıÐ² Ð»ÐµÐ½Ð¸Ðµ
ĠÐ¢Ð°Ðº Ð¸Ðµ
ĠÐ½Ð°Ð²Ñģ ÑĤÑĢÐµÑĩÑĥ
ÑģÐ»Ð¾Ð²Ð ¸
Ñĸ Ñ
Ñħ Ð¾ÑĤÑı
Ð°Ð¹Ð ½
ĠÐ¾ÐºÐ°Ð·Ð° ÑĤÑĮÑģÑı
ĠÑĤÐ°Ðº ÑģÐ¸
ÑĪÐ ½ÑĭÑħ
¸ Ð¿Ð¾ÑĤ
ðŁ¤ ·
² ÑĥÐºÐ¸
Ð¿ Ð¾Ð»Ñ
ĠÐ²Ñĭ ÑĪÐ»Ð¾
ĠÐ·Ð¸Ð¼Ð ¾Ð¹
ÑĩÐ ½ÐµÐ
Ġâĺ İ
Ġ Ð²ÑħÐ¾Ð´Ð¸ÑĤ
ĠÐ³Ð»Ð° Ð²Ñĭ
ÑĩÑĳ Ð
ĠÐºÑĢÐ° Ñİ
ĠÐ¿Ð° ÑĢÐ¾
c k
ÑĥÑį Ð
Ĥ Ð¸Ð³
ĠÐ½ÐµÐ¿Ð¾Ð½ ÑıÑĤ
Ð ²ÑĥÐºÐ¸
ĠÐł Ð¾Ð¼
ĠÐ¿ÑĢÐ¾Ð¸Ð·Ð½ÐµÑģ Ð»Ð°
ĠÐ¾ÑĢÐ³Ð°Ð½Ð¸Ð· Ð¼
ĠÐºÐ¾Ð¼Ð¼ ÑĥÐ
Ð ¸Ð¿Ð¾ÑĤ
ÐĺÐ¢ Ð¬
ĠÐ½Ð° ÑĢÑı
Ð´Ð ½Ð¾Ð³Ð¾
Ð¾ÑĢÑĥÐ ¼
Ð´Ð°Ñ Ģ
ĠÐ¾Ð±Ð¾ÑĢÐ ¾Ð½
ĠÐ¿ÑĢÐ¸Ñ ı
ĠÐ¿Ð¾Ð½ ÑıÑĤÐ¸Ñı
ĠÑįÐº ÑģÐ¿
Ð¿Ð¾Ð º
Ġ ÑģÐ´Ð°
ÐµÐ¼Ð ¾Ð½
ÐĿ Ð°Ð¿
· Ð¶
ĠÐ¾Ñī ÑĥÑĤ
Ð²Ð°ÑĤÐ ¸
Ð±Ð »Ðµ
ĠÐ¿ÑĢÐµ ÑĢÐ
ĠÑħÐ²Ð°ÑĤ Ð¸Ð»Ð¾
Ðľ Ð¾ÑģÐº
ĠÐ¿Ð° ÑĢÑĭ
ĠÐ²ÑģÑĤÑĢÐµ ÑĩÐµ
ĠÐ¼ÐµÑĢÐ¾Ð¿ ÑĢÐ¸ÑıÑĤÐ¸Ñı
ĠÐ¿Ð¾ÑģÑĤ ÑĢÐ¾ÐµÐ½
ĠÐ¡ Ð´Ðµ
ÑĢÐ°Ð»Ñ ĮÐ½Ð°Ñı
ĠÑģÑĩÐ¸ÑĤÐ° ÐµÑĤÑģÑı
ĠÑģÐ¿Ð¾ÑĢÑĤ Ð¸Ð²Ð
Ĥ Ð´
ĠÐ»Ð¸ ÑĩÐ½ÑĭÐµ
ĠÐĴÐ¸Ðº ÑĤÐ¾ÑĢ
ĠÐ¾Ð±Ð ´
ÑĤÐµ ÑĢÑĭ
Ð¥ Ð¾
ĠÐł Ð¾Ð±Ðµ
ĠÑģÐ¾ÑĤÑĢÑĥÐ´ Ð½Ð¸ÐºÐ¸
Ð¿Ð¾ ÑĢÑĤ
ĠÐºÐ¾Ð¼ Ð¿Ð¾Ð·Ð¸
ĠÑĢÐ°Ð· Ð²Ð¾Ð´
ĠÐ´Ð ²Ð¾Ð
ĠÐĺÐ½ Ð
±Ð° Ñģ
ÑĨÐ¸ Ð¾Ð½Ðµ
ĠÐ½Ð¾Ð ¶
ĠÐ¿Ð¾Ñħ ÑĥÐ´
ĠÐ¿ÑĢÐ¾Ð´ Ð²Ð¸Ð
ĠÑģÑĤÐ¸Ñħ Ð
ĠÑģÑĤÐ¸ÑħÐ ¸
Ġ ÐµÐ¿
ĠÑĤÐµ Ð¼Ñĭ
ĠÐ½Ð°Ð»Ð¸ÑĩÐ ¸Ðµ
ÑĢÑĨ Ñ
ĠÐ¿Ð¸ ÑĤÐ°Ð½Ð¸Ñı
ĠÑĥÐ ¶Ð¸Ð½
Ð¿ ÑĢÑıÐ
Ñ ĤÐ´
ÑģÐ»Ñ ĭ
Ð°Ð¹Ð »
ĠÐ¿Ð¾ÐºÐ°Ð·ÑĭÐ ²Ð°ÐµÑĤ
ĠÑģÐº Ð¾Ð½
ĠÑĥÑģ ÐºÐ¾
ĠÑĥÑģ Ñ
Ð¿ ÐµÐ¹
Ð¡ Ðº
ĠÐ¾ÑĪÐ¸Ð±Ð º
ĠÐ¿ÐµÑĢÐµ Ð½Ð¾
Ñī Ð¸ÐºÐ°
ĠÐ·Ð°ÐºÐ¾Ð½ Ð¾Ð´Ð°
Ð´Ð ¾Ð»
ı Ð»Ð¾
Ð ·ÐµÐ»
ĠÑģÐ¿ Ð¸Ð½Ðµ
ĠÑĤÐ° Ð±Ð»Ð¸
Ð ±Ð°Ð»Ð
ĠÐ¿Ð¾Ð´Ð¾ ÑĪÐ»Ð°
ÑĢÐ¾Ð² Ð°Ð»
ÐµÐ ¾ÑĢÐ³
Ð½Ð° ÑģÑĤÐ¾Ñı
ĠÐ¾ÑĪÐ¸Ð±Ðº Ð
ĠÐ¾ÑĪÐ¸Ð±ÐºÐ ¸
ĠÐ²ÑĭÐ¿ ÑĥÑģÐºÐ°
ĠÐĳ Ðŀ
ĠÑģÑĢÐµ Ð´Ñĥ
²Ð¸Ð ¶Ñĥ
ĠÐĵ ÑĢÐµ
ĠÑģÑĩÐ°ÑģÑĤ ÑĮÑİ
ĠÑģÐ¾Ð¾ÑĤÐ²ÐµÑĤÑģ ÑĤÐ²Ð¸Ð¸
ĠÐ¿Ð¾Ð»Ð¾Ð² Ð¸Ð½Ñĥ
6 3
Ð¸Ð¼Ñ ĭ
ĠÐºÐ¸Ð»Ð¾Ð¼ÐµÑĤ ÑĢÐ¾Ð²
ĠÐ¾ÑīÑĥÑī ÐµÐ½Ð¸Ñı
i an
ĠÐĿ Ðĺ
ĠÐ¿Ð¾Ð´ÑĢÑĥÐ ³Ð°
ĠÑĥ ÑħÐ¾Ð´
ĠÐ´Ñ ı
ĠÑģÐ¿Ð¾ ÑĢÑĤÑģ
ĠÑĢÐ°Ð´ Ñ
ĠÐ±Ð»Ð° Ð³Ð¾ÑĢÐ¾Ð´
ðŁİ ģ
ÑĪÐ¸Ð½ Ñ
ĠÑĢÐ°Ð´Ñ ĭ
ĠÐ¾Ð±Ð ¸ÑĤÐ°
ĠÑĢÐ°Ð·Ð³Ð¾Ð² Ð¾ÑĢÐ°
u st
ĠÐ¸Ð· Ð²ÐµÑģÑĤÐ
ĠÐ¿ÑĭÑĤÐ° Ð»Ð°ÑģÑĮ
»Ð¾Ð² Ð
ĠÑĩÐ»Ðµ Ð½Ð¾Ð²
¸ Ð´Ð°
ĠÐ¿ÑĢÐµ Ð¿
ĠÐ¿ÐµÑĢÐµ Ð´Ð°ÑĤÑĮ
Ð¶ÐµÐ½ Ð
±Ñ ĭÑħ
Ð·Ð° Ð½Ð°
ĠÐ¸Ð·Ð ³
¸Ð ²Ð°Ð»
ĠÐ±ÑĥÐ¼ Ð°Ð¶Ð
ĠÐ²ÐµÐ»Ð¾ ÑģÐ¸Ð¿Ðµ
ĠÐ²Ð° ÑĪÐµÐ¼
Ġ201 3
ÑĪÐµÐ½Ð ½
Ĥ Ð»Ðµ
ĠÐ¸Ð³ Ñ
is h
ĠÐ¿Ð¾ ÑĩÐ
ĠÐ¾ÑĢÐ³Ð°Ð½Ð¸Ð· Ð¾Ð²
ĠÐ·Ð°Ð¼ÐµÑĤ Ð½Ð¾
Ð¾Ð´Ð°Ñ ı
ĠÐ¸Ð³Ñ Ģ
ÑģÑĥÑĤ ÑģÑĤÐ²Ñĥ
ĠÐ¾Ð¿Ð°ÑģÐ ½Ð¾ÑģÑĤÐ¸
ĠÐ¿ÑĢÐ¸Ð½ ÑĨÐµÑģ
Ð¡ Ð¾
ĠÐ¡ Ñĥ
Ð¸Ð½ ÑĥÑĤÑĮ
Ð µÑģÑ
ĠÑıÑĢÐº Ð¾
ÑĭÐ»Ñ Į
Ġ r
ĠÐ²ÑĭÑģÐ¾Ðº Ð¸Ð¹
³ Ð²Ð°ÑĢÐ´
ĠÐ´ÐµÐ»Ð° Ð»Ð°
ĠÐ¾ÑĢÐ³ Ð°Ð½Ð¾Ð²
ĠÑĥÐ´ Ð¾Ð±
ĠÐ¾ ÑĩÐ¸ÑģÑĤ
ĠÐ¿Ð¾Ð½Ð¸Ð¼ Ð°ÐµÑĤÐµ
Ð¼ÐµÑĤÑ ĭ
ĠÐ·Ð° Ð¿ÑĥÑģ
²Ð ¸ÑģÑĤ
Į ÑİÑĤ
ĠÐ¶ÐµÐ» ÑĥÐ´
âĺ Ŀ
ÑīÐ°Ñ ıÑģÑĮ
ĠÐ¶Ð¸Ð² Ð¾Ð¹
Ð»Ð µÑģÑĤ
ĠÑģÐºÐ¾ÑĢÐ ¾ÑģÑĤÐ¸
n o
ÑĪÐµÐ½Ð¸Ðµ Ð¼
ĠÐ¡ ÐºÐ¾ÑĢÐµÐµ
Ġ Ã
ĠÐ±Ð ¾ÑıÐ
Ġ ÑģÐ»Ð°Ð
6 2
ĠÐ¾Ð¿ÑĢÐµ Ð´ÐµÐ»Ñ
ĠÐĶ ÐµÑĢÐ
ĠÐ´ÐµÑĢÐµÐ ²Ð°
Ð¼Ð°Ñ Ģ
Ð¾Ð¿Ð°Ñ Ĥ
ĠÐ´Ð²Ð¸Ð ³
ĠÐ¢Ð°Ðº Ð¾Ð¹
ĠÐ¾Ð±ÐµÐ ·
l d
ĠÐ´Ðµ Ð²Ð¸
¶Ð ½Ð¾Ðµ
ÑģÑĭÐ »Ð°
ÑĢÑĥÐ ³Ð°
ĠÐ´ÐµÑĢÐµÐ²Ñ ĮÐµÐ²
ĠÐºÑĥÑģ Ð¾Ðº
ĠÐ»Ð°Ð´Ð¾Ð½ Ð
ĠÐ»Ð°Ð´Ð¾Ð½Ð ¸
ĠÐ¼Ð¾ ÑīÐ
Ð´Ð ²Ð¸Ð½
ÑĪÐ ½ÑĭÐ¼
ÑĥÑĤÐ¸ Ñ
ĠÐ¿Ð¾Ð´ÑĢÐ¾Ð±Ð ½Ð¾ÑģÑĤÐ¸
ĠÐľ Ð°Ð»ÑĮ
! ?
ĠÐ´Ðµ Ð´Ñĥ
ÑĢÑĤÐ¸ Ð»Ð»Ðµ
ĠÐĵ Ð¾ÑĢÐ¾Ð´
ÐµÐ½ÑĮ ÐºÐ¸Ð¹
¸ ÑīÐµ
ÑĢÐºÐ° Ð
ĠÐ±Ðµ Ð¶Ð°ÑĤÑĮ
ĠÑĪÐ» Ñ
Ð°Ð½Ñ ĮÑĪÐµ
ĠÐ¿Ð¾Ð»Ñĥ ÑĩÐ°ÐµÑĤ
Ġ Ð»ÐµÐ¹ÑĤÐµÐ½Ð°Ð½
ĠÐ²Ð¾ÑģÐ¿ Ð¾Ð»ÑĮÐ·
ĠÐŀ ÑģÐ½Ð¾Ð²
ĠÑĢÐµÐ ¶Ð¸Ñģ
Ð»Ð¸Ð ²Ð¾Ð¹
Ð´Ð°ÑĤÑ ĭ
ĠÐŀ Ð±Ðµ
ĠÐ¿Ð¾Ð´ Ðµ
ĠÐ° ÑĢÐµÑģ
ĠÐĿÐ° ÑĤÐ°
ĠÑĪÐ»Ñ ı
ÐĹ Ð´Ð
ÐŁ Ð¾Ð»
Ð¿Ðµ ÑĢÐµ
Ð¡ ÐµÐ¹ÑĩÐ°Ñģ
¸Ð· Ð½Ðµ
ĠÑģÐ»Ð° Ð±ÑĭÐ
ĠÑĢÐ°Ð±Ð¾ ÑĩÐ¸Ñħ
ÑĪÐ¸Ð½Ñ ĭ
ÑĢÐ°Ð· Ð´Ðµ
Ð¾Ð¼Ð¸ Ñ
Ð´Ð¸ Ð¼Ð¾
ÐĽ Ð°
ĠÐľ Ð¾Ð¶Ðµ
ĠÐ¶Ð ¸Ð»Ð°
Ð¾Ð³ ÑĢÐ°Ð¼
ÑĩÐµÐ½ Ð½ÑĭÐ¼
ĠÑĢÐµÑģÑĥ ÑĢÑģ
ĠÐ¿ÑĢÐ¸Ð ²Ð¾Ð´Ð¸ÑĤ
ĠÑĥÐ±Ð ¸Ð»
Ð°Ð½Ð¸ ÑĤÐ°
ĠÑĥÑģÐ¿Ðµ Ð»Ð¸
ÑĢÑĨÑ ĭ
ĠÐ¾ÑģÐ½Ð¾Ð² Ð½Ð¾Ð¹
ÐĶ ÐĶ
ĠÑĢÐµ ÑĪÐ°ÑĤÑĮ
ı Ð´ÐµÐ»
Ñ ıÐ´ÐµÐ»
Ð²Ð¾Ðµ Ð
» ÑıÐ´ÐµÐ»
ĠÑģÐ²ÑıÑī ÐµÐ½Ð
¾Ð ¾
ĠÐ²ÑĭÐ·ÑĭÐ ²Ð°ÐµÑĤ
ĠÐ²Ð´Ð¾Ñħ Ð½Ð¾Ð²
Ð¾ÑģÑıÑĤ Ñģ
ĠÐ²ÑĭÐ¿Ð ¸
ÑĥÐ¿ Ð°
Ð¾ÑģÑıÑĤÑģ Ñ
¸ ÑıÑħ
Ð´Ð ¸Ð»Ð¸
Ð¾ÑģÑıÑĤÑģÑ ı
Ñ ĤÐµÐ½ÑĮ
³ Ð»Ð¾ÑĤ
Ġ Ð¿Ð¾Ð»Ñ
»Ð¾Ð ºÐ°
ĠÐºÐ°Ð »
ĠÐ¿ÑĢÐµÐ´ Ð¼ÐµÑĤ
ĠÑģÑĥÐ¿ ÑĢÑĥÐ³
ĠÐºÐ¾Ð½ÑĤÑĢÐ ¾Ð»ÑĮ
Ġ Ð¸Ð¼ÐµÐ
ĠÑħ Ð¾Ð´Ð¸ÑĤ
8 9
ĠÐ¿ÑĢÐ¾Ð ±Ðµ
Ġ ÑģÑĦ
ĠÑĢÐ°Ñģ ÑħÐ¾Ð´
ĠÐ½Ð°Ð³ Ð
Ð´ÐµÐ½Ñ ĭ
ðŁĳ Į
ĠÐ²ÐµÑĢÑģ Ð¸Ð¸
ĠÐŁÐ¾ ÑħÐ¾Ð¶Ðµ
ĠÐ¾Ð± ÑģÑĥÐ´
ĠÑĩÑĢÐµÐ· Ð²Ñĭ
Ġ ÑĪÐµÐ
ĠÐ·Ð°Ð¼Ð ¾Ð»
ĠÐºÐ¾Ð¼Ð¿Ð»Ðµ ÐºÑĤ
ĠÐ±ÑĢÐ°ÑĤ ÑĮÑı
ĠÐ¿Ð»Ð° Ð½ÐµÑĤÑĭ
½ ÑıÐ
Ñģ ÑĤÑĥ
t op
ĠÐ¿ÑĢÐ¾Ðµ Ð
ĠÑĥÑģÐ¿Ðµ ÑħÐ°
ĠÐ´Ð° Ð»Ð°
ĠC h
Ð¾ ÑĩÐµÐº
¸ ÑĪÐ¸Ð½Ð°
²Ð¸ Ð»Ð¾
Ġ re
ĠÐ·Ð°Ñ Ĥ
ĠÑģÐº Ð»Ð°Ð´ÑĭÐ
Ð ¸ÑĪÐ¸Ð½Ð°
ĠÐ¿Ð¾ÐºÐ° ÑĩÐ°Ð»
ĠÐ¿Ð¾ÑĩÑĥÐ²ÑģÑĤÐ² Ð¾Ð²Ð°Ð»Ð°
â ĥ£
ĠÑģÐ¼Ð¾ÑĤ ÑĢÑı
ĠÐŁ Ñ
ĠÑģÑĢÐ°Ð²Ð½ ÐµÐ½Ð¸Ñİ
ĠÐļÐ¾Ð½ÑģÑĤÐ°Ð½ ÑĤÐ¸Ð½
Ġ Ð·a
or d
Ĥ Ð¸Ð»Ðµ
Ðº Ð¾Ð±
Ġ Ð»Ð¾ÑĤ
ÑĢÐ »
ĠÐĺ Ð¸Ñģ
ĠÑĢÐ°Ð²Ð½ Ð¾Ð´Ñĥ
ĠÑģÑĤÑĢÐ¾Ð¸ Ñ
ÑĢÐ¸Ð½Ð ³
ĠÑģÑĤÑĢÐ¾Ð¸Ñ Ĥ
²Ð ½Ð¸Ð
ĠÑģÑĤÐ° ÑĢÐ¸Ðº
ÑĪÐ ¾Ðµ
Ġ Ð±Ð°Ð»Ð
ĠÑģÐ¾ ÑĨÐ¸Ð°Ð»
ĠÐ¿Ñ ĮÑıÐ
Ð¸Ð²Ð° Ñİ
4 7
Ð¿ Ð°Ð±Ð
Ġ st
ĠÑģÑĤÐ°ÑĤ ÑĮÐ¸
ĠÐľ Ð½Ð¾Ð³Ð¾
ĠÐ²Ð¾Ð ¿ÑĢÐ¾
ĠÐ³Ðµ ÑĢÐ¾Ð
ĠÑģÐ¸Ð»ÑĮÐ ½ÑĭÐ¹
ĠÐ¼Ð³Ð½Ð¾Ð² ÐµÐ½Ð½Ð¾
ĠÐºÐ¸ ÑĢÐ¿
ĠÐ¿Ð¾ÑıÐ ²Ð»ÑıÐµÑĤÑģÑı
Ðķ Ð
ĠÑĥ ÑħÐ¾Ð´Ð¸ÑĤ
ĠÐ¼ÑĥÐ¶ÑĩÐ¸Ð½ Ñĥ
ÑĪÐµÐ½Ñ ĭ
ĠÐ¿ÑĢÐ ¾Ñ
ÑĢÑĭÐ ³
½ Ð¾Ð´
ĠÐ²Ð¸ ÑĢÑĥÑģ
ĠÐ¼ÐµÑĩÑĤ Ñ
ĠÐºÐ° ÑģÐ°
ĠÑģÑģÑĭÐ» ÐºÐµ
ĠÐ¼ÐµÑĩÑĤÑ ĭ
ÑĩÐ¸ ÑĤÐ°Ð»
Ġ20 20
ĠÐ¼Ð¸Ñģ Ñģ
ĠÐ¿ÐµÐ´ Ð°Ð³
ĠÐ¡ ÑĢÐµÐ´Ð¸
Ñģ ÑĤÐ¸Ð¼
ĠÑģÐ¸ÑģÑĤÐµ Ð¼Ðµ
ĠÐŁ ÑĢÐ¸Ñģ
¾Ð»Ñ ĮÑĪÐµ
ĠÑģÑĤÐ°Ð½Ð¾Ð² ÑıÑĤÑģÑı
ĠÐ¿ÑĢÐ¸ ÐºÐ¾
Ñ ĤÐ¸Ð»Ðµ
ĠÑĪÐºÐ° ÑĦ
ĠÐ¿Ð¾ÑĤ Ð¾Ðº
ĠÐ°Ð¿ Ð¿Ð°
ÑĤÑĥ ÑĢÑĭ
II I
ĠÐ¢ Ð¾ÑĢÐ
ĠÐ½ÐµÐ¼ Ð°Ð»Ð¾
Ð´ ÑĢÐ°Ð²
ĠÐ¼Ð°ÑĤÑ ĩ
ĠÐ¿Ñ ı
ÑĥÐ ³Ð¾Ð»
Ð²Ð¾ ÑĢÐ°
ĠÐļ Ð¾Ñģ
ÑĩÐ° ÑģÐ°
ĠÑĨ ÐµÐ»Ñ
Ð°Ð½ Ð´Ð°
ĠÐ¼Ðµ ÑĤÑĢÐ°
alb um
Ĥ Ð¾Ñģ
ĠÑħÐ¾ÑĤ Ð¸Ð¼
ĠÐ´Ð ¶Ð¸Ð½
½ Ð¾ÑĤ
ĠÐ´Ð¾ÐºÑĥÐ¼ ÐµÐ½ÑĤÐ¾Ð²
ĠÐ¿ÑĢÐµÐ´Ð¿ ÑĢÐ¸ÑıÑĤ
ĠÐ¾Ð±Ñī ÐµÐ¹
Ð ¸Ð¼ÐµÐ½
ĠÐĶ ÐĲ
Ġ Ò
ĠÐ²Ð½Ð¸Ð· Ñĥ
³Ð¾Ð² Ð¾ÑĢ
ıÑ ıÑģÑĮ
³ ÑĥÐ»Ñı
ĠÐ¼Ð¸Ð½ ÑĥÑģ
Ð¢ ÐŁ
ÑĮÐ ³
eÐ½ Ð
Ð°Ð»Ð¸Ñ Ĥ
ÑĤÐµ ÑĢÐ¾Ð²
Ð¾ÑĢÑĭÐ ¹
ĠÐ²ÑģÑĤÑĢÐµ ÑĩÑĥ
ĠÑģÐ¾Ð² Ðµ
ĠÐ¿Ð¾Ð·Ð° Ð´Ð¸
ĠÐ¾Ñģ Ð»Ð°
ĠÐ²Ð¾ÑĢÐ¾ ÑĤÐ°
ÑĨ ÐµÐ¹
ĠÐ¼ÑıÐ³ ÐºÐ¾
ĠÐµ Ð´Ñĭ
ĠÐº Ð¾Ð»Ð
ĠÐµ Ð»Ðµ
ĠÑĦ ÐµÑĢÐ¼
Ð´Ðµ Ð½Ð°
³ Ð¸Ð±Ð
ĠÑģÐ¿ Ð¸ÑģÐº
ĠÐºÐ°Ð· Ð
Ð¸ÑĤÐµÑ Ģ
ĠÐ¡ÐµÑĢÐ ³
ĠÑģÐ²ÑıÐ ·ÑĭÐ
ĠÐ¾ÑģÐ¾Ð ±ÑĭÐ
ĠÐ¿Ð¾Ð´Ð° ÑĢÐºÐ¸
ĠÐ»ÑĥÑĩÑĪÐµ Ðµ
ĠÐ½Ð°ÑĢÐ¾Ð´ Ñĥ
ĠÐ¿Ð¾Ð ±ÑĭÐ
ÑĢÑģÐ ¸
ĠÐĺ ÑĤÐ°
ĠÑįÑĤÐ°Ð ¶Ðµ
ĠÐ´ÐµÑĢÐµÐ ²Ð½Ðµ
ĠÑĩÐµÑĤÐ²Ðµ ÑĢÑĤ
ĠÐ¸Ð·Ð±Ðµ Ð¶Ð°ÑĤÑĮ
ĠÐ°Ð´ÑĢÐµÑģ Ñĥ
Ð½ÑĥÐ ½Ðµ
± ÑĢÐ¾Ð²Ð¸
ĠÐŁ ÐĲ
Ġ Ð³ÐµÑĢÐ¼
ÑĥÑ ĤÐµÐ
ĠÑĢÐ°Ð·Ð ²Ð»Ðµ
Ð¸Ð² Ð½Ð°Ñı
ÑĢÑı Ñħ
ĠÐºÐ»Ñİ Ñ
Ð¾Ð ¾Ð±ÑĢÐ°Ð·
ĠÑĨ Ð²Ðµ
ĠÐ²Ð·Ð´Ð¾Ñħ Ð½ÑĥÐ»Ð°
ĠÑĪÐºÐ¾Ð» Ð°
Ñ ĤÐ»Ðµ
ĠÐ½Ð°Ð·ÑĭÐ ²Ð°ÐµÐ¼
ĠÐ°Ð²ÑĤÐ¾Ð¼Ð¾Ð±Ð ¸Ð»Ñı
ĠÐ¾Ð±ÑīÐµÑģÑĤ Ð²Ð¾
Ġ2 50
ĠÐºÐ»ÑİÑ ĩ
Ð¸Ð²Ð° Ð»Ð°
Ð¾Ð´ Ðµ
ÑģÐ ¸Ðµ
ÑģÐ ¿ÑĢÐ¾
ĠÐ²ÑģÐ¿ ÑĭÑħ
ĠÐºÐ¾Ð½ÐºÑĥÑĢÑģ Ð°
ĠÐ¸Ð¼Ðµ Ð»Ð°
ĠÐĽÐ¾Ð½ Ð´Ð¾Ð½
ĠÐĿÐµÑģ Ð¼Ð¾ÑĤÑĢÑı
ĠÑĩÑĥÐ²ÑģÑĤÐ² Ð¾Ð²Ð°Ð»Ð°
ĠÑĢÐ°Ð±Ð¾ÑĤ Ð¾Ð¹
ĠÐ¤ÐµÐ´Ðµ ÑĢÐ°ÑĨÐ¸Ð¸
ĠÐ¿ÑĢÐµÐ¿Ð¾Ð´ Ð°Ð²Ð°
ĠÐŁÑĢÐ¸ ÑĩÐµÐ¼
Ð ³Ð»Ð¾ÑĤ
¾ÑĢÐ¾ÑĤ ÑĮÑģÑı
Ð¼Ð° Ð½Ð°
ĠÑģÐ¾Ð ±Ð¾
Ð¶ÐµÐ ½Ð¸Ðµ
ĠÐ²Ð»Ð¸ ÑıÐ½Ð¸Ðµ
ÑĤÐµ ÑĢÐ¸Ð½
ĠÐ²ÑĭÑģÐ¾Ðº Ð¾Ð¹
ĠðŁĴ ¥
ĠÐ³ÐµÑĢÐ ¾Ð¹
ĠÐ¿Ð¾Ñħ Ð¾ÑĢÐ¾Ð½
ĠÑģÐ¾Ð±Ð¸ ÑĢÐ°ÐµÑĤÑģÑı
ĠÐ¿ÑĢÐ¾Ðº Ð»ÑıÑĤ
ÐĿÐĺ ÐľÐĲ
ðŁĻ Ī
Ð´Ð¸ Ð½Ð°
Ðº Ð¾ÑģÑĤÑĮ
ĠÐ´ÐµÐ²Ñĥ ÑĪÐºÐµ
Ð ±ÑĢÐ¾Ð²Ð¸
ĠÐ¾Ð¿ ÑĥÑģ
½Ð¾Ð² Ðµ
Ñ ĤÑĢÐ°ÑĤ
ĠÐ¼Ð¸Ñģ ÑģÐ¸Ñģ
Ð¿Ð¾ÑĤ Ð¾Ð¼
ÐŁ ÑĢÐ¾ÑģÑĤÐ¾
Ð¾Ð± ÑĢÐ°Ð
ĠÐ¸ÑģÐºÑĢÐµÐ½ Ð½Ðµ
ÑĪÐµÐ µÑģÑı
ĠÐ´Ð¾Ð±Ð¸ ÑĤÑĮÑģÑı
² Ð¿ÑĢÐ¾ÑĩÐµÐ¼
Ð ²Ð¿ÑĢÐ¾ÑĩÐµÐ¼
ĠÐ½ÐµÐ´Ð¾ ÑĥÐ¼
ĠÐ¿ÑĭÑĤÐ° Ð»Ð¸ÑģÑĮ
ĠÐľÐ¸Ñħ Ð°Ð¹Ð»Ð¾Ð²
ĠÑħÐ¾Ð»Ð¾Ð´ Ð½Ð¾
ĠÑī ÐµÐ½
ĠÑħÐ»ÐµÐ ±
ĠÐ¸Ð½ÑĤÐµÐ»Ð»Ðµ ÐºÑĤ
ÑĩÐ ½Ð¾Ð¼Ñĥ
ĠÐ²ÑĭÐ· Ð²Ð°Ð»
½Ð¾ Ñİ
Ð¾ÑĤÐ ¸
Ð¿ Ð¾ÑĢÑĭÐ
ĠÐ¸Ð·Ð±Ð°Ð ²Ð¸ÑĤÑĮÑģÑı
ĠÐ²Ð¾ÑģÐºÐ»Ð¸Ðº Ð½ÑĥÐ»
ĠÑĢÐµÐ ¶Ð¸
ĠÐŁ ÑĢÐµÐ·Ð¸
ĠÐ¼Ð°ÑĤÐµÑĢÐ¸ Ð°Ð»Ñĭ
Ġ Ð³Ð»Ð¾ÑĤ
5 8
ÐŁ Ð¾Ñģ
ĠÐ¢ Ð°Ð¹
Ð½ÑĥÐ »Ð¸ÑģÑĮ
ĠÐºÐ¾Ð¼Ð°Ð½ Ð´Ðµ
· Ð¾Ð¼
ĠÐ³ÑĢÐ°Ð½ Ð¸ÑĨÑĭ
ĠÑĤÐ°Ð½ Ðº
ĠÑĩÑĥÐ²ÑģÑĤÐ² Ð¾Ð²Ð°ÑĤÑĮ
Ð ±ÑĢÐµÐ½
ĠÐ¼Ð¸ Ð»Ð¾
ĠÐĴ Ð¸Ð½
ĠÐ¿Ð¾Ð´Ð¾Ð±Ð ½Ð¾Ð³Ð¾
ĠÐĿÐ° ÑĪ
ĠÐ·Ð° Ð³Ð¾
±Ð° Ð¼
Ñ ĢÑĪ
ĠÑĢÐ°Ð· Ð´Ð°Ð»ÑģÑı
ĠÑİ Ð±Ð
Ġ- -
ĠÐ³Ð¾Ð´Ð° Ñħ
±Ð°ÑĤ Ñ
ĠÑģÐ¾Ð·Ð´ Ð°Ð½Ð¸Ðµ
ĠÐ¾ÑĤ ÑĬ
ĠÑģÑĦÐµ ÑĢÐµ
Ġ Ð³ÐµÐ½
ÑĢÐµÐ½ Ð½ÑĭÐ¹
ĠÐ²Ð¾Ñģ ÑģÑĤÐ°Ð
Ðł Ð°Ñģ
Ðĳ ÐµÐ·
ÑĤÐ° ÑĨÐ¸Ñİ
Ñģ ÑĤÐ¸Ð»Ðµ
Ð¾Ð±Ð »Ð°
ĠÐ´Ð¾Ñģ ÑĤÐ°
Ð»Ð¸Ð²ÑĭÐ µ
ĠÐ·Ðµ Ð»ÐµÐ
ĠÐŁ Ð¾Ð·
Ðļ Ð¾Ð½ÐµÑĩÐ½Ð¾
ÑĩÐ° Ð»Ð°ÑģÑĮ
ĠÑĥ ÑĢÐ¾Ð
¸Ð· Ð¼
ĠÐ¾Ð¿ÑĢÐµÐ´Ðµ Ð»Ð¸ÑĤÑĮ
ĠÐ¿ÑĥÐ±Ð»Ð¸ ÐºÐ°
ĠÐºÐ²Ð° Ð´ÑĢÐ°ÑĤ
ĠÐ´Ð¸ Ð°Ð»
Ð¸ÑĢÑĥ ÑİÑĤ
ĠÑĥÐ²Ð¸ Ð´ÐµÐ»Ð¸
ĠÐ³Ð¾ ÑĢÑĮ
ĠÐ½Ð°Ðº Ð»Ð¾Ð½
ĠÐ´Ð¸ Ð°Ð³Ð
ĠÑĢÐµÐ±Ñ ĳÐ½Ð¾Ðº
ĠÐ° Ð´Ð²Ð¾Ð
Ġ Ð¿Ð°Ð±Ð
Ð»Ð »Ð¾
ĠÐ²Ð¸ Ð´Ð¾Ð²
ĠÐ»Ð ¾ÑĢÐ´
eÐ »
Ð°Ð½Ð ³Ðµ
ĠÑĤÐµÐ» Ð¾Ð¼
Ð¸Ð· Ð¸ÑĢÐ¾Ð²
Ð¼Ð¸ ÑĤÐµ
ĠÐĿÐ° ÑĢÐ¾Ð´
ĠÑįÐº ÑĢÐ°Ð½
ĠÐ±ÐµÐ½ Ð
Ð²Ð¸ ÑĢÑĥÑģ
ÐµÑħ Ð°Ð»
ĠÐĵ ÑĢÐ¸Ð³Ð¾
ĠÐĵ Ð¾ÑĢÐ
ĠÐ±Ð¾ÑĢÑĮ Ð±Ðµ
Ġ Ð¿Ð¾ÑĢÑĭÐ
ĠÐ½Ð¾Ð² Ð¾ÑģÑĤÑĮ
ĠÑĢÐ°ÑģÑģÐºÐ°Ð·ÑĭÐ ²Ð°ÑĤÑĮ
ĠÐļ Ð»Ð°
ÑģÐ»Ð¾Ð²Ð¸ Ñ
ĠÑģÐ»ÐµÐ´Ð¾Ð² Ð°Ð»Ð¾
ĠÑģÐ¾Ð± ÑĢÐ°ÑĤÑĮ
Ð¶Ð´ Ð°
ĠÐ¿ÑĢÐ¾Ð³Ð¾Ð²Ð¾ ÑĢÐ¸Ð»
ĠÐ¥ Ð
Ð ³ÑĥÐ»Ñı
Ð§ ÐĿÐŀ
ĠÑįÐ¼Ð¾ ÑĨÐ¸Ð¾Ð½Ð°Ð»ÑĮÐ
Ġâ Ļ
² Ð°ÐµÑĤÐµ
ĠÐ´ÐµÐ¹ÑģÑĤ Ð²ÑĥÐµÑĤ
ĠÐ¿Ð°ÑĢÐ »Ð°
ĠÑĢÑĭÐ½ ÐºÐµ
ĠÐ½ÐµÐ¿ ÑĢÐµ
ðŁĺ ľ
Ð ³Ð¸Ð±Ð
ĠÐ´ÑĢÐ°Ð ³Ð¾
Ð¾Ð² Ñĥ
Ñģ ÑĤÐ²ÑĥÐµÑĤ
Ð²Ð¸ÑĤÑ Į
ÐµÐºÐ ¸
ĠÑģÐ¾Ð¿ ÐµÑĢÐ
ĠÐºÐ°ÑĢÑĤ Ð¸Ð½Ñĭ
ÑĢÐ° Ñİ
ĠÐ¥ Ð¾Ð»
ÑĤÐ¸ÑĩÐµÑģÐº Ð¾Ð¹
ĠÑĥÐ·Ð½Ð° Ð»Ð°
ĠÐ¿ÑĢÐ¾Ð´Ð¾Ð» Ð¶Ð°ÑĤÑĮ
v er
ÑĥÑĤÐ¸Ñ Ĥ
»ÑĮÐ ½Ð¾Ðµ
Ð¾Ð¿ Ðµ
Ġ ÑģÑĤÐ¸Ð»Ðµ
ĠÑĦ Ð¾
ÑĤÑĮÑı Ð½Ð°
ĠÐºÑĢÐ¸Ðº Ð½ÑĥÐ»
ÑĢÐµÐ³ Ð¸ÑģÑĤÑĢÐ¸
ap p
ÑĢÐ°Ð½ Ð´Ð°
³ ÑĥÐ¼
ÑīÐ° Ð¼Ð¸
aÐ »
ÑĢÐ¸Ð ±
Ñģ Ð´ÐµÐ»
ĠÐ¾ÑĤÐ½Ð¾ÑĪÐµÐ½ Ð¸Ñİ
á ħ
ĠÐ´Ð¸Ñģ ÑĤÐ°Ð½
ĠÐŀÑĤ Ð²ÐµÑĤ
ĠÐķ Ð»ÐµÐ½Ð°
ĠÐ¸Ð· Ð¼Ðµ
ĠÑħÐ¾Ð» Ð¾Ð´Ð
ÑĥÑī ÐµÑģÑĤÐ
ĠÑĤÑĢÐ°Ð º
ĠÐĴ Ð¾ÑģÑĤ
Ġ201 2
ĠÐ´Ðµ Ð´
ĠÐµÐ² ÑĢÐ¾
Ð¡ Ð¬
ÑĢÐ°Ð ½Ð¾Ð²
ÑĢÑĳ Ð´
ĠÐļ Ð°Ð¶ÐµÑĤÑģÑı
ÑĢÑģ ÐºÑĥÑİ
ĠÐ·Ð´ Ð°Ð½Ð¸Ðµ
ĠÐĶÐ¶Ð ¾ÑĢÐ´
ĠÐ»Ð¸Ð½ Ð
Ġâ Ĺı
ĠÐ·Ð° Ð´ÐµÑĢÐ¶Ð
ÑĤÐ°Ð» ÑĮÑı
ĠÑģÐ¾Ð±ÑģÑĤÐ²ÐµÐ½Ð ½Ð¾Ð³Ð¾
ĠÑĥÐ¶Ð° ÑģÐ½Ð¾
ĠÑĤÐµ Ð¼Ð¸
ĠÐ²ÑĭÑģÐ¾Ðº Ð¾
ÑĢÐµ ÑĤÐµ
ÑħÐ¾ ÑĤÐ°
ĠÑģÑĥÑīÐµÑģÑĤ Ð²Ñĥ
Ð¡Ð ¸
ĠÐ¾Ð± ÑĢÑĥ
Ġ @
ĠÐ¼Ð°Ð³Ð½ Ð
ĠÐ¼Ð°Ð³Ð½Ð ¸
ĠÐ¸Ð´Ð¸ Ð¾ÑĤ
ĠÐ¾ÑĤÐ½Ð¾ ÑĪÐµÐ½Ð¸ÑıÑħ
ĠÑģÑĤÐ° Ð±Ð¸Ð»ÑĮÐ
ĠÐ´Ð¾ÐºÐ° Ð·ÑĭÐ
Ð ½Ð¾Ð·
ĠÐ¾Ñħ Ð²Ð°ÑĤ
ĠÐ²Ð¾Ð¿ÑĢÐ¾Ñģ Ð°
ĠÑĩÐµÑĤÐ²Ðµ ÑĢÐ³
Ġf or
ĠÐ¿Ð¾Ð´ Ð°Ð»ÑĮÑĪÐµ
ĠÐ¿Ð¾Ð»Ñĥ ÑĩÐµÐ½Ð¸Ñı
ĠÐ¼Ð°ÑĢÑĪ ÑĢÑĥÑĤ
ı ÐºÐ¾Ð²
ĠÑģÐ¾Ð ·Ð½Ð°
ĠÐĶÐ¶Ð ¾
ĠÐ¿ÐµÑģÐ½ Ñ
Ð¸Ð² Ð°Ð½Ð¸Ðµ
% .
ĠÐ³Ð»Ð°Ð²Ð ½Ð¾Ð³Ð¾
ĠÐ½Ð°ÑĩÐ° Ð»Ð°ÑģÑĮ
ĠÑģÑĤÑĭÐ´ Ð½Ð¾
¶ÐµÐ½ Ð½Ð¾Ð¹
ÑģÐ¸ ÐµÐ¹
ÑĥÐ½Ð ³
w all
Ð¿ ÑĥÐ½Ðº
ĠÑĥÐ´Ð¸Ð² Ð¸Ð»ÑģÑı
ĠÐĴÐ¸ Ð´Ð¸Ð¼Ð¾
i re
ĠÐĹ Ðµ
ĠÑĥÑģÐ ¸
ĠÐºÐ°Ð·Ð ½
¸Ð ²Ð°Ð»Ð¸
· Ð²ÑĥÐºÐ¸
ĠÐ¿ÑĢÐ¸ Ð¼ÐµÐ½Ñ
ĠÐ²ÑĭÑħÐ¾Ð´ Ð½ÑĭÐµ
ĠÐºÐ¸ ÑģÐ»
Ð¡ Ð°Ð¼
Ð¶Ð ¸Ð²
ĠÐ¾ÑĤÐ²ÐµÑĤ Ñ
a in
ÑģÑĤÐ²ÐµÐ½Ð ½ÑĭÑħ
4 2
ĠÐ°Ð¿ Ð¿Ð°ÑĢÐ°ÑĤ
ĠÐŁÐ¾Ð´ÑĢÐ¾Ð±Ð ½ÐµÐµ
ÑģÐ°Ñ Ĥ
» ÑĥÐ°
ĠÐ¿Ð¾Ðµ Ð·Ð´
Ð¿ Ð°Ð»Ð¾
Ð´ÐµÐ½ Ð¸Ñİ
Ð°Ð½ Ð½Ð°
Ð±Ð ¸Ð½Ð°
ĠÐ¼ÐµÑģÑĤ Ð½ÑĭÑħ
ĠÐ»ÑİÐ±Ð¸Ð¼ ÑĭÐ¹
ĠÐ³ÑĢÐ°ÑĦ Ð¸Ðº
ĠÐ¥ Ð¾ÑĤÑĮ
Ð¶Ðµ Ð¼
Ð¼Ð¿Ð ¸
ĠÐ²Ð ½ÑĥÐ
ĠÐ¿Ð¾Ð±Ðµ Ð´Ñĭ
ðŁĺį ðŁĺį
Ð²Ð° Ð½Ð°
ĠÑģÐ¼Ðµ ÑĢÑĤÐµÐ
ÑĤÐµÐ»ÑĮÑģÑ ĤÐ²Ðµ
ĠÐ²Ð¾ÐµÐ ½Ð½Ð¾
³ ÑĢÐ½
Ð°Ð½ÑĤ Ð
ĠÐ´ÐµÐ²Ñĥ ÑĪÐºÐ¾Ð¹
ĠÐºÑĢÐ¾Ð² ÑĮÑİ
³ Ð¸Ð¼
Ñ ıÑģÐ
Ð¾Ð ·Ð½Ð°
Ð ³ÑĢÐ½
·ÑĭÐ ³ÑĢÑĭ
Ġ ÑģÑĤÐ¸Ð¼
ÑģÐ¸ Ð±Ð¸
ÐĿÐ° Ð´Ð¾
ĠÐ¿Ð¾ÑģÐ»ÐµÐ´ Ð¾Ð²Ð°
Ñģ Ñħ
¾ÑĤ Ð½Ð¾
ĠÐ¿ÑĢÐ¸Ð ²Ð¾Ð´
ĠÐ²Ð·Ð³Ð»ÑıÐ ½ÑĥÐ»
ĠÐŁ ÐµÑĤÐµÑĢÐ±ÑĥÑĢÐ³
ĠÑģÐ ²Ð¾Ð´
ou t
ĠÐ¼ÐµÐ´Ð ²Ðµ
Ĥ ÑĢÑİ
ĠÐ´ÐµÑĢÐµÐ ²Ð¾
ĠÑģÐµÐº ÑĢÐµÑĤÐ°
Ð°Ð¹ Ðº
ĠÐ¾Ð±ÑĢÐ° ÑīÐ°ÑĤÑĮÑģÑı
Ġ ÑģÐ´ÐµÐ»
Ð»Ð¸ ÑģÑĤÐ°
ĠÐ´Ð¾Ð ±Ñĭ
ĠÐĵ Ð¾Ð´
ĠÐ½ÐµÐ·Ð° Ð¼ÐµÑĤ
Ðľ Ðķ
ĠÐ½Ð°Ð´Ðµ Ð¶Ð
Ġ3 2
ĠÐĿÐµÑģ ÐºÐ¾Ð»ÑĮÐºÐ¾
ĠÐ·Ð°Ð½Ð¸Ð¼ Ð°ÐµÑĤÑģÑı
¾Ð² Ð°Ð»
ÑĪÐµ Ð½Ð°
Ðº Ð»Ñİ
ĠÐ²Ð¸ Ð´Ð¸ÑĤÐµ
ĠÑģÑĤÐ°Ð» Ðº
ĠÐ¿Ð¾ÑıÐ ²Ð¸ÑĤÑģÑı
ĠÑģÑĤÐ°ÑĤ Ð¸ÑģÑĤ
±Ð°Ñ ı
Â» :
ĠÑģÑĤÐ°ÑĤ ÑĥÑģ
ĠÐºÐ¾ÑĢÐ°Ð±Ð»Ñ ı
ĠÐºÐ°Ñ Ĥ
ĠÑĢÐ°Ð´ Ð¸Ð¾
ĠÐĿÐ¸ÐºÐ¾Ð» Ð°Ðµ
ĠÑĦ Ð¸Ðº
ĠÐĵÐµÐ½ ÑĢÐ¸
Ðľ Ð¾Ð»Ð¾Ð´
ĠÐ·Ð° ÐºÐ°Ð
ĠÑĥÐ»ÑĭÐ±Ð ºÐ°
ĠÐ·Ð°Ð´Ð° ÑĩÐ¸
ĠÑĥÑģÐ»Ñĭ ÑĪÐ°ÑĤÑĮ
ĠÐĴ ÑģÐµÐ³Ð´Ð°
ĠÐ¾ÑĢÐ¸ ÐµÐ½ÑĤ
Ð°Ð»ÑĮÐ ½ÑĭÐ¼
ĠÑģÑĢÐµÐ´ ÑģÑĤÐ²Ð¾
Ð²Ñģ Ñ
Ð´Ð ±Ð¸
ĠÐ¼ÑĭÑģÐ»ÐµÐ ¹
Ð°Ð² ÑĪÐµÐ³Ð¾
yout ube
ĠÑĨÐµÐ¿ Ð
Ð¼ÐµÑ ıÐ»Ð°ÑģÑĮ
ĠÑģÐ¸Ð»Ð° Ñħ
ĠÐ¿Ð¾Ð»Ð¾Ð ¶ÐµÐ½Ð¸Ð¸
ĠÐ¿ÑĢÐ¸Ð ²Ð¸Ð²
ĠÐ¼Ð°Ð»ÐµÐ½ÑĮ ÐºÐ¾Ð¹
Ð´Ð ½ÑĭÐ¼
ĠÑģÑĥÐ´ Ð
ĠÐĵ ÑĢÑĥÐ
ĠÐ´ÐµÐ »Ð¾Ð²
ĠÐ±Ð ¾Ñ
ĠÐ²ÑĭÐº Ð»Ñİ
Ð¸ÑĩÐµÑģÐº Ð¾Ð¼
ĠÐ¼Ð°ÐºÑģÐ¸Ð¼ ÑĥÐ¼
4 3
ĠÐ¿Ð¾Ð»Ñĥ ÑĩÐ¸Ð²
h er
ÑĭÐ ²Ð°ÑİÑĤ
ĠÐł ÐµÐ¹
ĠÐ±ÐµÑģÐ¿ Ð¾Ð»ÐµÐ·
ĠÑĢÐµÐ³Ð¸ Ð¾Ð½Ð°Ð»ÑĮÐ
ĠÐ·Ð°Ð±Ð¾Ð»ÐµÐ² Ð°Ð½Ð¸Ñı
ĠÐºÐ¾Ð½ÑĨÐµ ÑĢÑĤ
f f
ĠÑĢÐµÐ°Ð»ÑĮÐ ½Ð¾ÑģÑĤÐ¸
ĠÐ¿Ð¸ ÑĪÐµ
² Ð¾Ð½Ð¸ÑĤÑĮ
ĠÑģÐ¾Ð² Ð¿Ð°
Ð¾Ð² Ð°Ð»ÑģÑı
ĠÐ½Ð°Ñħ Ð¼Ñĥ
0 5
Ñ ĤÑĢÑİ
ĠÐļ ÑĢÐ¸ÑģÑĤ
ĠÐºÐ¾Ð½ ÑĨÑĥ
ĠÐĳ ÑĭÐ»
ĠÑģÑĥÐ´Ð ¸
ÑĮÐ³ Ð
ĠÐºÐ°Ð¶Ð´ Ð°
ĠÐ³Ð¾Ð² Ð½Ð¾
ĠÑĥÑģÐ¸Ð»Ð¸ Ñ
Ð¿Ð¾ ÑģÐ»ÐµÐ´
ĠÑĦÐ¸Ð»ÑĮ Ð¼Ñĭ
Ð ±ÑĢÐµ
ĠÐłÐ°Ð· ÑĥÐ¼
ĠÐºÐ°Ð¶Ð´Ð° Ñ
ĠÐºÐ°Ð¶Ð´Ð°Ñ ı
at e
Ðº ÑĤÐµ
ĠÐ¼Ð¾Ð¼ ÐµÐ½ÑĤÑĭ
Ġ Ð¿ÑĥÐ½Ðº
ĠÐŀÐ ¹
ĠÐ½ÐµÐ´Ðµ Ð»Ðµ
Ñ ĮÑ
ÑĮÐ³Ð ¸
ĠÐ¿ÑĢÐµÐ´Ð¿Ð¾ ÑĩÐ¸ÑĤÐ°
ĠÑĢÑĥÐ »
ÑıÑī Ð¸Ð¹
ÐµÐ ·Ð´Ð
Ð¿Ð° ÑĢÑĤÐ°
ÑĥÑİÑī Ð¸Ñħ
ĠÐ³Ð¾ÑģÑĥÐ´Ð°ÑĢÑģ ÑĤÐ²ÐµÐ½
ÑĩÐµÐ½ Ð½Ð¾
½Ð¾Ð²Ð° Ñ
ÑĩÐ°ÑģÑĤÐ ¸
Ðĵ Ð£
Ĥ Ð¸ÑĪÐ¸Ð½Ð°
Ñ ĤÐ¸ÑĪÐ¸Ð½Ð°
Ð½Ð°Ñ Ģ
7 3
ĠÐ¼Ðµ Ð±ÐµÐ»ÑĮ
Ð»Ð¸Ð½ Ñ
ĮÑģ ÐºÐ°Ñı
ÑĤÑĢÑĥÐ ´
Ð ·Ð²ÑĥÐºÐ¸
ĠÐ´Ð¾ÑĢÐ¾Ð³ Ð¸Ðµ
ĠÐ·Ð°ÑģÑĤÐ°Ð ²Ð¸ÑĤÑĮ
ĠÑģÐ¿ÑĢÐ°Ð²ÐµÐ´Ð »Ð¸Ð²
ĠÐĽ Ð®
Ð»Ðµ Ð±Ð
" ?
ĠÐ½Ð°Ñģ ÑĤÐ¾Ð¹
ĠÐĽ ÑĥÐ
ĠÐ¿ÑĢÐ¾Ð´Ð¾Ð»Ð¶Ð ¸Ð»
Ġ Ð»Ð¾Ð±
Ð¾Ð²Ñ ĭ
ĠÐ±Ð»Ð¸Ð· ÐºÐ¸Ñħ
Ñģ ÑĤÐ¸Ð»ÑĮ
ĠÑĢÐ¾Ð´ Ð½Ð¾Ð¹
ĠÐ¿Ð¾Ð½Ð°Ð´Ð¾Ð ±Ð¸
ĠÐ¿Ð¾Ð´ ÑħÐ²Ð°ÑĤ
ĠðŁĺ ĥ
ĠÐľÐµÐ¶Ð´ Ñĥ
ĠÑĢÐ°ÑģÑĤ Ð¸ÑĤÐµÐ»ÑĮÐ
ĠÑĢÐ°ÑģÐ¿Ð¾Ð» Ð°Ð³
ĠÑĤÐµ ÑħÐ½Ð¸ÐºÐ°
ı Ð½ÐµÑĤ
ĠÐ´Ð¾ÑĢÐ¾Ð³Ð° Ñ
ĠÐ´Ð¾ÑĢÐ¾Ð³Ð°Ñ ı
ĠÐ²Ñģ ÐºÐ¾
Ð°Ð² Ð½Ð¾
ÑģÐ¸ ÑĤÑĮÑģÑı
ĠÐ¼ÑĥÐ ¶Ðµ
ĠÐ±ÑĭÐ ²ÑĪÐ¸Ð¹
ĠÐ²ÑģÑı ÐºÐ¾Ð¼
ÑĢÑĥÐ ±
ĠÐĵ ÑĢÐ¸
ĠÐ½ÐµÐ ²Ð¸Ð½
ĠÐºÐ¾ ÑĪ
ÑĪÐµÐ½ Ð½ÑĭÐµ
ĠÐ²Ðµ Ð´ÑĥÑĤ
ĠÐ²Ð¾Ð» Ð½ÑĥÐ
ÑĤÐ°Ð» Ðº
ĠÐ³ÑĢÐ°Ð´ ÑĥÑģÐ¾Ð²
ĠÐ±ÐµÐ» ÑĭÐµ
ÑĥÐ »Ð¸ÑģÑĮ
ÑĭÐ ·
ĠÐŀÑĤÐµ ÑĨ
ĠÐ¶Ð¸ Ð²ÑĭÑħ
ĠÑģÑĤÐ°ÑĢ ÑĪÐµ
ĠÐ·Ð° ÑģÐ
Ð¸ÑĢÐ¾Ð² Ð°Ð»Ð°
Ð¼Ð°Ñ ĤÐ¸Ðº
Ġ Ð³Ð¸Ð±Ð
ĠÐ¿Ð¾Ð¸Ñģ ÐºÐ°Ñħ
ĠÑĢÐ°Ð·Ð¾Ð± ÑĢÐ°ÑĤÑĮÑģÑı
ĠÐĴ Ð¾ÑĢÐ¾Ð½
ĠÐ´Ð¾Ð² Ð¾Ð»ÑĮÐ
Ñģ ÑĨÐµÐ½
ĠÑģÐ¸Ð³ Ð½Ð°Ð»
ÐļÐ ¸
ĠX I
ĠÑģÐ ¶Ð¸Ð¼
Ðŀ Ð±Ð
²Ð»Ðµ Ð½Ð°
ĠÐ¼Ð¾Ð»Ð¾Ð´ ÐµÐ
ĠÐ»ÑİÐ±Ð¾Ð¿ Ñ
ðŁĴĭ ðŁĴĭ
ĠÐ»ÑİÐ±Ð¾Ð¿Ñ ĭ
ĠÑĩÐµÑĤÑ ĭ
Ġ Z
ÑħÐ° Ð¼
ĠÐ²ÑĤÐ¾ ÑĢÑĥÑİ
Ðĳ Ðĺ
ĠÐľ ÐĴÐĶ
ĠÐ¿ÑĢÐ¸Ð½ ÑıÐ»ÑģÑı
ÑħÐ »
ĠÐ¿Ð¾Ð·Ð²Ð¾Ð»Ð¸ÑĤ Ñ
ĠÐ¿Ð¾Ð·Ð²Ð¾Ð»Ð¸ÑĤÑ Į
ĠÐ¼Ð°ÑģÑĤÐµ ÑĢÐ°
ĠÑĥÑģ ÑĤÑĢÐ°Ð½
ĠÐ½Ð° ÑģÐ»ÐµÐ´Ð
ĠÐ²ÑģÑı ÐºÐ¸Ðµ
¸ ÑĩÐºÐ°
ĠÐ½Ð° Ð½Ðµ
ĠÑģÑĤÐ°Ð ½ÑĥÑĤ
ĠÑĢÐ°ÑģÑģ Ð¼Ð°ÑĤÑĢÐ¸Ð
ĠÐ¼Ðµ ÑĪÐ°ÐµÑĤ
ĠÐĲÐ½ Ð¾Ð½
ÑĦÐ¸ÑĨÐ¸ ÑĢÐ¾Ð²
ĠÐ¶ÐµÐ½ ÑīÐ¸Ð½Ðµ
³Ð° Ñħ
ĠÐ·Ð° Ð¿ÑĥÑģÑĤ
ÐŁÐ ¸
Ġ $
²Ð°Ð ¶Ð´Ñĭ
ĠÐ½Ð° Ð´ÐµÑ
ÑħÐ ½Ñİ
Ð¥ Ð°
Ð¿Ð¾Ð ºÐ°
Ġ Ð±ÑĢÐµÐ½
ĠÐ·Ð²ÐµÐ· Ð´Ñĭ
ĠÑħ ÑĢÐ°
ĠÐ¿Ðµ ÑģÐµÐ½
¸ ÑģÐ
Ð´Ð ¶ÐµÑ
ĠÐ¾ÑĤÑ ĭ
Ð±Ð°Ñ ı
ĠÑĥÐ´ Ð¾ÑģÑĤ
ĠÐ¢Ð°Ðº Ð¾Ðµ
aÑ ı
ĠÑĢÐµÐ±ÐµÐ½ ÐºÐ¾Ð¼
ĠÐĵ Ð»Ð°Ð²
ĠÑĥÑĩÐ¸ ÑĤÐµÐ»Ñı
³Ð° ÑİÑĤ
ĠÐ°ÑĢÐ¼ Ð
ĠÐ¡ ÑĢÐµÐ´Ð
ĠÐ¿Ð°Ñģ Ñ
ĠÐ¾Ð±ÑīÐµÑģÑĤ Ð²Ðµ
ĠÐļ Ð¾Ð¼Ñĥ
ĠÐŁÐ¾Ð¶Ð°Ð» ÑĥÐ¹ÑģÑĤÐ°
ĠÐ¿ÑģÐ¸Ñħ Ð¾Ð»Ð¾Ð³Ð¸ÑĩÐµÑģÐº
ĠÐ¾ÑĤ Ð¼ÐµÐ½
ĠÐ³Ð¾ÑĢÐ¾Ð´ Ð¾Ð²
ĠÐ¿Ð»Ð¾ÑīÐ° Ð´ÑĮ
Ð¾Ðº Ð¾Ð½
ĠÑĥÑģÐ¿Ðµ ÑĪÐ½Ð¾
ĠÐ¾Ð±Ñĥ ÑĩÐµÐ½Ð¸Ñı
Ġ Ð²Ð¿ÑĢÐ¾ÑĩÐµÐ¼
ĠÑĥÐ ±Ð¸ÑĤ
Ð ²Ð¾Ð»Ð¸
Ð´Ð ¾Ð±Ð
ÑĤÐ°Ð »ÑĮÐ½Ð¾
ĠÐ½Ð° ÑħÐ¾Ð´Ð¸Ð»Ð¸ÑģÑĮ
ĠÐ¿Ð¾Ð´Ð½ ÑıÑĤÑĮ
Ġ ÑĤÐ¸ÑĪÐ¸Ð½Ð°
ĠÐŁ Ð¾Ð¼Ð½
ĠÐ¿Ð¾ ÑģÐµÐ»
ÑĩÐ°Ð ¸
Ð´ÐµÐ½Ñ Į
Ð°Ñģ ÑĤÑģÑı
ĠÐ´Ð¾ÑĢÐ¾Ð ¶Ðµ
ĠÐĶ ÐĽÐ¯
ĠÑĤÐµÐ¼Ð½ Ð¾ÑĤÐµ
ĠÐ¿ÑĢÐµÐ´ÑģÑĤÐ°Ð²Ð¸ ÑĤÐµÐ»ÑĮ
ĠÐ¿Ð¾Ð» Ð½Ð¾Ðµ
ĠÐ¿Ð¾ÑģÑĤ Ñ
ÐµÐ½Ð¸ÑĤ Ñ
ĠÑģÐ¿Ð¾ÑģÐ¾Ð±Ð ½Ð¾ÑģÑĤÐ¸
ðŁĴ ª
ÑĢÑı ÑİÑĤ
ĠÐĲÐ½Ð³ Ð»Ð¸Ð¸
ĠÐº Ð»Ð¾
ĠÐ¾Ð±Ð½Ð°ÑĢÑĥÐ ¶Ð¸Ð»
ĠÐ¾Ð± ÑĢÐ°Ð´
ĠÑģÐ¸ Ñ
ÑĥÑī Ð°
ĠÐ¿ÑĢÐµÐ´ Ð¼ÐµÑ
6 9
ÐĴÐ ¸
ÑīÐµ Ð½Ð°
ðŁĴ ķ
ĠÐ·Ð°ÑĢÐ°Ð±Ð°ÑĤÑĭÐ ²Ð°ÑĤÑĮ
Ġ Ð·Ð²ÑĥÐºÐ¸
b er
ÑĥÑģÑ ı
ĠÐºÐ° ÑĢÐ°
Ġ Ð±ÑĢÐ¾Ð²Ð¸
ĠÐ¿ÑĢÐ¾Ð¿ Ð°Ð³Ð°Ð½
ĠÐ±Ð»Ð µÑģÑĤ
ÐµÐ½Ð¸ÑĤÑ Į
ĠÐĽÐµÐ½ Ð¸Ð½Ð³ÑĢÐ°Ð´
ÑĪÐ° ÑĤÑĮÑģÑı
ĠÑĢÐ°ÑģÑģÐºÐ° Ð·Ð°Ð»Ð°
Ĥ o
ÐµÐ¼Ð ¿
Ð»Ð°Ð½Ð ¸
ĠÑģÐ¿ÑĢÐ° ÑĪÐ¸Ð
ĠÐ¼Ð½ ÐµÐ½Ð¸Ñı
Ð»Ð°Ñģ ÑģÐ
ĠÐ¾Ð´ ÐµÑĤ
ĠÐºÐ¾Ð¼Ð¿Ð»Ðµ ÐºÑģ
ĠÐ³Ð¾Ð» Ð¾ÑģÐµ
ĠÐ° ÑĢÑĤÐ¸Ð»Ð»Ðµ
ĠÐ¿Ð¾Ð±Ðµ Ð´Ñĥ
Ð°Ð½ÑĤÐ ¸
Ð¿Ðµ ÑĨ
Ð½Ð° Ð»Ð¸
¶Ð ºÐµ
± Ñģ
ĠÐ¿Ð¾ ÑĤÐ°
½Ð¾Ð² Ð¾
Ð¸Ð° Ñ
Ð¿Ð¾ÑģÐ»ÐµÐ´ ÑģÑĤÐ²Ð¸Ð¸
ĠÐĳ ÑĢÐ¸
ĠÐ´Ðµ ÑĢÑĮ
ĠÑĤÑĥÐ° Ð»ÐµÑĤ
ĠÐ´Ð¾Ð± ÑĢÐ°
ĠÐºÑĢÑĭÐ »ÑĮÑı
ĠÐ¿Ð¾ÑģÑĤÑ ĭ
ĠÑģÐ¼Ð¾ÑĤ ÑĢÑıÑĤ
Ð¶Ð°Ñ ı
ĠÐ½ÐµÐ ²ÑĭÐ
Ð°Ð½ Ð´
ĠÐĿÐ° ÑĪÐ¸
ĠÐ²Ð¾Ð· Ð²Ñĭ
ĠÐ¼ÑĥÐ ¶ÐµÐ¼
ÑĩÐµÐ½ Ð½Ð¾Ð³Ð¾
ĠÐļ ÑĢÐ¸
ĠÐ¿ÑĢÐ¸ ÑĢÐ¾Ð´Ðµ
ĠÐ¿ÑĢÐ¾Ð±Ð»Ðµ Ð¼Ñĥ
ĠÐ¿ÑĢÐ¾ ÑĪÐµÐ´
Ðļ Ð¾
ÐĽ Ð®
âĤ ½
ĸÐ ½
ĠÐĴ Ð¾Ð¹
ĠÐ´Ð µÑģ
ÐºÐ»Ð° Ð´ÑĭÐ
ĠÐ¤ Ð¾ÑĤÐ¾
ÑĪÐ ½Ð¾Ð³Ð¾
Ġ ÑģÑĤÑĢÐ¾
ĠÐĶ ÐµÐ¹ÑģÑ
ÑĢÐ ¶
Ð¼ Ð°Ð³
ĠÐ¿ÑĢÐµÐº ÑĢÐ°ÑĤ
ĠÐŁ ÑĢÐµÐº
ĠÐ¸ÑģÑ ĤÑĢÐµ
Ĥ Ð¸Ð¹
Ð¾Ð»ÑĮ ÐºÑĥ
ĠÐ¾ÑĤ Ð´Ð°
ĠÐŁ ÑĢÐ¾ÑĤ
Ġ= )
·Ð½Ð°Ð ½Ð¸Ðµ
ĠÐ½Ð°ÑģÑĤÑĢÐ¾ÐµÐ½ Ð
Ñ ĤÐ¸Ð
ĠÐ¿Ð¾Ð½Ð¸Ð¼ Ð°ÑİÑĤ
Ġ Ð³Ð»ÑıÐ
ĠÐ¿Ð¾Ð¼Ð¾Ð³Ð°Ñ Ĥ
Ġ )))
Ð ³Ð¸Ð¼
ĠÐ¼ Ð°Ð»ÑĭÑĪ
ĠÐ½Ð° ÑĤÑıÐ
ĠÐ±Ð ¾ÑĢÐ¾ÑĤÑĮÑģÑı
ĠÐ¿Ð¾Ð¼Ð¾Ð³Ð°ÑĤ Ñ
² Ð¾Ð»ÑĮ
ĠÐ¿Ð¾Ð¼Ð¾Ð³Ð°ÑĤÑ Į
Ð¸Ñģ ÑĤÐ¾
Ð ³ÐµÐ¹
Ð¾Ñ Ĺ
ĳ Ñ
ĠÐ¼ Ð°Ð½Ð¸
u re
ĠÐ±ÑĥÐ´Ñĥ ÑĩÐ¸
Ĥ Ð²Ð¾ÑĢÐ
ĠÐ²ÑĭÐ ³Ð¾Ð´
Ð¶Ð ½
ĠÐºÐ¾Ð¼ Ð¼ÐµÐ½ÑĤ
»ÑİÑģÑ Į
ÑĢÑı Ð¼Ð¸
ĠÐ¼Ð° ÑģÑģÐ°Ð
Ġ/ /
ÑģÑĤÐ°ÑĤ Ñ
áħ ł
Ð¼Ðµ ÑĢÐ½Ð¾
ĠÑĥÐ¿ Ð°ÐºÐ¾Ð²
Ð´ ÑĥÐ
ĠÐ¿Ð¾Ð²Ðµ Ð´ÐµÐ½Ð¸Ñı
ĠÐ·Ð½Ð°ÐºÐ¾Ð¼ ÑĭÑħ
ĠÐ·Ð° ÑĤÑıÐ
ĠÐ¿Ð¾Ð´Ð²Ðµ ÑĢÐ³
ĠÑĥÐ´ Ð°ÑģÑĤÑģÑı
ĠÑģÑĩÐ°ÑģÑĤ Ð»Ð¸Ð²
ĠÐ¼Ð¸Ð»Ð»Ð¸ Ð¾Ð½Ð°
ĠÑģÐ²Ñı Ð·Ð°Ð½Ð¾
¶Ð¸Ð² Ð°ÐµÑĤ
Ġ Ð²Ð¾Ð»Ð¸
Ð¿Ð »ÑĭÐ
ĠÑĦÐ°Ð½ ÑĤÐ°Ñģ
ĠÐ¿Ð°ÑģÑ Ĥ
Ġ Ð»Ð°Ð²
ĠÐ¸ÑģÐ¿ Ð°Ð½
ĠÐŀ ÑģÑĤÐ°
Ġ Ð³ÑĢ
ĠÐ·Ð°Ð±ÑĭÐ »Ð°
ĠÑİ Ð
ĠÐ¿Ð¾Ð»Ð¸ ÑĤÐ¸ÐºÐ¸
²Ð° Ðº
ĠÐº ÑĢÐ°Ðµ
ĠÐ¿ÑĢÐ¾Ð ±
ĠÐ¿ÑĢÐµÐ¿ ÑıÑĤÑģÑ
ĠÐĶ Ð°Ð»
ĠÐ½Ð°Ð¿ÑĢÐ°Ð² Ð¸Ð»ÑģÑı
ĠÑģÐ ³Ð¾
ĠÑģÐº Ð¾Ð²
ĠÐ¿Ð° ÑĨ
ÑģÐ¿ Ð¾Ð½
ĠÐ²Ð·Ð°Ð¸Ð¼Ð ¾Ð´
ĠÐ¿Ð¾Ð´Ð±Ð¾ÑĢÐ ¾Ð´
³Ð°Ñ Ģ
on d
ĠÐ§ ÑĥÐ
ÑģÑĤÐ°ÑĤÑ Į
» Ð¾Ñģ
ĠÑģÐ¾Ð¾Ð± ÑīÐ¸Ð»Ð°
ÐĿ Ð°Ð
ĠÐľÐ° ÑĢÑĤ
³Ð¾Ð² Ð¾ÑĢÐ¸
ĠÑģÑĬ ÐµÐ·
ĠÑģÐ´ÐµÐ»Ð° Ñİ
ĠÑĥ ÑĩÐ°
ĠÐ¾ÑĤÐºÑĢÑĭÐ »Ð°
ĠÐ¡Ðº Ð¾ÑĢÐ¾
ĠÐ¿Ð° ÑģÐ¿Ð¾ÑĢÑĤ
ĠÑĢÐ°ÑģÑģÐºÐ°Ð·ÑĭÐ ²Ð°Ð»
ĠÐ²Ð°ÑĢÐ¸Ð°Ð½ÑĤ Ñ
ÑĥÐ³Ð¾Ð» ÑĮÐ
Ð ³ÑĥÐ¼
Ñģ ÑĤÑĥÐ»
ĠÐ²Ð°ÑĢÐ¸Ð°Ð½ÑĤÑ ĭ
Ð»ÐµÐ ²Ð¾
ÑĤÐ° Ð¼Ð¸Ð½
ĠÐ´Ð²Ð¾Ð ¸Ñħ
ÑĢÐ°ÑĤ Ð¾Ð²
ĠÑĢÐ¾ÑģÑģÐ¸Ð¹ ÑģÐºÐ¸Ñħ
ĠÑģÐ¾Ð±Ð¸ ÑĢÐ°Ðµ
Ġ Ð±ÑĢÐµ
ĠÐ¿Ð°Ð» ÐµÑĨ
ĠÐ´Ð¸Ð¿Ð»Ð¾Ð¼ Ð°
ĠÐ¾Ð±Ð¾ÑĢÐ ¾Ð½Ñĭ
ĠÐ°ÑĢÐ¼Ð ¸
m an
ĠÐ¿ÑĢÐµÐ´ ÑģÑĤÐ°
ÐľÐ¾ÑģÐº Ð²Ð°
ĠÐŁÐ°Ð² ÐµÐ»
ĠÐºÐ°ÑĤÐ° ÑģÑĤÑĢÐ¾ÑĦ
Ñĳ Ðº
ÑĦ Ð°Ðº
ĠÐºÐ°ÑĢÐ¼ Ð°Ð½Ð°
ĠÑģÐ¿ Ð°Ð»
ĠÐ´ÐµÐ»Ð° ÐµÑĪÑĮ
ĠÐ·Ð°Ð¿Ð° Ñģ
ĠÐ¿Ð¾Ð´ÑĤÐ²ÐµÑĢÐ ¶Ð´
== ==
ĠÐĴÐ°Ð» ÐµÐ½ÑĤ
ĠÑĪÐ° Ð¼Ð¿
Ġ Ð³ÑĥÐ»Ñı
ĠÑģÑĥÑīÐµÑģÑĤ Ð²Ð°
ĠÐ½Ð°Ðº Ð¾Ð¿
Ð¼ Ð°Ð»
ÑĨÐ¸Ñı Ð¼
ĠÐ²ÐµÑĤ ÑĢÐ°
ĠÐ³ÑĢÑĥÐ¿ Ð¿
ĠÑĤÐ¾ ÑĩÐ½ÐµÐµ
Ð½Ð° ÑĩÐµ
±Ñĥ ÑĢÐ³Ð°
ĠÐ·Ð°Ð½ ÑıÑĤÑĮÑģÑı
ÑģÐ¾Ð ½Ð°
ĠÐº ÑĥÑĩÑĥ
ĠÑģÐ¾Ð¾ÑĤÐ²ÐµÑĤ ÑģÑĤÐ²ÐµÐ½Ð½Ð¾
ĠÐ¿ÑĢÐ¸Ð¿Ð¾Ð´ Ð
ĠÐ¼Ðµ ÑĢÐ·
Ġ3 8
ĠÑģÐ¾Ð±Ð¸ ÑĢÐ°ÑİÑģÑĮ
ĠÐ¿ÑĢÐ¾ ÑĩÑĮ
a h
ĠÑĢÐ°Ð±Ð¾ÑĤÐ° Ñİ
ĠÐ¿Ð¾Ð³ÑĢÑĥÐ ·
ĠÐ¼ÐµÑģÑĤ Ñĥ
Ðľ Ð¾Ð¹
Ð¡ ÐļÐĲ
ĠÐ²Ñĭ ÑģÑĤÑĢÐµ
¸ÑģÑĤ Ñ
ĠÐ¿ÑĢÐµÐ´Ð¿ÑĢÐ¸Ð ½Ð¸Ð¼Ð°
ĠÐ¿Ð¾Ð» Ðº
ĠÑģÑĥ ÑĢÐ¾Ð²
ÐĿ Ðł
ĠÐ¿ÑĢÐ¸Ð¿Ð¾Ð´Ð ½
ĠÐļÐ¾ÑĢÐ ¾Ð»
ÑĢÐ°Ð ½Ð¸Ðµ
ĠÐ²ÑĭÐµ Ð
u k
ĠÐ´ ÑĥÐ±Ð
Ð¾Ð±Ð ½Ð¾
ĠÐ¼Ð¸Ð»Ð»Ð¸ Ð°ÑĢÐ´
ĠÐ½Ð°Ð ½
ĠÐºÑĥ ÑħÐ½Ñİ
Ġ on
ĠÐ²Ñģ Ð»Ñĥ
ĠÑģÑĥÐ´ ÐµÐ±Ð
ĠÐĺÐ· Ð²Ð¸Ð½
Ð²ÑıÐ ·ÑĭÐ
Ð ½Ð¸ÑĨÐ°
ĠÐ½Ð°Ðº Ð
ĠÐ¿ÑĢÐµÑģÑĤÑĥÐ¿ Ð»ÐµÐ½Ð¸Ñı
ĠÐ½Ð°ÑĩÐ°Ð» Ð¾ÑģÑĮ
ÑĢÑı Ð¼Ð¾
7 1
ĠÐ¡ Ð»Ðµ
Ñį ÑĤÐ°Ð
Ð¿Ð ¸ÑģÐº
ĠÑĥÐ²Ð¸ Ð´ÐµÐ²
¾Ð ¸Ð·Ð
ĠÐ¾Ðº ÑĢÐ°
ĠÑģÐ¿Ðµ ÑĨÐ¸
ĠÐ³Ð¾ÑĢÐ¸Ð· Ð¾Ð½
ĠÐĽ ÐµÐ
Ĥ Ð²Ð¸Ð¹
ÑĤÐ¸ÑĩÐµÑģÐº Ð¸Ðµ
ĠÐ¿Ð¾Ñħ Ð¾Ð¶Ð¸
ĠÐ´ÑĥÐ¼ Ð°ÑİÑĤ
ĠÐ·Ð°Ð½Ð¸Ð¼ Ð°ÐµÑĤ
ĠÐļ Ñį
ĠÐĳÑĥÐ´ Ñĥ
ĠÐĵÐ¾ÑģÐ¿ Ð¾Ð´ÑĮ
ÑĢÐ¾ÐµÐ ²
ÐĿ ÐµÑģ
Ð»Ð°ÑĤÑ ĮÑı
ÑĩÐµÑģÐº Ð¾Ðµ
ĠÐºÐ¾Ð¼Ð¼ÐµÐ½ÑĤÐ° ÑĢÐ¸ÑıÑħ
ĠÐ½Ð° Ñ
ĠÐ¾ÑĤ Ð´ÐµÐ»ÑĮÐ½Ð¾
ĠÐ½ÐµÐ²Ð¾Ð· Ð¼Ð¾Ð
st ag
ĠÐ¾ÑĦÐ¸ÑĨÐ¸Ð°Ð»ÑĮÐ ½Ð¾
ÑĤÐ°Ð½Ñ Ĥ
ÑĢÐ¸ ÐºÐ¾Ð²
ÑĢÐ¸Ð ½Ñĥ
ĠÐŁÐŀ ÐĶ
Ðĸ ÐĲ
ĮÑģÑ ı
ĠÑģÐ¼Ð¾ÑĤ ÑĢÐ¸ÑĤÐµ
ĠÑĤÐ° Ð¸Ð½
ĠÐ¿ÑĢÐ¾Ð´Ð¾Ð»Ð¶ Ð°ÐµÑĤ
ÑĩÐµÑģ ÑĤÐ²ÐµÐ½
ĠÑĩÐµÑĢÐ ½ÑĭÐµ
ĠÐ½Ð°ÑģÑĤÑĢÐ¾ÐµÐ½Ð ¸
ÑģÐ ²Ð¾Ðµ
ĠÐ²Ð¸Ð·Ð ¸
·ÑĤ Ñ
· Ð¾Ð»Ð¾
p er
Ġ ÑģÑĤÑĥÐ»
ĠÐ½Ð° ÑĪÐµÐ¼Ñĥ
Ð ¸ÑĩÐºÐ°
ĠÐ¾ÑĤ ÑĨÐ¾Ð¼
ĠÑģÑĥÐ ºÐ°
ĠÐ·Ð°Ð¼ÐµÑĤÐ¸ÑĤ Ñ
ĠÐ·Ð°Ð¼ÐµÑĤÐ¸ÑĤÑ Į
Ð¼Ð ±
Ð»ÑİÑģ Ñ
ĠÐºÐ½ÑıÐ ·ÑĮ
ĠÑħÐ¾Ð´ ÑıÑĤ
ĳÑ Ĥ
ĠÐºÐ°Ðº Ð¸Ð¼Ð¸
ÑĩÑĤ Ð¾Ð±Ñĭ
ĠÐ¼ÑĭÑĪ ÑĨÑĭ
ĠÐ½Ð¾Ð² Ð¾Ð³
ĠÑģÐ½ ÑıÐ»
·ÑĤÑ Į
ĠÐ¿Ð¾Ðº Ð¾
Ð¾ÑıÐ ½Ð¸Ðµ
Ð¿ Ñģ
in a
² ÐµÐ½ÑĤ
Ð¸Ðº Ð¾Ð¹
ĠÐºÑĢÐ°ÑģÐ ¾ÑĤÐ°
ĠÐ¿Ð¾Ð ¿Ðµ
ÑĢÐ°Ð±Ð¾ÑĤ Ðº
ĠÐ½Ð° Ð¿Ðµ
ĠÐ´Ð ¾Ð¹
Ð¿ ÑĢÐ°
ĠÐ¿Ð¾Ð´ ÑħÐ¾Ð´ÑıÑī
Ð¸ÐºÐ »
ĠÐ½ÐµÐ¸Ð·Ð²ÐµÑģÑĤ Ð½Ð¾
Ĥ ÑĢÑĳÑħ
Ñ ĤÑĢÑĳÑħ
ĠÐ¿Ðµ ÑĪÐºÐ¾Ð¼
² o
ĠÑģÑĤÐ° ÑĢÐ¾Ð³Ð¾
Ð¿ÑĢÑĭÐ ³
ĠÑİ Ð¶Ð
ĠÑĢÐµÐ ¹ÑĤ
ÑģÐ¿ Ð»Ð°ÑĤ
Ð ½Ð¾Ð´
¸ Ð¿Ð¾
ĠÑĢÐ°Ð· Ñ
ĠÐ¿ÑĢÐ¾Ð¸Ð· Ð½Ð¾
ðŁĮ¹ ðŁĮ¹
ðŁĺ ħ
ĠÑģÐ»ÐµÐ ·
ĠÐºÐ°ÑĢÑĤ Ð¸Ð½Ð°
ĠÑģÐ¾ÑģÐµ Ð´
Į Ð±Ðµ
ĠÐ¿ÑĢÐµÐ´ÑĥÑģ Ð¼Ð¾ÑĤ
Ġ Ð·ÐµÐ»
ĠÑĢÐµÐ²Ð¾Ð»Ñİ ÑĨÐ¸Ð¸
ÑĥÐ±Ð ¸Ð¹
ĠÑĤÐ°Ð½ ÑĨÐµÐ
ĠÐ²ÑĭÐ¿Ð¾Ð»Ð½ ÑıÑĤÑĮ
Ð¿Ð»Ð° ÑĤÐ°
ĠÐ²ÑĤÐ¾ÑĢÐ ½Ð¸Ðº
ĠÐ¿Ð¾Ð¿ÑĭÑĤ Ðº
ĠÐŃ Ð´
ÐĿÐ¾Ð² Ð¾ÑģÑĤÐ¸
ĠÐµÐ¶ÐµÐ´Ð½ÐµÐ ²Ð½Ð¾
ĠÑģÐ¾ÑģÑĤÐ°Ð ²Ð»Ñı
²Ð¾ÑĢÐ ¾ÑĤ
ÑĨ ÐºÐ¸Ð¹
ÑĢÐ°Ð±Ð¾ÑĤÐº Ð
ĠÐ·Ð° ÑģÐ»
ÑĢÐ°Ð±Ð¾ÑĤÐºÐ ¸
ĠÐ¿Ðµ ÑĢÐµÐ»
0 1
ÑĩÐµ Ð±Ð
ĠÐ½Ð° Ð»Ð¸
Ð¸ÑĢÑĥÐµ Ð¼
Ð¸Ð·Ð ¸
»Ð¾Ð²Ð° Ñ
ĠÐ¿Ð¾Ð¿ÑĭÑĤÐº Ð
ĠÐ¿Ð¾Ð¿ÑĭÑĤÐºÐ ¸
Ñģ ÑĤÑĥÐº
Ð»ÑĮÐ ½ÑĭÑħ
ĠÐ¼Ð¾Ð»Ð¾Ð´ ÑĭÐµ
Ð¾Ð ¶Ð´ÐµÐ½Ð¸Ñı
Ð ¸Ð¿Ð¾
ĠÐ¿ÐµÑģÐ½ Ñİ
Ð ¸ÑģÐ
±ÐµÐ ½
ÑĥÐ» ÑıÑĤ
Ð»ÐµÑĤÐ ¸
¸ Ð´ÐµÐ¹
ĠÐ¼Ð°Ð» ÐµÐ¹
ĠÑĥÑĩÐ¸ Ð»Ð¸
ĠÑħÐ¾Ð´ Ð¸Ð»
ĠÑģÐ¾Ð¿ÑĢÐ ¾ÑĤÐ¸Ð²
ĠÐŁ ÑĢÐ¸Ð½
ĠÐ²Ñĭ ÑĢÐ°Ð·
ÑĢÐ½Ñ ĭ
ĠÐºÐ»Ð° Ð´Ð±Ð¸
Ð±Ð »Ñİ
ĠÐ½Ð¾ ÑģÐ¸ÑĤÑĮ
Ð ·Ð¾Ð»Ð¾
ĠÑĢÐµÑĪÐ¸ ÑĤÐµÐ»ÑĮÐ½Ð¾
Ðµ ÑĢÑĭ
ĠÐ¿Ð¾Ð²Ðµ ÑĢÐ¸ÑĤÑĮ
ÑĢÐ° ÐºÐ°
ĠÐŀÐ »
ĠÐ¾Ð±ÑĭÐ ºÐ½Ð¾Ð²
ĠÐºÑĢÐ°ÑģÐ ½ÑĭÐ¹
Ð°Ð³Ð° Ñİ
· Ð¾ÑĢ
ĠÑģÐ² Ð¾Ñı
ĠÐ¾ÑĤÐºÐ° Ð·Ð°Ð»ÑģÑı
ĠÐ¿Ð¾Ð»Ð¾Ð² Ð¸Ð½Ð°
Ð ¸Ð´ÐµÐ¹
ĠÑħ ÑĢÐ¾Ð½
·Ð½Ð°Ð½ Ð
ÑİÑī ÐµÐ¹ÑģÑı
ĠÐºÐ¾Ð¼Ð¿ Ð°Ð½Ð¸Ñİ
ÑĥÑ ĢÑĥÐ
ĠÐ¿ÑĢÐ¾Ð³ÑĢÐ°Ð¼ Ð¼Ðµ
ĠÑģÐ²Ð¾Ð¹ ÑģÑĤÐ²Ð°
ĠÐ¡ Ð»Ð°
ĠÐ½Ð¾Ð³ Ð°Ñħ
ĠÑĢÐµÐ±ÐµÐ½ ÐºÑĥ
ĠÐ´Ñĥ ÑħÐ°
Ðĳ ÑĥÐ´
ĠÑĢÐ°Ð· Ð±Ð
Ñ ıÐ½ÐµÑĤ
ĠÑıÐ·ÑĭÐº Ð¾Ð¼
Ð¾Ð¼ Ñ
ĠÐ²Ð¸Ð½ Ð¾Ð²
ĠÐºÐ¾ÑģÑĤÑİ Ð¼
ĠÐ¿Ð¾Ð±Ð ¾Ð»ÑĮÑĪÐµ
ÑĩÐ°ÑĤ Ðº
ĠÐ²ÑĭÐ´ Ðµ
ĠÐł ÐµÐ³
² a
ĠÐ½Ð°ÑģÑĤÑĢÐ¾ÐµÐ½Ð¸ Ñ
ÑĪÐµÐ½ Ð½Ð¾Ð¹
ĠÐ¼ÑĥÐ·ÑĭÐ º
ÑĩÐµÑģÑĤ Ñ
ĠÐ½Ð°ÑģÑĤÑĢÐ¾ÐµÐ½Ð¸Ñ ı
ĠÐºÐ¾Ð¼Ð½Ð° ÑĤÐ°
ĠÐ¿Ð¾ ÑĢÐ°Ð·
ÑģÐ¿ ÑĥÐ±Ð»Ð¸
¸ Ð¼Ð¾Ð
ĠÑĥÑī ÐµÑĢÐ
ĠÐ»Ð¸ÑģÑ ĤÑĮÑı
ĠÐ·Ð°Ð¼Ð µÑģÑĤÐ¸
Ð±Ðµ Ðº
ĠÐ¿ÑĢÐµÐ´ÑģÑĤÐ°Ð²Ð¸ ÑĤÐµÐ»Ð¸
ÑĩÐµÑģÑĤÑ Į
ĠÑħÐ¾ÑĢÐ¾ ÑĪÐ¸Ð¼
Ð »Ð¾Ð¹
ĠÐ¿Ð¾Ð» ÑĩÐ°ÑģÐ°
½ÑĥÐ »Ð¾
ĠÐ¿ÑĢÐ¾Ð³ÑĢÐ°Ð¼ Ð¼Ñĥ
ĠÐ¼Ð° Ð¼Ðµ
ĠÐº Ð²Ð°Ñ
ĠÐ´Ð¸Ð² Ð°Ð½
!! !!!
ĠÐĹ Ð²Ð¾Ð½
Ð´Ð°Ñ ĩ
ĠÑī Ð¾
ÑĢÑģ Ðµ
ÑģÐ¿Ð »ÑĥÐ°
ÐĿ Ð°Ñģ
ĠÐŁÐ¾Ð½ Ð¸Ð¼
ĠÑģÑĥÐ´Ð¸ Ñ
Ð¾ ÑĤÐ°
¶ Ð°Ð
ĠÐ´Ðµ ÑĤÐ°Ð»Ð¸
ĠÐ¿ÑĢÐ¾Ð½ Ð¸Ðº
ĠÑį Ñģ
ĠÑĪ ÐºÑĥ
ĠÐ¡ ÑĩÐ°ÑģÑĤ
ĠÐ¿Ñ ĮÑıÐ½
ÐŁ Ð¾Ð
ĠÐ·Ð²Ñĥ ÑĩÐ¸ÑĤ
Ð¾Ð½Ð ³
Ð¾Ð» Ð¾Ð²
ĠÐŁ ÑĢÐ°Ð²Ð¸
Ð¼Ðµ ÑĩÐ°
ĠÑģÑĥÐ´ ÑĮÐ±Ñĭ
Ĥ Ð¾Ð²Ð°ÑĢ
ĠÐ´Ñĥ ÑĪ
Ñ ĤÐ¾Ð²Ð°ÑĢ
ÑĢÐ ½Ð¾ÑģÑĤÐ¸
ÐµÐ½ Ð½ÑĭÐ¼Ð¸
ĠÐ¿Ðµ ÑĪÐµ
Ġ Ð³Ð¸Ð¼
ĠÑģÑĤÐ° ÑĢÐ¾Ð¹
ĠðŁ¤ Ķ
ÑĤÐµÐ¹ Ð
ĠÐ¿ÑĢÐ¾Ð² ÐµÐ»Ð¸
ĠÐ´Ð ¾ÑĤ
Ġ6 00
ÑĩÐ°ÑĤÐº Ð
ĠÐ¢ Ð¾Ð¶Ðµ
ÑĩÐ°ÑĤÐºÐ ¸
ĠÐ¿ÐµÑģÐ½Ñ ı
ÑĤÐ¸ÑĩÐµÑģÐº Ð¸Ñħ
ĠÐµÐ² ÑĢÐµÐ¹
Ð¾Ð¹ Ð´ÐµÑĤ
ĠÐºÐ¾Ð¼Ð¼ ÑĥÐ½
ĠÐ²Ð·ÑĢÐ¾ÑģÐ» ÑĭÑħ
ÑĢÑĭÐ ·
ĠÑĥ ÑĪÐ»Ð¸
ĠÐ¿Ð¾Ð´Ð´ÐµÑĢÐ¶Ð º
ĠÐ½Ð°Ð·ÑĭÐ ²Ð°ÑĤÑĮ
ĠÐĶÐ¶Ðµ Ðº
ĠÑĢÐ°Ð·Ñ ĭ
oÐ ±
ĠÐ´ÐµÐ¹ÑģÑĤ Ð²Ð¸Ñ
ĠÐŁÑĢÐ¸Ð ³Ð»Ð°
ÑĢÐµÐ½ Ð¸Ð¸
ĠÐ±Ð ¾Ñģ
ĠÑģÐ¾Ð² ÑĢÐµÐ¼ÐµÐ½Ð
ĠÐ¿Ð¾Ð»Ð¾Ð ¶ÐµÐ½Ð¸Ñı
ĠÐ½Ð¸Ð ³Ð´Ðµ
ĠÑģÐ²Ð¾Ð±Ð¾Ð´ Ñĥ
ĠÐ²Ð¾ ÑĪÐ»Ð¸
ĠÑĢÐ°Ð·Ð³ Ð¾Ð²Ð°ÑĢÐ¸Ð
ĠÑģÐ¿Ð¾ÑģÐ¾Ð±Ð ½
Ð¸ÑĨ Ð¸Ð¹
ĠÑģÐ¸Ð»Ð° Ð¼Ð¸
Ð²Ð¾Ð² Ð°Ð»
ĠÑģÑĥÐ´Ð¸Ñ Ĥ
ĠÐ¸Ñģ ÑģÐ»ÐµÐ´Ð¾Ð²Ð°
ĠÐ¾Ð±Ð»Ð° Ð´Ð°
ĠÐ·Ð° Ð»Ð°
ĠÑģÐ¿Ð¾ÑģÐ¾Ð±Ð½ Ñ
ĠÐ¿Ð¾Ð´Ð´ÐµÑĢÐ¶Ðº Ð
ĠÐ¿Ð¾Ð´Ð´ÐµÑĢÐ¶ÐºÐ ¸
ĠÑģÐ¿Ð¾ÑģÐ¾Ð±Ð½Ñ ĭ
Ð¾ÑĢÐ ¾Ð¹
ĠÐĿ Ð¾Ð²Ð¾
ĢÑĭÐ ¹
Ð Ĩ
ĠÐĶ Ðķ
ĠÐ¶Ð´ Ð°Ð»Ð¸
ĠÐ¿ÑĢÐµÐ´Ð »Ð¾Ð¶Ð¸ÑĤÑĮ
ĠÐºÐ¾Ð½ÐºÑĥ ÑĢÐµÐ½
ĠÐºÑĢÐµ ÑģÐ»Ð¾
ĠÐļ Ð»Ð¸
Ð¾Ð½Ð ½ÑĥÑİ
Ð¸Ð¼ Ñĥ
³Ð¾Ð²Ð¾ ÑĢÑĭ
³ÑĢÐµÐ´Ð¸ ÐµÐ½ÑĤÑĭ
ĠÑĢÐ°Ð´ Ð¾ÑģÑĤÑĮÑİ
Ð²Ð° Ðº
ĠÑĢÐ°Ð·Ð ²Ð°Ð»
ĠÐĺÐ· ÑĢÐ°Ð
Ð ½Ñĸ
ĠÐ²Ñĭ ÑģÐºÐ¾
i x
Ð¼Ð¸Ñ ı
ĠÐ¼Ð¾Ð»Ð¾Ð´ Ð¾Ð³Ð¾
ÐµÐ½Ð ½Ð¾Ð¼
ĠÐ°ÑĢÐ¼Ð¸ Ñ
ĠÐ´Ð¸Ð² Ð¸Ð·
ĠÐ¼Ð°ÐºÑģÐ¸Ð¼ Ð°Ð»ÑĮÐ½Ð¾
ðŁı ¼
ĠÐ¿Ð¾Ð ¸Ð³
ĠÐ°ÑĢÐ¼Ð¸Ñ ı
ĠÑĨÐµ ÑĢÐµÐ¼Ð¾Ð½
ĠÐ´Ð¾Ð± ÑĢÐ¾
ĠÐ·Ð°Ð±ÑĭÐ »Ð¸
ĠÐ·Ð° Ð»Ð¸
ĠÐ°Ð²Ð¸ Ð°
ĠÐ¿Ð¾Ð´ ÑĢÐ°Ð·Ð´Ðµ
ĠÑģÐ¾Ð± ÑĢÐ°Ð½
Ġo Ñ
ĠÑģÐ»Ñĭ ÑĪÐ°ÑĤÑĮ
ĠÐĳ ÑĭÑģ
Ð°Ð½ÑĤ Ñ
ĠÐ¿Ð¾Ð· Ð´ÑĢÐ°Ð²
Ñ ıÑİ
ĠÐ¾Ð´ ÐµÑĢÐ
ĠÐ¼Ð¸ ÑĦ
ĠÐĶ Ð¾Ñģ
ĠÐ¿ÑĢÐ¸Ð¾Ð± ÑĢÐµÑģÑĤÐ¸
ĠÐ¿Ð¾ÑĨÐµÐ »Ð¾Ð²
ĠÑĥÑģÑĤÑĢÐ¾Ð ¸
ĠÐºÐ¾Ð¼Ð°Ð½ Ð´Ð¾Ð²
·Ð½Ð°Ð½Ð ¸
Ð¸Ð¼Ð° Ñ
ĠÐ¶ÐµÐ»Ð° Ñİ
ÑĢÐµÐ½ Ð½ÑĭÐµ
ĠÐĲÑ Ĥ
Ñģ ÑħÐ¾Ð´
± ÑĢÐ°Ð»Ð°
ĠÑĢÐ°Ð·Ð³ Ð
Ð ²Ð¸Ðº
ĠÐ½Ð¾Ñģ Ð¾Ð¼
Ð¼ÐµÑĤ ÑĢÐ¾Ð²
stag ram
ÑĨÐ¸ Ð¿
ĠÐ²Ð¾ÑģÐ¿Ð¾Ð¼ Ð¸Ð½Ð°Ð½Ð¸Ñı
Ðł Ð°Ð±Ð¾
ĠÐ¿Ð°Ð»ÑĮ ÑĨÐµÐ²
ĠÐ¿Ð¾ÑĤÐµ ÑĢÑıÑĤÑĮ
ĠÐ¸Ð· Ð¾
ĠÐ¿ÑĢÐ¸ ÐµÐ¼
ĠÐ¾ÑģÑĤÐ°Ð ½Ð¾Ð²Ð¸ÑĤÑĮ
ĠÐ¾Ð±Ñĭ ÑĩÐ½ÑĭÐ¹
ĠÐ¿ÑĢÐ¾Ð´Ð° Ñ
ĠÐ¿Ð¾Ð» ÑĤÐ¾ÑĢÐ°
ĠÐ²Ðµ ÑĤÐµ
ĠÐ¼Ð°Ð»ÐµÐ½ÑĮ ÐºÐ¸Ñħ
ĠÑĤÑĥÐ¿ Ð¾
Ð»ÑĮÐ ½Ð¾Ð¹
ĠÐ°Ðº ÐºÐ°
Ġ Ð¾Ð¹
ĠÐ½ÐµÐ¸Ð· Ð±Ðµ
Ð ²Ð¾Ð½Ð¸ÑĤÑĮ
ÑĳÐ½ Ð½ÑĭÐ¹
ĠÐ½ÐµÐ·Ð° ÐºÐ¾Ð½
ĠÑĤÐ°Ð½ ÑĨ
ĠÐŀ Ñģ
ĠÐ¿ÑĢÐµÐ´ ÑģÑĤÐ¾Ð¸ÑĤ
±Ð°ÑĤÑ Į
ĠðŁ Ĳ
ĠÐ¼Ð¾Ð» Ð¾ÐºÐ¾
ĠÐ¼ÑĥÐ·ÑĭÐº Ð
ĠÐ¼ÑĥÐ·ÑĭÐºÐ ¸
Ñħ Ð¾Ð·
ĠÐ¡ÑĤÐ° Ð»Ð¸Ð½
ĠÐµ Ð´Ð¸Ð
ĠÐ¡ Ð¸Ð½
ĠÑĥÐ ±ÑĢÐ°ÑĤÑĮ
ĠÑģÐµÑģÑĤ ÑĢÑĭ
ĠÑĥÐ´Ð° ÑĢÐ°
ÑĮÑı Ð¼
ĠÐĺ Ð´Ð¸
Ġ ÑĤÑĢÑĳÑħ
ĠÐ²ÑĭÐ ½Ð¾
ĠÑģÐ ¾ÑĩÑĥÐ
ĠÐ¿ÑĢÐ¾Ð´Ð°Ð ²Ñ
ÐµÑĤ Ðº
ĠÑģÐ¼Ðµ Ñħ
ĠÐ¿Ð¾ ÑĢÐ°Ð´
Ð¾Ð» ÐµÐ½
Ð¶ Ð°Ð²
Ð¾Ð»ÑĮÐ ·Ð¾Ð²
Ġ Ð¸Ð´ÐµÐ¹
ÐĲ Ð²Ñ
Â» )
Ġ Ð»Ð°ÑĤ
ĠÐ°Ð½Ð°Ð» Ð¾Ð³Ð¸
ĠÐĵ ÐµÐ¾ÑĢÐ³
ÑģÐµÐ ²
ĠÐĹÐµÐ¼Ð »Ð¸
ÐµÑģÑĤ Ð½Ð¾
Ñĳ Ð¼Ð
ĠÐ¡ÐµÐ ²Ðµ
0 8
ĠÑĪ Ð°Ð³Ð°
ĠÐĿÐ°Ð¿Ð¾Ð¼ Ð½Ð¸Ð¼
ĠÐ±Ð¾Ð»ÑĮÐ ½Ð¸ÑĨÑĥ
³ Ð¸Ð´
ĠÐ¿ÑĢÐ¾ÐºÑĥ ÑĢÐ°ÑĤÑĥ
ĠÐļ ÐŁ
ĠÐ¿Ð¾Ð´ Ð¿Ð¸
ĠÑĥÑĩÐ°ÑģÑĤ Ð½Ð¸ÐºÐ¸
ĠÑĨÐµÑĢÐºÐ¾Ð² Ñ
ĠÑĨÐµÑĢÐºÐ¾Ð²Ñ Į
Ð°Ñģ ÑĪÐµÐ´
ĠÑģÑĤÐ° ÑĢÑĭÑħ
Ð¸Ð°Ñ Ĥ
** **
Ñ ĢÑħ
Ð¸Ð½ Ð¾Ð¼
ÑĢÑĭÐ ²Ð°
ĠÐ·Ð°ÐºÐ¾Ð½ Ñ
i y
ĠÑģÐ¿Ð¾ÑģÐ¾Ð±Ð ¾Ð¼
ĠÐºÐ°ÑĢÑĤ Ð¸Ð½Ñĥ
ĠÐ¿ÑĢÐ¸ Ð»Ðµ
ĠÑģÐ¿ÑĢÐ°ÑĪÐ¸Ð² Ð°ÐµÑĤ
ĠÑģÐ¿Ð° ÑģÐ°
ĠÑĦÐ »Ð¾ÑĤ
Ð°ÐµÐ ²
ĠÐ²Ð·Ð³Ð»Ñı Ð´Ð°
ĠÐ´Ð¾Ð±ÑĢÑĭÐ µ
5 4
ĠÐł Ð¾Ð´Ð¸
Ĥ Ð¾Ð»Ð¸
ĠÐ¿ÑĢÐ¾Ð´Ð°Ñ Ĥ
ĠÑģÑĥÑīÐµÑģÑĤ Ð²Ð¾
ĠÑģÑİ Ð¶ÐµÑĤ
ĠÐ´Ð¸ Ð°
Ġ ÑĤÐ¾Ð²Ð°ÑĢ
ĠÑģÐ»ÑĥÐ¶Ð ±Ñĥ
e Ð¼
Ġ ÑģÑĤÐ¸Ð»ÑĮ
ar e
ĠÐ½ÐµÐºÐ¾ÑĤ Ð¾ÑĢÑĭÐ¼
ĠÐ¢ ÑĢÐµÑĤ
ĠÑģÐ¾Ð·Ð´ Ð°Ð
ĠÐ¿ÑĢÐ¸Ð½Ð°Ð´Ð»Ðµ Ð¶Ð¸ÑĤ
ÑĢÐµÐº Ð
6 1
Ð ·Ð»Ð°
ĠÐ¸ÑģÐ¿Ð¾Ð»ÑĮÐ·Ð¾Ð² Ð°Ð½Ð¸Ñı
ĠÐ¿ÐµÑĢÐµÐ ²ÐµÑĢÐ
ÑĢÐ´ Ð
ĠÐ¡ ÑĤÐµ
ĠÐ²Ñģ ÑĤÐ°Ð»Ð°
ÑĢÐ°Ð±Ð¾ ÑĤÐ°Ð»
ĠÐĲÐ»ÐµÐº ÑģÐµ
ĠÐ¶Ð¸Ð ²Ð¾Ð¿
ÐĽÐ¬ ÐĿÐŀ
ĠÑģÐ¸ Ð´ÑıÑĤ
ÐµÑĢÐ ½Ð¾
ĠÑĤÐµÐ¾ ÑĢÐ¸Ð¸
ĠÐ¾ ÑĩÐºÐ¸
¸ Ð´Ñĥ
ĠÐ·Ð°ÐºÐ¾Ð½Ñ ĭ
ĠÐ²ÑģÑı ÐºÐ¾Ð³Ð¾
m ed
Ñ Ĥo
ĠÐ¸Ð· ÑĬ
ĠÐ¾Ð±Ðµ Ð´
ĠÐ½Ð° ÑģÐ¸Ð»Ð¸
ÑĳÐ½ Ð½ÑĭÑħ
ĠÐ¿ÑĢÐ¸Ð±Ð »Ð¸Ð·Ð
ĠÐ¸Ð½ Ð²Ð°Ð»Ð¸
ĠÐ´Ð²Ð¸Ð³Ð° ÑĤÑĮÑģÑı
ĠÐĸ Ð¸Ð·Ð½ÑĮ
Ñ ĤÐ¾Ð»Ð¸
ĠÑĥÑģÑĤÑĢÐ¾Ð¸ Ñ
ĠÑĥÑģÑĤÑĢÐ¾Ð¸Ñ Ĥ
ĠÐ´Ð¾ÐºÐ° Ð·Ð°ÑĤÑĮ
ĠÐ¶ÐµÐ½Ñī Ð¸Ð½Ð¾Ð¹
ĠÐĹ Ð´ÑĢÐ°Ð²ÑģÑĤÐ²ÑĥÐ¹ÑĤÐµ
ĠðŁ ļ
Ð ½o
ĠÐ¿ÑĢÐµÐ´Ñ Ĭ
ĠÐ³Ð¾Ð´ Ð¾Ð¼
ĠÐ²Ð· Ð¾ÑĢÐ
ĠÐ¾ÑĤÐºÐ°Ð·Ð° ÑĤÑĮÑģÑı
ĠÐ½Ð° ÑĥÐºÐ¸
ĠÐ¿ÑĢÐ¸Ð¾Ð± ÑĢÐµÑĤ
0 3
ÑģÐ»Ð¾Ð²Ð¸Ñ ı
ĠÐ¿Ð¾Ð» ÐµÑĤ
Ñ ĤÐ²Ð¾Ð²Ð°ÑĤÑĮ
ĠÑģÑĬ Ðµ
ĠÐ¼ÑĥÐ·ÑĭÐ ºÐ°Ð½
ĠÐ¼Ð¾Ð´ Ðµ
ĠÐ´ÐµÐ²Ð¾ ÑĩÐºÑĥ
ĠÑĥÑģÐ¿Ð¾Ð ºÐ°
ĠÐ±ÐµÑģ ÑģÐ¼Ñĭ
¶Ð ¸Ð½Ð°
ĠÐ»ÑİÐ±Ð ¸Ð»Ð°
ĠÐ²Ð¾Ð¿ÑĢÐ¾Ñģ Ð¾Ð¼
ĠÐºÐ¾ ÑĪÐºÐ°
ĠÐ¿Ð¾Ð¼Ð¾Ð³ ÑĥÑĤ
ĠÐ²ÑĭÑħ Ð¾Ð´Ð¸ÑĤÑĮ
ĠÐ¿ÑĢÐ¾Ð´Ð°ÑĤ Ñ
ĠÐ¿ÑĢÐ¾Ð´Ð°ÑĤÑ Į
ĠÐĳÐ »
ÑĢÐ¸ Ð°Ð½
ÑĤÑĥ ÑĢÐ°
ĠÐ¾ÑĤÐ²ÐµÑĤÑģÑĤÐ²ÐµÐ½Ð ½Ð¾ÑģÑĤÐ¸
ĠÑħÐ¾ÑĢÐ¾ ÑĪÐµÐ¹
¸ ÑĩÑĤÐ¾
ĠÐµÐ ·Ð´Ð
Ġ Ð·Ð¾Ð»Ð¾
Ð¾Ð°Ð ½
ĠÐ¿Ð° ÑĢÑĤÐ¸
Ð ¸ÑĩÑĤÐ¾
ĠÐ¿ÑĢÐ¾Ñħ Ð»Ð°
ĠÑģÐ¿Ð¾ÑģÐ¾Ð±Ð ½Ð¾ÑģÑĤÑĮ
ĠÐ¾ÑĤÐ¿ÑĢÐ°Ð ²Ð¸ÑĤÑĮ
ĠÐºÐ¾Ð½ ÑģÐµÑĢÐ
ÐĴ ÑģÑĳ
·Ð½Ð°Ð½Ð¸ Ñ
·Ð½Ð°Ð½Ð¸Ñ ı
ÑĢÐµ Ð½Ð¾
Ġ un
ĠÐ²ÑĭÐ´ Ð¾Ñħ
ĠÑģÐµ ÑĢÑĤÐ¸
ĠÐ»ÐµÐ ¶Ð°Ð»Ð°
ĠÑģÑĤÐ° ÑĢÐ°Ð»ÑģÑı
ÑĢÐ¾Ð¸ Ñ
²Ð¾ ÑĢÐ°
ĠÑįÐ¼Ð¾ ÑĨÐ¸Ð¹
ĠÑģÐ¿ÑĢÐ° ÑĪÐ¸Ð²Ð°
ÑĤÐ¾Ð ±
ĠÑģÐºÐ°Ð¶Ðµ ÑĪÑĮ
ĠÐ±Ð¾Ð¼ Ð±Ð°
ĠÐºÐ° ÑĢÑĤÐ°
ĠÑħ ÑĢÐ¸
ÑĢÐ¾Ð¸Ñ Ĥ
ĠÐ¡Ð° ÑĪÐ°
en s
ĠÐ¿ÑĢÐ¸ Ð»Ð¸ÑĩÐ
http s
± Ð½Ð°Ñı
ĠÐ¿Ð¾Ð»Ñĥ ÑĩÐ¸ÑĤ
ÑĥÑīÐ° Ñ
Ð²Ð°Ð» Ñģ
Ð´ÐµÐ½Ð¸Ðµ Ð¼
ıÑ ıÑ
ĠÑĢÑĭÐ ±Ð°
ĠÐŁÑĢÐ¾ ÑĪÑĥ
ĠÐ²Ð¾Ð·Ð½Ð¸ÐºÐ° ÐµÑĤ
Ð½Ð°ÑģÑĤÐ¾Ñı ÑīÐµÐ¼Ñĥ
ĠÑĥÐ »Ðµ
ÑĩÐ° ÐµÐ¼
Ð¿ Ð»Ð°ÑĤÑĮÑı
ÐµÐ½ÑĮ ÐºÐ°Ñı
ĠÐŁ Ð°Ð²Ð
ĠÐ»ÐµÐ ²Ð¾Ð¹
Ġ Ð³ÑĥÐ¼
ĠÐ¿Ð¾ÑıÐ² Ð¸Ð»Ð¾ÑģÑĮ
ĠÑģÐ»Ðµ Ð´Ñĭ
Ð ³Ð²Ð°ÑĢÐ´
ÑĢÑ ıÑı
Ð°Ð½ÑĤÑ ĭ
ĠÑģÐ´ÐµÐ»Ð° Ð½Ð¾
ĠÐºÐ°Ð ¹
Ð»Ð°Ð½Ñ ĭ
ĠÐ±Ð°Ð½ ÐºÐ°
ÑĥÑģÑĤ ÑĢÐ¾Ð¹
Ð»Ðµ ÑĦÐ¾Ð½
ĠÑĢÐ°Ð±Ð¾ÑĤÐ° Ð»Ð¸
Ġ ÑĤÐ´
Ð²Ð°Ð»Ñģ Ñ
ÑĢÐº Ð½ÑĥÐ»
Ð²Ð°Ð»ÑģÑ ı
ĠÑģÐ°ÑħÐ° ÑĢÐ°
ĠÑģÑĤÐµÐº Ð»Ð¾
ĠÑģÑĤÑĥÐ´ ÐµÐ½
ĠÐ¿ÑĢÐ¾Ð ·Ð²Ñĥ
ÑĤÐµÐ»ÑĮÐ ½Ð¾ÑģÑĤÑĮÑİ
ĠÐŁ Ð¾Ð´Ð
Ð´ Ñİ
ÑĩÐµÑģÐº Ð¸Ð¼
ĠÐĴ ÐµÑģÑĮ
ĠÐºÑĢÑĥÐ¿ Ð½ÑĭÑħ
ĠÐ¾ÑĤÐ¼ÐµÑĤ Ð
ĠÐ¾ÑĤÐ¼ÐµÑĤÐ ¸
ĠÐĺÐ½ ÑĤÐµÑĢÐ½Ðµ
ĠÐĴ ÑģÐ¿
ĠÐ²Ð¾ÐµÐ½ Ð½Ð¾Ð¹
Ð¶Ð¸ÑĤ Ñ
ĠÐļ Ð½Ð¸Ð
ĠÐ²Ð·Ð°Ð¸Ð¼Ð¾Ð´ ÐµÐ¹ÑģÑ
ÑĪÐ»ÐµÐ½ Ð
Ð¾Ðº Ñģ
0 4
ĠÐ¾ÑĤÐ¼ÐµÑĤÐ¸ Ñ
Ñģ ÑĢÐ¾
ĠÐ¾ÑĤÐ¼ÐµÑĤÐ¸Ñ Ĥ
ĠÑħÐ°ÑĢÐ°Ðº ÑĤÐµÑĢÐ°
ĠÐ³Ð¾ÑģÐ¿ Ð¾Ð´
±ÑıÐ·Ð° ÑĤÐµÐ»ÑĮÐ½Ð¾
ĠÐľÐ°Ð¹ Ðº
ĠÐ²Ð ²Ð¸
ig n
ĠÐĶ Ð°Ð¹
ĠÑģÑĤÑĥÐ´ ÐµÐ½ÑĤÐ¾Ð²
ÑĥÑģÑĤ Ð¸Ð¼
Ð»ÐµÐ½Ð¸Ñ ıÐ¼Ð¸
ĠÐ¼Ñı ÑģÐ°
Ð·Ð° ÑĤÑĮÑģÑı
ĠÑĥÐº ÑĢÐµÐ¿
Ð¾ÑıÑĤ Ñ
ĠÐ¾Ð¿ÑĥÐ±Ð»Ð¸Ðº Ð¾Ð²
ĠÐ¿ÑĢÐµÐ´ÑģÑĤÐ°Ð²Ð¸ ÑĤÐµÐ»ÐµÐ¹
ĠÐ·Ð°Ð´ÑĥÐ¼ ÑĭÐ
ĠÐ¿ÑĢÐ¾ ÑģÐ¸Ð»
ĠÐ¿Ð¾Ð² Ð¾ÑĢÐ°
ĠÐ¶Ð´ Ð°Ð»Ð°
ĠÐ¿Ð°Ñ Ģ
ĠÐ±Ð¸Ð·Ð½ÐµÑģ Ð°
ĠÐ³Ð¾ÑĢÐ »Ð¾
ÑĤÐ¾ ÑĢÐµ
Ð¸Ð¼Ð ½Ð¾
ĠÐ¸Ð½ÑĤÐµÑĢÐµÑģ ÑĥÐµÑĤ
ĠÐ¿Ð¸Ð· Ð´ÐµÑĨ
Ð¾ÑıÑĤÑ Į
ĠÑģÑĤÐ° ÑĢÑĤ
ĠÑģÐ¼ ÑĥÑĤ
ĠÐ¿ÑĢÐ°Ð ²Ð¾Ð¹
ĠÐĳ Ð£
ĠÐ´ÐµÑĪÐµÐ ²Ð»Ðµ
ĠÐ¾ÑģÐ¾Ð±ÐµÐ½ Ð½Ð¾ÑģÑĤÐ¸
Ð ¸ÑīÐµ
ĠÑĢÐ°Ð ±
/ ?
âĺ º
ĠÐºÑĥ ÑĩÐ°
ÑģÑģ Ñ
ĠÐ¿ÑĢÐ¾ ÑħÐ¾Ð´
ĠÐŀ Ð¿ÑıÑĤÑĮ
ĠÐ¸Ð³ÑĢÐ¾Ðº Ð¾Ð²
· Ð²ÐµÐ·Ð´Ð
ĠÐ´Ð²Ðµ ÑĢÑĮÑİ
ĠÐ²Ð·Ð´ ÑĢÐ¾Ð³
ĠÐ¿ÑĢÐ¸ Ð´Ñĥ
ĠÐ¿Ð¾Ð¼Ð ¸Ð¼Ð¾
ĠÐ»Ðµ ÑĩÐµÐ½Ð¸Ðµ
ĠÑģÐ±Ð¾ÑĢÐ ½Ð¾Ð¹
ĠÑģÑĤÐ°ÑĢ ÑĪÐ¸Ð¹
ĠÐ¿ÑĢÐ¾Ð ¸Ð·Ð½
ĠÐ¿ÑĢÐ¸Ð·Ð½Ð°Ð ½
¾Ð ·
Ġ Ð°Ð½Ð¸
ĠÐ²Ð¾Ð· ÑĢÐ°Ð
ĠÐ¿ÑĢÐ¸ ÑĩÐ¸Ð½Ð¾Ð¹
ĠÐ´Ð»Ð¸Ð½ Ð½ÑĭÐµ
ĠÐ±Ð°Ð½ ÐºÐ¾Ð²
ĠÐ¿ÑĢÐµÐºÑĢÐ°ÑģÐ ½ÑĭÐ¹
ĠÑĢÐ¾Ð´Ð¸ ÑĤÐµÐ»ÑıÐ¼
ĠÐ° Ð¼
¶ÐµÐ½ Ð½Ð°Ñı
ĠÐ¡ Ð¾Ð·
Ð±ÐµÑ Ģ
ºÐ° Ð¼
ĠÐļÐ¸ ÑĢÐ¸
ĠÐ½Ðµ Ð´Ð°Ð»ÐµÐºÐ¾
ĠÐ·Ð°ÐºÐ»Ñİ ÑĩÐ°ÐµÑĤÑģÑı
ÑģÐ ½ÑĭÐ¼
ÑĪÐ¸Ð½ ÑģÑĤÐ²Ð¾
ĠÐ¿Ð¾Ð´Ð½ ÑıÐ»Ð°
ĠÐĺ Ð½Ð°ÑĩÐµ
ÑĢÐµÐ½ Ð¸Ð¹
ĠÂ ©
Ĥ ÑĭÑħ
ĠÑģÑĤÑĢÐ¾Ð µ
D D
Ð¿Ð¸ÑĤ Ñ
Ð¸Ð³ Ð
ĠÐĳÐ¾ ÑĢÐ¸Ñģ
ĠÑĥ ÑĪÐ°
Ð¡ ÐºÐ°
Ġ ÑģÑĤÑĥÐº
ĠÑįÐ»ÐµÐºÑĤ ÑĢÐ¸
ĠÐ¡ Ð£
ĠÐ¶ Ð°Ð¶Ð´
Ð¶Ð¸ÑĤÑ Į
ÑĥÐ½Ð ¸
ĠÑģÐºÐ° Ð¶Ð¸ÑĤÐµ
ĠÑĥÑĩÐ¸ ÑĤÐµÐ»ÑĮ
ÑĥÑĤ Ñģ
Ġ ÐµÐ»
ĠÐ¿ÑĢÐ¾Ð² Ð°Ð»
ĠÐ´Ð ²Ð°Ð¶Ð´Ñĭ
Ð¾ÑģÐº Ð¾Ð»ÑĮÐºÑĥ
ĠÐĴÐ¼ÐµÑģ ÑĤÐµ
ra v
ĠÐ¿Ð¾Ð»Ð ½ÑĥÑİ
ĠÑģÐµÑĢÐµÐ± ÑĢÑıÐ
e w
ĠÐĳ ÐµÑģ
ÑģÐ»Ñ ı
ĠÐ¼Ð¸ ÑĢÐ¾Ð¼
ĠÐ½Ðµ ÑĦ
ĠÐ¿Ð¾Ð» Ð½Ð°Ñı
ĠÐ²ÑĢÐ° ÑĩÐ°
Ð°Ð½Ð ½Ð¾ÑģÑĤÐ¸
ĠÑģÐ°Ð¼Ð ¸Ñħ
ĠÑģÐ»Ð¾Ð² Ð°Ñħ
ĠÐ·Ð° ÑĢÐ°Ð±Ð¾ÑĤÐ°ÑĤÑĮ
i i
ĠÑįÐº ÑģÐ¿Ð»ÑĥÐ°
ĠÐ·Ð° ÑĢÐµÐ³Ð¸ÑģÑĤÑĢÐ¸
ĠÐ¿Ð¾Ð½Ð¸Ð¼ Ð°Ð»Ð°
an g
ĠÐł Ð¾Ð¼Ð°Ð½
ĠÐ¾ÑĢÐ ³Ð°
Ð ¸ÑģÐ¸
ÑĢÐ ±Ð
Ð¸Ð² ÑĪÐ¸Ð¹
Ġ Ð¿ÐµÐ¹
ÐµÑĢ ÑĢÐ¸
ĠÑģÐ¾Ð±Ð°Ðº Ñĥ
ÑĥÑİÑģÑ Į
ÑĢÑĤÐ¸Ñ Ĥ
ĠÐ´Ñ ıÐ´Ñı
ĠÑģÐ¿Ð¸ Ñ
ÑħÐ ²Ð°Ð»
ÑĥÐ ±Ð°
ĠÐ¿ÑĢÑĭÐ ³
ĠÐ¾ÑĤÐ²ÐµÑĤÑ ĭ
ĠÐ¿Ð¸ ÑĪÑĥ
ĠÐ²ÑĭÐ ±ÑĢÐ¾
ĠÑıÐ±Ð »Ð¾Ðº
ĠÑĢÑĥÐ±Ð »
ĠÐŁÑĢÐ¾Ð´ Ð¾Ð»
µÑģ Ð°
ĠÐ¾ÑĤÐ»Ð¸ ÑĩÐ°ÐµÑĤÑģÑı
ÑĢÑı ÐµÑĤÑģÑı
ĠÐ»ÐµÐ³ÐµÐ½ Ð´Ð°
Ġ Ð·Ð»Ð°
ĠÑģÑĤÐ°ÑĤ ÑĮÐµ
ĠÐ±Ð ¾Ð½
ĠÐĺ ÐĿ
Ð¶Ð º
ĠÐ¾Ð±ÑĢÐ°ÑĤ Ð¸ÑĤÑĮÑģÑı
ĠÑĥÐ¿ÑĢÐ°Ð¶Ð½ ÐµÐ½Ð¸Ñı
ÑĪÐ ½Ðµ
ĠÐ»Ðµ Ðº
ÑĩÐ ½Ð¸ÐºÐ°
ĠÐ·Ð°Ð´ Ð°Ð½Ð¸Ðµ
ĠÐ´Ð¾Ð» ÑĮÑĪÐµ
ĠÐ¿ÐµÑĢÐµÐ ²Ð¾Ð·
ĠÐ¿ÑĢÐµ Ñ
Ðĺ ÐĹ
ĠÑĥÐ´Ð° ÑĢÐ¸Ð»
Ðľ ÐµÐ½Ñı
ĠÐ½Ð°ÑĢÐ¾Ð´ Ð¾Ð²
ÐĶ Ð¶Ð
ĠÑĤÐºÐ°Ð½ Ð
ĠÐ·Ð° ÐºÐ°Ð·ÑĭÐ
ĠÑĤÐºÐ°Ð½Ð ¸
ĠÑģÐ¿ÑĢÐ°Ð ²Ð°
ÐºÐ° ÑİÑĤ
Ġ ..
ĠÑģÐ°Ð¼Ð ¾Ð´
Ð»ÐµÐ½Ð¸Ñ ıÑħ
ĠÐ¾Ð¶Ð¸ Ð´Ð°Ð»
ĠÐ·Ð°Ð¼Ð º
ĠÐ²Ñĭ ÑģÐ¾
ĠÐ° ÑĢÑĤÐµ
Ð°Ð³Ð ½
¹Ñģ ÑĤÐ²Ð¾
ĠÐ¿Ð¾ÐºÐ¾Ð» ÐµÐ½Ð¸Ñı
Ð¾Ð» Ðº
Ñħ Ð°Ð½
ÑİÑī ÐµÐ³Ð¾ÑģÑı
Ġ Ð»ÑıÐ
ĠÐ¿ÑĢÐµÑ Ĥ
Ð¿Ð¸ÑĤÑ Į
ĠÑĪÑĤ ÑĥÐºÐ°
³ Ð¸ÑĤÐ°
ĠÐ³Ð°Ð· ÐµÑĤÑĭ
ÑıÑĤÐ¸ ÑıÑħ
ĠÐ¿Ð¾ÑģÐ»ÐµÐ´ Ñģ
ĠÐ¿Ð¾ÑģÐ»ÐµÐ´Ñģ Ñ
ĠÐ¿Ð¾Ð³ Ð»Ð°
ĠÐ¿Ð¾Ð¿ Ð¾Ð»Ð½
ÑĮÐº Ð
ĠÐ¿Ðµ ÑĩÐ°ÑĤ
ĠÐ¾ÑĤ ÑĢÑıÐ´
Ð¾Ð¼Ð½ ÐµÐ½Ð½Ð¾
ĠÐ¸Ð¼Ð¿Ðµ ÑĢÐ¸Ð¸
ĠÐº Ð¾Ð·
ĠÐº Ð¾ÑģÑĤÐ¸
ĠÑĥÑģÐ¿Ðµ Ñħ
ĠÐ¡Ð¸ Ð±Ð¸
ĠÑĢÐµÐ ³ÑĥÐ»Ð¸
ĠÐĽÐ¸ ÑĪÑĮ
ĠÑĢÐ¾Ð¼ Ð°Ð½
Ð ²ÐµÐ¹
ĠÐ°ÑĢÐµÑģ ÑĤÐ¾Ð²
ĠÑĥÐ±Ð¸Ð¹ ÑģÑĤÐ²Ð°
ÑĪÐµÐ» Ñ
ĠÐĺ Ð»ÑĮÐ
ĠÐ¸Ð¼Ðµ Ð½ÐµÐ¼
ĠÑĤÐ²Ð¾Ð ¸Ð¼
ĠÑĢÐ°Ð·Ð³ Ð»ÑıÐ´ÑĭÐ
¸Ð²Ð° ÑİÑĤÑģÑı
ĠÐ½Ð°Ñĥ ÑĩÐ¸ÑĤÑĮÑģÑı
Ġ3 3
ĠÑĥÑģÑĤÐ°Ð ½Ð¾Ð²Ð¸ÑĤÑĮ
ÐŁÐ¾ÑĤ Ð¾Ð¼
ĠÐ½Ðµ Ð¾Ð´Ð½
ĠÐ¾Ð±ÑĬ ÐµÐº
ĠÐºÐ»Ð°Ñģ ÑģÐµ
ĠÑģÑĤÑĢÐ¾Ð¸ÑĤ Ñ
ĠÑģÑĤÑĢÐ¾Ð¸ÑĤÑ Į
ĠÐ³Ð¾ÑĤÐ¾Ð²Ð¸ÑĤ Ñ
ĠÐ³Ð¾ÑĤÐ¾Ð²Ð¸ÑĤÑ Į
ĠÐ´ÐµÑĢÐµÐ ²Ð½Ð¸
Ð ²Ð¾Ñĳ
ĠÑĥÑĩÐ°ÑģÑĤ Ð¾Ðº
ĠÐ½Ðµ Ð¾ÑĤ
cÑĤ Ð
ĠÐ²ÑĭÐ±Ð¾ ÑĢÐ°
Ð¾Ðº ÑĢÐ°ÑĤÐ½Ð¾
ĠÐ¿Ð¾Ð´ Ð°Ð²
ĠÐ°Ñģ ÑĦ
ĠÐº ÑĥÐ·
ÑıÐ ½Ð¾Ð¹
ĠÐłÑı Ð´Ð¾Ð¼
ĠÑģÐ¼Ð¾Ð¶Ðµ ÑĪÑĮ
ĠÐ½ÐµÐ ±Ð°
ĠÐ²Ð²Ð¸ Ð´Ñĥ
ĠÑģÐ¾Ðº ÑĢÐ°Ñī
ĠÐ»Ð°Ð´Ð¾Ð½ Ñ
ĠÐ·Ð°ÑħÐ¾ÑĤ ÐµÐ»Ð¾ÑģÑĮ
ĠÐ»Ð°Ð´Ð¾Ð½Ñ Į
ÑģÑİ Ð´Ñĥ
ĠÐ¢ÐµÐ ±Ñı
Ð²Ñĥ ÑĪÐºÐ¸
ÑĮÐºÐ ¸
ĠÐ¿ÑĢÐ¾Ð±Ð¾ÑĢÐ¼Ð¾ ÑĤÐ°Ð»
hat s
ĠÐ¾Ð±Ð»Ð° Ð´Ð°ÐµÑĤ
ĠÐ¸Ð·Ð½Ð° ÑĩÐ°Ð»ÑĮÐ½Ð¾
ÐĿ ÐµÐ
e y
ÑĥÑį Ñ
ĠÑģÐ¾Ð» Ð´Ð°
ÐŁ ÐłÐŀ
Ð ±Ð°Ð¹
ÑıÐ» Ð¾ÑģÑĮ
0 7
ĠÐĵÐ¾Ñģ ÑĥÐ´Ð°ÑĢÑģ
ĠÑģÑĤÐ¾Ð» Ñĥ
ĠÐ·Ð°Ðº ÑĥÐ¿
ĠÐº Ð¾Ð³
ĠÐĽÑİ Ð±Ð¾Ð²ÑĮ
ĠÐ·Ð°Ð²Ñ ĤÑĢÐ°Ðº
ĠÑĢÐ°Ð±Ð¾ÑĤÐ° Ð»Ð°
¶Ðµ Ð½Ð°
ÑĩÐ° Ð»Ð¸ÑģÑĮ
½ Ð¸Ñī
ĠÑģÐ¿ Ð¾ÑĢÑĤÐ°
ÑĢÐ¾Ð² Ð°Ð½Ð¸Ñı
ĠÑįÐ¿Ð ¸Ð·
»ÑİÐ ·
ĠÐ»Ð° Ð±Ð¾ÑĢÐ°
ĠÐ²ÑĭÐ³Ð»Ñı Ð´ÐµÑĤÑĮ
Ġ ÑģÑĤÑĥ
ĠÑģÐ ±ÑĢÐ¾
ĠÐ¾ÑģÑĥÐ ¶Ð´
Ð£ Ð¶Ðµ
Ġ3 6
ĠÐĴÐ° ÑĪÐ¸
Ġ Ð³ÐµÐ¹
ĠÐ¾ÑĤÐ¼ÐµÑĤÐ¸ÑĤ Ñ
ĠÐ±Ð¾Ð»ÑĮÐ ½Ð¸ÑĨÐµ
ĠÐ¾ÑĤÐ¼ÐµÑĤÐ¸ÑĤÑ Į
ĠÑģÐ¼Ð° ÑĢÑĤ
ĠX X
ĠÐŀÐ±Ñĭ ÑĩÐ½Ð¾
ĠÐ½ÐµÐ¿ÑĢÐ¸ ÑıÑĤÐ
¶Ð¸ ÑĤÐµ
»Ð¾Ð²Ð ¸
Ñī Ð¸Ð¼
ĠÐ¸Ð½ ÑĤÐµÐ½
ÑĤÐ¸ÑĩÐµÑģÐº Ð¸Ð¹
ĠÑĢÐ°ÑģÑĤ ÐµÐ½Ð¸Ñı
ĠÐ´Ð¾Ð»Ð¶Ð ½Ð¾ÑģÑĤÑĮ
Ġ ÑģÑħÐ¾Ð´
ÐµÐ»Ð¸ Ñ
ĠÐłÐ°Ð½ ÐµÐµ
ĠÑģÐº ÑĢÑĭÑĤ
ÑĩÐµÐ½ Ð½Ð°Ñı
ĠÐ²ÑģÑĤÑĢÐµÑĤ Ð¸ÑĤÑĮÑģÑı
Ð´Ðµ Ð±Ð
ĠÑģÑĥÐ¼ Ð¼Ð°
ĠÑģÑĤÐµ ÐºÐ»Ð°
ÑĩÐµÐ½ Ð½Ð¾Ðµ
ÑĤÐ¾ÑĢÐ ¾Ð
ĠðŁ ı
ĠÑģÐºÐ°Ð¶Ðµ Ð¼
ĠÐ¿Ð¾Ð² Ð¾ÑĢÐ¾ÑĤ
ĠÐ½Ðµ Ð»ÐµÐ³
Ñ ĤÐ¾Ñģ
¸ ÑıÐ
Ð²Ð¾Ð» Ñİ
ÑĪ ÑĥÑģÑĮ
ĠÐ½Ð°ÑħÐ¾Ð´Ð¸ ÑĤÑĮÑģÑı
Ð´Ðµ Ð»Ð¾
ĠÑģÑĥÐ´Ð¸ÑĤ Ñ
ĠÑģÑĥÐ´Ð¸ÑĤÑ Į
ĠÑģÐ¿Ð¸Ñ Ĥ
ĠÐ¡ÑĤÐ¾Ð ¸Ð¼Ð¾ÑģÑĤÑĮ
Ð´Ð¸Ð½ Ñ
ĠÐ¾Ð±ÑĬÑıÑģÐ½ Ð¸Ð»
ĠÐ¿ÑĢÐ¾Ð´Ð¾Ð»Ð¶ Ð°Ð»Ð°
ĠÐ¾ÑģÑĤ ÑĢÐ¾Ð²Ð°
ÑĢÑĨ Ð
Ð¾Ðº Ðº
ĠÐ¾Ð´ÐµÐ ¶Ð´Ð°
Ð°ÐµÐ¼ ÑĭÑħ
»ÑİÑģÑ Ĥ
Ġ Ð¾Ñĩ
ĠÐºÐ¾Ð½ ÑĨÐµÐ¿
ĠÐĽ ÑĥÑĩ
ĠÐ¿ÑĢÐ¾ÑĤÐ¸Ð² Ð¾ÑģÑĤ
ĠÐºÐ° Ð¼Ð¿
¶Ðµ Ðº
ĠÑĥÐ¿ÑĢÐ°Ð ²Ð»Ñı
ĠÐĴ Ðļ
ĠÐ³ÑĥÐ ±
ÑĢÐµÐºÐ ¸
ĠÐĿ Ð¾ÑĢÐ¼
¸ Ð¿Ð¸
ĠÐĳÑĥÐ´ ÐµÑĤ
Ð ¸Ð´Ñĥ
ĠÐ½Ð°ÑĩÐ°Ð»ÑĮÐ ½Ð¸ÐºÐ°
Ð ¸ÑıÐ
Ġ Ð¾Ð»Ð
± ÑĥÐ»ÑĮ
ĠÐ¿Ð¾ ÑįÑĤ
ĠÐ»Ðµ ÑĩÐµÐ½Ð¸Ñı
ÑĢÐ°Ð ¶Ð´
ĠÐ²ÑĭÐ¿ ÑĥÑģ
ÑĪÐ»ÐµÐ½Ð ¸
ĠÐ±Ðµ ÑĢÐµÑĤ
Ġ ÑģÑĨÐµÐ½
ĠÐĵ ÑĢÑĥÐ¿
ÐŁ Ð£
¸Ð²Ð° Ñİ
Ð¿Ð¾Ð¼Ð¸ Ð½Ð°ÑĤÑĮ
i es
¶Ð ¾Ðº
ĠÐ²Ð¾ÑģÐ¿ÑĢÐ¸Ð ½Ð¸Ð¼
Ð ³Ð¸ÑĤÐ°
ĠÐĴÐ° ÑĪÐµ
ĠÑĢÐµÑĨÐµÐ¿ Ñ
ĠÑĢÐµÑĨÐµÐ¿Ñ Ĥ
ĠÐ¼Ð¾ ÑĢÑī
ĠÑģÑħÐ²Ð°ÑĤ Ð¸Ð»
ĠÑĩÐµÑĤ ÐºÐ¾
»Ð¸ Ñ
ĠÑģÑĤÐ¾ÑĢÐ¾Ð½Ð° Ð¼
ĠÐŁ ÑĢÐ¾Ðº
ĠÑģÑĤÐ° ÑĢÐ¸Ð½
ĠÑģÐ¾Ð¾Ð± ÑĢÐ°Ð
Ð´ Ð½Ð°Ñı
ĠÐ²ÐºÑĥÑģ Ñĥ
ĠÑĥÐ¿ Ð°Ð»Ð°
im e
ĠÐĺÐ²Ð°Ð½ Ð¾Ð²
ĠÐ²ÑĢÐ° ÑĩÐ¸
Ð³Ð°Ñ Ĥ
ĠÐ²Ð¿Ðµ ÑĢÑĳÐ´
Ð¼Ð¾ ÑĢÐ°
ÑĭÐ½ Ð
Ð²Ð°Ð ¶Ð°ÐµÐ¼ÑĭÐµ
Ð ³Ð°Ð»
ĠÐ²Ð´Ð ²Ð¾Ðµ
ĠÑĦÐµÑģÑĤÐ¸Ð²Ð°Ð» Ñ
ÑĢÐ°Ð»ÑĮÐ ½ÑĭÑħ
ĠÐ²Ð»Ð° Ð¶Ð
Ġ Ð¿ÑĥÐ³
ĠÐĴÐµÐ»Ð¸ ÐºÐ¾Ð¹
ÐµÑĤÑ Ĥ
o x
Ð ½Ð¸Ñī
ĠÑĩÐµ ÑĢÐ½
ĠÐ´Ð¾Ð³Ð¾Ð² Ð¾ÑĢ
² Ð¿Ð°
ĠÑĪÐµ Ðµ
ĠÐ²ÑĭÐ· Ð²Ð°ÑĤÑĮ
ĠÑĢÐµ ÑģÐ¿ÑĥÐ±Ð»Ð¸ÐºÐ¸
ĠÐ±Ð°Ð½Ðº Ð
ĠÐ±Ð¾Ð»ÐµÐ·Ð½ Ñ
»ÑĮÐ ½ÑĭÑħ
0 6
ÑİÑīÐ¸Ð¼ Ñģ
ðŁĳį ðŁı»
ĠÐ¾ÐºÐ¾Ð½ ÑĩÐ°Ð½Ð¸Ñı
ÑİÑīÐ¸Ð¼Ñģ Ñ
ÑİÑīÐ¸Ð¼ÑģÑ ı
ĠÐŀÐ ±Ð°
ĠÐ±Ð¾Ð»ÐµÐ·Ð½Ñ Į
ĠÐĳ ÐµÐ½
ĠÐµÑģÑĤ ÐµÑģÑĤÐ²ÐµÐ½Ð
ÑģÐµ Ð»Ð¸
ĠÐ¥ Ðŀ
ĠÐ±Ð° Ð·Ð°
ĠÑİ ÑĢÐ¸Ð´Ð¸
ĠÐĶ Ð¢ÐŁ
ðŁĴ ĸ
ÑĪ ÑĤÐ°Ð
ı Ð´ÐµÑĢÐ
ĠÐ¾ÑĢÐ³ Ð°Ð½Ñĭ
ĠÐ½ÐµÐ¿ ÑĢÐµÐ¼ÐµÐ½Ð½Ð¾
Ñĥ ÑĤÐ°
Ðĳ Ðķ
ĠÐ²Ðµ ÐºÐµ
â Ŀ
ĠÐ·Ð°Ðº Ð»Ð¸
ÑģÐµÐ»Ñ Į
ĠÑģÐ»ÐµÐ´ÑĥÑİ ÑīÐµÐµ
Ġ ÑīÐ¸
ĠB l
ĠÐ½Ð°Ð±Ð»Ñİ Ð´Ð°
ĠÐ° ÑĦ
ĠÐ½ÐµÐ »Ð¾Ð²
ĠÑĥ ÑħÐ¾
ĠÐ»Ð¸ÑĤÐµ ÑĢÐ°ÑĤÑĥÑĢÐ
ĠÐ¼ÑĥÐ¶Ð ¸ÐºÐ°
ĠÐŁ ÑĢÐ¾Ð³
ÑĪÐ »Ð¸ÑģÑĮ
0 9
ÐĶ Ð°Ð¶Ðµ
ĠÐ±ÐµÑģÐ¿ ÑĢÐµ
ĠÐ´ÐµÐ¹ÑģÑĤ Ð²Ñĥ
ĠÑĢÐµÐ· ÐµÑĢÐ
ĠÐ³Ð¾ÑĢÐ¾Ð´ ÑģÐºÐ¾Ð¹
ÑĢÑģ ÐºÐ¾Ðµ
ÐŃ ÑĤÐ¾ÑĤ
Ġ201 1
Ð²Ñģ ÐºÐ¾Ð¹
Ġ Ð¿Ð»Ð°ÑĤÑĮÑı
0 2
ĠÑĥÐ±Ð ¸Ð²Ð°ÑĤÑĮ
ĠÑĥÐ²ÐµÑĢÐµÐ½ Ð½Ð¾
ĠÐĴ ÑĢÐ¾Ð´Ðµ
Ð´Ð°Ð½ Ð¸Ð¹
Ð»Ð¾ Ñħ
ĠÐ·Ð°Ð´ÑĥÐ¼ ÑĩÐ¸Ð²Ð¾
Ð¾Ð± Ñĥ
ĠÐºÐ¾ÑĢÐ¾Ð½Ð° Ð²Ð¸ÑĢÑĥÑģ
ÑĥÑī ÐµÑģÑĤÐ²
ĠÐ¸Ð½ÑģÑĤÐ¸ ÑĤÑĥÑĤ
³ Ð»Ð¾Ð±
ÑĪÐµÐ½ Ð½ÑĭÑħ
ĠÐĿ Ð°Ð¹
ĠÐ´Ð¾Ð µ
ĠÑģÐ¾Ð² ÐµÑĤÐ°
ĠÑĢÐ°ÑģÐ¿ Ð°Ñħ
» ÑĥÐ½
ĠÐ´ÐµÐ²ÑıÑĤ Ñ
ĠÐ·Ð°ÑīÐ¸ ÑĤÑĥ
ĠÐ´ÐµÐ²ÑıÑĤÑ Į
ĠÑģÐ¾Ð³Ð»Ð°Ñģ Ð½Ð°
ĠÐ²Ð¸ Ð´Ñĭ
ĠÑĢÐ°Ð· Ð¾ÑĢÐ
Ĥ ÑĥÑĦ
ĠÑĦ Ð»Ð°Ð³
ĠÐŀÐ´Ð½Ð° Ð¶Ð´Ñĭ
ĠÑĥÐ³ ÑĢÐ¾Ð·
ĠÐ½ÐµÐ² Ð¾Ð»ÑĮÐ½Ð¾
ĠÐ¿ÑĢÐ ¾ÑĤÐµ
ĠÑĤÐµ Ð»ÐµÐ³
Ġ201 0
ÑĥÐ½Ð ¸ÑĨÐ¸
Ĥ ÑĭÐ¼
² Ð¿Ð
ÑĪÐ¸Ð½ Ñĥ
ÑĢÐ°ÑģÐ ½Ð¾
ĠÐ¿Ð¸ ÑĤÐ°
ĠÐŁ ÑĢÐ°Ð
Ð ³Ð»Ð¾Ð±
ĠÑĥÑģÐ»Ñĭ ÑĪÐ°Ð»Ð°
ĠÐ¡ ÑĤÐ°Ð»Ð¸
ĠÐ¸Ð½ ÑĦÐµ
Ð¸ÑĤÐµÐ»ÑĮÐ ½ÑĭÐµ
Ð°Ð½Ñ ĮÑı
Ñ ıÐ´ÐµÑĢÐ
ĠÐ¼Ð¾ÑĢÐ¾Ð ·
ĠÐ¿Ð° Ð»Ð°ÑĤ
ĠÐ¿ÑĢÐ¾ÑĪÐ» Ð¾Ðµ
ðŁĺ ¡
ÑĩÐ° ÑĢÐ¾Ð²Ð°
ĠÐºÐ¾Ð½ ÑĦÐµÑĢÐµÐ½
ĠÐ¼Ð° ÑģÐ»Ð¾Ð¼
ĠÐ²ÑĭÐ¿Ð¾Ð»Ð½ Ð
Ñ ĤÐ²Ð¾ÑĢÐ
Ð¸Ð»ÑĮ Ð¼
Ð»ÑİÑģÑ Į
ĠÐ£Ð »
ĠÐ¿Ð¾Ñħ Ð¾Ð¶Ð°
ı Ð´ÐµÑĤÑĮ
ĠÐ±Ð° Ð½Ð°
ĠÐ¿ÑĢÐ¸ Ð²Ð¸
Ñ ıÐ´ÐµÑĤÑĮ
ĠÐ½ÑĢÐ°Ð ²ÑıÑĤÑģÑı
ĠÐ²ÑģÑĤÑĢÐµÑĤ Ð
Ĥ Ð²Ð¾Ñĳ
ĠÐ²ÑģÑĤÑĢÐµÑĤÐ ¸
ĠÐ·Ð½Ð°Ð ½Ð¸Ð¹
Ñ ĤÐ²Ð¾Ñĳ
Ð°Ð° Ð°
ĠÐ½Ð°Ð±Ð»Ñİ Ð´Ð°ÑĤÑĮ
» ÑıÐ´ÐµÑĤÑĮ
Ġ ÑģÑħ
¿ÑĢÐ ¾Ð±
ĠÐ²ÑĤÐ¾ÑĢÐ ¾Ðµ
ĠÑĢÐµÐºÐ¾Ð¼ÐµÐ½ Ð´Ð°
ĠÐ¿Ð¾Ð²ÐµÑĢÑħÐ ½Ð¾ÑģÑĤÑĮ
ÐµÐ½Ð¸ Ð½Ð°
ĠÐ¿Ð¾ ÑģÐ»ÑĭÑĪ
Ðĵ Ð¾ÑģÐ¿
ĠÐ¾ÑĤ Ð´Ð¾ÑħÐ½ÑĥÑĤÑĮ
ĠÐ£ Ðļ
Ð»Ð»Ðµ Ñ
ĠÐ¾ÑģÑĤÐ°Ð ²Ð¸Ð²
ĠÐ·Ð° ÑĤÑĭÐ
ĠÑĥÐ¼Ðµ ÑĢÐµÑĤÑĮ
ĠÐ¿Ð¾Ð¿ ÑĢÐ°Ð²
ÑĥÐ »Ð¾
ĠÐ¼Ð¾Ð¼ ÐµÐ½
Ð¢ Ð¾Ð³Ð´Ð°
ĠÑĢÐ°Ð·Ð³Ð¾Ð²Ð°ÑĢÐ¸ Ð²Ð°ÑĤÑĮ
Ñģ Ð±Ð¾
ĠÐ»ÑİÐ±Ð¸ ÑĪÑĮ
ĠÑģÐ»Ñĭ ÑĪÐ½Ð¾
ĠÐ¿Ð¾Ð´ÑĢÐ¾Ð±Ð ½Ð¾
Ð¸Ð» Ð¾Ð²
ĠÑĢÐ°Ð±Ð¾ ÑĩÐ¸Ð¹
Ð¼Ð¸ Ðº
ĠÐŁ Ð¸ÑĤÐµ
ÑĤÐ¾Ð» Ðº
Ð ¸Ð¿Ð¸
Ġâĺ Ŀ
ĠÐĴÐµÑĢ ÑħÐ¾Ð²
ĠÐ½Ð°Ð³Ð »
Ð°Ð½Ð ½Ð¾ÑģÑĤÑĮ
ĠÐ¶Ð¸Ð²Ð¾ÑĤ Ð½Ð¾Ðµ
Ð»Ð°Ñ Ģ
ĠÐ¿ÑĢÐ¾ ÑĩÐ¸Ð¼
ĠÐºÐ°Ð±Ð¸Ð½Ðµ ÑĤÐµ
ĠÐĶ Ð¾Ð¼Ð°
Ð¿ Ð»Ð°Ð²
ĠÐĶ ÑĢÑĥÐ·ÑĮÑı
ÑģÑĤÐ¾Ð ¿
ĠoÑ Ĥ
ĠÐ½ÐµÐ´Ð ¾ÑģÑĤ
Ġâ Ŀ
Ð ³ÐµÐ»ÑĮ
ĠÐ´ÐµÑĤ ÑģÐºÐ¸Ð¹
ÑĢÐ´Ð ¸
ĠÐ²ÐµÑĢÐ ½ÑĥÐ»Ð¸ÑģÑĮ
ĠÑĢÐ¸ ÑģÐ¾Ð²
ĠÐļ Ð°Ð½
ĠÐ¸Ð¼Ðµ Ð½Ð°
Ð»Ð¸ ÑĪÐºÐ¾Ð¼
ĠÐ¾Ð¿ Ð¾Ð·
ĠÐ²ÐµÑĢ ÑħÐ
½ Ð¸ÑĩÑĤÐ¾
ĠÐ¿ÑĢÐ°Ð·Ð´Ð ½Ð¸ÑĩÐ
Ð ½Ð¸ÑĩÑĤÐ¾
ĠÐĴ ÑģÑĤÑĢÐµ
ĠÐ²ÑĭÐ¿Ð¸ Ñ
ĠÐ¿Ð¾Ð´Ð³Ð¾ÑĤÐ¾Ð² Ðº
Ð ²Ð¿Ð
t o
ĠÐ¿Ð¾ÑĤÐµ ÑĢÐ¸
ĠÐ¾Ð³ÑĢÐ¾Ð¼ Ð½ÑĭÐµ
ĠÑĢÐ°ÑģÑĤ Ð
ĠÐ¿Ð¾Ð´Ð³Ð¾ÑĤÐ¾Ð²Ðº Ð
ĠÐ¿Ð¾Ð´Ð³Ð¾ÑĤÐ¾Ð²ÐºÐ ¸
Ð¼Ð° Ð¼Ð¸
ĠÐ³Ð»Ð°Ð²Ð ½Ð¾Ð¹
ÑĩÐ° ÑĤÑĮÑģÑı
ĠÐºÐ¾Ð¼Ð°Ð½ Ð´Ð¸ÑĢ
Ġ Ð»Ð°Ð·
ÑĩÑ ĮÑı
ĠÑĨÐµ Ð»ÐµÐ¹
ĠÐ³Ð»ÑĥÐ±Ð ¸Ð½Ðµ
ĠÑģÐµÑĤ Ñ
ÐķÐł Ðķ
ĠÐ°Ð ·
ÑįÐ½ Ð
ĠÐ¿Ð¾ÑģÑĤÐ°Ð ²Ð¸Ð»Ð¸
ĠÑħ Ð¾Ð´Ð¸Ð»Ð¸
5 2
ĠÐºÐ¾Ð¼Ð¿ ÐµÐ½
ĠÐĲ ÑĢÑĤÐµ
ĠÑįÐº Ð
Ð¾Ð¶Ð ¸Ð»Ð¸
ĠÐºÐ°Ð¼Ð½ Ð
n et
ĠÐºÐ°Ð¼Ð½Ð ¸
¸ Ð¿Ðµ
ĠÑĦ Ð¾ÑĢÑĥÐ¼
ĠÐ²ÑĭÐ¿Ð¾Ð»Ð½Ð ¸
ĠÐĵ ÑĢÐ°ÑĦ
ĠÐ³ÑĢÑĥÑģÑĤ Ð½Ð¾
ĠÐ¼Ð°Ð»Ñĭ ÑĪÐ°
ĠÑĤÐµÐ» Ñĥ
ĠÑĢÐµÐ³ÑĥÐ»Ñı ÑĢÐ½Ð¾
ĠÐ¿Ð¾Ñģ Ð¼Ðµ
ĠÑģÐ¸ Ð´Ñı
5 6
ĠÐ¿Ð¾Ð¸Ð½ ÑĤÐµÑĢÐµÑģÐ¾Ð²
ĠÐ±Ð¾ ÑĢÑĤ
ÐµÑĤÐº Ð
ĠÐ½ÐµÐº Ð¾Ð³Ð´Ð°
ÑĢÐ¾Ð¸ÑĤ Ñ
ĠÐ¼Ð¸Ð½ Ð¸ÑģÑĤÐµ
ÐµÑĤÐºÐ ¸
ĠÑģÐ¿ ÑĥÑģÐºÐ°
¶ÐµÐ½ Ð½Ð¾Ð³Ð¾
ĠÐ¿ÑĢÐ¾ÑĦÐµÑģ ÑģÐ¾ÑĢ
ÑĢÐ¾Ð¸ÑĤÑ Į
Ñ ĩÑĥÑĤ
ĠÐ´Ðµ Ð¼Ð¾ÐºÑĢÐ°ÑĤ
ĠÐ·Ð°Ð½ÑıÑĤ Ð¸Ð¹
ĠÑģÐµÑĢÐ ²Ð¸Ñģ
ĠÑĤÑĢÐ°Ð´Ð¸ ÑĨÐ¸Ð¸
ĠÐĹ Ð°Ð½
ĠÐ°ÐºÑĤ ÑĥÐ°Ð»ÑĮÐ
Ðµ ÐµÑĤ
ĠÐ±Ðµ Ð·Ð½Ð°
ĠÐ¼Ð ½Ð¾Ñİ
ĠÑĢÐ°ÑģÑĤÐ ¸
²ÐµÐ ·ÑĤÐ¸
ĠÑģÐ²Ðµ Ð´ÐµÐ½Ð¸Ñı
ÑĢÑĳ Ñ
ĠÐ¿ÑĢÐ°Ð ²Ñĭ
ĠÑĢÐ°Ð· Ð½Ð¾
ĠÐ½ÐµÐ ·Ð½Ð°
ĠÐºÐ°ÑĢÑĤ Ð¾ÑĦ
ĠÑĢÑĭÐ ½Ð¾Ðº
Ð»ÐµÑĤÐ¸ Ñ
ĠÑįÐº ÑģÐºÑĥ
ĠÐ²Ð¾Ð· Ð³Ð»Ð°
Ð»Ñİ Ð
Ġ Ð³Ð²Ð°ÑĢÐ´
ĠÐ¿Ð¸ ÑĪÐ¸
ĠÑĥÐ±Ð¸Ð¹ ÑģÑĤÐ²Ð¾
ÑĩÐµÑģÑĤÐ²ÐµÐ½Ð ½Ð¾Ð¹
ĠÐ¢ ÐµÐ¼Ð
ĠÐ¿Ð¾ ÑģÐ¸
ĠÐ°Ð²ÑĤÐ¾Ð¼Ð¾Ð±Ð ¸
ĠÑģÑĤÐ¾Ð ¸Ð¼Ð
ĠÐł Ð¾Ð¶Ð´
ÐĹÐ° ÑĩÐµÐ¼
ĠÐ²Ð·Ð³Ð»Ñı Ð´Ñĭ
Ð¿Ð°Ñ Ĥ
¸ÑģÑĤÑ ĭ
ĠÑģÑĤÐ° Ð´Ð¸
² Ð°Ð½Ð½Ð¾Ð¹
¶Ð°Ð» Ð¸ÑģÑĮ
ĠÐ·Ð½Ð°ÐºÐ¾Ð¼ ÑĭÐ¹
ĠÐ´Ð¾Ð± ÑĢÐ°ÑĤÑĮÑģÑı
ÑĢÑĳÑ Ĥ
Ð¾Ð¿ Ð¾Ð»
Ð°Ð½Ð ½Ð¾Ð¼Ñĥ
Ð´Ð¸Ð½Ñ ĭ
ĠÐ±Ðµ ÑĢÐµÐ¼ÐµÐ½Ð
ĠÐĲÐ ±
ĠÐ¾ÑĤÐ²Ðµ ÑĩÐ°Ð»
»Ð° Ð³Ð¾Ð´Ð°
ĠÐ·ÐµÑĢÐºÐ° Ð»Ð¾
ĠÐ½Ð°Ð´Ðµ Ð¶Ð´Ñĭ
ĠÐ¿ÑĢÐ°Ð·Ð´Ð ½Ð¸ÐºÐ¾Ð¼
ÑĪÐµÐ½ ÐºÐ¾
Ð ³Ð¸Ð´
it e
ĠÐ¿Ð¾Ð½Ð¸Ð¼Ð°Ñ ı
ĠÐºÐ¾ ÑĤÐ°
¾Ð ¿Ðµ
Ð¸Ð½Ñ ı
ÑĥÑģÐ ¸
¶ÐµÐ½ Ð½ÑĭÐ¼
ĠÐ´ÐµÐ»Ð° Ð¼
ĠÐĴ Ð½Ðµ
¶ÐµÐ½Ð¸Ñ ıÐ¼Ð¸
Ð»Ð° Ð´Ð¸
ĠÐ²ÐµÑĩÐµ ÑĢÐ¸Ð½
Ñ Ĺ
ĠÐĴ Ð´ÑĢÑĥÐ³
ÑĥÐ ·Ñĭ
ĠÐĺ ÑĢÐ¸Ð½Ð°
ĠÐ²Ñģ ÑĤÐ°ÑĤÑĮ
Ð½Ð¾Ð´ Ð¾ÑĢÐ¾Ð
ĠÐ²ÑĭÐ¿Ð¸Ñ Ĥ
d a
ÑĢÑĭ ÑĤÐ°
ĠÑĩÑĥÐ¶Ð ¾Ð¹
ĠÐĹÐµÐ¼Ð »Ðµ
ĤÐ²Ð¸ ÑĤÐµÐ»ÑĮÐ½Ð¾
ĠÐ²ÑĢÐ°Ð ³Ð¾Ð²
ÐĴ ÑĭÐ
Ð¾Ð¿Ð ¸
Ð²Ð°ÑĤÐ¸ Ñ
ĠÐĴ ÑĩÐµÑĢÐ°
ÑĤÑĢÐ¾Ð ¿
ĠÐĽ ÐµÐ²
ĠÐ°ÑĢÑħÐ¸ÑĤÐµ ÐºÑĤ
· Ð¾Ð½Ñĭ
Ð¸Ð½ ÑģÐºÐ¸Ð¹
ĠÐļÐ¸ ÑĤÐ°Ð¹
ĠÐ¿Ð°ÑĢÐ ½ÐµÐ¹
ĠÐ¿Ð¾Ð ¶Ð¸Ð»
ĠÐĴÐ¼ÐµÑģ ÑĤÐ¾
ĠÐŁ ÐµÑĤÑĢ
ĠÐ½Ð¾Ð³ Ñ
Ð²Ð° Ð¼Ð¸
Ð°Ð½Ð ³Ð°
ĠÐºÐ¾ÑĢÐ ½
ĠÐºÐ¾ÑĢÐ ¾Ð²
A R
ÑĥÑĤÑģ Ñ
ÑĢÐµÐ ³Ð°
ÑĩÐ° Ð»Ðµ
ĠÑĢÑĥÐ ±Ðµ
ĠÐ½Ð¾Ð³Ñ Ĥ
ĠÐ·Ð°Ð´ Ð°Ð½Ð¸Ñı
u e
ðŁĺ Ķ
Ġ ÐµÐ³
ĠÐºÐ¾Ð»Ð»ÐµÐºÑĤ Ð¸Ð²
Ð·Ð° ÑĨÐ¸Ñİ
ÑĥÐ´Ð¸ Ñ
Ð¼Ð ¾ÑĢ
ĠÐ¢ Ð°Ð½
»ÑĮÐ ½Ð¾Ð³Ð¾
ĠÐ¾ÑĤÐ»Ð¸ÑĩÐ ½ÑĭÐ¹
Ð¿ Ð¾ÑĦ
Ñī Ð¸ÑĤÐµ
ĠÐĶ Ð¾ÑģÑĤ
ĠÑģÐ° Ð´Ñĥ
²Ð½ Ñ
ĠÐ¶ÐµÐ»Ð° ÑĤÐµÐ»ÑĮÐ½Ð¾
ĠÐ¼Ð° Ð¼Ñĥ
Ĥ Ð¸Ð½Ð³
ÑĢÐ¸ Ð°
ĠÐ´ÐµÑĢÐ ¶Ð¸ÑĤ
ĠÑĢÐ°ÑģÑģÐºÐ°Ð·ÑĭÐ ²Ð°ÐµÑĤ
ĠÑģÑĤÑĢÐ°Ð½ Ð¸ÑĨÐµ
ĠÐ¿Ð¸ ÑĤÐ°Ð½Ð¸Ðµ
ĠÐ¿Ð¾Ð»Ñĥ ÑĩÐ°ÑİÑĤ
ĠÐ²Ð¾ÑģÐ¿ Ð¸ÑĤÐ°
ĠÑģÐ»Ðµ Ð´Ð¸ÑĤÑĮ
Ð¿ ÑĥÐ´
ĠÐĲÐ ³
ĠÐ²ÑĭÐ³Ð»Ñı Ð´ÐµÐ»
» ÑıÐµÑĤ
Ñ ĤÑĥÑĦ
Ġ Ð²Ð¿Ð
ĠÐ½ÐµÐ¿Ð¾ÑģÑĢÐµÐ´ ÑģÑĤÐ²ÐµÐ½Ð½Ð¾
ĠÐ²ÑģÑĤÑĢÐµÑĤÐ¸ Ñ
ÑĢÐ¸ÑģÑĤ Ñ
Ð ²Ð¿Ð°
ĠÑĪÐ¾Ðº Ð¾Ð»
ĠÐ²ÑģÑĤÑĢÐµÑĤÐ¸Ñ Ĥ
ĠÐĴ Ð°Ð½
ĠÐ¾Ð¿Ð°ÑģÐ ½Ð¾ÑģÑĤÑĮ
ĠÑĤÐ¾Ð»Ñģ Ñ
Ð´ÐµÐ »ÑģÑı
Ð²Ð°ÑĤÐ¸Ñ Ĥ
ĠÐ´ Ð°Ð½Ð½Ð¾Ð³Ð¾
ĠÐŁÐ¾ ÑĩÑĤÐ¸
Ð¿ÑĢÐ ¾Ð²
ÑĳÐ½ Ð½ÑĭÐµ
ĠÐ¾Ð±ÑıÐ·Ð°Ð½ Ð½Ð¾ÑģÑĤÐ¸
ĠÐŁÑĢÐ¸ ÑıÑĤ
ĠÐ±Ð°Ð· Ðµ
ĠÐ²ÑĭÐ¿Ð¾Ð»Ð½Ð¸ Ñ
ĠÐ²ÑĭÐ¿Ð¾Ð»Ð½Ð¸Ñ Ĥ
ÑĢÐ°Ð»Ð »ÐµÐ
ÑĢÑĥÐµ ÑĤÑģÑı
ĠÐ¿ÑĢÐ¸ Ð´ÑĳÑĤÑģÑı
ĠÑħÐ ·
ĠÐ¿Ð¾ÑģÐµÑĤ Ð
ĠÐ¿Ð¾ÑģÐµÑĤÐ ¸
Ġ8 00
ÑĪ Ð°Ð»ÑģÑı
ĠÐ¢Ð¾ ÑĩÐ½Ð¾
ĠÑģÑİ ÑĢÐ¿
ĠÐ¿Ð¾Ð²ÑĤÐ¾ ÑĢÐ¸Ð»
ÑĦÐ¸ Ñ
ÑĤÐ¾ÑĢÐ° Ð¼Ð¸
ĠÑĢÐ°Ð´Ð¾ÑģÑĤ Ð½Ð¾
ĠÐ½Ð°ÑĩÐ¸ Ð½Ð°Ñı
ĠÑģÑĤÐ°Ð½Ð´Ð° ÑĢÑĤ
Ð»ÐµÑĤ Ð½ÐµÐ³Ð¾
ÑģÐ¾Ð ºÐ°Ñı
ĠÑĥÐ¿ÑĢÐ°Ð² Ð»ÐµÐ½Ð¸Ðµ
ĠÑĢÐ°ÑģÑģÐºÐ° Ð·Ð°Ð»Ð¸
ĠÑģÐ»Ñĭ ÑĪÑĥ
ĠÐ½ÐµÐ¿Ð¾Ð½ ÑıÑĤÐ½Ð¾
ĠÐ¿Ð¾Ð³Ð¸ Ð±Ð»Ð¸
Ð²Ð¸ Ð´
ĠÐ¼Ð¾ÑĤ Ð¸Ð²Ð°
ĠÐ¢Ð° ÐºÐ°Ñı
ĠÐ´ÑĢÑĥÐ·ÑĮÑı Ð¼
ĠÑĤÑıÐ ¶
ĠÐķ Ð¡
ÑĢÐ°Ð±Ð¾ÑĤ ÐºÐ°
²Ð¸Ð ¶Ð¸
ÑĥÑ ıÑģÑĮ
ÑģÐ»ÑĥÐ¶Ð ±Ðµ
ĠÐ½ÐµÐ ³Ð¾Ð´
Ġ ÑģÐ±Ð¾
ÑĥÑģÐ»Ð¾Ð² Ð½Ð¾
ĠÑĤÐµÐ° ÑĤÑĢÐ°
ĠÐŀ ÑĤÑģ
ĠÐ¿Ð¾ÑĤ ÑĢÐµ
ĠÑģÑĥÐ¼ ÐµÐ»
ĠÐĺÐ²Ð°Ð½ Ð¾Ð²Ð¸Ñĩ
ĠÐ¸Ñģ ÐºÐ°
Ð²Ñ Ĥ
ÑĢÑ Ģ
Ð³Ð°ÑĤ Ñ
ĠÐ¾ÑĦ Ð¸Ñģ
ĠÑĢÐ ²Ð°Ð½
² ÑĥÐºÐ°
ĠÐĺ ÑģÐº
ĠÐ·Ð° Ð²Ð¾Ðµ
ĠÐ¿Ð¾Ð¼Ðµ ÑīÐµÐ½Ð¸Ñı
ĠÑģÑĤÐµ ÑģÐ½
ĠÐ½Ð°Ð¿Ð¾Ð¼Ð¸Ð½Ð° ÐµÑĤ
Ġ ÑĤÐ²Ð¾Ñĳ
ĠÑģÐºÑĥ ÑĩÐ½Ð¾
ĠÐ¥Ð¾ ÑĩÐµÑĪÑĮ
ĠÐ¸Ð½Ñģ ÑĤÐ¸Ð½
ĠÐ²Ð¸Ð ½Ð¾
ĠÐ½Ð°Ð·Ð ²Ð°Ð½Ð¸Ñı
ĠÑĢÐµÐ¶Ð¸ Ð¼Ðµ
ÑĥÑīÐ°Ñ ı
ÑĤÐµÐ»ÑĮÐ ½
i um
ĠÐ±Ð° Ð»Ð°Ð½
Ġ Ð½Ð¸ÑĩÑĤÐ¾
Ð¾Ð´ Ð½Ð¾
ĠÐ¿Ð¾Ð» Ð³Ð¾Ð´Ð°
ĠÐ¡Ð¾Ð³Ð»Ð° ÑģÐ½Ð¾
Ñİ Ð´Ð°
Ð¾Ð³Ð ¸Ð¸
ĠÐ½Ð° ÑĩÐ½
Ġ Ð³Ð»Ð¾Ð±
ĠÐ¿Ð¾Ð² ÑģÐµ
ĠÐ¾Ð¿ Ð
ĠÐ³Ð¸Ð³ Ð°Ð½ÑĤ
ĠÐ¾Ð ±ÑĢÑĭÐ
Ð½ÐµÐ ¿
ĠÐ¿ÑĢÐ¾Ñģ ÑĮÐ±Ð°
ÑĥÐ´Ñ ĭ
ĠÐŀÑĤ Ð»Ð¸ÑĩÐ
ĠÐ¿ÑĭÑĤÐ° ÑİÑĤÑģÑı
ĠÑĥÐ´Ð¸Ð²Ð¸ ÑĤÐµÐ»ÑĮÐ½Ð¾
ĠÐ´Ð¾Ð ·
ĠÑģÐ¾Ð±ÑģÑĤÐ²ÐµÐ½Ð ½ÑĭÑħ
² ÑĪÐ¸Ðµ
ĠÐ¿ÑĢÐ ¾ÑģÑĮ
ĠÐŁÑĢÐµÐ´ ÑģÑĤÐ°Ð
it h
ÐµÐ¹ ÑĤÐµ
Ġ ÑĤÐµÐ½ÑĮ
ÑıÑ Ģ
ÑĪÐ»ÐµÐ½Ð¸ Ñ
ÑĪÐ»ÐµÐ½Ð¸Ñ ı
ĠÐľÐ°ÑĤ Ñ
ĠÐºÐ¾Ð½ÑĤÑĢÐ°Ð ºÑĤ
ĠÐ¿Ð¾Ð» Ð¾Ð¶Ð¸ÑĤÑĮ
ĠÐ²Ð·Ð°Ð ¸Ð¼Ð¾Ð
ĠÐ´Ð° ÑĳÑĤ
â ĸ
ĠÐ¿Ð¾ÑĤ ÐµÑĢÐ¿
ĠÐļÐĲ Ðļ
ĠÑģÑĥÐ¼ Ð°ÑģÑĪÐµÐ´
Ð°Ð½Ð¸ ÐµÐ¹
ĠÐºÐ°ÑĢÐ¼ Ð°Ð½
ĠÑĪÑĤÑĥ ÑĢÐ¼
Ð»Ð»Ñ ĭ
Ð¼Ð°ÑĤÑ Į
ÑĪÐµÑģÑĤ Ð²ÐµÐ½Ð
ĠÐµÐ ²ÑĢÐµ
Ġ Ð½Ð¸Ñī
ĠÑĤÐµÑĢÑĢÐ¸ÑĤÐ¾ ÑĢÐ¸Ñİ
ĠÑģÐ »Ð¾Ð²Ðµ
ĠÑĦÐ¾ÑĤ Ðº
ĠÐ°ÑĢÐ¼ Ð¸Ñİ
ĠÐ·Ð°ÑīÐ¸ÑĤ Ð
Ñ Ķ
ðŁĶ¥ ðŁĶ¥
ĠÐ°Ð²Ñ ĤÐ¾ÑĢÐ
ĠÑĤÐµÑģ ÑĤÐ¾
ĠÐ¿ÑĢÐ¾ÑĨÐµÑģ ÑģÐ°
·Ð½Ð°Ñ Ĥ
ĠÐ¿Ð¾ÐºÐ° Ð·Ð°Ð»Ð¸
ðŁ ļ
Ð¿ Ð°Ð½Ð¸Ñı
½Ð°Ñ Ĥ
ĠÑģÐ²Ðµ ÑĢÐºÐ°
Ġ4 2
ĠÑģÐ¿ ÑĢÐ°Ð²Ð¸ÑĤÑĮÑģÑı
ĠÐ¸Ð½Ð¸ÑĨÐ¸Ð° Ñ
ĠÐ¸Ð½Ð¸ÑĨÐ¸Ð°Ñ Ĥ
A N
ĠÐ·Ð°ÐºÐ° Ð·Ð°ÑĤÑĮ
ĠÐ¾Ð ¿ÑĢÐ
ĠÐ½Ð°Ð·ÑĭÐ ²Ð°Ð»Ð¸
ĠÐ¡Ð¾Ð² ÐµÑĤÐ°
ĠÐ»Ð¸ ÑĩÐ½Ð¾ÑģÑĤÑĮ
Ð³Ð°ÑĤÑ Į
ĠÐ¿Ð¾Ð´ ÑģÐºÐ°Ð¶Ð¸ÑĤÐµ
ĠÑĤÑĢÐ°Ð ³Ðµ
Ð½ÐµÐ »
ĠÐ¿Ð¸ ÑīÐ¸
ÑĥÐ½Ð¸ÑĨÐ¸ Ð¿
» Ð¾Ð½Ð
ĠÐĶ ÐµÐ²Ð¾ÑĩÐºÐ¸
ĠÑĥÐ½Ð¸Ð²ÐµÑĢÑģ Ð¸ÑĤÐµÑĤÐ°
Ñģ ÑĤÑĢÐµÐ
ĠÑĢÐ¾Ð ·ÑĭÐ³ÑĢÑĭ
ĠÑģÑģÑĭÐ» ÐºÑĥ
ĠÑĤÑĢÐµÑĤ ÑĮÐµÐ³Ð¾
ĠÐ¼Ð°ÑĤÐµÑĢÐ¸Ð°Ð» Ð¾Ð²
Ðµ ÑĢÑĥ
¸ ÑĢÐ¾Ð½
Ð ·Ð²ÐµÐ·Ð´Ð
Ðł ÑĥÑģ
ĠÑħÐ»ÐµÐ ±Ð°
ĠÐ½Ð° Ð½Ð¾
ĠÐ¿ÑĢÐµÐ´Ð»Ð°Ð³ Ð°ÐµÑĤ
ĠÐ²ÑĭÐ¿Ð¸ÑĤ Ñ
ĠÐ½Ð°ÑĢÑĥÐ ¶Ñĥ
ĠÑĤÐ°Ðº Ð¾Ð¼Ñĥ
ĠÐ¿ÑĢÐ¾Ñģ ÑĭÐ¿
ĠÐ¿ÑĢÐ¸ ÑģÐ»Ñĥ
ĠÐ¿ÑĢÐ¸Ð±ÑĭÐ »Ð¸
ĠÐĲ Ð¼Ðµ
ĠÑĢÐµ Ð¿
ÐŁ Ðķ
ĠÐ¿ÑĢÐ¸ÐµÑħ Ð°Ð»Ð¸
ĠÐ¿Ð¾Ð´ Ð¾Ð¶Ð´
ÑħÐ¾Ð´Ñı ÑīÐµÐµ
ĠÐ¾ÑģÐ½Ð¾Ð² Ð°Ð½Ð¸Ñı
ĠÑıÐ ³Ð¾Ð´
ÑĢÐ¾Ñģ ÑģÐ¸Ð¹
ĠÑį Ð¿Ð¸
un g
Ĥ ÑĢÐ°ÑĤÐ¸ÑĤÑĮ
ĠÑĦÐ¾ÑĤÐº Ð
ĠÐ° ÑĢÐ
Ñ ĤÑĢÐ°ÑĤÐ¸ÑĤÑĮ
¸ Ð²Ñĥ
ĠÑĨÐ° ÑĢÑı
ĠÑĦÐ¾ÑĤÐºÐ ¸
ĠðŁ¤ Ĺ
Ġ le
Ġ Ð½Ñİ
ĠÐ´Ð°Ð ±Ñĭ
ĠÑĥÐ¼ÐµÑĢÐ »Ð°
ĠÐ²ÑĭÐ¿Ð¸ÑĤÑ Į
²Ð°Ð¹ ÑĤÐµÑģÑĮ
ĠÑī ÐµÐ»
²Ð ½ÑĭÑħ
ÐĽ Ð
ÑĢÐ³ Ð
ĠÑĥÐ±Ð ¸Ð»Ð¸
ÑģÐºÐ°Ð ½
ÑĢÐ¾Ð ¶Ð´
t s
ĠÐĽ Ð¸Ð½
ĠÐĴ ÑĭÑħ
ĠÐ·Ð°Ð³Ð° Ð´Ð¾
ĠÐ½Ð°Ð¿ÑĢÐ°Ð² Ð»ÐµÐ½Ð¸Ðµ
ÑĢÐµÐ½ Ð½ÑĭÑħ
ĠÐ¢ Ñİ
ĠÐ½Ð°ÑĩÐ°Ð» ÑĮÑģÑ
ÑĪÐµÐ»Ñ Į
² Ð½ÑĭÐµ
ĠÐºÑĥÑĢÑģ Ð°
ĠÐ¿ÑĢÐ¾Ð´Ð°Ð ¶Ð¸
ĠÐºÐ¾Ð½ÐºÑĢÐµÑĤ Ð½Ð¾
Ġ Ð²Ð¿Ð°
ĠÐ²Ð¸ ÑĤÐ°Ð¼Ð¸Ð½
ĠÐł Ð°Ð½ÑĮÑĪÐµ
Ã ¼
ĠÐ½ÐµÐ ¾
ĠÐ¾ÑĢÑĥÐ¶Ð¸Ðµ Ð¼
ĠÐ¿ÑĢÐ¾Ð¸Ñģ ÑħÐ¾Ð´Ð¸Ð»Ð¾
Ð´Ðµ ÐºÑģ
5 3
Ð¼ÑĭÐ º
ĠÑĥ ÑĩÐµÐ½
Ð¼Ð° ÑĢÐ°
ÑĤÑĢÐ¾ÐµÐ ½
ĠÐ¾ÐºÐ° Ð¶ÐµÑĤÑģÑı
Ð¸ÑĩÐµÑģÐº Ð¸Ð¼Ð¸
ĠÐĴÑģÐµ Ñħ
ĠÑĢÐ°Ð·Ð¼Ðµ ÑĢÐ°
ÑĤÑĥ ÑĤÐ°
ĠÐľ Ð¾Ð³Ñĥ
Ð½Ð¸Ð¼ Ð°Ð½Ð¸Ðµ
ĠÐ½ÐµÐ¿ Ð¾Ð´Ð²Ð¸Ð
· Ð¾Ð
ĠÐ²Ð¾Ð»Ð¾Ñģ Ð°Ð¼Ð¸
ĠÐ²Ð¾Ð¿ Ð»Ð¾
Ð¾Ð·Ð´ÑĢÐ°Ð ²Ð»ÑıÐµÐ¼
ĠÐ´Ðµ ÐºÐ¾
ÑĢÐ¾Ð² Ð°Ð»Ð¸
ÑĭÐ ²Ð°Ð»Ð¸
ĠÐ¾Ð¿ÑĢÐµ Ð´ÐµÐ»Ð¸
ĠÐ´Ð²Ð° Ð´ÑĨÐ°ÑĤÐ¸
ĠÐ¯ ÑĢÐ¾Ñģ
ĠÐ¿ÑıÑĤÑĮ Ð´ÐµÑģÑıÑĤ
ĠÐĿÐ¾Ð² Ð³Ð¾ÑĢÐ¾Ð´
ĠÑģÐ¾Ñħ ÑĢÐ°Ð½Ñ
Ð¼ÐµÐ½Ñ ı
ÑĢÐ°Ð¹ ÑĤÐµ
ĠÐºÐ¾Ð»ÑĮ ÑĨÐ¾
Ġ Ð¿Ð°Ð»Ð¾
· Ð¾Ð½Ðµ
ÐºÐ¾Ð± ÑĢÐ¸
Ġ ÑĤÐº
ĠÐµÑģÑĤ ÐµÑģÑĤÐ²ÐµÐ½
ÑĢÐ¸ÑģÑĤÑ ĭ
ÑĪÐº Ð¸Ð½Ð°
ĠA l
ĠÐķÐ ³Ð¸Ð¿
Ð¾ Ñİ
Ðĵ Ð°
Ñĥ ÑĢÐµ
ĠÐ¾Ð±Ð½Ð°ÑĢÑĥÐ ¶Ð¸Ð»Ð¸
ĠÐ¶Ðµ Ð½Ðµ
Ð »Ð¾Ð³
ĠÐ¼Ð¸ Ð»Ð°Ñı
ĠÐ½Ð° ÑģÐ»ÐµÐ´
ĠÐ¿ÑĢÐ¸Ð·Ð½Ð° Ðº
ĠÐ¿ÑĢÐ¸Ð·Ð½Ð° Ñ
Ġ ÑĤÑĢÐ°ÑĤÐ¸ÑĤÑĮ
ĠÐ¿ÑĢÐ¸Ð·Ð½Ð°Ñ Ĥ
ĠÑĢÐµÐ°Ð»ÑĮÐ ½Ð¾ÑģÑĤÑĮ
Ġ3 7
Ð»Ð°ÑĤ Ð
ĠÑģÐ ½Ð¸Ð¼Ð°ÑĤÑĮ
Ð ²Ð½Ð°
ĠÐ¡ ÑĥÐ¿
ĠÐľÐ°Ðº Ñģ
ĠÐ¿Ð¾Ð½ÑĢÐ°Ð² Ð¸Ð»ÑģÑı
ĠÑģÐµ Ð¼ÐµÐ
Ġ; )
Ð ²ÑĥÐºÐ°
Ðŀ Ð´Ð¸Ð½
ĠÐ°Ð½Ð¸ Ð¼Ðµ
ĠÐ¿ÑĢÐ¸Ð·Ð½Ð°ÑĤ Ñ
ĠÐ¿ÑĢÐ¸Ð·Ð½Ð°ÑĤÑ Į
ĠÐ±ÑĥÑĤÑĭÐ» ÐºÑĥ
ĠÑįÐ½ÐµÑĢÐ³ Ð¸Ñİ
ĭ Ñī
ĠÐº Ð¾Ð»Ñı
ĠÑĤÐ¾Ð½ Ð¾Ð¼
ĠÐ¿ÑĢÐ¾ ÑħÐ¾Ð´ÑıÑĤ
· Ð»Ð¸
ĠÐ¸Ð½Ð¶Ðµ Ð½Ðµ
Ġ ne
ĠÐ¿ÑĢÐ¾Ð½ Ð
ÑĩÐµÑĤ Ñ
ĠÐ²Ñģ Ð¿Ð¾Ð¼
ĠÐ¦ Ð
ĠÐŁ Ð»Ð°
ĠÑĥÐ·Ð½Ð° Ð»Ð¸
ĠÐ½Ðµ ÑĦÑĤ
I N
Ñ ĤÐ¸Ð³
Ñħ Ð¾Ð»
ĠÐ¿ÑĢÐ¸ Ð¿Ð°
ĠÐ¿Ð¸ Ñī
ÐĶ ÐµÐ²Ð¾ÑĩÐºÐ¸
ðŁ¤¦ âĢįâĻĤï¸ı
w atch
ĠÑģÐ¾Ð´ÐµÑĢÐ¶ Ð°Ð½Ð¸Ðµ
Ð»Ð°Ð ³Ð°
ĠÐ·Ð°Ñħ Ð²Ð°
ĠÐ°Ð´ ÑĢÐµ
ÑĢÑĤÐ¸Ñ ı
ĠÐ´Ð°Ñ Ģ
Ð ¸Ð²Ñĥ
ĠÐ¾Ð¿ÑĢÐ°Ð² Ð´ÑĭÐ
ĠÐĳÐ»Ð°Ð³Ð¾Ð´Ð° ÑĢÑı
ĠÐºÐ¾ ÑĪÐµ
Ð ¸ÑıÑħ
ĠÐ±Ð¾Ð ¸ÑĤÑģÑı
ÑģÐ°ÑĤ Ñ
ĠÑģÐ»ÐµÐ´ ÑģÑĤÐ²Ð¸Ðµ
Ð»ÑĮÐ ½Ð¾Ð³Ð¾
ÑĢÑĭÐ¼ Ð
ĠÐ¼Ð°ÑģÑģ Ñ
ĠÑĢÐ°Ñģ ÑĤÑıÐ
ĠÐ¼Ð¸Ð»Ð»Ð¸ Ð¾Ð½
ĠÐĸÐµÐ½ ÑīÐ¸Ð½Ð°
ĠÑįÐºÑģÐ¿Ðµ Ð´Ð¸
¾Ð³Ð°Ñ Ĥ
Ī Ĵ
Ð²Ðµ ÑĢÑĤ
ĠÐ¼Ð°ÑģÑģÑ ĭ
ĠÑģÐ»Ð° Ð²Ð°
ĠÐĿÐ¸Ðº Ð¾Ð»Ð°
ĠÐ²ÐµÑī ÐµÑģÑĤÐ²Ð°
ĠÐ±Ðµ ÑĢÑĥÑĤ
Ġt h
ĠÐ²Ð¾ÑģÐ¿Ð¾Ð»ÑĮÐ· Ð¾Ð²Ð°ÑĤÑĮÑģÑı
ĠÐºÐ¾ÑĢÐ¿ ÑĥÑģÐ°
ĠÐ²ÐµÐ»Ð¸ ÐºÐ¸Ð¹
ĠÑĩÑĥÐ²ÑģÑĤÐ² ÑĥÐµÑĤ
ĠÑģÑĬ ÐµÐ¼Ð
Ð§ Ð¡
ĠÐ¿Ð¸Ñģ Ð°Ð»Ð¸
Ð´Ð¶ÐµÑ Ģ
ÑĭÐ½Ð ¸
ĠÐ²Ð°Ð¶Ð ½Ð¾Ðµ
ĠÑĥÐºÐ° Ð·Ð°Ð»
ĠÐ±ÐµÐ» Ð¾Ð¹
ĠÐ´Ð ²Ð¾ÑĢÐ
ĠÐºÐ°Ð¿ Ð»Ð¸
ĠÐĹ Ð°ÐºÐ¾Ð½
¸ ÑĩÑĮ
ĠÑĦÐ°Ð½ÑĤÐ°Ð ·
ĠÐľÐ° ÑĢÐ¸Ð½Ð°
² ÑħÐ¾Ð´Ð°
ĠÐºÑĥÐ»Ð° Ðº
Ð ²ÑħÐ¾Ð´Ð°
Ð°Ð» Ð¾Ð²
Ð¶Ð ¸Ð
ĠÑģÐ¾Ð¾Ð± ÑīÐ¸ÑĤÑĮ
ĠÑħ Ð°Ð
ĠÐ´Ð ¶
ĠÑģÐ»Ðµ Ð²Ð°
ĠÑĥÐ ²Ð»ÐµÐºÐ°
ĠÐ¡Ð° Ð¼Ð¾Ðµ
ÑĨÐ¸Ð¾Ð½ Ð½Ð¾
ĠÐ¿Ð¾Ð¸Ð½ÑĤÐµÑĢÐµÑģÐ¾Ð² Ð°Ð»ÑģÑı
ĠÐ¿Ð¾Ð¿ Ð°Ð»Ð°
Ġ15 00
ĠÐ·Ð°Ð¼ÐµÑĤ Ð¸Ð»Ð¸
ĠÐ¡ÐµÑĢÐ ´
ĠÐ²Ð¾ÑģÑĮ Ð¼Ð¸
ĠÑĤÐµÑ Ĥ
ĠÑģÐ° ÑħÐ°ÑĢ
Ð¿ Ð»ÐµÑĤ
ĠÐ¼ÐµÑģÑĤ Ð½ÑĭÐµ
ĠÑĢÐµÐ ²Ð
ĠÐ²Ð¸Ð´ ÑıÑĤ
ĠÐ´ÐµÐ»Ð° ÐµÑĤÑģÑı
ÑĦÐ¸ÐºÐ° ÑĨÐ¸Ð¸
ĠÐĿÐµÐ »ÑĮÐ·Ñı
ĠÐ·Ð°ÐºÑĢÑĭÐ »
ÑĥÐ·Ð ¸
ĠÑĥÐ¿Ð¾Ð¼ ÑıÐ
ĠÑĥÐ±Ð ¾ÑĢÐ
ÐµÐ¹Ðº Ð
ÑĥÐ°Ð ½
ĠÐ¿ÑĢÐµÐ´ÑģÑĤÐ°Ð² Ð»ÐµÐ½Ð¸Ðµ
ĠÐ¿Ð¾Ð»Ð¾Ð² Ð¸Ð½Ñĭ
ĠÐŀ ÑĢÐ
ĠÐ¾ÑĤ ÑĨÑĥ
ÐµÐ µÑģÑı
ĠÐ¿ÑĢÐ¸Ð½Ð¸Ð¼ Ð°ÐµÑĤ
ĠÐ¾Ð³Ð »ÑıÐ
Ġ Ð²ÑħÐ¾Ð´Ð°
ĠÑĤÐµÐ° Ñ
r om
Ðĺ Ð»Ð¸
ĠÑĤÐµÐ°Ñ Ĥ
ĠÐ¼ÑĭÑģÐ»ÐµÐ ½Ð½Ð¾
Ġ ÑģÑģÐ¾
ĠÐŁÐ¾Ð´ÑĢÐ¾Ð±Ð ½Ð¾ÑģÑĤÐ¸
ÑģÐ ½ÑĥÑİ
ĠÐ³Ð¾Ñģ ÑĥÐ´Ð°
ĠÐ¿ÐµÑĢÐµÐ ³Ð¾Ð²
ĠÐ²ÑĭÑģÑĤÑĥÐ¿ Ð°
Ð²Ð¾ ÑĢÐ¸
Ġ Ð¸Ð¼ÐµÐ½
ĠÐºÑĥ ÑĢÐ¸
Ġ ÑĤÑĥÑĦ
»Ð°Ð· Ð
ĠÑĢÐ°ÑģÑģ ÑĤÐ¾ÑıÐ
ÑģÐ ½Ðµ
ÑĭÐ ½Ðµ
ĠÑĢÐ°ÑģÑģÐºÐ° Ð¶Ñĥ
ÑĢÐ ½ÑĭÐ¼Ð¸
ĠÐºÐ¾ÑĢÐ¼ Ð
ĠÐ¸ÑģÐ¿Ð¾Ð»ÑĮÐ· ÑĥÑİÑĤ
ÑģÐ¼Ðµ ÑĢÑĤ
Ð´Ð° ÑĤÑĮÑģÑı
ĠÐ¿ÑĢÐ¾Ð¸Ð·Ð²Ð¾Ð´ ÑģÑĤÐ²Ð¾
ÑĢÐ°Ð´ Ð
ĠÐºÐ ¸Ð´
eÐ ¹
ĠÐ±Ðµ Ð´Ð°
Ð´Ð¾ ÑĢÐ°
ĠÐĸ Ð°Ð»ÑĮ
ĠÑģÐ µÑģ
ĠÑĢÐ°Ð½ ÐµÐ½
ĠÐ²ÐµÑĩÐµ ÑĢÐ
Ðļ Ð¡
ĠÐºÐ¾ÑĢÐ¼Ð ¸
ÐµÐ¹ÐºÐ ¸
ĠÐ±ÑĭÐ² ÑĪÐµÐ³Ð¾
ĠÐ¢Ð° ÑĤÑĮÑıÐ½Ð°
ĠÐ¸Ð· Ð»Ð¸
¸ Ð¼ÐµÑı
·Ð½Ð°ÑĤ Ñ
Ð¸Ð´ ÐºÐ°
Ð»Ð¾Ð² Ð°
ĠÐµ Ð´ÐµÑĤ
ĠÑģÑĭÐ ½Ð¾Ð²
½ÐµÐ ²Ðµ
Ð ¸Ð¼ÐµÑı
ĠÐ¿Ð¾Ð´Ð ²Ð¸Ð
·Ð½Ð°ÑĤÑ Į
Ð»Ð »Ñĥ
Ð ¸Ð¿Ðµ
ĠÐ¿Ð°ÑĢÑĤ Ð¸Ð¹
ĠÑģÐ¸Ð¼Ð ¿
ĠÐ¼Ð¾Ð·Ð³ Ð
¸ÑĤÐµ Ð»ÐµÐ¹
Ð¸ÑĤÐµÐ»ÑĮÐ ½Ð¾Ð¹
ÑĢÑĨÐ ¸
ĠÐ¿Ð¾Ð»Ð¸ ÑĨÐ¸Ñİ
ĠÐ¿Ð¾Ð´Ð¾Ð±Ð ½Ð¾
ĠÐ¿ÑĢÐ¸ ÑħÐ¾Ð´ÑıÑĤ
ĠÑģÐ»Ðµ Ð´Ð¾Ð¼
ĠÐ¿ÑĢÑı Ð¼Ð¾Ð¹
Ð »ÑĥÐ½
or g
ĠÑģÐ»ÐµÐ´ÑĥÑİÑī ÐµÐ¹
ıÑ ĩ
Ð°Ð ±Ðµ
ĠÐ¿Ð¾Ðº Ñĥ
ĠÐ´Ð²Ðµ ÑĢÐµÐ¹
ĠÑģÑĢÐµÐ´Ð ½ÐµÐ¼
ĠÐ»ÑİÐ±Ð¾Ð¿ ÑĭÑĤ
Ð²Ñ Ģ
¸ ÑĢÑĥÑİ
top ic
ĠÐ·Ð°ÑīÐ¸ÑĤÐ ¸
ĠÐ´Ð°Ð»ÑĮÐ½ÐµÐ¹ ÑĪÐµÐ¼
ĠÐµÐ· Ð´Ð¸ÑĤÑĮ
ĠÑĥÐ²Ðµ ÑĢÐµÐ½Ñĭ
ĠÐ½ÐµÐ ¶Ð½Ð¾
ĠÐ±Ð »Ð¾Ð½
ÑĢÑĭÐ¼Ð ¸
ĠÐ¿ÑĢÐ¾ ÑģÐ¸ÑĤ
¾Ðµ ÐºÑĤ
ĠÐ·Ð²Ð¾Ð½ Ð¸ÑĤÐµ
ÑģÐ½ Ð
ĠÐ¾Ð±ÐµÑī Ð°Ð»
ðŁĴ Ĳ
· Ð²ÑĥÐºÐ°
Ðµ Ñİ
ĠÐ²ÑģÐ¿Ð¾Ð¼Ð½ Ð¸Ð»Ð°
ÑĪÐ ¾Ð³Ð¾
ĠÐ³Ð¾ÑĢÐ¾Ð´ Ð°Ñħ
ĠÑĤÑıÐ¶Ðµ Ñģ
ĠÐ²ÑģÐ»Ñĥ Ñħ
Ð¾Ð±Ð ¾
ĠÑģÐµ ÑĢÐµ
Ð±Ð¸ ÑĤÑĮÑģÑı
¶Ð°Ñī Ð¸Ñħ
ĠÐ° ÑĤÐ¾Ð¼
ĠÐ½Ð° ÑģÑĤÐ°Ð
ĠÐ·Ð°ÑıÐ ²Ð¸Ð»Ð°
ĠÐ¡Ð¾ ÑİÐ·Ð°
8 6
ĠÐ¸Ð¼ Ð¼ÑĥÐ½
ĠÐ·Ð° ÑģÑĤÐ°Ð²Ð¸Ð»
ÑĢÑģ ÐºÐ¸Ð¼
ĠÑĥÐ ²Ñĭ
ĠÐ»ÐµÑĤ Ð
a ch
ĠÑĨÐ° ÑĢÑĮ
ĠÐ²ÑģÑĤÑĢÐµÑĤ Ð¸Ð»
ĠÐ¾Ð³Ð »
Ġ ÑģÑĥÑģ
ĠÐł Ð£
Ð ¸ÑĩÑĮ
Ð´Ð½ Ð
ÑħÐ° Ð¼Ð¸
Ð¾Ð½Ð½ Ñ
ÑĢÐº Ð¾Ð¼
ĠÑĢÐ°ÑģÑģÑĤÐ¾ÑıÐ½ Ð¸Ð¸
ĠÐ¼Ð¾Ð·Ð³Ð ¸
ĠÐ»Ð¸ ÑĦ
Ð¿Ðº Ð
ĠÐ³Ð»ÑĥÐ¿ Ð¾
ÑĢÑĭÑĤ Ð¸Ðµ
ĠÐ±Ð° ÑĤÐ°Ð»ÑĮ
ĠÑĩÐ°Ñģ ÑĤÐµÐ¹
ĠÐľ Ð¾ÑĢÐ¾Ð
Ð¾Ð¸ÑĤ Ñ
ĠÑģÐµÑĤÑ Į
ĠÑĦÐ°ÐºÑĤ Ñ
ĠÐ¼Ð°Ñģ ÑģÑĥ
Ð¾Ð² ÐµÑĢÐ
ĠÑĦÐ°ÐºÑĤÑ ĭ
¶Ð° Ð»Ð°ÑģÑĮ
ĠÐ·Ð°Ð ²Ð°Ð»
ĠÐ¼Ð¾Ð» Ð¾
Ð´Ð½Ñ ĭ
Ð¾Ð¸ÑĤÑ Į
oc k
ĠÐ¡Ð¾Ð² ÑģÐµÐ¼
ĠÑįÐ» ÑĮÑĦ
ĠÐ¿Ð¾Ñģ ÑĥÐ´
ĠÐ´Ð¾ÑģÑĤÐ¸Ð ¶ÐµÐ½Ð¸Ñı
Ð¾Ð¼Ð ½Ñİ
Ð¿Ð¾ ÑģÐ»Ðµ
ĠÐļÐ° Ð·Ð°Ð»Ð¾ÑģÑĮ
ĠÐ¿Ð¾Ð´ Ð²ÐµÑĢÐ
ĠÐŁÐµ ÑĢÐµÐ
ĠÐ¥ ÑĢÐ¸ÑģÑĤÐ°
Ð¾Ð½Ð½Ñ ĭ
ĠÐ´Ð¸ÑĢÐµÐº ÑĤÐ¾ÑĢÐ°
ÑĥÑĤÐ¸ÑĤ Ñ
· Ð»Ð¾Ð±Ð
ĠÐ¿Ð¾ÑĤÑĢÑı ÑģÐ°
ĠÑĢÐ°Ð· Ð¾Ð¼
ÑĥÑĤÐ¸ÑĤÑ Į
O N
ĠÐŁ Ð°Ð½
A pp
Ð§ ÑĤÐ¾Ð±Ñĭ
ĠÐĳÑĥÐ´ Ñ
Ġ Ð³Ð¾Ð¼
Ġ7 5
ĠÑĤÐµÐ»ÐµÐ²Ð¸Ð· Ð¾ÑĢ
8 7
Ð°Ð»ÑĮÐ ½ÑĥÑİ
ÑģÐ» Ð¾Ð¶Ð
ðŁĺ ¹
ĠÑģÐ »Ð
ĠÐ¿Ð¾ ÑĢÐµ
ĠÐĶ Ð¾Ð±ÑĢÑĭÐ¹
ÐĿ Ðĵ
ĠÐĶ ÐµÑĤÐ¸
ĠÑĪÐ »Ðµ
ĠÐ·Ð°Ð½Ð¸Ð¼ Ð°Ð»ÑģÑı
ĠÐ²Ð ³
ÑģÐ°ÑĤÑ Į
Ð»Ð¸ÑģÑ ĤÐ¾Ð²
ÑĭÐ ²Ð°
ĠÑģÐ¾Ð± ÑģÑĤÐ²ÐµÐ½Ð½ÑĭÐµ
ĠÐ¿Ð¾Ð·Ð½Ð°ÐºÐ¾Ð¼ Ð¸ÑĤÑĮÑģÑı
ĠÐ£ ÑĩÐ°ÑģÑĤ
² ÐµÐ³
ĠÑĤÐ°Ð¹ Ð
»ÑĭÐ º
ĠÑĢÐ°Ð·Ð¼Ñĭ ÑĪÐ»
Ġ200 8
ðŁ¥ °
ĠÐ¸Ð·Ð²ÐµÑģÑĤ Ð½ÑĭÐ¹
ĠÐĴÐ°ÑģÐ¸Ð»Ð¸ Ð
ÐĿ Ðļ
ĠÐºÑĢÑĭÐ »
ĠÐ´ÐµÐ²Ð¾ ÑĩÐµÐº
ÑĤÐµÐ»ÑĮÐ½ Ñ
ĠÑģÐ»ÐµÐ´ÑĥÑİÑī Ð¸Ðµ
ĤÑģ Ñ
Ð ¸ÑĢÑĥÑİ
Ġ1 20
Ð¿ÐºÐ ¸
Ð¼Ð° Ñģ
Ðº Ð¾ÑģÑĤÐ¸
Ð´Ð½Ð ¸
ĠÑĤÐ¾Ð²Ð° ÑĢÐ¾Ð²
ÐµÑĤÐ¸Ñ Ĥ
ĠÐĹÐ½Ð° ÐµÑĪÑĮ
Ð¿Ñĭ Ñ
ĠÐºÐ°Ð¿Ð¸ ÑĤÐ°
ĠÐ¿ÑĢÐ¸ Ð´ÐµÑĢÐ¶Ð
ĠÑħ ÑĢÐµÐ½
ÐļÐ°Ðº Ð¾Ð¹
ĠÑģÐ»Ð° Ð±Ð¾
ÑĩÐµÐ ²
ĠÐ´ÑĥÐ¼ Ð°Ð»Ð¸
ÐĿ ÐŀÐĻ
ÑģÐ¿ ÑĢÐ°Ð
Ð¿Ð¾ ÑĩÐµÐ¼Ñĥ
Ġ Ð³Ð¸Ð´
ÑĥÐ¿ Ð
ĠÐ³ÑĥÐ» ÑıÑĤÑĮ
ĠÐ¿Ð¾Ð» Ð½Ð¾Ð³Ð¾
4 1
ĠÐ¿Ñ ĸ
ĠÑĤÐµÑħÐ½ Ð¾Ð»Ð¾Ð³Ð¸Ð¸
ĠÐ¿Ð¾Ñģ ÑĭÐ»Ð°
ĠÐ·Ð°Ð½ÑıÑĤ Ð¸Ðµ
ĠÐ´ ÑĢÐ°
ĠÐ´Ð¾ÑģÑĤÐ°Ð ²
Ð´ Ð°Ð¶Ðµ
ĠÐļÐ°ÑĤ Ñ
ÑīÐ° Ð»Ð°ÑģÑĮ
m ent
Ġ Ð¸Ð¼ÐµÑı
ĠÐĶ Ð¶ÐµÐ
Ġ Ð¿Ð»Ð°Ð²
ĠÐĶÐµÐ½ Ð¸Ñģ
Ñī Ð°Ð»Ð¸
ĠÑģÐ¸ Ð´ÐµÐ½
ĠÐ¾ÑģÑĤÐ°Ð ²Ð¸Ð»Ð¸
Ð°ÐµÐ¼ ÑĭÐ¹
Ð ·Ð¾Ð
ĠÐ¼ÑĥÑģ ÑĥÐ»ÑĮ
Ĥ Ð¸Ð¿Ð¾
ĠÐ½Ð¾ÑĢÐ¼ Ð°
Ð·Ð° Ð¿Ð°
ĠÐ£ ÑģÐ¿
Ð¸ÑĢÐ¾Ð² Ðº
ĠÐ½Ð° ÐºÑĢÑĭÐ
ĠÐ¾ÑģÐ²Ð¾Ð±Ð¾Ð ¶Ð´
ĠÐ¸Ð³ÑĢÐ° ÑİÑĤ
Ñ ĤÐ¸Ð¿Ð¾
ÑĥÑĤÑģÑ ı
ĠÐ´ÐµÐ¹ÑģÑĤÐ²Ð¸ ÑĤÐµÐ»ÑĮÐ½Ð¾ÑģÑĤÐ¸
ÑģÐ½Ð ¸
ĠÐľÐµÐ¶Ð´ ÑĥÐ½Ð°ÑĢÐ¾Ð´
ĠÐ¸Ð½Ñ Ĥ
ÑĭÐ½ Ñ
ĠÐ¯ Ðº
ÑĨ Ð¸Ðº
ĠÐ²ÑĭÑıÑģÐ½ Ð
ĠÐ²ÑĭÑıÑģÐ½Ð ¸
ĠÑģÐ»ÑĥÐ ¶Ð¸ÑĤÑĮ
Ð ·Ð²ÑĥÐºÐ°
Ð¿Ð¾ÑĤ Ð¾Ð¼Ñĥ
ÑħÐ°ÑħÐ° Ñħ
8 2
ĠÐ¿ÑĢÐµÐº ÑĢÐ°Ñī
Ġ is
ĠÐĳÑĥÐ´Ñ Į
ĠÐ¿ÐµÑĢÐµ ÑģÑĤÐ°Ð»
ĠÑģÐ¸Ð »Ð¾Ð²
ĠÐ¾Ð±ÐµÑģÐ¿Ðµ ÑĩÐ¸ÑĤÑĮ
Ð²Ð¸Ð ·
ÐµÐ»ÑĮÐ µ
Ð¿ÑĢÑı Ð¼
or k
ÑĪÐ ½Ð¸ÐºÐ¸
ĠÐ¸Ñģ ÑħÐ¾Ð´
ÑĤÐ°ÐºÐ »
ĠÑģÐµÐºÑĥÐ½ Ð´Ñĭ
ĠÐ¾Ð±Ñī Ð¸Ð¹
ÐŁ Ð¾Ð¼
ĠÐ¾Ð³Ð »ÑıÐ´ÑĭÐ
ĠÐ½Ð°ÑĩÐ ½ÑĥÑĤ
Ð°Ðº Ð¾Ð¼
ĠÑĥÑģÑ Ĥ
ÑĥÐ·ÑĭÐ ºÐ°
ĠÐ¿Ð¾Ð»ÐºÐ¾Ð² Ð½Ð¸Ðº
ĠÐĵ ÐµÑĢÐ
ĠÐ¿Ð¾ÑģÑĤ Ð¾ÑĢÐ¾Ð½
ĠÐ¸Ð·Ð ±ÑĢÐ°Ð½
Ñĥ ÑĪÐºÐ¸
ĠÐ´ÐµÐ¼Ð¾Ð½ ÑģÑĤÑĢÐ¸
ĠÐ¿Ð¾Ð»Ð¾Ð² Ð¸Ð½Ðµ
Ġ et
ĠÐĿÐ°Ñģ Ñ
ĠÐ¡ Ð¸Ð¼Ð
c o
ĠÐ¼Ð ¸ÑģÑĤÐµ
Ð¸ÑĢÐ¾Ð²Ðº Ð
ĠÐ²Ð »Ð¾Ð
ĠÐ°Ð½Ð³ Ð»Ð¸
ĠÐ¿ÑĢÐµÐ´ÑĥÐ¿ ÑĢÐµÐ¶Ð´
ĠÐ¿ÑĢÐ¾ÑĪÐµÐ¿ ÑĤÐ°Ð»
Ð¸ÑĢÐ¾Ð²ÐºÐ ¸
ÐĿ Ð°ÐºÐ¾Ð½ÐµÑĨ
ĠÐ¸Ð³ ÑĢÐ°Ð»Ð¸
ĭÑ ĭÑ
ÑĩÐµÑģÐº ÑĥÑİ
ĠÑĪ Ð°Ð³Ð¸
ĠÐ±ÐµÐ· Ð·Ð°
ĠÐ½Ð° Ð²ÑĭÐº
ÑĥÐ»Ñ ĮÑģ
ĠÐ¾Ð³Ð» Ñ
ÑĤÐ¸ÑĩÐµÑģÐº Ð¾Ð³Ð¾
ĠÐ·Ð° Ð¼Ñĭ
ĠÐ²Ð¾ ÑĪÐ»Ð°
ĠÐŀÐ ±ÑĬ
ĠÐ¾Ð±ÑĬÑıÐ² Ð¸Ð»
ĠÑĤÐ°Ð½ ÐºÐ¾Ð²
ĠÑĦÐ¸Ð»ÑĮ Ð¼Ðµ
ĠÐŀ ÑĢÐ³
ĠÑĦÐ¸ÑĢÐ¼ Ñ
ĠÑĦÐ¸ÑĢÐ¼Ñ ĭ
ĠÐ±Ð¾Ðµ Ð²ÑĭÑħ
Ð¾Ð½Ð¸Ñ ı
ĠÐ»Ð¾Ð¶Ð º
ĠÐ¿Ð»Ð¾Ñħ Ð¾Ð¹
Ð¸ÑĨ Ð¾
Ð¸Ð»Ð° ÐºÑĤ
ĠÐ¿ÑĥÐ ·Ñĭ
ĠÐ¿Ð¸Ñģ Ð°Ð»Ð°
Ð»Ð°ÑĤÐ ¸
Ð´ a
ĠÐ¿Ð¾Ð´Ð° Ñ
ĠÐĽ ÑĮÐ
ĠÑĤÐ¾Ð» ÐºÑĥ
ðŁĳı ðŁĳı
an ce
ĠÐ¾ÑĤÐ ²ÑĢÐ°ÑĤ
Ð¼Ðº Ð
ĠÐĺÑĤÐ° Ð»Ð¸Ð¸
ÑĢÑĭÑĤÑ ĭ
ĤÑģÑ ı
±ÐµÐ »
ĠÑĤÑıÐ¶ÐµÑģ Ñ
Ġ Ð·Ð²ÑĥÐºÐ°
ĠÑĤÑıÐ¶ÐµÑģÑ Ĥ
ĠÐ²Ð¾ÑģÐ¿Ð¸ ÑĤÑĭÐ
ĠÐ¾ÑģÐ½Ð¾Ð² Ð½ÑĭÑħ
ĠÐºÑĢÑĥÐ¿ Ð½ÐµÐ¹
ĠÑģÐ¾ÑģÑĤÐ°Ð ²Ð°
Ð¸Ð²Ð° ÑĤÑĮÑģÑı
ĠÑĤÐµÐ¼Ð¿ÐµÑĢÐ°ÑĤÑĥ ÑĢÐ°
Ð¸Ðº Ð¾
ĠÐ¿Ð»Ðµ Ð¼
ĠÐ¾Ð±ÑģÐ»ÑĥÐ¶Ð ¸Ð²
ĠÐ·Ð°ÑīÐ¸ÑĤÐ¸ Ñ
Ðł Ð¯
ĠÐ¸Ð½ ÑģÐ¿Ðµ
ĠÐ·Ð°ÑīÐ¸ÑĤÐ¸Ñ Ĥ
Ġ Ð¿Ð¾ÑĦ
ĠÐ²Ð¸Ð½ ÑĤÐ¾Ð²
ĸÐ ²
²Ð»Ðµ Ð½Ð¾
ĠÐ±Ð¾Ð»ÑĮÑĪÐ¸Ð½ ÑģÑĤÐ²Ðµ
ĠÐ¿ÐµÑĢÐ¸ Ð¾Ð´Ð¸
Ð¾ÑĢÐ ³
ÑĩÐ ½Ð¸ÐºÐ¸
ĠÑģÐ¼Ð µÑģÑĮ
ĠÐ½ÐµÐ´Ð¾Ñģ ÑĤÐ°ÑĤÐ¾ÑĩÐ½Ð¾
ĠÐ¾Ð¿Ð ¸
ĠÑģÐ ¸Ð¼
Ð¾Ð½ÑĮ ÐºÐ¾
ĠÐ¾Ð³ Ð½Ðµ
Ð¾Ð ¶Ð´Ð°ÑĤÑĮ
ĠÐ¿Ð¾Ð¿ Ð°Ð»Ð¸
ÐµÐµ ÑĪÑĮ
ĠÐ¿Ð¾Ð·Ð´ÑĢÐ°Ð ²Ð»ÑıÑİ
ĠÑĥÑģÐ¿ ÐµÐ²
¶Ð ½ÑĥÑİ
ÑĢÐµ ÑĤÑģÑı
Ðĺ Ðĺ
ĠÐĺÑģÑĤÐ¾ ÑĩÐ½Ð¸Ðº
ĠÐł Ð¸Ð¼
Ð¼ Ð°Ð·
ÑĢÐ¸ ÑĤÐ°
ĠÐļ Ð°Ñģ
ĠÐ»Ð¾Ð¶Ðº Ð
ĠÐ»Ð¾Ð¶ÐºÐ ¸
ĠÐ±Ð°Ñ Ĥ
ĠÐ´Ð¾Ñģ ÑĤÐ°ÑĤÐ¾
ĠÐ¾ÑĤ ÑĩÐµÐ³Ð¾
ĠÐº Ð¾Ð¶Ðµ
ÐĿ Ð
ĠÐ½Ð¾ÑĢÐ¼Ð°Ð»ÑĮÐ ½ÑĭÐ¹
ĠÐ¿Ð¾Ð¼Ðµ ÑīÐµÐ½Ð¸Ðµ
ĠÐ²ÑĭÑıÑģÐ½Ð¸ Ñ
ĠÐ²ÑĭÑıÑģÐ½Ð¸Ñ Ĥ
ÑĨÑ ĸ
¶Ð¸Ð ²Ð°Ð»
ĠÐ½Ðµ ÑĥÐ¼
ĠÐĴ ÑģÐºÐ¾ÑĢÐµ
ĠÐ¿ÑĢÐ¾ÑģÑĤÑĢÐ°Ð½ ÑģÑĤÐ²Ð°
ĠÑĢÑı Ð´Ð°
ĠÐ¼Ð° ÑģÐºÐ¸
ĠÑĩÐµ Ð¼Ð¾Ð´
ĠÐ¸Ð½Ð¾ÑģÑĤÑĢÐ°Ð½ Ð½ÑĭÑħ
ÐºÐ¾Ð¼ Ð°
ĠÐ±Ð¸ÑĤ Ñ
ĠÐ²ÐµÑī ÐµÑģÑĤÐ²
ĠÐ¾ÑģÑĤÐ° Ð½Ð°Ð²Ð»Ð¸
ĠÐ¶ÑĥÑĢÐ½Ð° Ð
ĠÐºÐ°ÑĤÐµÐ³Ð¾ ÑĢÐ¸Ð¸
ĠÐĴÐ° ÑĪÐ°
ĠÐ¶ÑĥÑĢÐ½Ð°Ð »
Ð½Ð¾Ð² ÐµÐ½Ð¸Ðµ
ĠÐ²Ð·ÑĢÑĭÐ ²
ĠÐ´Ð°Ð ²Ð°Ð»Ð¸
³ ÑĥÐ±Ð
ĠÐĴÐ°ÑģÐ¸Ð»Ð¸Ð ¹
ĠÐ¿Ð¾Ð»Ð¾ÑĤ ÐµÐ½
ĠÐ·Ð°ÐºÐ¾Ð½ Ð¾Ð¼
ĠÐºÐ¾Ð¼Ð¸Ñģ ÑģÐ¸Ð¸
Ð»Ð¸Ñ ıÐµÑĤ
ĠÐ¿ÑĢÐ¾Ð´ÑĥÐº ÑĨÐ¸Ð¸
Ð¸Ð²Ð ½ÑĭÑħ
ĠÐ¾Ð±ÐµÑĢÐ ½ÑĥÐ»ÑģÑı
ĠÐĲÑ Ģ
ĠÐ¿ÐµÑĢÐµÐ ³
ĠÐ±Ð¾ÑıÑĤ ÑĮÑģÑı
ĠI II
ĠÑĤÑĢÐµÐ½Ð¸ÑĢÐ¾Ð² Ðº
ĠÐļÐ°Ðº Ð¾Ðµ
ÑĩÐ¸ÑĤÐ° Ð»Ð°
Ð»Ð»ÐµÑ Ģ
Ġ ÑıÐ´ÐµÑĢÐ
ĠÑĢÐ°Ð· Ð¾Ð³
ĠÐ²Ð¾ÐµÐ½ Ð½Ð¾Ð³Ð¾
ĠÐ¾ÑĤ ÑģÑĤÑĢÐ°Ð½
ĠÑĤÑĢÐµÐ½Ð¸ÑĢÐ¾Ð²Ðº Ð
ÑħÐ ¸Ð¼Ð¸
ĠÑĤÑĢÐµÐ½Ð¸ÑĢÐ¾Ð²ÐºÐ ¸
ĠÐ¡ Ðķ
ĠÐĿÐ° ÑĪÐ°
Ð¸ÑĢÐ¾Ð² Ð°Ð½
ĠÐ»ÑİÐ±Ñ ĭÑħ
ÑģÑĤÐ²ÐµÐ½ Ð½ÑĭÐ¼Ð¸
Ð·Ð° ÐµÑĤ
ĠÑģÐ¾Ð¾Ð±Ñī ÐµÐ½Ð¸Ð¸
ĠÐ¼ Ñį
ĠÐ¿ÑĢÐ¾ ÑĩÐ¸Ñħ
ĠÐ±Ð»Ð¸Ð¶Ð°Ð¹ ÑĪÐµÐµ
Ð¾Ð² Ð°Ð½Ð¸Ðµ
² Ð¾Ð´Ð
ĠÐ¿Ð° Ð»Ð°
Ð°Ð ½ÑĭÐ
ĠÐ½Ðµ ÑĤÐµÑĢÐ¿
ĠÐ¿Ð¾ÑģÐ»ÐµÐ´ ÑģÑĤÐ²Ð¸Ñı
Ð¿ ÑĭÐ»ÑĮ
P h
ĠÐ²Ð¾ÐµÐ½ Ð½ÑĭÐµ
Ð¢ ÐķÐł
³ ÑĢÐ°Ð½Ð¸
ĠÐ¿Ð¾Ð´Ð°Ñ Ĥ
Ð´Ñ ĸ
Ð ·Ð¾Ð½Ñĭ
ĠÑĤÐµÑĢÐ¿ ÐµÑĤÑĮ
Ð ¸ÑĢÐ¾Ð½
Ġ Ð³ÑĢÐ½
ĠÐ¸Ð´Ðµ Ð°Ð»ÑĮÐ½Ð¾
ĠÐ¿ÑĢÐµÐ´ÑģÑĤÐ°Ð² Ð»ÐµÐ½Ð¸Ñı
ĠÐ¿Ð¾Ð½Ð¸Ð¼ Ð°Ð½Ð¸Ðµ
ĠÐ¾Ð³Ð»Ñ ı
Ð¾Ð¼Ð¸ Ð¼Ð¾
Ġ Q
ĠÐ²Ð¾Ð»Ð½ Ñ
ĠÐ´Ðµ ÑĤÐµ
ĠÐ²Ð¾Ð»Ð½Ñ ĭ
ĠÐ¾Ð¿Ðµ ÑĢÐ°ÑĤ
ÑĢÑĥÐ ¹ÑĤÐµ
ĠÑĥÐ ½ÑĭÐ
Ð¡ Ð¾Ð²
ĠÐľ Ð°Ð»Ð¾
ĠÐ¸Ð³ Ð½Ð¾
ĠÐ¸Ð· Ð´Ð°
ĠÑĥÐ¶Ð° ÑģÐ°
ĠÐ¿ÑĢÐ¸ ÑģÑĥÑĤÑģÑĤÐ²Ñĥ
ĠÐ¾Ð¿Ñĭ ÑĤÐ¾Ð¼
¾ÑĢÐ ¾
Ð° ÑıÑģÑĮ
ĠÑĢÑĥÐºÐ¾Ð²Ð¾Ð´ ÑģÑĤÐ²Ð¾
ĠÐ´Ð²Ð¾ ÑĢÑĨ
Ð´ÐµÑģÑıÑĤ Ð
ĠÐ²Ñģ ÑĤÐ°Ð²
ĠÐĳ ÐĲ
ĠÑģÐ» ÑĭÑĪÐ°Ð»Ð¸
ÐĳÐ ¸
ÑĥÑģ Ð¾Ð¼
¾ÑĤ Ð¸Ð
ÑģÐµÑ ı
Ð²Ñ ī
ðŁĺĺ ðŁĺĺ
ĠÐ¿Ð¾ÑģÐ¼Ð¾ÑĤ ÑĢÐ¸ÑĤÐµ
ĠÐŁ Ð°Ñģ
Ð´Ð ¸Ð»ÑģÑı
ĠÑģÐ¾Ð ¾ÑĢÑĥÐ
e e
Ġ ÑĢÑĤÐ°
ÑĢÐ°Ñ Ĺ
ĠÐ»ÑİÐ´Ñ ıÑħ
ĠÐļÐ ¸ÑĤÐ°
ĠÐ¿Ð¾Ð´Ð½ ÑıÐ»Ð°ÑģÑĮ
ĠÐ·Ð°Ð´ÐµÑĢÐ ¶
Ð±Ðµ ÑĢÐ³
ĠÐ¿ÑĢÐ¾Ð´Ð¾Ð» Ð¶Ð¸
Ð¾Ð»Ñ ıÑĤ
ĠÑĦÑĢÐ¾Ð½ ÑĤÐ°
ĠÐ½ÐµÐ²ÐµÑĢÐ ¾ÑıÑĤÐ½Ð¾
ĠÐ¾Ð±Ñī ÐµÐ½Ð¸Ðµ
Ġ Ð·Ð²ÐµÐ·Ð´Ð
Ð°Ð½ ÑģÐºÐ¾Ð¹
Ð´Ð »Ð¸
aÐ ·
ĠÑĥÑģÐ¸Ð»Ð¸Ñ ı
ĠÐ´Ð ¸ÑģÐ¿
Ġ z
ĠÐ·Ð°Ð ±ÑĢÐ¾
ĠÐ³Ð»Ð°Ð²Ð ½ÑĭÑħ
Ð¼ÐºÐ ¸
ĠÑħÐ¾Ð·Ñı ÐµÐ²Ð°
ÑĤÐµ ÑĢÐ¾Ð¼
ÐºÑĥ ÑĢÑģ
ĠÐ±Ð¾ Ñİ
ic e
ĠÐ´Ð ¾Ð´
ĠÐ³Ðµ ÑĢÐ¾ÐµÐ²
ÑĩÐ°ÑģÑĤ ÑĥÑİ
ĠÐ·Ð½Ð° Ð¼ÐµÐ½Ð¸
ĠÑħÐ¸ Ñ
ĠÐ¿ÑĢÐ¾Ð´Ð°Ð²Ñ Ĩ
ĠÐĴ Ðĺ
ĠÐĵ ÐµÐ½Ðµ
ĠÑħÐ¾ÑĢÐ¾ ÑĪÐ¸Ñħ
ĠÐ¡ ÑĢÐ°Ð·Ñĥ
ĠÐ·Ð²Ð¾Ð½ Ð¾Ðº
ÑĢÐ°Ð´Ð ¸
ĠÑĤÐµÐº ÑģÑĤÐ°
ĠÐºÐ¾Ð» ÐµÐ½
ĠÑĩÐµÑĢÐ ½Ð¾Ð¹
Ð¿ÑĭÑ Ĥ
ĠÐ¼Ð½Ð¾Ð³Ð ¸Ð¼
ĠÐĳ Ð¾ÑĢÐ¸
ĠÐ¿Ð¾Ñģ ÑĢÐµÐ´Ð¸
ĠÐ£ Ð²Ðµ
ĠÑģÐ ¸Ñģ
ĠÐ»Ð¾ÑĪÐ° Ð´Ð¸
Ð¸Ð ½ÑĭÐ¼
ĠÐĴÐµÐ»Ð¸ ÐºÐ¾Ð±ÑĢÐ¸
ĠÑĤÐµ ÑĢÐ
³ Ð»Ð°Ð
Ñģ Ñį
ĠÐĴÐ¾Ð ¿ÑĢÐ¾Ñģ
ÐĽÐ ¸
Ð¿ ÑĥÑĤÐµÐ
ĠÑģÐ¿Ð¾ ÑĢÐ¸ÑĤÑĮ
ĠÐ¥ Ðµ
ĠÐ±Ð¾Ð»ÑĮÑĪÐ¸Ð½ ÑģÑĤÐ²Ð°
ĠÐ´Ð¾Ð»Ð¶Ð ½Ð¾ÑģÑĤÐ¸
ÑĪÐ ½ÐµÐ¹
Ġ Ð²Ð¸Ðº
ĠÐ½Ðµ Ð»Ðµ
Ð¾Ð²Ð° ÑĤÐ¾
ĠÐ¿ÑĢÐ¾ÑĤ ÐµÑģÑĤ
ĠÑĥÑģÐ»Ð¾Ð² Ð¸Ð¹
Ġ Ð³Ð¸ÑĤÐ°
ÑĢÐ¾ ÑģÐ»Ð¸
ĠÑģÐ ¿ÑĢÐ¾Ñģ
ÐºÑ ĸ
ĠÐĲ ÐºÐ°Ð´Ðµ
ĠÐ¿ÐµÑĢÐµ Ð¼ÐµÐ½
ÐĴ Ð£
ĠÐ¶Ðµ Ð»Ð°Ñı
Ð ²ÑĢÐ°ÑĤ
ÓĻ Ð
ĠÐ£ Ð²Ð¸
ÑģÐ¸ ÐºÐ°
ĠÐ¯Ð¿Ð¾Ð½ Ð¸Ð¸
ĠÑĦ Ñ
Ð½ÑĥÐ² ÑĪÐ¸ÑģÑĮ
ĠÑģÑĤÑĢÐ¾Ð¸ ÑĤÐµÐ»ÑĮÑģÑĤÐ²Ð°
ĠÐ¿ÑĢÐ¸ÑģÑĥÑĤÑģÑ ĤÐ²Ð¸Ðµ
ĠÐľÐ¸Ñ Ģ
ĠÐ° ÑĤÐ°Ðº
ĠÐ´Ð ¸Ð
ĠÐ»Ð¾ÑĪÐ° Ð´ÑĮ
ĠÐ¸Ñī Ñĥ
ı ÑĢÐ¾ÑģÑĤ
ĠÑĥÐµ ÑħÐ°Ð»
ĠÐĲÐ»Ðµ ÐºÑģ
Ñ ıÑĢÐ¾ÑģÑĤ
ĠÐ²Ñģ ÑĤÐ°
ĠÑģÐ²ÐµÑĤ Ð¾Ð¼
âĢĶ âĢĶ
ĠÐĶ ÐµÑĤ
ĠÐ·Ð½Ð°ÐºÐ¾Ð¼ ÑģÑĤÐ²Ð°
ĠÑģÐº Ð¾ÑĤ
ĠÐ¿Ð¾ÑıÑģÐ½ Ð¸Ð»
ÑĤÐ° Ð»Ð¸ÑģÑĮ
ĠÑģÑĤÑĥÐ¿ ÐµÐ½ÑĮ
] .
ĠÐ´Ð¾Ð± ÑĢÐ¾Ð³Ð¾
ÑĢÑĥÑģÑ Į
ĠÐ¿ÑĢÐ¾ÑĪÐµÐ¿ ÑĤÐ°Ð»Ð°
ĠÐĵ Ð£
ĠÐ¿Ð¾ÑģÑĤÐµÐ »
ĠÐ½Ð° Ð¿Ð¾Ð¼
ĠÑģÑĤÐ¾Ð»Ð¸ÑĨ Ñ
Ð°Ð ¿Ðµ
ĠÐ¼Ð¸Ð½ Ð¸ÑģÑĤÑĢ
ĠÐ²ÐµÐ»Ð¸ Ðº
ÑĪÐ½Ñ ı
ĠÑĢÐ¾Ð¼ Ð°Ð½ÑĤ
ĠÐ²Ñĭ ÑĤÐµ
ĠÐ¸ÑģÐºÐ»Ñİ ÑĩÐµÐ½Ð¸ÐµÐ¼
Ð ³ÑĥÐ±Ð
ÑĢÐµÐ½ Ð¸Ñİ
ÐĲ Ð´
ĠÑģÐ¾Ð± ÑĢÐ°Ð»Ð¸ÑģÑĮ
ĠÐłÐ°Ñģ ÑģÐºÐ°
ĠÐ»ÑİÐ ±Ñı
Ð¿ ÐµÐ¿
Ñī ÐµÐ½Ð¸ÐµÐ¼
ĠÐ¼Ð¾Ð» Ð¾Ð´Ð°Ñı
ĠÐ²Ð½ÑĥÑĤÑĢÐµÐ½ Ð½Ð¸Ñħ
ĠÐ²Ð¾Ñģ ÑģÑĤÐ°
ĠÐºÐ»Ð¸ ÐµÐ½ÑĤ
ĠÐ²ÑģÐµ Ð¾Ð±
ĠÑģÑĤÐ¾Ð»Ð¸ÑĨÑ ĭ
Ð ·Ð»Ð¾Ð±Ð
ĠÑĩÐ»ÐµÐ½ Ñ
ĠÐł Ð¸ÑĩÐ°
ĭ ÑĢÐ
ĠÑħÐ¾ÑĢÐ¾ ÑĪÐµÐ½ÑĮ
% ,
ĠÑĩÐ ¾
ĠÐ¿ÑĢÐ¸ Ñĥ
ĠÐ¿Ð»Ð° ÑĤÐµÐ
² Ð°Ð·
Ð»Ð¸ ÐºÐ°
ĠÐ¼Ð°ÑĤ ÑĩÐ°
ĠÑĦ ÑĢÑĥÐº
ĠÑĩÐ»ÐµÐ½Ñ ĭ
ĠÐ¾ÑĤÐ½ Ð¾ÑģÑıÑĤÑģÑı
ÐµÑģ ÑĤÐ°
ĠÐ±Ð°Ð½ÐºÐ ¸
ĠÐĳÐ¾Ð»ÑĮ ÑĪÐ¾Ð¹
Ġ Ð¿ÑĭÐ»ÑĮ
ĠÑģÑĤÐ°Ð ½Ñĥ
ÐĶ Ð°Ð²
ĠÑĥ ÑħÐ¾Ð´Ð¸ÑĤÑĮ
ĠÑĢÑĥÑģ ÑģÐºÐ¾Ð¼
ĠÐºÑĢÑĭÐ» Ñ
ĠÐĶ Ð¾Ð¿
ĠÐ¸Ð´Ðµ Ñİ
ĠÐ¢ ÑĢÑĥÐ´
ĠÐłÐµÐ ±ÑıÑĤÐ°
ĠÐ»ÑİÐ±Ð¸Ð¼Ð ¾Ð¹
ĠÐłÐ°Ð·ÑĥÐ¼ ÐµÐµÑĤÑģÑı
±ÑĭÐ »
ĠÐºÐ¾Ð¼ Ð¿Ð¾Ð½
ĠÐ¿Ð¸ÑģÐ° ÑĤÐµÐ»ÑĮ
ĠÐ¡ ÑĤÐ°Ð½
ĠÐ¼Ð°Ð½ Ð¸Ðº
ĠÐ¿ÑĢÐ¾ ÑģÐ¸ÑĤÑĮ
8 4
Ġ7 00
âĢ Ĳ
³ ÐµÐ½Ð¸
ĠÑĥÑĢÐ¾Ðº Ð
Ġ ÑĢÑİÐº
ĠÑĢÑĥÐ» Ñ
ĠÑħÐ¸Ñ Ĥ
ĠÑĥÑĢÐ¾ÐºÐ ¸
ĠÑįÐºÑģÐ¿Ðµ ÑĢÑĤ
Ð´Ð ½Ðµ
ÑĢÑĥÐ ±Ðµ
Ġ ÑıÑĢÐ¾ÑģÑĤ
ÑĢÐµ Ð¿Ð
ĠÐ¿Ð¾Ð¼ Ð¾Ð»
ĠÐĳ Ð«
ÑĦ Ð¾
ÐµÐ½Ñ ıÑħ
ĠÑĢÐ°Ðº ÐµÑĤ
ĠÑģÐ»Ð° Ð²ÑıÐ½
ĠÐ¿Ð¾ÑģÐ»ÐµÐ´Ð ½ÑİÑİ
ı Ð½Ðµ
ĠÐ¾ÑĦÐ¸ ÑĨÐ¸
ĠÐ´Ð¾Ð½ Ð¾
ðŁĺ ³
ĠÐ¸Ñģ ÑĤÐµ
ĠÑĥÑģÐ¿Ðµ ÑħÐ¾Ð²
ĠÑĦ ÑĢÐ°Ð·Ð°
¸ ÑĪÑĮÑģÑı
ĠÐ´Ð¾Ð¼ Ð¾Ð¼
ĠÑĪÐ ¾Ñģ
ĠÐ¿Ð¾ Ñĥ
ĠÐ¶Ð¾Ð¿ Ñĥ
ÐĲ Ð³Ð°
ĠÑģÐºÐ°Ð »
ĠÐļÐ° Ð·Ð°Ñħ
ĠÐ¼ÐµÐ´Ð »ÐµÐ½
ĠÐ²ÑĭÑıÑģÐ½Ð¸ÑĤ Ñ
ĠÐ²ÑĭÑıÑģÐ½Ð¸ÑĤÑ Į
½ÑĥÐ» Ð¾ÑģÑĮ
ĠÐ²Ð¾Ð¹ Ñ
ĠÐ¿Ð¾Ñģ Ð»Ð°
ĠÐ»ÑĥÐ ºÐ°
ĠÐ¿Ð¾Ð±Ðµ ÑĢÐµÐ¶
Ð´Ð ¿
ĠÐ²Ð¾Ð¹Ñ Ĥ
ĢÑĥÐ ½
ÐĶ ÑĢÑĥÐ·ÑĮÑı
ĠÐ½ÐµÑģ Ð¾Ð²
ĠÐ¿ÑĢÐ¾Ð ±Ð¸
ĠÑģÐ¾Ð» Ð´Ð°ÑĤÑĭ
ĠÐ±ÑĥÐ´ ÑĮÑĤÐµ
Ðķ Ðķ
Ġ www
ĠÐ¿Ð»Ð°ÑĤ ÑĦÐ¾ÑĢÐ¼
ĠÑĩÐµÐ»Ð¾Ð²Ðµ ÑĩÐµÑģÑĤÐ²Ð°
½ Ð¸Ð»
Ð¸ÑĩÐ ½ÑĭÐµ
ĠÐ¿ÑĢÐ¾ ÑĩÐ¸Ðµ
ĠÐ¿Ð¾Ð·Ð´Ð ½ÐµÐµ
ĠÑģÑĥÑīÐµÑģÑĤÐ²Ð¾Ð² Ð°Ð½Ð¸Ñı
Ð°Ð»ÑĮÐ ½Ð¾Ð¼
ĠÑģÑĤÑĢÐ¾Ð¸ ÑĤÐµÐ»ÑĮÑģÑĤÐ²Ð¾
eÐ½Ð ¸
ÑģÐº Ð¾Ð²
ĠÐ·Ð°ÐºÐ¾Ð½ ÑĩÐ¸Ð»
²ÐµÐ¹ ÑĨÐ°
Ð°Ð ¶Ð½Ð¾
¸Ð ¸Ð
5 7
ĠÐº Ð¾ÑĢÐ¾ÑĩÐµ
Ð»Ñİ Ð±Ð»ÐµÐ½
ĠÐĽ ÐµÐ½Ð¸Ð½Ð°
ÐĿÐ ¸
ĠÐºÐ¾ÑĢÐ¼Ð¸ Ñ
ib er
ĠÐºÐ¾ÑĢÐ¼Ð¸Ñ Ĥ
ĠÐ¼Ð°Ðº Ð¸ÑıÐ
ĠÐ»Ð¾ÑĪÐ° Ð´ÐµÐ¹
ÑĩÐ°Ð» Ñĥ
ĠÑĪÑĤ ÑĥÐº
Ð´ Ð¾Ð²Ð°ÑĤÑĮ
ĠÐ·Ð° Ð²Ð¸ÑģÑĤ
ĠÐ¾ÑģÑĤÐ°Ð ½Ð¾Ð²Ð¸Ð»Ð°ÑģÑĮ
ĠÑģÑĨ ÐµÐ½Ðµ
Ð¼Ð» Ñ
ĠÐºÐ¾Ð ¾ÑĢÐ´
ÑĪÐ¸ ÑĪÑĮ
ĠÐºÐ¾ÑĢÐ¸ Ð´Ð¾ÑĢ
ĠÐ´Ð°Ð² Ð»ÐµÐ½Ð¸Ðµ
ĠÐ¢ ÐµÐ»
ÑĢÐ¾Ð¼ Ñĥ
ĠÐ²Ð¾Ð¹ÑĤ Ð
ĠÐ²Ð¾Ð¹ÑĤÐ ¸
k i
ĠÐ¿Ð¾Ð¼Ð¾Ð³ Ð°ÑİÑĤ
ĠÐ¶Ð¸Ð²Ñĳ Ñ
ĠÐ¶Ð¸Ð²ÑĳÑ Ĥ
ĠÐĿÐ¸Ð ¶Ð
ĠÐłÐ° ÑģÐ¿
ĠÐ¡ÑĤÐ¾Ð ¸
Ð¼ Ð°Ð¹
ĠÐ¿ÑĢÐµÐ´Ð¾ÑģÑĤÐ°Ð ²
5 9
u g
Ġ Ð¸Ð´Ñĥ
ĠÐºÐ¾Ð¼Ð¼ÐµÐ½ÑĤÐ° ÑĢÐ¸Ð¹
ĠÐ¾Ð ·Ð²Ñĥ
ÑĢÐµÑģÑ ĭ
» Ð¾Ð¶Ðµ
ĠÐ¾ÑĦÐ¾ÑĢÐ¼ Ð
ÑİÐ ¹
² Ð¿Ð¾ÑģÐ»ÐµÐ´ÑģÑĤÐ²Ð¸Ð¸
Ð ²Ð¿Ð¾ÑģÐ»ÐµÐ´ÑģÑĤÐ²Ð¸Ð¸
ĠÐĵ Ð¾ÑĤÐ¾Ð²
ĠÐĺ ÐĹ
ĠÐ¿ÑĥÑĤÐµÑĪÐµÑģÑĤÐ ²Ð¸Ðµ
ÐµÑģ Ñģ
ĠÐĳÐ° Ñ
ĠÐ´Ð¸ÑĢÐµ ÐºÑĤ
Ġ Ð¿ÑĥÐ´
ĠÐ¼ ÑĥÐ½Ð¸ÑĨÐ¸Ð¿
ÑĢÐ ³Ð¾
ĠÐ±ÐµÐ» ÑĭÑħ
ĠÐŃÐ» Ñ
ĠÐ´Ð¾Ð ¶Ð¸
³Ð° Ð»Ð°
ĠÑģÐ¾Ð²ÑĢÐµÐ¼ÐµÐ½ Ð½Ð¾Ð¹
ĠÐ²ÐµÑĢÑģ Ð
ĠÑģÐ¿ÐµÑĨÐ¸Ð°Ð» Ð¸ÑģÑĤÐ¾Ð²
ĠÐ½Ð°Ð¿ÑĢÐ°Ð² Ð»ÐµÐ½Ð¸Ñı
ĠÑģÐºÐ¾ÑĢÐ ¾ÑģÑĤÑĮÑİ
ĠÐ²ÐµÑĢÑģÐ ¸
ĠÐ½ÐµÐ·Ð°Ð¼ÐµÑĤ Ð½Ð¾
ĠÐ½Ð°ÑĩÐ¸ Ð½Ð°ÑĤÑĮ
ĠÐ±Ð¾ÑıÐ »ÑģÑı
Ð±Ð» Ñ
ĠÐĳ Ð°Ð
ĠÐĳÑĥÐ´ ÐµÐ¼
¾ÑĢÐ ¾Ð»
ĠÐ²ÑĭÐ±Ð¸ ÑĢÐ°ÑĤÑĮ
ĠÑĨÐµÐ» ÑĥÑİ
ot o
ĠÑģÐ¾Ð·Ð´ Ð°Ð²Ð°ÑĤÑĮ
ĠÐ¿Ð¾Ð´Ð ²Ð°Ð»
ĠÑģÐ¾ÑĨÐ¸Ð°Ð»ÑĮÐ ½Ð¾Ð¹
ĠÐ´ÐµÐ½ÑĮÐ ³Ð°Ð¼Ð¸
ĠÐ±ÑĢÐ¾ ÑģÐ¸Ð»ÑģÑı
ÑĤÐµÐ»ÑĮÐ½Ñ ĭ
ĠÑģÑĥÑīÐµÑģÑĤ Ð²ÑĥÑİÑĤ
ÑĢÐ¸ ÐºÐµ
ĠÐ»ÑİÐ±Ð¸Ð¼ Ð°
ĠÐ²ÑĭÐ½ÑĥÐ¶Ð´ ÐµÐ½
ĠÐ²ÑĭÐ¿Ð¾Ð»Ð½Ð¸ÑĤ Ñ
ĠÐ²ÑĭÐ¿Ð¾Ð»Ð½Ð¸ÑĤÑ Į
ĠÐºÐ½ÑıÐ ·Ñı
ÑĢÐ¾Ð²Ð°Ñ ı
Ð°Ðº Ñģ
ĠÐ¡ÑĤÐ¾Ð¸ Ñ
ĠÐ¡ÑĤÐ¾Ð¸Ñ Ĥ
ĠÐ°ÑįÑĢÐ¾Ð¿ Ð¾ÑĢÑĤ
ĠÐ½Ð¾Ð³ Ð¾Ð¹
ÑĪÐ¸Ð» Ñģ
ĮÐµÐ ¹
ĠÐĴÐ¾Ñģ ÑĤÐ¾
ÑĢÐ°Ð»ÑĮÐ ½ÑĭÐµ
ÑĪÐ¸Ð»Ñģ Ñ
ĠÐ´Ñĭ ÑĪÐ°ÑĤÑĮ
ĠÐ½Ð°ÐºÐ° Ð½ÑĥÐ½Ðµ
ĠÐ¿Ð¾Ð»Ð ½
ÑĪÐ¸Ð»ÑģÑ ı
Ð¾ÑĢÐ ¾Ðº
oÐ³ o
Ð±Ñĥ ÑĢÐ³
ĠÐ²Ð¾Ð·Ð ²ÑĢÐ°ÑĤ
ĠÐ¿Ð¾Ð² ÑĢÐµÐ¶Ð´
ÑĪÐ° Ð»Ð°ÑģÑĮ
in t
ĠÐ¶Ð¸Ð ²Ð¾
Ġb e
ĠÐ¿Ð¾Ð´Ð´ÐµÑĢÐ¶Ð ¸Ð²Ð°ÑĤÑĮ
o od
ĠÑĢÑĭÐ½ ÐºÐ°
ĠÐ¿ÑĢÐµÐ´Ð ¾ÑĤ
ĠÐĺ Ð¾Ð°Ð½
ĠÐ¿ÑĢÐµÐ´ Ð¼ÐµÑĤÑĭ
ĠÐ¿Ð¾ÑģÑĤ ÑĢÐ¾Ð
Ð¿ Ð¾Ð²Ð°
Ð±Ð ¸Ð²
ĠÐĿÐ° ÑĤÐ°Ð»ÑĮÑı
Ð ²Ð¾Ð²Ð°Ð»Ð°
ÐµÑĤÐµÑĢÐ ±ÑĥÑĢÐ³Ð°
ĠÑĤÐ¾ÑĤ ÑĩÐ°Ñģ
Ġ200 9
ÐµÑ ĩ
ĠÐ´Ð¾Ð±Ð°Ð ²Ð¸Ð»Ð°
ĠÐºÐ¾Ñģ Ð¼Ð¾Ñģ
ÑĪÐ ½Ð¸Ðº
ĠÐĴ ÐµÐ½Ðµ
Ð¸ÑĩÐ ½Ð°Ñı
ĠÐ§Ðµ ÑĢÑĤ
ĠÐ¿Ð¾Ðº ÑĢÐ°ÑģÐ
ĠÑįÑĤÐ°Ð ¶Ð°
ĠÐ±Ð¾Ð³ Ñĥ
ĠÐ£ Ð¸Ð»
ĠÑĪ ÑĤÐ°ÑĤ
ÐŁÐ¾ÑĤ Ð¾Ð¼Ñĥ
ı ÑİÑģÑĮ
Ð²Ðµ Ð´
ĠÐĿÐ°Ð ²Ðµ
ĠÐ¼Ð¸Ð½ Ð
Ð´ÐµÑģÑıÑĤÐ ¸
ĠÐºÐ°Ð½Ð´Ð¸ Ð´Ð°
ĠÑĢÐ°Ð· Ð´ÑĥÐ¼
ĠÐ¾ÑģÑĤÐ°ÑĤ Ðº
Ð´Ð¸ Ñİ
ĠÐ¿ÑĥÐ »Ðµ
· Ð²Ð°Ð»Ð¸
ĠÐ¾ÑģÑĤÐ°ÑĤÐº Ð
ĠÐ¾ÑģÑĤÐ°ÑĤÐºÐ ¸
Ð°Ðµ Ð¼Ð¾Ð³Ð¾
ĠÐ¿Ð¾Ð·Ð¸ ÑĨÐ¸Ñİ
¸Ð· Ð¼Ð°
ĠÐ¿Ð¾Ð¿ÑĢÐ¾ ÑģÐ¸Ð»Ð°
Ġ Ð¿ÑĥÑĤÐµÐ
ĠÐ¿Ð¾Ð½Ð°Ð´Ð¾Ð±Ð¸ ÑĤÑģÑı
Ð°Ñģ ÑĤÐ¾
ÑĩÐ¸ ÐºÐ°Ð¼Ð¸
ĠÐ²Ð¾Ð» Ñİ
Ðŀ ÑĤÐº
ĠÐ¿ÐµÑĢÐµÐ´ Ð°ÐµÑĤ
ÐĲÐĲÐĲÐĲ ÐĲÐĲÐĲÐĲ
Ðĸ Ðĺ
ĠÐ±Ðµ ÑĢÐµÐ¼ÐµÐ½
ÑĢÐ³Ð ¸
ÑħÐ¾ÑĢÐ¾ ÑĪÐ¾
¸ÑĤÐµ Ð»Ð¸
Ð ³ÐµÐ½Ð¸
»Ð¾Ð²Ð°Ñ Ĥ
ĠÐĺÐ »
ĠÐ¡ ÑĥÐ´Ñı
ĠÑĩÐµ ÑģÐ½
ĠÑģÐºÐ°Ð· Ðº
Ðĸ ÐĿÐŀ
ÑĢÑĮÐµ Ñ
ĠÐ¼Ð°Ð³ Ð¸Ð¸
ĠÑĥÐ ³Ð»Ð°
ÑĥÐ¼Ð ¸
ĠÐ´Ð ½Ð¾
ðŁİ Ī
ĠÐ¿ÑĢÐ¾ ÑħÐ¾Ð´Ð¸ÑĤÑĮ
Ġ Ð·Ð¾Ð½Ñĭ
ĠÑģÐºÐ°Ð·Ðº Ð
ĠÐĴÐ ¸ÑĤÐ°
ĠÐ¿Ð¾ÑĢÐ ¾Ð
ĠÑģÐºÐ°Ð·ÐºÐ ¸
ÑĢÐ°ÑģÑĤ Ð
ÑĢÐ°Ð »Ðµ
Ð ²Ð¾Ð»ÑĮÐ
ĠÐ¿Ð¾ÑģÐ¼Ð¾ÑĤ ÑĢÐ¸
ĠÐ¿Ð¾Ñģ ÑĤÐµ
ĠÐ¿ÑĢÐ¸Ð´ÑĥÐ¼ Ð°
ĠÐ¼Ð¸ Ð½Ðµ
ĠÑģÑĥÑīÐµÑģÑĤÐ²Ð¾Ð² Ð°Ð½Ð¸Ðµ
ĠÐ¼ÐµÐ½Ñı ÐµÑĤÑģÑı
ÑĢÑĥÐ ºÑĤ
Ð ½Ð¾ÑģÑĤÐµÐ¹
Ġâŀ ¡
ĠÐ±Ð¾ÐµÐ ²
²Ð»Ñı Ð»Ð¸ÑģÑĮ
ĠÐºÐ° ÑĢÐ°Ð½Ð´Ð°
ĠÐ±Ð¾Ðµ Ð²Ð¾Ð¹
ÐļÐ° ÐºÐ°Ñı
ĠÐ·ÐµÐ» Ñĳ
ĠÐ¿Ð¾Ð»Ð¸ ÑĨÐ¸Ñı
ĠÐ¿ÑĢÐ¸ Ð¶Ð¸Ð¼
ĠÐĺ Ð±Ð¾
ĠÐ½Ð°ÑģÑĤÐ¾Ñı ÑīÐ°Ñı
ĠÐ¿Ð°ÑĢÐº Ð¾Ð²
¸ÑģÑ ĤÐ¾Ð¼
Ġl a
ĠÐ»Ð¸ ÑħÐ¾
ĠÐ´ÐµÑĤ ÑģÐºÐ¸Ðµ
Ð»Ð»Ð ¸Ð³
ÑģÐ¾ ÑĢÐ°
ĠÑĥÑģÑĤÑĢÐ¾Ð¸ÑĤ Ñ
ĠÐ±ÑĥÐº Ð²Ñĭ
ĠâĿ¤ ï¸ı
ĠÑĢÐ°ÑģÑģÑĤÐ¾ÑıÐ ½Ð¸Ðµ
ĠÑĥÑģÑĤÑĢÐ¾Ð¸ÑĤÑ Į
ĠÑĦ Ð°Ð»ÑĮ
ĠÐ¿ÑĢÐ¸Ð´ÑĥÐ¼Ð° Ñ
ÑĢÐ¾Ð² Ð½Ð°
ĠÐ¿ÑĢÐ¸Ð´ÑĥÐ¼Ð°Ñ Ĥ
»Ð¸Ð ¶Ðµ
ĠÐļ Ð¾ÑģÑĤ
Ġ ÑıÑģÐ
»Ð¸Ñ Ĥ
ĠÑģÑĤÐ° ÑĢÐ°Ñı
ÑĩÑĥ Ñİ
ol d
ĠÐºÐ¾Ð½ Ð
Ð¥ Ð¾ÑĤÑı
ĠÐ¼ Ñĳ
ĠÐ¿Ð¾Ñģ ÑĭÐ¿
ĠÐ¿Ð¾ÑģÑĤÑĥÐ¿ Ð
20 16
ĠÐ¾Ð³ ÑĢÐ°Ð½Ð¸ÑĩÐ
ĠÐ¸Ð½ÑĤÐµÑĢÐµÑģÐ ½Ð¾Ðµ
ĠÐ® ÑĢÐ¸Ð¹
ĠÐ²ÐºÑĥÑģ Ð½Ð¾
ĠÑģÐ»Ñĥ ÑĩÐ°Ð¸
ĠÐ½Ð° ÑĩÐ°Ð»ÑģÑı
ĠÐ¿Ð¾ÑģÑĤÑĥÐ¿Ð ¸
âľ Į
ÐŁ Ð¾Ð·Ð´ÑĢÐ°Ð²Ð»ÑıÑİ
ĠÐ¿Ð»Ð¾Ñħ Ð¾Ð³Ð¾
ĠÑĢÑĥÐºÐ¾Ð²Ð¾Ð´ ÑģÑĤÐ²Ð¾Ð¼
ĠÐ¼Ð¾Ð» Ð¾ÑĤ
ĠÐ¾Ð±Ð¾Ð¹ Ñ
ĠÐ¾Ð±Ð¾Ð¹Ñ Ĥ
ĠÐ¿Ð¾ÑģÐ¼Ð¾ÑĤ ÑĢÐ¸Ð¼
ĠÐ²Ð¾Ð· ÑĢÐ°Ñģ
ĠÐ¼Ð¾Ñģ Ðº
ĠÐ¼ÐµÐ» ÐºÐ¸Ðµ
Ġ Ð³ÑĥÐ±Ð
ĠÐ½Ð°ÐºÐ° Ð·Ð°Ð½Ð¸Ðµ
ĠÐ²Ñģ Ð¿Ñĭ
ÑĢÑĮÐµÑ Ģ
ĠÐ¿ÑĢÐ¸Ð´ÑĥÐ¼Ð°ÑĤ Ñ
Ġ Ð»ÑĥÐ½
ĠÐ¿ÑĢÐ¸Ð´ÑĥÐ¼Ð°ÑĤÑ Į
ÐµÐ½Ð ½Ð¾ÑģÑĤÐ¸
ÑĩÐ¸Ð½ Ñĥ
ĠÐ³Ð¾ÑģÐ¿ Ð¾Ð´Ð°
ĠðŁ¤£ ðŁ¤£ðŁ¤£
ĠÐ½Ð°Ð¿Ð¸Ñģ Ð°Ð»Ð¸
² Ð¿ÑĢÐ°Ð
or y
Ñģ ÑĥÐ°
ĠÐ¾ÑĤ ÐºÐ°Ð·
ĠÑĦÐ¸Ð»ÑĮ Ð¼Ð¾Ð²
ÑĢÑĥÑ ī
ÐĿÐĺÐľÐĲ ÐĿÐĺÐķ
ĠÐ½Ð°Ð´Ð ¾Ð»Ð³Ð¾
ĠÐ´Ðµ Ðº
ĠÐ§ ÑĥÐ´
ÑıÐ² ÑĪÐ¸ÑģÑĮ
Ð¸Ð½ ÑĥÐ²
ĠÐ¼Ð°Ñģ ÑģÐ°
ĠÐ·Ð°Ðº ÑĢÑĭÑĤÑĮ
ĠÑħÐ¾Ð» Ð¾Ð´Ð½Ð¾Ð¹
ĠÐ¿ÑĢÐ¸Ð½ ÐµÑģÑĤÐ¸
ac e
ĠÐ²Ð»Ñİ Ð±Ð»ÐµÐ½
ĠÐ´ÐµÑĤ ÑģÐºÐ¾Ð¹
Ðľ Ðµ
ĠÑĤÑĢÐµ Ð½Ðµ
ÑĨÐ¸Ð¾Ð½ Ð½Ð°Ñı
ĠÐ¿Ð¾Ð´Ð ½Ð¸Ð¼Ð°
±Ñ Ģ
ĠÑģÐ¼Ð¾Ð¶Ðµ Ð¼
ĠÐ¿Ð¾Ð¿ÑĭÑĤÐ° Ð»Ð°ÑģÑĮ
ĠÐ»Ð¸ÑĤÐµÑĢÐ°ÑĤÑĥ ÑĢÑĭ
ĠÑħÐ ¸ÑĢÑĥ
ĠÑģÐ¾Ð±Ð¸ ÑĢÐ°ÑĤÑĮ
ĠÐ¼Ð°Ð³Ð ¸
Ð¸Ð¼Ð°Ñ ı
ĠÑģÐ²Ð¾Ð±Ð¾Ð´ Ð½Ð¾
ĠÑĥÑģ ÑĤÐ¾Ð¹
ĠÐ¸Ð·Ð ²Ð»Ðµ
ĠÐºÐ¾Ð¼Ð¼ÑĥÐ ½Ð¸ÐºÐ°
Ð ²Ð¿ÑĢÐ°Ð
ÑĢÐ°Ð ¹ÑĤÐµÑģÑĮ
ĠÐ¼Ð°Ð³Ð½Ð¸ Ñ
ĠÐ²ÑĭÐ²Ð¾Ð´ Ñ
ĠÐĿÐ°ÑģÑ Ĥ
ĠÐºÐ° ÑĢÑĤÐµ
Ñ ıÑĤÐ°
ĠÐ¢ Ð«
ĠÑģÑĤÐ°ÑĤ ÑĮÑı
ĠÐ´Ð²Ð¾ ÑĢÐµÑĨ
ĠÐ¶ÐµÐ»Ð° ÐµÑĤ
ĠÐ¾ÑĤÐ¾Ð· Ð²Ð°Ð»ÑģÑı
ĠÐ±ÐµÑģÐ¿Ð¾Ðº Ð¾Ð
Ð´Ðµ Ð½Ð¾
ĠÑĢÐ¾ÑģÑģÐ¸Ð¹ ÑģÐºÐ¾Ð³Ð¾
ĠÐ±ÑĭÑ ĤÐ¾Ð²
ĠÐ¿Ð¾Ð¼Ð ¸
ĠÐ½ÐµÐ¶Ðµ Ð»Ð¸
ĠÐ¿Ð¾Ð³ Ð¾Ð´Ð°
Ð ²Ð°Ð½Ð½Ð¾Ð¹
Ð°Ð»Ð¸ÑĤ Ñ
ÐĶ Ð«
Ð¸Ð½ ÑģÐºÐ¾Ð³Ð¾
ÐŃ Ñ
Ðľ ÐķÐĿ
ĠÐ´ÐµÐ»Ð° ÐµÑĤÐµ
ÑĨÐ¸Ð°Ð»ÑĮÐ ½Ð¾
Ð ³Ð»Ð°Ð
ĠÑĤÑĢÐ ¾Ð³
ĠÐ´ÐµÑģÑıÑĤ Ðº
ĠÐºÐ°Ð¿Ð¸ ÑĤÐ°Ð½Ð°
ĠÐ¿ÑĤ Ð¸ÑĨ
ĠÐ¿Ð¾Ð³Ð¸ Ð±Ð
Ð·Ð½Ð° Ñ
ĠÐºÐ¾ÑĢÐ¾ÑĤ ÐºÐ¾
Ñģ ÑĤÐ¾Ð»Ð¸
ĠÐ»Ð¸ ÑĩÐ½Ð¾Ð¹
ĠÐ´ÐµÑģÑıÑĤÐº Ð
ĠÐ´ÐµÑģÑıÑĤÐºÐ ¸
ĠÑĢÐµ ÐºÐµ
ĠÑĥÐ´Ð¾Ð²Ð¾Ð»ÑĮÑģÑ ĤÐ²Ð¸Ñı
ĠÐµÐ ¶ÐµÐ
ĠÐ´Ðµ Ð¿ÑĢÐµÑģ
ĠÐ²ÑĢÐ° ÑĩÐµÐ¹
ĠÑĤÐ¾Ð» Ðº
ĠÐ¿ÑĢÐ¾Ð² ÐµÑĢÐºÐ¸
ĠÑģÐ»ÐµÐ´ÑĥÑİ ÑīÐµÐ¼
Â» ).
ĠÐ½Ð°ÑħÐ¾Ð´Ð¸ Ð»Ð°ÑģÑĮ
ĠÐļ Ð»Ð°Ñģ
ĠÐ¼Ð¸Ð½Ð ¸
â łĢ
ĠÐ¿Ð¾ ÑĪÑĳÐ»
ĠÐ½ÐµÐ¿ ÑĢÐ°Ð²Ð¸Ð»ÑĮÐ½Ð¾
Ð¥Ð¾ÑĢÐ¾ ÑĪÐ¾
ĠÐ½Ðµ Ð²Ñĭ
ÐĲ Ð»Ðµ
Ð¾Ð» Ð¾Ð¼
8 3
ĠÐ¿ÑĢÐ¸ ÑĪÑĳÐ»
Ð¿Ð» Ð¾ÑĤÑĮ
ĠÐ¿Ð» Ð¾ÑģÐº
ĠÐ¿Ð¾Ð´ÑĢÑĥÐ³ Ð
ÐµÐ ²Ð°Ñı
R U
ÑĥÐ»ÑĮÐ ¿
ĠÐ¿Ð¾Ð´ÑĢÑĥÐ³Ð ¸
Ġ4 4
ĠÐ±Ð°Ð ·Ñĭ
Ġ Ð·Ð¾Ð
ĠÐºÐ°ÑĢÑĤ Ð¸Ð½ÐºÐ¸
ĠÐ±Ð»Ð°Ð ³Ð¾ÑĤ
ĠÐ¥Ð ¸
S t
²Ð°Ð¹ Ñģ
ĠÐŁÐµÑĤ ÑĢÐ°
ĠÑĢÐ¾Ð ·Ñĭ
Ġ &
ĠÐ²ÑĭÐ´ ÑĥÐ¼
ÑĤÐ°Ð»ÑĮÐ ½ÑĭÐ¹
ĠÑģÑĥÐ´ ÑĮÐ±Ñĥ
ĠÑģÐ»Ð¾Ð¶Ð ½Ð¾ÑģÑĤÐ¸
ĸÑ Ĥ
ÑĢÐ »Ð°Ð½
ĠÑģÐ¾ÑĨÐ¸Ð°Ð»ÑĮÐ ½ÑĭÑħ
Ð¸Ð² Ð½ÑĭÐ¼
ĠÑħÐ ¸Ñī
ĠÐ½Ð° Ð²ÑĭÐ
ĠÐ²ÑĭÐ¿ ÑĥÑģÑĤ
ĠÐ¡ Ð°Ð»
ĠÐ¾ÑģÐ½Ð¾Ð² Ð½ÑĭÐµ
ĠÐ½Ð°Ñģ ÑĤÐ¾ÑĢÐ¾Ð
Ð²Ñ ĤÑĢÐ°
ĠÐ¼Ð° Ð¼Ð¾Ð¹
ĠÐ²ÐµÑĢÑģÐ¸ Ñ
ĠÐ¿ÑĢÐµ ÑĤÐµÐ½
ĠÑĢÑĥÐºÐ¾Ð²Ð¾Ð´Ð¸ ÑĤÐµÐ»ÑĮ
¶Ð´Ð° ÑİÑĤÑģÑı
Į Ð´Ð°
ÐĽÑİ Ð´Ð¸
ic k
ĠÐ½Ð°Ð¿Ð¸ ÑĪÐ¸ÑĤÐµ
ĠÐ²ÐµÑĢÑģÐ¸Ñ ı
ĠÐļ Ð°Ð²
ĠÐ²ÑģÑı ÐºÐ¾Ð¹
ĠÐ²ÑĭÐ± ÑĢÐ°Ð»
ĠÐºÐ°Ð¼Ðµ ÑĢÑĭ
ÐŀÐ ¹
ÑĤÐ°ÐºÐ» Ñ
· ÑĢÐµÐ»Ð¸
ĠÐ¿Ð¾Ð» ÐºÐ°
Ð ±ÑĥÐ»ÑĮ
Â °
ĠÑģÑĥÐ ±ÑĬÐµÐºÑĤ
ÑĩÐ°Ð¹ ÑĤÐµ
ÑĢÐ¾Ð±Ð »Ðµ
ÑģÐ»ÑĥÐ¶Ð ±Ð°
ĠÐ¸Ñģ ÐºÐ°Ð»
ĠÐºÐ¾Ð¼Ð¿ Ð°Ð½Ð¸Ð¹
Ð´ ÑĢÐ¾
ĠÐ²Ðµ ÑģÐ½Ð¾Ð¹
ĠÑĥÑģÑĤÑĢÐ¾Ð¹ ÑģÑĤÐ²Ð°
ĠÐ¾ ÑģÐ»Ðµ
ÑĤÑĢÑĥÐ º
ĠÑģÐ¾Ð·Ð´ Ð°Ð»
ĠÐ°Ð¿ ÑĤÐµ
" )
ĠÑĢÐ°Ð· ÑĢÑĭÐ
ÑĩÑ ĮÐ
ĠÐ²Ðµ ÐºÐ¾Ð²
ĠÐ¸Ð·Ð±Ð¸ ÑĢÐ°
ĠÐ½ÐµÐ¾Ð±ÑħÐ¾Ð´Ð¸ Ð¼Ð¾ÑģÑĤÑĮ
Ð ·Ð¾Ð½Ðµ
½Ð¾ÑģÑĤÑ ıÐ¼
ĠÐ¸ÑģÐºÑĥÑģ ÑģÑĤÐ²Ð¾
ÑĤÑĢÐ° Ñģ
ĠÐŃ Ð¼Ð¸
. Â»
ĠÐļ ÑĥÐ±Ð
ĠÐ´Ð¾Ð³Ð° Ð´ÑĭÐ
ĠÐºÑĢÐ°ÑģÐ ¾ÑĤÑĥ
ĠÑģÐ½ÐµÐ ³Ð°
ĠÑĩÐµÐ¼Ð¿Ð ¸Ð¾Ð½
Ð ³ÑĢÐ°Ð½Ð¸
ÑĪÐ ½Ð¾Ðµ
20 18
ĠÑģÐµÑĢÐ´ ÑĨÐµÐ¼
ÐŁ ÑĢÐµÐ´Ð
ĠÐŃ Ð¼
· Ð¸Ð¼Ð°
ĠÐľÐµÐ´Ð ²Ðµ
ÑĤÐ¾ ÑĢÐ¸
ĠÑĥÑģÐ» ÑĭÑĪ
ĠÐ¾Ð´Ð¸Ð½ Ð¾Ðº
Ð°Ð»Ñ ĮÑĤ
ĠÐļÐ¾Ð½ Ñģ
ĠÑĥÑĩÐ°ÑģÑĤ Ð²Ð¾Ð²Ð°ÑĤÑĮ
ĠÑģÑĤÑĢÐµÐ» Ñ
ÑĦ Ð°Ð½
³ Ð°Ð»Ðµ
Ĥ Ð¾Ð³Ð¸
ĠÐĵÐ»Ð° Ð·Ð°
ĠÐ¼Ð¾ÑĢÐ ºÐ¾Ð²
ĠÐĴÐ»Ð°Ð´Ð¸Ð¼Ð¸ ÑĢÐ°
Ð ·ÑĢÐµÐ»Ð¸
ĠÐ¿ÐµÑĢÐµ ÑĨ
Ð»Ð¸Ð½Ñ ĭ
ĠÐ¼Ð¾Ð» Ð¾ÐºÐ°
ĠÑģÑĭÐ ½Ð¾Ð¼
ĠÐ·Ð°Ð³Ð¾Ð²Ð¾ ÑĢÐ¸Ð»
ĠÐºÐ¾Ð½ÑĤÑĢÐ ¾Ð»Ñı
ĠÑģÐ»Ñĥ ÑĩÐ¸ÑĤÑģÑı
ĠÐ±Ð¸ÑĤÑ Į
³ o
ĠÑģÐ»Ð¾Ð² Ñĥ
Ð½Ð°Ñ ĤÐ¾Ð»
n ov
ĠÐ´Ð¾Ð± ÑĢÐ¾Ð´
Ġ3 4
ÑĢÑı Ð»Ð¸
ĠÐ²Ð°ÑĢÐ¸ Ð°Ð½ÑĤÐ¾Ð²
ĠÐ²Ð¸ ÑĢÑĤ
ĠÐ±ÐµÐ· ÑĢÐ°Ð·
Ð¸Ð² Ð°Ð½Ð¸Ñı
ĠÑĤÐµ ÑĤÑĢÐ°Ð´
Ñ ĤÐ¾Ð³Ð¸
ĠÐ¼Ð° ÑģÐºÐ°
Ġ( "
m ail
ĠÐ¿Ð¾ÑģÑĤÑĥÐ¿ Ð¸Ð»
ĠÑģÐ¾Ð²Ðµ Ñī
ĠÐĴÐ¾Ð ·ÑĮ
Ġ ÑĩÑĥÑĤ
ĠÐ¾Ñħ ÑĢÐ°Ð½Ñĭ
ĠÐŀ Ð´Ð½Ð¾
ĠÐ´ÐµÐ»Ð° ÐµÐ¼
Ð´Ð ¶Ð¸
Ð²Ñĭ ÑĪÐµ
Ð¾Ð½ Ð½ÑĭÐ¹
ĠÐ¾ÑĤÐº Ð»Ð¸Ðº
ĠÐ»ÑĥÑĩ ÑĪÐµÐ³Ð¾
ĠÑĩÑ ĮÐ¸
Ġ Ð²Ð¿Ð¾ÑģÐ»ÐµÐ´ÑģÑĤÐ²Ð¸Ð¸
Ġ ÑĤÐ¾Ñģ
ĠÐ¿Ð¾Ð²ÐµÑĢÐ ½ÑĥÐ»Ð°ÑģÑĮ
ĠÐ»ÑĥÑĩ ÑĪÐ¸Ð¼
² Ð´
ĠÐ¼Ð°ÑĤ ÑĩÐµ
ĠÑģÐµ ÑĢÐ¸Ñı
ÑĭÑĪ ÐºÐ¾
µÑģÑ ĭ
ĠÐ¿ÑĢÐµÐ´Ð¿ ÑĢÐ¸ÑıÑĤÐ¸Ñı
ĠÐĲ Ðļ
ĠÑģÐ» Ð¾Ð¹
Ġ Ð¿ÐµÐ¿
ĠÐ¿Ð¾ÑģÑĤÑĥÐ¿Ð¸ Ñ
ĠÐ¿Ð¾ÑģÑĤÑĥÐ¿Ð¸Ñ Ĥ
Ð°Ð½Ñ Ģ
² Ð»Ð¸Ñı
ÐłÐ¾Ñģ ÑģÐ¸Ñı
Ð¼Ð µÑģÑı
ĠÐĶÐ¾Ð± Ð°Ð
ĠÑģÑĢÐµÐ´Ð ½ÐµÐ³Ð¾
ĠÐ¾ÑģÑĤÐ° ÑİÑĤÑģÑı
ĠÐ°Ð» Ð»Ðµ
ĠÐ¾Ð¿Ðµ ÑĢÐ°ÑĤÐ¸Ð²Ð
ĠÐ·Ð° Ð±Ð¾
ĠÐ¿Ð¾Ð·Ð¸ ÑĤÐ¸Ð²
ĠÐľ Ð§Ð¡
Ð »Ð¾Ð³Ð¸
ĠÐŁÑĢÐµÐ ¶Ð´Ðµ
ĠÑĥÐ¼Ðµ Ñİ
ĠÑĢÐµÐº Ð¾ÑĢÐ´
ĠÐ´Ð°Ð ²Ð°Ð»
ĠðŁĺ ı
ĠÐ±ÑĢÐ¾ ÑģÐ¸Ð»Ð°
ĠÑģÐµÐ· Ð¾Ð½Ðµ
eÐ½ Ñ
ĠÐ¸Ð·Ð¼ÐµÐ½ Ð¸Ð»Ð¾ÑģÑĮ
ĠÑģÑĤÑĢÐ°Ð½ Ð¸ÑĨÑĥ
ĠÐ²Ñ ı
ĠÑģÐ¾ ÑĨÐ¸
ĠÐ½Ð°ÑĪÐ¸ Ð¼Ð¸
ĠÐ¿Ð¾ÑģÐ»ÐµÐ´Ð ½Ð¸Ð¼
ĠÐ²Ð¾ÑģÐ¿Ð¸ ÑĤÐ°Ð½
ĠÐ¡ ÑĥÐ
ĠÐ±ÑĢÐ¾ ÑģÐ¸ÑĤÑĮ
Ð ²Ð»Ð¸Ñı
ĠÐķ Ñĳ
· Ð²Ð¾Ð½Ð¸ÑĤÑĮ
¸Ð ½Ð¾Ð¹
ÑģÐµ ÑĢÐ°
ĠÑĦÑĥÐ½Ðº ÑĨÐ¸Ð¸
ĠÐŁÑĢÐ¸Ð ³Ð¾ÑĤÐ¾Ð²
Â» !
¸ ÑĩÐºÐ¸
ĠðŁĶ ¹
âĢ ĭ
ĠÑģÑĢÐ¾Ðº Ð
ĠÑģÑĢÐ¾ÐºÐ ¸
¸Ð»Ð¸Ð ½
ĠÐ¾Ð³ÑĢÐ¾Ð¼ Ð½Ð¾Ð¹
Ġ Ð¸ÑĢÐ¾Ð½
ĠÐ¿ÑĢÐµÐ´Ð¿Ð¾ ÑĩÑĤ
ĠÐ½ÐµÐ½ ÑĥÐ¶Ð
ĠÐ¿Ð ¸Ð²Ð¾
ĠÑĢÐµÐ¶Ð¸Ð¼ Ð°
ĠÑĤÑıÐ ¶Ðº
ÑĢÑıÐ ²
Ð¸Ð² ÑĪÐ¸Ð¹ÑģÑı
ĠÐ¾Ðº Ð½Ð¾Ð¼
²Ð¾Ð´Ð¸ ÑĤÑģÑı
ĠÐĴÐ¾Ð· Ð¼Ð¾Ð
Ġ Ð»ÐµÐ½ÑĮ
ĠÐ¿ÑĢÐ¾Ð ºÐ°
ĠÐ³ÑĥÐ±Ðµ ÑĢÐ½Ð°
ĠÐ»Ð¸ Ð¼Ð¾Ð½
Ð°Ð ·ÑĭÐ
ĠÐ¸Ð³ÑĢÑĥ ÑĪÐºÐ¸
ÑıÐ ½Ð¸ÐµÐ¼
ÑĢÑįÐ ½
ĠÐ¼Ð½Ð¾Ð³ Ð¾Ð¼
ĠÐ´Ñĥ ÑĪÐ¾Ð¹
ĠÐŁ ÑĢÐ¾ÑĦ
ĠÑĢÑĥÐ±Ð» Ñ
ĠÐ½Ð°Ñģ ÑĤÑĢÐ¾Ð¹
ĠÐ¼Ð° Ñħ
ĠÐ¿ÑĢÐµÐ²Ð¾Ñģ ÑħÐ¾Ð´
Ð¾Ðº ÑĥÑģ
´ Ð°
»Ð¾Ð²Ð°ÑĤ Ñ
ÐµÐ»Ñı Ð±Ð¸Ð½
ĠÑĥÐ¼Ðµ ÑİÑĤ
Ð¿Ð¾Ð ºÐ¾Ð¹
ĠÐ¡ Ð¢
ĠÐ¾Ð ·Ð½Ð°ÐºÐ¾Ð¼
ĠÐ¿ÑĢÐ°ÐºÑĤÐ¸Ðº Ðµ
Ð ³Ð°Ð»Ðµ
ÑĳÐ ½Ð½Ð¾
ÐµÑĤ Ð¾Ð¼
ÐŁÐĽÐĲ Ð¢
ĠÐº ÑĢÑİ
Ġ Ð·ÑĢÐµÐ»Ð¸
ĠÑĦÐ°Ðº ÑĤÐ¸ÑĩÐµÑģÐºÐ¸
ÐĶ Ð¾ÑĢÐ¾Ð³Ð¸Ðµ
Ñģ Ð´Ð°Ð
ĠÐ¾ÑĪÐ¸Ð ±Ð°
ĠÐĶÐ¾Ð± ÑĢÐ¾Ðµ
ĠÐ¾ÑģÐ¾Ð ·Ð½Ð°Ð
ĠÑį Ð²Ð¾Ð»Ñİ
ÑĢÐ¾Ð½ Ñ
Ġ Ð²Ð¿ÑĢÐ°Ð
ĠÑĢÐ°Ñģ ÑģÑĤÐ°
ĠÑģÐ¾Ð³Ð»Ð° ÑģÐ¸Ð»Ð°ÑģÑĮ
a f
Ðº Ð»Ð¸
ĠÐ²Ð ¸Ñģ
ĠÐ¾Ð¿Ð° ÑģÐ½Ð¾
Ð´ÐµÐ»Ñ ĭ
T he
ĠÑģÐ¾Ð± ÑģÑĤÐ²ÐµÐ½Ð½ÑĭÐ¹
ÑĩÐ ½Ð¾ÑģÑĤÑĮÑİ
ĠÑĤÑĳ Ð¿Ð»
ĠÐ·Ð°ÑģÑĤÐ°Ð ²Ð»ÑıÐµÑĤ
Ġ Ð²Ð»Ð¸Ñı
ĠÐ±ÑĭÐ ²Ð°Ð»Ð¾
ĠÐ¨ Ðµ
ĠÐ¦ Ð²ÐµÑĤ
ĠÑĩÐµÐ»Ð¾Ð²ÐµÑĩÐµÑģÐº Ð¾Ð³Ð¾
ĠÐºÐ¾Ð¼ Ð¼ÐµÐ½
ĠÑĥÐ ±
ĠÑĥÐ¼Ð ¸ÑĢÐ°
ĠÑĨÐµÐ»Ð¸ ÐºÐ¾Ð¼
ĠÐ³ÑĥÐ ±Ð°Ð¼Ð¸
ĠÐ¿Ð¾Ð·Ð² Ð¾Ð½Ð¸ÑĤÑĮ
ÑĪ Ð°Ð»Ð¾
Ð¸Ð½Ð ½
ÑĢÐ ±Ð°Ð½
ÑģÑĤÑĢÐ¾Ðµ Ð
ĠÑģÑĤÑĢÐ°Ð½ Ð¸ÑĨÑĭ
ĠÐ½Ð°Ð¿ÑĢÑıÐ ³
ĠÐ¾ÑĤ Ð´Ð°Ð
ĠÐ´Ð¾Ðº ÑĤÐ¾ÑĢÐ°
Ð½Ðµ Ð½Ð°
»Ð¾Ð²Ð°ÑĤÑ Į
ĠÑĪÐµ Ð¿
ĠÐºÐ¾Ð» Ð¾Ð´
ĠÐĳ Ð°Ð¹
ÐµÐ· Ð¶
ĠÐ²ÑģÑĤÑĢÐµÑĤÐ¸ÑĤ Ñ
ĠÐ¾ÑĤÐ¿ÑĥÑģ Ðº
Į Ð½Ð°
ĠÐ²ÑģÑĤÑĢÐµÑĤÐ¸ÑĤÑ Į
ĠÐ»Ð¸ Ð±Ðµ
Ð²Ð° Ð»Ð°ÑģÑĮ
20 17
» ÑĮÐ½Ð°Ñı
ÑĢÐ°Ð ²Ð
ÑģÐ¸ ÑıÐ½
ĠÐ¿ÑıÑĤ Ð½Ð°Ð´ÑĨÐ°ÑĤÑĮ
ĠÐ½Ð°ÑĩÐ ½ÐµÑĤ
r ou
ĠÐ¿Ð¾Ð» Ð½ÑĭÐ¼
ĠÐļÐ°ÑĤÑ ı
ĠÐ¿Ð¾Ðº Ð¾Ñı
ĠÑģÑĤÐµÐº Ð»ÑıÐ½
ÑĢÐµ ÑĤÑĥ
ÑĥÐ» Ñĥ
ÑĢÐµÐ»Ñ Į
Ð¡ Ð£
ĠÑĪÐ¾Ñģ ÑģÐµ
ÐĶÐ ¸
Ð°Ð»Ð¸ÑĤÑ Į
O S
Ã «
ĠÑģÐµÑĢÑĤÐ¸ ÑĦÐ¸ÐºÐ°
Ðľ Ð«
Ñ ıÑģ
ĠÐ¿ÐµÑĢÐµÐ ³Ð¾Ð²Ð¾ÑĢÑĭ
ÑĢÑĥÐ ¶Ðµ
ĠÐ¸Ð½ÑĤÐµ ÑĢÐµÑģÑĭ
ĠÐľ Ðķ
ĠÐ½ÐµÐ¾Ð±ÑħÐ¾Ð´Ð¸Ð¼ ÑĭÐµ
ĠÐ¼ÑĥÑģ Ð¾ÑĢ
Ġ ÑģÑĤÐ¾Ð»Ð¸
ĠÑģÐ²Ñı Ð·Ð°Ð½Ñĭ
ÐĺÐ½ ÑĤÐµÑĢÐµÑģÐ½Ð¾
ĠÐ´ÑĥÑĪÐµ Ð²Ð
Ð»Ð¸ Ð²Ð°Ñı
ĠÐ¿Ð¾ÑģÐ»ÐµÐ´Ð ½ÑıÑı
. ),
Ð¼Ðµ ÑĢÑĭ
ÑģÐµ Ð»Ð°
ĠÐ»ÐµÐ ¶Ð°Ð»Ð¸
ĠÑģÐ »Ð¸Ð²
Ð »ÑĭÐµ
»Ð°Ð·Ð ½
m er
Ġ Ð»ÑĭÐ
ĠÐ¿ÑĢÐ¾Ð³ ÑĢÐµÑģ
ĠÐ¿ÑĤ Ð¸ÑĨÑĭ
ĠÐĵ Ð°Ð»
²ÑģÑ ĤÐ²ÐµÐ½
ĠÐ¶Ð¸Ð²Ð¾ÑĤ Ð½ÑĭÐµ
Ð°ÐµÐ¼ ÑĭÐµ
ĠÑĤÑĢÐ ¾ÑĤ
ĠÑģÑĢÐ°Ð ²Ð½Ð¸Ð
ÐµÐ· Ð´
ĠÐ´Ð ½Ðµ
ĠÐ¿ÑĢÐµÐ´ÑģÑĤÐ°Ð ²Ð»ÑıÐ»
ĠÐ¿ÐµÑĢÐµ ÑģÑĤÐ°Ð
ĠÐ·Ð¾Ð»Ð¾ÑĤ Ð¾
ĠÐ¾ÑĤ ÑģÑĤÐ°
» Ð¾Ð¿Ð°
ĠÐ¾Ð·Ðµ ÑĢÐ°
Ð© Ðĺ
ĠÑħÐ¾Ð·Ñı ÐµÐ²
ĠÑģÑĤÑĥÐ´ ÐµÐ½ÑĤ
Ñģ ÑĥÐµÑĤ
Ð½Ð°Ð ²Ð¸Ð¶Ñĥ
Ð¦Ðĺ Ð¯
ĠÑĥÑģÐ »ÑĥÐ
ĠÐľÐ° ÑĤÐµÑĢÐ¸
ĠÐºÐ ²Ð°Ð»Ð¸
ÐĺÐ¢ ÐĲ
Ð´ ÑĥÑİ
ĠÐ£ Ð´Ð°ÑĩÐ¸
ĠðŁĮ ¸
ĠÑģÑĩÐ°ÑģÑĤ Ð»Ð¸Ð²ÑĭÐ¼
ĠÑĢÐ°Ð· Ð´ÐµÐ»
ĠÐ¿ÐµÑĢÐµ ÑĩÐ¸
ĠÐŀ Ð¿Ð»Ð°ÑĤÐ°
½Ð¾Ð¼ Ð¾
ĠÐ¿ÑĢÐ¸Ð³Ð¾ÑĤÐ¾Ð² Ð»ÐµÐ½Ð¸Ñı
Ġ ÑĢÐ¸Ð¼
ĠÑĢÐµÐ·ÑĥÐ»ÑĮ ÑĤÐ°ÑĤÐ¾Ð²
Ð ²Ð¸Ð»
ĠðŁĺ İ
ĠÑģÐ¿ÐµÑĨÐ¸Ð°Ð» Ð¸ÑģÑĤÑĭ
ĠÐºÑĢÐ°ÑģÐ¸Ð² Ð¾Ð¹
ĠÐ¸ÑģÐ¿Ð¾Ð»ÑĮÐ· ÑĥÐµÑĤÑģÑı
ĠÐ¿Ð ¸Ð²Ð°
²Ð»Ñı Ð»Ð°
Ðº Ð¾Ñģ
ĠÐ¸Ð½ Ð´
ĠÐ¿ÑĢÐ¾Ð´ Ð°Ð¶Ðµ
ĠÐ»ÑİÐ±Ð¸Ð¼Ð ¾Ð³Ð¾
ĠÐļ ÑįÑĤ
ĠÐĵ Ð¾Ð½
ĠÐ¸Ð· Ñ
ĠÐºÑĢÑĥÐ¿ Ð½ÑĭÐµ
ĠÐ²ÑĭÑıÑģÐ½ Ð¸Ð»Ð¾ÑģÑĮ
ĠÐ½Ð°ÑģÐµ Ð»ÐµÐ½Ð¸Ðµ
ĠÐ¿ÐµÑĢÐ²Ð¾Ð ½Ð°
ĠÐ³ÐµÐ½Ðµ ÑĢÐ°Ð»Ð°
ĠÐ¿Ð¾ÑıÐ² Ð»ÐµÐ½Ð¸Ñı
Ġ5 5
Ñĳ Ð¶Ð
ĠÐ¿ÑĢÐµÐ´ Ð¼Ðµ
Ð¸Ð½Ð ³Ðµ
ĠÐ´Ð° Ð´ÑĥÑĤ
Ð´ÑĢÑĥÐ³ Ð¾Ð¼Ñĥ
is s
ĠÐ·Ð° Ð¼ÐµÐ½Ð¸ÑĤÑĮ
Ð ½ÑĥÑĤÑĮÑģÑı
Ðŀ Ðº
8 1
p ub
ĠÐĳ ÐķÐĹ
ĠÐ²Ñĭ ÑģÑĤÑĢÐµÐ»
Ð´Ð ¾ÑĢÐ
Ð¾Ð¼Ñ ĭ
ĠÐ±ÐµÐ» Ð¾Ð³Ð¾
ÐµÑħ Ð°Ð»Ð¸
Ġ ÑģÐ´Ð°Ð
ĠÐ¾ÑĢÐ³Ð°Ð½Ð¸Ð·Ð° ÑĨÐ¸Ñı
ĠÐ¿ÑĢÐ¾ÑĨÐµÐ´Ñĥ ÑĢÑĭ
Ð ·Ð²Ð¾Ð½Ð¸ÑĤÑĮ
ĠÐ¿ÑĢÐ¸Ð½ ÑıÐ»Ð°
ÑĪÐ ¾Ð½
ĠÐ½Ðµ ÑĢÐ°Ð·
ÐŃÑ Ĥ
Ð°Ð½ ÐºÐ°
ĠÐ¾ÑĤÐ´ÐµÐ»ÑĮÐ ½ÑĭÑħ
ĠÐ¿Ð¾ÑģÑĤÐµÐ» Ñ
ĠÐĶÐ¾Ð½ ÐµÑĨ
ĠÐ¦ Ðµ
ĠÐ½Ð°Ð´Ðµ ÑıÑĤÑĮÑģÑı
ĠÐ¿Ð¾ ÑĪÐ»Ð¾
ĠÐ°Ð³ÐµÐ½ ÑĤÑģÑĤÐ²Ð°
ÑĩÐ ¸Ð²Ð°ÑİÑĤ
¸ Ð±ÐµÐ»Ð¸
Ð ¸Ð±ÐµÐ»Ð¸
ĠÐ¿Ð¾ÑģÑĤÐµÐ»Ñ Į
ÑĢÑ ĢÑĥÐ
ĠÑĤÑĢÐµ Ð½ÐµÑĢ
ĠÐ¸Ð½ÑĤÐµÑĢÐµÑģÐ ½ÑĭÐµ
ĠÐ³ÐµÑĢÐ ¾Ñı
ĠÐ¼ÑĥÐ¶ ÑĩÐ¸Ð½Ð¾Ð¹
ĠÐŁ ÑĢÐ°Ð²
ĠÐĹÐ½Ð° Ñİ
¾ÑĢÐ¾Ð ºÐ°
ĠÐ½Ð° Ð»Ð°
Ð¸ÐºÐ° Ð¼
ĠÐº Ð¾Ð¹
±ÑĭÑĤ Ñ
ĠÐ¾Ð³Ð ¾ÑĢÐ¾Ð´
ÑĢÐ°Ð½ Ð¶Ðµ
ĠÐ¾ÑģÐ½Ð¾Ð² Ð°Ð½Ð¸Ð¸
ĠÐ¿ÐµÑĢÐµ ÑħÐ²Ð°ÑĤ
¾Ð¿ Ð°
ĠÑģÐ¸Ð»ÑĮÐ ½ÑĭÐµ
Ġ Ð·Ð»Ð¾Ð±Ð
Ðĺ ÑģÑĤÐ¾
Ġ ÑģÑĤÑĢÐµÐ
ĠÐ¢ ÑĢÐµÐ±Ð¾Ð²
ĠÐ¾Ð² Ð»Ð°
³ Ð¸Ð±ÐµÐ»Ð¸
Ð ³Ð¸Ð±ÐµÐ»Ð¸
ĠÑĤÐ²ÐµÑĢÐ´ Ð¾
ĠÐŁÐ¾Ð ¿ÑĢÐ¾Ð±
ĠÑģÐ¸Ð ¶Ñĥ
ĠÐ´Ð°Ð ²Ð
Ñ £
ÑĥÑĤ ÑĮÑģÑı
ov e
ĠÐ¾Ð³ Ð½ÐµÐ¼
ĠÐ¿Ð° ÑĢÐ°Ð»Ð»ÐµÐ
Ðĸ ÐµÐ½
¶Ð ¸Ð²Ð°ÑİÑĤ
Ð¸Ð ²Ð¾
ĠÐłÑĥÑģ Ð
ÑīÐ° ÑİÑģÑĮ
ĠÐŁ ÑĢÐ¾ÑģÑĤÐ¸
ĠÑįÐºÑģÐºÑĥ ÑĢÑģ
Ð´Ð¾Ð¼ Ð°
ĠÐŁ ÐµÐ½
ĠÐ¾ÑģÐ¾Ð±Ð ¾Ð³Ð¾
ĠÑĢÐµ ÑĦÐ¾ÑĢÐ¼
l ine
¸ ÑĪÐµ
ĠÑĦÐ°Ðº ÑĥÐ»ÑĮ
if e
ĠÐ·Ð°ÑħÐ¾ ÑĩÐµÑĤ
ÑĢÐ¸ Ð¶Ðµ
ĠÑģÑĤÑĥÐ´ Ð¸Ð¸
Ġ Ð³ÐµÐ½Ð¸
Ð´Ð ¾Ð½Ð°
ĠÑĦ Ð¸Ð»Ñ
ĠÐ¿Ð¸ÐºÐ° Ð±Ñĥ
ĠÐľÑĥÐ¶ ÑĩÐ¸Ð½Ð°
ĠÑĢÐµÐ°Ð»Ð¸ Ð·Ð°ÑĨÐ¸Ð¸
ĠÑĤÐµÑħ Ð½Ð¸Ðº
ÑĤÐµ ÑĢÐ¾
ĠÐ²ÑĭÑģÐ¾Ðº Ð¸Ðµ
Ð¾Ð»ÑĮÐ ½ÑĭÐ¹
ĠÐĶ ÑĢÐ°Ðº
ÐµÑĢ ÑĤÐ°
ĠÐ»ÑİÐ±Ð¸Ð¼Ð° Ñ
Ð°Ð· Ð
ĠÐ»Ð¾Ð² Ð
ĠÐ»ÑİÐ±Ð¸Ð¼Ð°Ñ ı
Ġ ÑĤÐ¸Ð¿Ð¾
Ñ ĮÐ´Ð°
½ ÑıÐº
ĠÑĤÑĳ Ð¼Ð
ĠÑįÐºÐ¾Ð½Ð¾Ð¼ Ð¸ÐºÐ¸
Ð´Ð ·
ĠÐ¾Ð¿ ÑĥÑģÐºÐ°
ĠÐºÑĢÑĥÐ³ Ñĥ
ĠÐ¿Ð¾Ð´ÐµÐ»Ð¸ ÑĤÑĮÑģÑı
ĠÑĨÐ ²ÐµÑĤÐ¾
ĠÐ¿ÑĢÐ¾Ð²Ðµ Ð´ÐµÐ½
Ð¸Ðº Ñģ
ĠÑĥÐ½Ð¸ÑĩÑĤ Ð¾Ð¶Ð¸ÑĤÑĮ
Ġ Ð³Ð¸Ð±ÐµÐ»Ð¸
ĠÐ´ÐµÐ»Ð° Ñħ
ĠÐ¿Ð»Ð°Ð½Ðµ ÑĤÐµ
ĠÑĢÑĥÐ ¼
Ġ Ð³Ð»Ð°Ð
ÐĴÐ¾Ð ¾Ð±ÑīÐµ
ĠÐ¸Ð½ÑģÑĤÐ¸Ð½ ÐºÑĤ
ĠÐ¿Ð¾Ð ¾
ĠÐļ Ð£
ĠÑĩÐµ ÑĢÑĤÑĭ
Ð±Ð ¾Ðµ
Ðļ Ð°Ð¶Ð´
ĠÐ¶ÐµÐ»Ð° ÑİÑīÐ¸Ñħ
ĠÐ¾Ð± ÑĢÐ°Ð·Ð°
ĠÐ·Ð° ÑģÐ»ÑĥÐ
ĠÐłÑĥÑģÐ ¸
Ġ Ð»Ð¾Ð¿
ĠÐ¿Ð¾Ð¼Ð½Ð¸ÑĤ Ñ
ĠÐ¿Ð¾Ð¼Ð½Ð¸ÑĤÑ Į
ðŁĮ· ðŁĮ·
ĠÐ²Ñĭ ÑģÐ»Ñĥ
ĠÐ·Ð¾Ð»Ð¾ÑĤ Ð¾Ð¹
ĠÐ¿Ð¾Ð¿ ÑĢÐ°Ð
Ġ Ð·Ð¾Ð½Ðµ
ÑıÑĤ Ð¸Ðµ
ĠÐ²Ð¾ÑģÐ¿Ð¾Ð¼ Ð¸Ð½Ð°Ð
Ð¾ÑĢÐ ½ÑĭÐ¹
ĠÐ»Ð¸ Ñ
ĠÐ¿ÑĢÐµ Ñģ
Ð¸Ð½Ð° Ð¼Ð¸
ĠÐ¿ÑĢÐ¾ÑĪÐ» Ð¾Ð¹
ĠÑĤÐ°Ð¹Ð ½
... "
ĠÐ¾Ð±Ð »Ð¸
ĠÐĽ Ðĺ
ĠÐ¼ÑĥÐ¶Ð ¸ÐºÐ¸
ÐºÐ»Ð°Ñģ Ñģ
ÐµÑĢÐ ³
Ð ½ÐµÑģÑĤÐ¸
ĠÐ¿Ðµ ÑĩÐ°Ð»ÑĮÐ
ĠÐ¿ÑĢÐ°Ð·Ð´Ð ½Ð¸ÐºÐ°
ĠÐĹÐ°Ð¿ Ð°Ð´Ð
ĠÑĤÑĢÐ°Ð½ ÑģÐ¿Ð¾ÑĢÑĤÐ°
ĠÐ°ÐºÐºÑĥ ÑĢÐ°ÑĤ
ĠÐ²ÐµÐ»Ð¸ ÐºÐ¾Ð³Ð¾
ĠÐºÑĢÐµÑģ Ð»Ð°
ĠÐ²ÑĭÑģÐ¾Ðº Ð¾Ð³Ð¾
Ġ com
ĠÐ° Ð¼Ð
ÑĤÐµ Ð»Ðµ
ÐµÑĢÐ ºÐ°
ĠÐ¿Ð¾Ð»ÑĥÑĩÐ¸ ÑĤÐµ
ÑĪÐº Ð¾Ð²
ĠÑĩÑĥÐ²ÑģÑĤ Ð²Ð¸
ĠÑģÐ»ÑĥÐ¶Ð ¸Ð»
Ð»Ð°Ð½Ð¸ Ñ
ÑģÐ µÑģÑĤ
ĠÐ¿ÑĢÐ¾Ð¸Ð·Ð²Ðµ Ð´ÐµÐ½Ð¸Ñı
ÐĽ Ðµ
ÑĪÐ¸ ÑĤÑģÑı
Ð ¸ÑĪÐµ
ĠÐ¡ Ð»Ð¸ÑĪÐºÐ¾Ð¼
ÐµÐ² Ð½Ð°
ĠÐ¼ ÑĥÐºÐ¸
ĠÐŁÑĥÑĤ Ð¸Ð½Ð°
Ð²Ð° Ñİ
ĠÑĥÐ »Ð¾Ð²
Ð¸ÑĢÐ¾Ð² Ð°Ð½Ð½ÑĭÐ¹
Ð¾Ð±Ð ±Ð¸
ĠÑĥ ÑĩÐ¸ÑĤÑĮ
ĠÐľ ÐµÑĤ
= )
Ġâļ ł
ĸÐ ¹
ĠÐ¿Ð¾Ð½ÑıÑĤ Ð¸Ðµ
ĠðŁĺ ĺ
ĠÐ³Ð¾ÑģÑĥÐ´Ð°ÑĢÑģÑĤÐ²ÐµÐ½Ð ½Ð¾Ð¹
ĠÑģÐºÐ¾Ð² Ð¾ÑĢÐ¾Ð´
ĠÐ»Ñİ Ð±ÐµÐ·
Ð·Ð° Ð¼
ĠÐ¾Ð¿ Ð¿Ð¾Ð·Ð¸
ĠÑĢÐ°Ñģ ÑģÑĤÐ°Ð
ĠÐ¶Ð´ ÐµÐ¼
Ĥ ÑĥÐ»Ð°
ĠÐ²ÐµÑĢÐ ½ÐµÑĤÑģÑı
ÑīÐ° Ñħ
ĠÐºÑĥÐ¿ Ð¸Ð»Ð°
ÑĤÐ° ÑĤÐ°
ĠÑģÐ µÑģÑĤÑĮ
ÑĩÐµ ÑĢÐ¾Ð¼
ÑĢÑĮ ÐºÐ¾Ð²
Ġ Ð±Ð°Ð¹
ĠÐŁ ÐłÐķ
¾Ð± Ñī
ĠÐłÐµ ÑģÐ¿ÑĥÐ±Ð»Ð¸ÐºÐ¸
ĠÑĩÑĢÐµÐ·Ð²Ñĭ ÑĩÐ°Ð¹Ð½Ð¾
Ð¿ ÑĥÐ»Ñı
ĠÐ½Ð°ÑģÑĤÐ¾ÑıÑī ÐµÐ³Ð¾
ÑĢÐµ Ðµ
ĠÐĳ ÐķÐ¡
ĠÐ¶ÑĥÑĢÐ½Ð° Ð»Ð¸ÑģÑĤÐ°
ĠÐºÑĥÑħÐ½ Ð
Ð½Ð°Ñ ĤÐ¾Ð¼
Ð¾Ð½ Ð¸Ð¸
½Ð¾Ð²Ð°Ñ Ĥ
ÑĩÐ¸Ð²Ð° ÑĤÑĮÑģÑı
ĠÐºÑĥÑħÐ½Ð ¸
ĠÐ¡ Ð¸Ð»ÑĮÐ
ÑĤÑĢÑĥÐ´ Ð
ĠÑĤÑıÐ¶ ÑĳÐ»
ÑĥÐ ½Ð¾Ð²
»Ð µÑģ
ĠÑį Ð²Ð°Ðº
¾Ð¾Ð ¾Ð¾Ð
ĠÑģÐ¾Ðº ÑĢÐ¾Ð²Ð¸
ĠÐĵÐ¾Ð» Ð¾Ñģ
ÑıÑ ıÑģÑĮ
ĠÑģÐ¾Ð² ÐµÑĤÑĭ
Ð»Ð¸ Ð¿
ĠÐ°Ð²Ñ Ĥ
ĠÐ¿ÑĢÐ¾Ð½Ð ·
Ĥ Ð¸Ð¿Ð¸
ĠÐ¿Ð¾Ð´Ð½ ÑıÑĤÑĮÑģÑı
ĠÑģÐ¼ÐµÑĢÑĤ ÑĮÑİ
ĠÐĳ ÑĭÑĤÑĮ
Ð¼Ð ºÐ°
Ġ Ð¿Ð»Ð¸
ĠÑĩÑĤ o
i ya
ÐŁ ÑĥÑģÑĤÑĮ
ĠÐŁ Ð¾ÑģÐºÐ¾Ð»ÑĮÐºÑĥ
ĠÐĳÐµ Ð»Ð¾ÑĢÑĥÑģ
Ðĺ ÑĤÐ°Ðº
Ñ ĤÐ¸Ð¿Ð¸
³ Ð¾ÑĢÐ¼
ĠÑĥÐ·Ð½Ð° ÐµÑĤ
Ð¸ÐºÐ° Ð
Ġ Ð¸Ð½Ðµ
²ÑĥÑ ģ
ĠÐ¿Ð¾Ð´ Ð»Ð¸Ð½
ĠÐ¿ÑĢÐ¸ÑĩÐ¸Ð½Ð° Ð¼
ĠÐ¾Ð´Ð½Ð¾Ð ·Ð½Ð°
ĠÑĦÐ¸Ð³Ñĥ ÑĢÐ°
ĠÑģÐ²ÐµÐ ¶Ðµ
ĠÐ°Ð ³Ð°
ĠÐ¶ÐµÐ»ÐµÐ· Ð½Ð¾Ð´Ð¾ÑĢÐ¾Ð
Ð ·Ð¸Ð¼Ð°
Ð¿Ð¾Ð ¿
ĠÑĩÐµÐ ¹
ĠÑģÐµÐ³Ð¾Ð´Ð½Ñı ÑĪÐ½Ð¸Ð¹
Ð¾Ð»Ð¸ÑĤ Ñ
ĠÑĢÐµÐ°Ðº ÑĨÐ¸Ð¸
Ģ a
ÑĢÑĭ Ñģ
ĠÐ¾Ð¶Ð¸ Ð´Ð°Ð½Ð¸Ñı
ĠÐ²ÑĭÐ²Ð¾Ð´Ñ ĭ
Ð»Ð°ÑĤÐ¸ Ñ
Ġ Ð»Ð¾Ð³Ð¸
ĠÐ»ÑİÐ±ÑĭÐ ¼
ĠÑģÐ¾Ð± ÑĢÐ°Ð»
± ÑĥÐ½
ĠÐ¾ÑĤÐ¿ÑĢÐ°Ð ²Ð¸ÑĤÑĮÑģÑı
ĠÐ¿Ð»Ð°ÑģÑĤ Ð¸ÐºÐ¾Ð²
ĠÐŀ ÐºÐ°
ÑģÐ ½ÐµÐ
ĠÐ²ÑģÑĳ Ð¼
ĠÐ±Ð¾Ð»ÑĮ ÑĪÐ¾Ð¼
ĠÑħ Ð¼ÑĭÐº
ĠÐºÐ¾Ð¼ Ð¸ÑĤÐµÑĤÐ°
ĠÐ¿Ð¾Ð½ ÑĢÐ°Ð²Ð¸ÑĤÑģÑı
ĠÐ¾ÑģÑĤÐ° Ð½Ð°Ð²Ð»Ð¸Ð
ĠÑĥÑģÑĤÑĢÐ°Ð ¸Ð²Ð°ÐµÑĤ
ĠðŁ¤ ·
ĠÐ¾ÐºÑĢÑĥÐ¶Ð° ÑİÑīÐ¸Ñħ
ĠÐ»Ð°Ð³Ðµ ÑĢÑĮ
ĠÑĢÐ¾ÑģÑģÐ¸Ð¹ ÑģÐºÐ¾Ð¹
ĠÐĲ Ð±Ð
±ÑĭÑĤÑ Į
Ð°Ð»Ðµ ÐºÑĥ
ĠÐ¶ÑĥÑĢÐ½Ð° Ð»Ð¸ÑģÑĤ
ĠÐ¾Ð³ Ð¾ÑĢ
ÑĪÐ µÑģ
Ġ Ð³Ð°Ð»
ĠÐ¿Ð¾ÑħÐ¾Ð´ Ñĥ
ĠÑĢÐ°Ð·ÑĢÐµ ÑĪÐµÐ½Ð¸Ñı
ĠÐºÐ»Ñİ ÑĩÐ¸
ĠÑĦ ÐµÐ¹
ĠÐľ Ð¸Ð»
ĠÐĺ ÑīÑĥ
Ġ Ð³Ð°Ð»Ðµ
ĠÑįÐ»ÐµÐºÑĤ ÑĢÐ¸ÑĩÐµÑģÐº
¶Ð°Ñ Ģ
ĠÑĥÑģÑĤÑĢÐ¾Ð¹ ÑģÑĤÐ²Ð¾
Ġ ÑĢÑĥÐ³
ÑģÐ»ÐµÐ ½Ð½Ð¾
Ð§ ÐµÐ»Ð¾Ð²Ðµ
ĠÐ·Ð½Ð°ÐºÐ¾Ð¼ ÑĭÐµ
Ð½Ð°Ð ½Ð¸Ðµ
ĠÐ²Ð¾Ð·Ð²ÑĢÐ° ÑīÐ°ÑĤÑĮÑģÑı
ĠÑģÐ¾Ð±ÑĭÑĤ Ð¸Ðµ
Ġ194 1
Ñ ĤÑĥÐ»Ð°
Ð»Ð°ÑĤÐ¸Ñ Ĥ
ĠÐ¾Ð±Ñĭ ÑĩÐ½Ð¾Ð¹
ÑĢÑĥÑ ĤÐ¾
ĠÐŁÑĢÐµÐ´Ð ¿
Ĥ ÑıÐ½ÐµÑĤ
ĠÑĢÑĭÐ ±Ñĭ
ĠÑģÐ¾Ð²ÑĢÐµÐ¼ÐµÐ½ Ð½ÑĭÑħ
³ Ð¾Ð¹
ĠÐ¾ÑģÑĤÐ°Ð ²Ð°Ð»ÑģÑı
ĠÐ¿ÑĢÐµÐ´ ÑģÐºÐ°
ĠÐ¿Ð¾Ð´ Ð±Ð¸
ÐµÐ²Ð¾ ÑĩÐºÐ°
ÑģÐ¿ÑĢÐ°Ð ²ÐµÐ´Ð
Ð´ÐµÐ½ ÑĤÐ°
ĠÐ¼ÑĥÐ ¶Ñĥ
ĠÐ¶Ð¸Ð²ÑĥÑ ī
ĠÐ¿ÑĢÐ¾Ð¿ ÑĥÑģÑĤ
ÑĢÐµ ÑĤÑĮÑģÑı
½Ð° Ð
ĠÐ¿ÑĢÐµÐ¼ ÑĮÐµÑĢ
ĠÐ¿Ð¾ÐºÐ¸Ð½ ÑĥÑĤÑĮ
ĠÐŁ ÑĢÐ¾Ñģ
ĠÑĢÐµÑģÑĤÐ¾ ÑĢÐ°Ð½
ÑĩÐ¸Ð ²ÑĭÐ¹
ĠÐºÐ¾Ð½Ñ ı
ĠÐĿÐ° Ð´
ĠÑĤÐ¾ ÑĢÑĤ
ĠÑģÑĩÐ¸ÑĤÐ° Ð»Ð¸
ĠÐ±Ð¾Ð»ÑĮ ÑĪÐ¸Ð¼Ð¸
or ld
Ñģ ÑħÐ¾Ð´Ð¸ÑĤÑĮ
Ġ Ð»Ð¾Ð³
ĠÑĢÐ°Ð±Ð¾ÑĤ Ð½Ð¸ÐºÐ¾Ð²
ĠÐĽ ÑĥÐºÐ°
¸ Ð´ÐµÐ½ÑĤ
Ð ³Ð¾ÑĢÐ¼
Ð¾Ð»Ð »
Ð»ÑĮÐ ½Ð¾Ðµ
ĠÐºÐ¾Ð¼ Ð¿Ð°
ĠÐ±ÐµÐ »ÑĮÐµ
Ð»Ð°Ð½Ð¸Ñ ı
ĠÑģÑĤÐ¸Ñħ Ð¾ÑĤÐ²Ð¾
ĠÐĽ Ð°Ð²
ĠÐ¶ÐµÐ ½Ð¸Ñħ
ĠÐ½Ð°Ð·ÑĭÐ ²Ð°Ðµ
ĠÐ¥ ÑĢÐ¸ÑģÑĤ
²ÑĪÐ¸Ð¹ Ñģ
ĠÐ¿ÐµÑĢÐµÐ ¹ÑĤÐ¸
²ÑĪÐ¸Ð¹Ñģ Ñ
ĠÐ»Ð¾Ð³Ð ¸Ðº
ĠÑģÐ°Ð¹ ÑĤÐ°
²ÑĪÐ¸Ð¹ÑģÑ ı
ĠÐ¾ÑĤÐºÑĢÑĭ ÑĤÐ¾
²Ñ ĮÑĤÐµ
ÑĢÑĤÐ ½
ĠÐ»ÐµÐ¹ÑĤÐµÐ½Ð°Ð½ Ñ
ĠÐ»ÐµÐ¹ÑĤÐµÐ½Ð°Ð½Ñ Ĥ
Ð¿ Ð»Ð¸ÑĤ
ĠÐĶÐ¾Ð½ Ð±Ð°
ĠÐ¿Ð¾Ð·Ð²Ð¾Ð½ Ð¸Ð»
ÑĥÑİÑī Ð¸Ð¼
Ð¾ÑĢÐ ºÐ°
Ð¡ ÐºÐ¾Ð»ÑĮÐºÐ¾
ĠÐ¿ÑĢÐ¸ ÑĩÑĳÐ¼
ĠÐ²Ð¾ÑĢÐ ¾Ð½
Ð¾ÑģÑĤÑ ı
ĠÐ»Ð¸ ÑĩÐ½Ð¾Ð³Ð¾
ÑĢÐµ Ð´Ð¸ÑĤÑĮ
Ð ±ÑĢÐ°Ð»
ĠÑĥÐ¿ÑĢÐ°Ð ²Ð»ÑıÑĤÑĮ
Ð¿ÑĥÑģÑĤÑ ı
Ð°Ð½ ÑģÐºÐ¾Ð³Ð¾
Ð¾Ðº ÑĢÐ°ÑĤ
ĠÐłÐĲ ÐĳÐŀ
ĠÐ¸Ð½ÑĦÐ¾ÑĢÐ¼Ð° ÑĨÐ¸ÐµÐ¹
ĠÐ¾ÑĢÐ³Ð°Ð½Ð¸Ð·Ð° ÑĨÐ¸Ð¹
Ġ ~
ĠÐ´ÐµÑĤ ÑģÐºÐ¸Ñħ
ĠÑĢÐ°Ð·Ð ²Ð¸Ð²
ĠÐ¸Ð»Ð »ÑİÐ·
ÑĪÐ ¸Ð²Ð°ÑİÑĤ
ĠÑĩÐµÑ ĢÑĤÐ°
ĠÑģÑĥÐ¼ ÐºÑĥ
Ð´Ñ ĮÑİ
ĠÑĥÑģÐ¸Ð»Ð¸Ð ¹
ĠÐĲÐ» Ð»Ð°
ĠÐ·Ð°Ð ¹ÑĤÐ¸
ÑĩÐ½ Ñ
Ð¾Ðº Ñĥ
Ð»ÐµÐ ±
ĠÐºÐ° Ð½Ð¸Ðº
ĠÑģÑĤÑĢÐµÐ¼Ð¸ ÑĤÐµÐ»ÑĮÐ½Ð¾
ĠÐ¿ÑĥÑģÑĤ Ð¾Ð¹
Ðļ Ñĥ
ĠÐ²Ð¾Ð¿ÑĢÐ¾Ñģ Ñĥ
ÑĢÐµÐ ²Ð¾
Ġ4 8
ĠÐĲ ÐºÑĤ
ĠÐ½Ð¾Ð² Ð¾Ð¼Ñĥ
ÑĪÐ¸Ð ½Ð¾Ð¹
ĠÐ´Ð¸Ð½Ð° Ð¼Ð¸
Ð¾Ñģ ÑĤÐ°Ð
¾ÑĢÐ¾Ð ·
ĠÐ½Ð°ÑģÑĤÑĥÐ¿ Ð°
Ð²Ð° ÑİÑĤÑģÑı
ĠÐ²Ð¾Ð·Ð¼Ð¾Ð¶Ð ½Ð¾ÑģÑĤÐµÐ¹
Ġ Ð·Ð²Ð¾Ð½Ð¸ÑĤÑĮ
ĠÐ¿Ð¾Ð´ ÑģÐ¾Ð
ĠÐ½Ð¾Ð² ÑĭÐ¼Ð¸
ĠÑģÐ¾Ð´ÐµÑĢÐ ¶Ð¸ÑĤ
ĠÐ¿ÑĢÐ¸ÐµÐ· Ð¶
ÑĤÐµÐ»ÑĮ Ð½Ð°
ÐĽÐ¬ ÐļÐŀ
ĠÑĤÑĢÐµÐ±Ð¾Ð² Ð°
ĠÐ¿ÑĢÐ¸ ÑģÐ¼Ð¾ÑĤ
ĠÐºÐ°Ðº Ð¾Ð¼Ñĥ
Ð ·Ð²Ð°Ð»Ð¸
ĠÐ½ÐµÐ±Ð¾Ð»ÑĮ ÑĪÐ¸Ðµ
ĠÑįÐ»Ðµ Ð¼ÐµÐ½ÑĤÐ°
¸Ð¼Ð ¿
ĠÑģÐ¸Ñģ ÑĤÐµÐ¼
ĠÑĢÐ°ÑģÑģ ÑĤÑĢÐµÐ»
ĠÐ¾Ð±ÑīÐµÑģÑĤ Ð²ÐµÐ½
ĠÐºÑĢÐµ ÑģÐ»Ðµ
Ñĥ ÑĪÐºÐ°
ĠÐŃÐ½ Ð
ĠÐºÐ¾ÑĢÐ°Ð±Ð »ÐµÐ¹
ÑĩÐµÐ½ Ð½ÑĭÐ¼Ð¸
Ñģ ÑĭÑĢ
Ðľ Ð¾Ñı
ĠÐ°Ð»ÑĮ ÑĤÐµÑĢÐ
ĠÑħ ÑĢÐ°Ð¼
±ÑĭÐ µ
Ð¡ ÐļÐĺ
ĠÑĩÐµÐ»Ð¾Ð²ÐµÑĩÐµÑģÐº Ð¾Ð¹
ĠÐ±Ñĥ Ñħ
ĠÐ¾ÑĪÐ¸Ð±Ð ¾Ðº
d e
ÑĤÑĢÑĥÐ´Ð ½
ou s
ĠÐ½Ð°Ð¹ Ð´ÑĥÑĤ
ĠÐ¿Ð¾Ñģ Ð»Ð°Ð»
ĠÐ¡ Ð»Ð°Ð²Ð°
Ġ ....
ĠÐ¶Ð´ ÑĳÑĤ
ĠÐ¿ÑĢÐ°Ðº ÑĤÐ¸ÐºÐ°
¸Ð»ÑĮÐ µ
ĠÑĩÐµÐ»Ð¾Ð²Ðµ ÐºÐµ
ĠÐ·Ð° Ð¿Ð»Ð°
ĠÐ´Ð½ ÑıÑħ
ÑĭÐ ²Ð°ÐµÑĤÑģÑı
ĠÐ±Ñİ Ð´Ð¶Ðµ
ĠÐľ Ð¾ÑĢÐ
ÑĢÐ¾Ð² Ð°Ð½Ð¸Ðµ
½ Ð¸ÑĩÑĤ
hats App
ĠÐ¡ÐµÑĢÐ³ ÐµÑı
ĠÐ¿Ð¾Ð½ ÑĢÐ°Ð²Ð¸Ð»Ð°ÑģÑĮ
ĠÑħÐ°ÑĢÐ°ÐºÑĤÐµ ÑĢÐ¸ÑģÑĤ
ĠÐ»Ð¾Ð ºÐ°
ĠÐ»Ð° Ð¿
Ð¿Ð ¸ÑģÑĮ
Ð¸Ð½Ð° Ð¼Ð¾
ĠÐ¾Ð±Ðµ Ð¸Ñħ
ĠÐĴÐ¸ Ñ
ĠÐ·ÑĥÐ ±
ĠÐ¸Ð· ÑıÑī
ĠÐ±Ð¾Ð»ÑĮÐ ½Ð¸ÑĨÑĭ
ĠÑĢÐ°Ð±Ð¾ ÑĩÐ¸Ðµ
Ð¿ ÐµÑĤÑĮ
ÑıÑī Ð¸Ðµ
ĠÐ´Ð¾Ð±ÑĢÑĭÐ ¼
ĠÐ¿Ð¾ÑıÐ ²Ð»ÑıÑİÑĤÑģÑı
a ut
ĠÑĪ ÑĤÐ°Ð½Ñĭ
ĠÑĤÑĥ ÑĢÐµÑĨ
ÐĿÐ« Ð¥
ĠÐ¼Ð°Ð³Ð½Ð¸Ñ Ĥ
ĠÐ¿ÑĢÐ¾Ð² ÐµÐ»Ð°
ĠÐºÐ¸Ð» Ð¾Ð³ÑĢÐ°Ð¼
ĠÐ¸Ð·Ð²ÐµÑģÑĤ Ð½ÑĭÑħ
ĠÐļ Ð¾ÑĢÐ¾ÑĩÐµ
ĠÐ²Ð° ÐºÐ°Ð½
Ð¾Ðµ Ð¼
ĠÐ¿ÑĥÑģ ÑĤÐ¾
ÑģÐ¿ Ð¾Ðº
ĠÐ´Ð¾Ð»Ð³ Ð¾Ðµ
¶ÐµÐ ³Ð¾
ĠÐ»ÑİÐ±Ð¸Ð¼ ÑĭÑħ
ÐµÐ» Ñģ
ĠÐ¿Ð°Ð»ÑĮ ÑĤÐ¾
ðŁĺ Ģ
ĠÐ»Ð¸Ð½ Ð¸Ñİ
Ð¾Ð³ÑĢÐ°ÑĦ Ð¸Ð¸
Ġ Ð·Ð²Ð°Ð»Ð¸
ĠÐ¿ÐµÑĢÐµÐº Ð»Ñİ
Ñ ĮÑĤ
ÑĢÐµÐ »ÑģÑı
ĠÑĢÐ°Ñģ ÑĤÐµÑĤ
ĠÑĩÑĥÐ ¶Ð¸Ðµ
ÐºÐ¾Ð² Ð¾Ð³Ð¾
ĠÐ±Ð»Ð¾Ð½ Ð´Ð¸Ð½
ĠÐļÐ° Ð½Ð°
Ð°Ð»Ð ¸Ð½Ð°
ĠÐ¿Ð¾Ð±Ð »Ð°Ð³Ð¾Ð´Ð°
ĠÑģÐ²Ð¾Ð±Ð¾Ð´ Ð½ÑĭÐ¹
ĠÑĢÐ°Ð·Ð¼Ðµ ÑĢÐµ
ÑĦ Ð¸Ð³
ĠÑĢÐµÐ³Ð¸ÑģÑĤÑĢÐ° ÑĨÐ¸Ð¸
ÐµÐ½Ð ³
ĠÐĶÐ°Ð» ÐµÐµ
ĠÐŁÐ¾Ð½ ÑıÑĤÐ½Ð¾
ĠÐ¿Ð»Ðµ Ð²Ð°ÑĤÑĮ
ĠÑģÐ° Ð´Ð¸
ĠÐ²Ð½ÑĥÑĤÑĢÐµÐ½ Ð½ÐµÐ¹
² ÐµÐ½Ðµ
ĠÐľÑį ÑĢÐ¸
an s
ÐµÐ½ Ð´
ĠÐ³Ð° Ð·Ð°
ĠÐ²ÑĭÑģÐ¾Ðº Ð¾Ð¼
Ð¾Ð´Ð¸ ÑĤÐµ
ĠS h
ÑĥÑī Ð¸Ð¼
ÑĮÐ ¾
Ð¸ÑĢÐ¾Ð² ÐºÐ°
ĠÑĤÐµÑĢÐ ¿Ðµ
ĠÐ¸Ð·Ð ½ÑĥÑĤÑĢÐ¸
Ġ ÑģÑį
ĠÐ´Ð¾ÑģÑĤÐ°Ð ²ÐºÐ°
ĠÐ´Ð¸Ð·Ð°Ð ¹Ð½
ĠÑĨÐµÐ»Ñ ıÑħ
ĠÐ²Ñĭ ÑĢÐµ
ĠÐ²ÑĭÐ´ Ð°Ð
ĠÑĦÑ ĭ
ĠÐ´Ð¸Ð²Ð¸Ð· Ð¸Ð¸
N T
ĠÑĥÐ²ÐµÑĢÐµÐ½Ð ½Ð¾ÑģÑĤÑĮ
ĠÐºÐ¾ÑĢÐ°Ð±Ð »Ð¸
¶Ð ¸Ð³
ÑĢÐ¸ ÑĢÐ¾Ð²Ð°ÑĤÑĮ
ĠÐ¾ÑģÐµÐ½ ÑĮÑİ
ĠÐĹ Ð¾Ð»Ð¾ÑĤ
ĠÐ¾Ð¶Ð¸ Ð´
ĠÐº ÑĢÐ¾Ñģ
ĠÐ¿ÑĢÐ¾ ÑīÐµÐ½Ð¸Ñı
ĠÐ·Ð°Ð²Ð¾Ð´ Ð°
ĠÐ¿ÑĢÐ¾Ð´Ð°Ð ¶
ÐŃ ÑĤÐ°
ĠÐ·Ð° ÑĤÐ°
ÑģÑĤÐµÐ ³
ĠÐµÐ´Ð¸Ð½ ÑģÑĤÐ²ÐµÐ½Ð½Ð¾Ðµ
ĠÐºÐ¾ÑĢÑĢÐµ ÑģÐ¿Ð¾Ð½
ĠÐ¾Ð¶Ð¸ Ð´Ð°ÑĤÑĮ
ĠÑģÐ»Ñĥ ÑĪÐ°Ð»
ĠÑįÐ ³
ĠÐ²Ð¾Ð¸Ð½ Ð¾Ð²
ĠÐ¿Ð¾Ð´ÑĤÐ²ÐµÑĢÐ´ Ð¸Ð»
ĠÐ¾Ðº Ð¾
ĠÐ²Ñģ ÐµÐ
ĠÐ¼ Ð°Ðµ
b y
ÑĩÑĳÐ ½
ĠÑģÐº Ð¾Ð¿
ĠÐ´Ð¾Ð¼Ð°ÑĪÐ ½Ð¸Ñħ
ĠÐķÐ²Ð³ ÐµÐ½Ð¸Ð¹
ĠÑĤÐµ ÑĩÐµÐ½Ð¸Ð¸
ĠÑĢÐ°Ð·Ð³Ð¾Ð² Ð¾ÑĢÑĭ
ĠÑģÑĤÐ¾Ð»Ð¸ÑĨ Ðµ
ĠÐ±Ð¸ Ð»ÐµÑĤÑĭ
ĠÐ½Ð°ÑĢÑĥ ÑĪÐµÐ½Ð¸Ðµ
· ÑĢÐµÐ½Ð¸Ðµ
Ĥ Ð¸Ð½Ð°
ÑģÑĤÑĢÐ¾ÐµÐ ½
Ñī ÐµÑĤ
ĠÑģÐ¾Ð²ÐµÑĤ ÑģÐºÐ¸Ñħ
ĠÐ¾ÑĤ ÑģÑĤÐ°Ð²
ĠÐ¢ÐĲ Ðļ
ĠÑģÐ »Ð¸Ð²Ð¾
ĠÑĢÐµ Ð°Ð»
ĠÐ¾Ð ·ÐµÑĢÐ
ĠÐ¿Ð¾Ð±Ð »Ð¸Ð¶Ðµ
ĠÐ¾Ð±Ð ¾Ñģ
Ñ ĭÑĢÐ
ĠðŁİ ģ
ĠÑĢÐ¾Ð´ÑģÑĤÐ²ÐµÐ½Ð ½Ð¸ÐºÐ¾Ð²
Ñ ĤÑıÐ½ÐµÑĤ
ĠÐ§ ÑĤÐ¾Ð±
ĠÑĦÐ° Ð½Ð°ÑĤ
»ÑĮÐ ½ÑĭÐ¼
ĠÐ¿Ð¾Ð´Ð ·ÐµÐ¼Ð
· ÐµÐ½
ĠÐ¿Ð»Ð¾ÑĤ Ð½Ð¾
ĠÑĦÐ¸Ð³Ñĥ ÑĢÑĭ
Ð½Ð° Ð´ÑĨÐ°
ĠÐ¸Ñī ÑĥÑĤ
Ðľ Ð¸Ð½
Ð¾Ð½ Ð¾
ÑģÐ»Ðµ Ñ
ĠÐºÐ¾Ð» Ð»Ðµ
ĠÐ·Ð° Ð¼ÐµÑĢ
ÑģÐ¸ Ð»Ð¾
Ġ Ð±ÑĥÐ»ÑĮ
¸ ÑĢÐ°Ñı
ĠÐ¶ÐµÐ» Ñ
ĠÐ½Ð°Ð±Ð»Ñİ Ð´Ð°Ð»
Ð¼Ð ¸Ð»
ĠÐ¿Ð¾Ð»Ð¸ ÑĤÐ¸ÐºÐ°
Ð¾Ð¼Ð¸Ñ Ĥ
ĠÐ¾Ð´ Ð¾Ð»
ĠÑĪÐ°Ð³ Ð¾Ð¼
ĠÐ½Ð°Ð ²ÐµÑĢÑħ
ĠÐ²Ðµ ÑĢÑĭ
Ĥ Ð²Ð¸Ñ
ĠÐ³Ð¾Ð´Ð° Ð¼Ð¸
Ġ ÑģÑħÐ¾Ð´Ð¸ÑĤÑĮ
ĠÐĵÐ¾ÑģÐ¿ Ð¾Ð´Ð°
ĠÑģÑĥÑħ Ð¾Ð¹
Ð ·Ð¾Ð¼
² Ð¿Ð»Ð¾ÑĤÑĮ
Ð ²Ð¿Ð»Ð¾ÑĤÑĮ
ĠÐ²Ðµ ÑĢÐ¸Ð»
n t
ĠÐ¶ Ð°Ð½
ÑĥÑİÑī ÐµÐ³Ð¾
Ĥ Ð²Ñĭ
ĠÐºÐ»ÐµÑĤ Ðº
ĠÐĺÐ »ÑĮÑı
ĠÑıÑī Ð¸Ðº
ĠÐ´Ð²Ð¸Ð ¶ÐµÐ½Ð¸ÐµÐ¼
ĠÑĥÐ¼ ÐµÐ»
ĠÑĢÐµÐ°Ðº ÑĨÐ¸Ñı
ĠÑĢÐ°Ð·Ð²Ðµ Ð´
ÑĪÐµÐ »ÑģÑı
ĠÐ·Ð° ÑģÑĭÐ¿
ĠÐ¿Ð¾ÑģÑĤÑĥÐ¿ Ð°
Ð´Ðµ ÑĢÐ°
ĠÐŁ Ðĺ
ĠÐ¾Ð±Ðµ Ð´Ð°
¹ÑģÑ ĤÐ²ÐµÐ½Ð
ĠÐľ ÐµÐ½
áħł áħł
ĠÐ¿Ð¾ ÑģÐ»ÑĥÑĪ
ĠÑģÐµÑĢÐ¸ Ð°Ð»
ĠÐ½ÐµÐ¹ ÑĤÑĢÐ°Ð
ÐµÑı Ð»Ð¾
ĠÑģÐ¾ÑĢÐµÐ²Ð½Ð¾Ð² Ð°Ð½Ð¸Ñı
ÑĩÐ¸Ð² Ð¾ÑģÑĤÑĮ
Ðŀ Ñħ
ĠÐ¿Ð¾Ð» Ð¾Ð¶ÐµÐ½Ð¾
ĠÐ½ÐµÑģ Ð¾Ð¼Ð½ÐµÐ½Ð½Ð¾
ĠÐºÐ»ÐµÑĤÐº Ð
ĠÐ²Ð° Ñ
ĠÐºÐ»ÐµÑĤÐºÐ ¸
Ð ¸ÑĩÐºÐ¸
Ð¾ ÑĩÐ½Ð¾
ĠÑģÑĤÑĢÐµÐ »ÑĮÐ
ĠÐ²ÑĭÐ »ÐµÐ
Ð´Ð¾Ð² Ð
" !
ĠÑħÑĥÐ´Ð¾Ð¶Ð ½Ð¸Ðº
ĠÐ¡Ð²Ð¾Ð ±Ð¾Ð´
ĠÐ¿Ð¾ÑģÑĤ ÑĢÐ¾Ð¸ÑĤÑĮ
ĠÐ·Ð°ÑīÐ¸ÑĤÐ¸ÑĤ Ñ
ĠÐ¾Ð±ÑĬÐµÐºÑĤ Ð¾Ð²
ĠÑĦ Ð¸Ð½Ð°
ĠÐ·Ð°ÑīÐ¸ÑĤÐ¸ÑĤÑ Į
ĠÐ¼Ðµ Ð¶
ĠÐ¼Ð¸Ð» ÑĭÐ¹
ĠÐ´ÐµÑĤÐµ ÐºÑĤ
Ð¼Ð°Ð³ Ð°Ð·
Ð¼Ð ¾ÑĢÐ
ĠÐ·Ð° ÑĨÐµÐ¿
ĠÐ°Ð½Ð³Ð»Ð¸Ð¹ ÑģÐºÐ¸Ð¹
ĠÑĪÐ¾Ðº Ð¾Ð»Ð°
ĠÑĥÑĩÐ¸ÑĤÑĭÐ ²Ð°Ñı
Ðŀ Ðł
ĠÐ½Ðµ ÑĥÐ²Ðµ
ĠÐ²Ðµ Ð»ÐµÐ»
Ġ Ð²Ð°Ð½Ð½Ð¾Ð¹
ĠÐ¿Ð¾Ñģ ÑĢÐµÐ´
Ð¾Ð½ Ð¸Ð¼
ĠÑģÐ¾Ð±Ð¸ ÑĢÐ°Ð»Ð°ÑģÑĮ
ĠÐŁ Ð¸ÑĤÐµÑĢ
ĠÑģÑĤÐ°ÑĤ ÑĮÑİ
Ð±Ð ¾Ðº
Ġ Ð±ÑĢÐ°Ð»
Ð»ÐµÐ½ Ð´Ð°
ĠÐ¿Ð¾Ðµ ÑħÐ°Ð»
ÑĢÐ¸Ð ½Ð¾Ð¹
ÐĶ ÑĥÐ¼
ĠÐ¿Ð°Ð±Ð »Ð¸Ðº
ĠÐ³ÑĢÑĥÐ¿ Ð¿Ð¸ÑĢÐ¾Ð²
ĠÐ·Ð° Ð¿ÑĢÐ¾Ñģ
ĠÑģÐ½Ð° ÑĢÑĥÐ¶Ð¸
ĠÐ¸ÑģÐ¿ Ð°
Ð¼Ð¿ Ð°
ĠÐ¿ÑĢÐ¸ Ð¼ÐµÑĤ
ĠÐ°Ð²ÑĤÐ¾Ð¼Ð¾Ð±Ð¸ Ð»ÐµÐ¹
ĠÐ²ÑĭÑĤÐ° ÑīÐ¸Ð»
ĠÐł Ð°Ð´
ĠÐºÑĢÑĥÐ³ Ð¾Ð¼
ĠÑģÐ¾ÑģÐµ Ð´Ð¸
ÑģÑģÑ ĭ
ĠÐľÐ° ÑĢÐ³Ð°
ÐŁ ÑĢÐµÐ´
ĠÑģÐ¾Ð¿ÑĢÐ ¾ÑĤÐ¸Ð
ĠÐºÐ°Ð¼Ðµ ÑĢÑĥ
ĠÑĦ ÑĢÐ°Ð·Ñĥ
ĠÐ¡ Ð°Ð¹
ĠÐ¿ÑĢÐ¾Ð¸Ð·Ð¾ ÑĪÐ»Ð°
ĠÐ±Ð¾ÑıÑĤ Ñģ
ĠÐ±Ð¾ ÑĢÑĤÑĥ
ÑĥÐ°Ð ·
ĠÐ±Ð¾ÑıÑĤÑģ Ñ
ĠÐ±Ð¾ÑıÑĤÑģÑ ı
±Ñ ĮÑİ
± ÑĥÐ»
ĠÐ¢ Ð²Ðµ
ĠÐµÐ´Ð¸Ð½ ÑģÑĤÐ²ÐµÐ½Ð½ÑĭÐ¼
² Ð»Ð¸ÑıÐµÑĤ
Ð ²Ð»Ð¸ÑıÐµÑĤ
ĠÑĤÐµÐ¾ ÑĢÐµÑĤ
Ĥ ÑĢÐµÐ¹
Ð¸Ð² ÑĪÐ¸ÑħÑģÑı
ĠÐ¿Ð¾Ñħ ÑĥÐ¹
ĠÑĢÐ°Ð· Ð½ÑĭÐ¼Ð¸
ĠÐ½Ð°Ð´ÐµÐ¶Ð´ Ð°
ÑĢÐ°ÑģÑĤÐ ¸
ĠÐ¿Ð¾ÐµÐ·Ð´Ð º
ĠÐĴ Ð°Ð¼Ð¸
¶Ð´Ð° ÑĤÑĮÑģÑı
ÑĢÑ ĳÐ
ĠÐ¿ÑĢÐ¸Ð¼ÐµÐ½ ÐµÐ½Ð¸Ñı
ĠÐ¾Ð±Ð »Ð¾Ð¼
² Ð¾Ð¼Ñĥ
ĠÐ·ÑĥÐ ±Ð°Ð¼Ð¸
Ð£ Ð
ĠÐ¿Ð¾ÐµÐ·Ð´Ðº Ð
ĠÐ¿Ð¾ÐµÐ·Ð´ÐºÐ ¸
ĠÑĥÑĩÐµ Ð½ÑĭÐµ
ĠÑĩÑĥÐ²ÑģÑĤ Ð²ÑĥÑı
Ġ Ð³ÐµÐ»ÑĮ
ĠÐºÐ¾ ÑĪÐºÐ¸
ĠÑį ÑģÐºÐ°
Ðľ ÑĥÐ¶
ĠÑģÐ½Ð° Ð±Ð
Ĩ ÐµÐ¿
ĠÑĤÑĢÐ¾ÑĤ ÑĥÐ°
ĠÑĤÐµÐ°ÑĤ Ñ
ÑģÐ»Ð¸ Ñ
ÑĢÑıÐ ·
ĠÑĢÐ¾Ð±Ð ¾ÑĤ
ĠÑĤÐµÐ°ÑĤÑ Ģ
ĠÐ»Ð¾Ð²Ð ¸
ĠÐ¶ÐµÐ»Ð°Ð½ Ð¸Ñİ
ĠÐ½Ð°ÑĩÐ¸ Ð½Ð°Ð»
ĠÐ¼Ð»Ð° Ð´ÐµÐ½
¸Ð ¾
ĠÑĥÐ³Ð¾Ð»Ð¾Ð² Ð½Ð¾Ðµ
ĠÐºÐ° Ð²Ð°Ð»
³ ÑĥÐ´
Ñģ Ð°Ð½ÑĤÐ¸
Ġ Ð³ÑĢÐ°Ð½Ð¸
Ð´Ð ½ÑĥÑİ
ĠÐ·Ð° ÑĦÐ¸Ðº
¸ ÑĤÐµÐ»ÑĮÐ½Ð°Ñı
ĠÑĤÐ¾Ð» Ð¿Ñĭ
ĠÐ¾Ð±ÑĥÐ ²ÑĮ
Ġ Ð²Ð»Ð¸ÑıÐµÑĤ
» Ñĳ
ĠÑĥÐ ³Ð¾
ĠÐ¿ÑĭÐ »Ð¸
Ĥ ÑĥÐ½
ĠÐ²ÑĭÐ¿Ð¾Ð»Ð½ ÐµÐ½Ð¸Ñı
ðŁĺ ¢
ÑİÑĤ Ñ
ĠÐ¾Ð¿Ð¸Ñģ Ð°Ð½Ð¸Ðµ
ĠÐ·Ð°Ð ½Ð¾Ð²Ð¾
ĠÐ¼Ð°ÑĤÐµ ÑĢÑĮÑİ
Ñİ ÑĢÐµ
ÑĢÐµÐ½Ð ½Ð¾ÑģÑĤÑĮ
ĠÐ´ o
ĠÑģÑĭÐ ½Ñĥ
ĠÐ²Ð¾Ð·Ð´ÐµÐ¹ÑģÑĤ Ð²Ð¸Ðµ
ĠÐĿÐ¸ÐºÐ¾Ð»Ð° Ñ
ĠÐ¿Ð°ÑģÑģÐ°Ð¶Ð¸ ÑĢÐ¾Ð²
Ðķ ÑīÑĳ
ĠÐºÐ¾Ð½ÑĦ Ð»Ð¸Ðº
ĠÐĿÐ¸ÐºÐ¾Ð»Ð°Ñ ı
ĠÑģÐ¿ Ð¾Ð½
ĠÑĤÐ¾Ð» Ð¿Ð°
ĠÐ¿Ð»Ð¾ÑīÐ° Ð´ÐºÐµ
Ġ >
Ð°Ð ¾
ĠÐ²ÑĭÐ ¶Ð¸Ð²
ĠÑĥ ÑĢÐ¾Ð½
ĠÐ¿ÐµÑĢÐµÐº ÑĢÐµÑģÑĤ
ĠÐ¾Ð±ÑĬ ÐµÐ¼
Ð²Ñ ĸ
ĠÐ»ÑĥÑĩ ÑĪÐ°Ñı
ĠÐ·Ð° ÑĤÐµ
ĠÐ¿ÑĢÐµ Ð¾Ð±ÑĢÐ°Ð·
ĠÑĪÐ ²Ñĭ
ĠÐ¼ÑĭÑĪ ÑĨ
ÑĩÐ° ÑİÑĤÑģÑı
ĠÐ¾ÑĪÐ¸Ð±Ð ºÐ°
Ġ200 7
Ð²Ð°ÑĢÑĤÐ¸ ÑĢÐ°
ĠÑģÑĢÐµÐ´Ð ½ÐµÐ¹
ĠÑģÐ½Ð° ÑĢÑı
ĠÐºÐ°Ð±Ð¸Ð½Ðµ ÑĤÐ°
»Ð°Ð³Ð° Ñİ
ÑĥÐ¼ Ðµ
ĠÑģÐ¾Ð²ÐµÑĢ ÑĪÐ¸Ð»
Ð¼Ð¸ ÑĢÐ°Ð»
ĠÐ¿ÑĢÐ¾ÑĩÐ¸ ÑĤÐ°Ð»
ĠÐºÐ»Ð°Ñģ ÑģÐ¾Ð²
ĠÐ²Ð¾ÑģÐºÐ»Ð¸Ðº Ð½ÑĥÐ»Ð°
ĠÐ¸Ñģ ÑĤÐµÑĢÐ¸
ĠÐ¾ÑĤÐºÑĢÑĭÑĤ Ð
ÐµÐ½ ÑĤÐ°Ð¼Ð¸
ĠÐ¿ÑĢÐ¾Ð´Ð°Ð ²Ð°ÑĤÑĮ
ĠÑĤÑĢÐ°Ð ²Ñĭ
ĠÐºÐ¾Ð»Ð»ÐµÐ³ Ð
ĠÐºÐ¾Ð»Ð»ÐµÐ³Ð ¸
ĠÐ¡ Ðļ
ĠÐ´Ð¸ Ñ
ĠÐ¾ÑĤÐºÑĢÑĭÑĤÐ ¸
ĠÐ·Ðµ Ð»ÐµÐ½
ĠÑģÐ»ÐµÐ´ÑĥÑİÑī ÐµÐ³Ð¾
² Ð¾Ð´Ð¸Ð»Ð¸
Ġ Ð²Ð¾ÑĢ
ĠÐ»Ñİ Ð±Ð°Ñı
ĠÑģÐ° Ð´Ð¾Ð²
Ġ Ð³Ð¾ÑĢÐ¼
ĠÐ¾ÑĤ Ð¿Ðµ
ĠÐ³Ð½ÐµÐ ²
ĠÐ°Ð´ Ð°Ð¿
Ġ Ð¿ÑĢÑıÐ
ĠÐĲÐ½Ð° ÑģÑĤÐ°
Ð¸Ð½ ÑĥÐ»Ð°
ĠÐ´ÑĢÐ°Ð³Ð¾ ÑĨ
Ð¾Ð»Ð¸ÑĤÑ Į
h a
ĠÑģÐ° Ð¼Ñĥ
¶Ðµ Ð½Ð¾
ĠÑĤÐ²Ð¾ÑĢ ÑĩÐµÑģÑĤÐ²Ð°
ĠÐ¾ÑģÑĤÐ°Ð½Ð¾Ð² Ð¸ÑĤÑĮÑģÑı
ĠÐłÐĲ ÐĹ
ĠÑĢÐµ Ð¿Ñĥ
Ð´Ð ¾Ð¿
ĠÐ¼Ð°Ð»ÐµÐ½ÑĮ ÐºÑĥÑİ
ĠÐ½ÑĢÐ°Ð² Ð¸Ð»Ð¾ÑģÑĮ
ĠÐ¡ Ð½ÐµÐ
ĠÐĹÐµÐ¼Ð »
ĠÐ²Ð¸Ð½ Ñ
ĠÐ¿ÐµÑĢÐ¸ Ð¾Ð´Ð°
ÐµÑģ ÑģÐ¸
ĠÐĵ ÐĲ
Ġ al
ĠÐĹÐ²Ð¾Ð½ Ð¸ÑĤÐµ
ĠÐ±ÑĥÐ´ Ð
ĠÑħÐ°ÑĢÐ°Ðº ÑĤÐµÑĢÐ
Ð²Ð¾Ð² Ð°Ð»Ð¸
Ð»ÐµÐ½ Ð½ÑĭÐ¼Ð¸
ĠÐ¼ÑĥÐ ·ÐµÐ¹
. (
Ð¾Ð² Ð¾Ð»ÑĮÑģÑ
ÑĢÐ ½Ð°Ñ
ĠÑģÑĤÑĢÐ°Ð½ Ð¸ÑĨÐ°
ĠÐ¿Ð »ÑĭÐ
ÑĢÐ¸ ÐµÐ²
ÐĶÐµ Ð²ÑĥÑĪÐºÐ°
ĠÐ¿Ð¾ÑĤÐµÑĢÑı Ð»Ð°
ÑĢÐµÐ´Ð ¸Ð»
ÑĢÐ ±Ð°
ĠÐ½Ð°ÑģÑ Ĥ
Ñ ĤÐ²Ñĭ
Ð¼Ðµ ÑĨ
l a
Ġ <
ĠÐ¿ÑĢÐ¾ ÑĩÐµÐµ
ĠÐ¿Ð° ÑĤÑĢÑĥÐ
ĠÐ¿ÑĢÐ¸ Ð±Ðµ
Ñģ Ð´Ð°ÑĤÑĮ
ĠÐ¿ÑĢÐ¾Ð ºÐ°ÑĤ
ĠÑģÐ½Ð¸Ð· Ñĥ
ĠÑĤÑĢÐµ Ðº
ĠÐ¿Ð° ÑĢÐµ
ĠÐ²ÑĭÑģÐ ¾ÑĤÑĭ
²Ð°Ð¹Ñģ Ñ
» Ð¾Ð»
ĠÐ±Ð°Ð ±
ĠÐ¿Ð¾ÐºÐ° Ð·Ð°Ð»Ð°
ĠÐŁÐ° ÑĤÑĢÐ¸
ĠÐ²Ñģ Ð°Ð´Ð
ĠÐ¿Ð¾Ð´ Ð±Ðµ
ĠÐ³ÑĢÐ°Ð½ Ð¸ÑĨÑĥ
Ð°Ð½Ð½Ñ ĭ
ĠÐºÐ¾Ð¼Ð°Ð½Ð´Ð¸ ÑĢÐ¾Ð²
ĠÐ·Ð° ÑĤÑĢÑĥÐ´Ð½
Ġ ÑģÑĥÐµÑĤ
ĠÑĢÐ¸Ñģ Ð¾Ð²Ð°ÑĤÑĮ
ÐĴ Ð¾Ð»
ÐºÐ¾Ð² ÑĭÑħ
ĠÐ¿ÑĢÐ¾ÑģÑĤ ÑĭÐµ
ĠÐ²Ð¾ÑĢÐ ¾Ð²
ĠÐ´Ð¸Ð°Ð» Ð¾Ð³
ĠÐ¿Ð»Ð°ÑĤ ÑıÑĤ
ĠÐ³ÑĢÑıÐ· Ð
ÑĢÐµ Ð¼Ð
Ð½Ð°Ð ·
ĠÐ¾Ð±Ð¸ Ð´Ð½Ð¾
ĠÑĦÑĥÑĤÐ±Ð¾Ð» ÑĮÐ
ÑĢÐ°Ð½Ð ¸ÑĤÐµÐ»ÑĮÐ
ĠÑĩÐµÑĢÐµ Ð¿Ð°
ĠÑĦÑĥÐ½ Ð´Ð°
ĠÐŁ Ð»Ð°ÑĤ
ĠÐ±Ñ ĢÑĭÐ
ĠÐĲ Ð½Ð°ÑĤÐ¾Ð»
ĠÑģÑĤÑĢÐ¾Ð ¸ÑĤÐµÐ»ÑĮÐ
ĠÐ¡ÐºÐ° Ð¶Ð¸
Ĥ Ð¸Ð¸
ĠÐ»Ð¸ ÑĩÐ½Ð¾Ðµ
Ðµ Ð¼Ñĥ
ĠÑģÑĤÐ° ÑĢÐ¸
» ÑĥÐ´
² Ð»Ð°Ñģ
ĠÑģÐ° Ð»Ð°ÑĤ
ĠÐ¿ÐµÑĢÐµ Ð´Ð°ÑĩÐ¸
ĠÑĥÑĩÐ°ÑģÑĤ ÐºÐµ
Ð¼Ð¸ Ñİ
ÐµÐ ³Ð°
Ĥ ÑĮÐµ
ĠÐ¿Ð¾Ð¿ÑĢÐ¾ ÑģÐ¸ÑĤÑĮ
ĠÐ¾ÑĪÐ¸Ð±Ð ºÑĥ
ĠÑħÐ¾ÑĢÐ¾ ÑĪÑĥÑİ
Ĩ ĺ
ĠÐľÐµÑģ ÑĤÐ¾
ĠÑģÐ¿ Ð¸Ð½Ñĭ
20 19
Ġ !!
ĠÐ·Ð½Ð°Ð ½Ð¸Ðµ
¾ÑĢ ÑĤÐ°
ĠÐ¿Ð ¸Ð»Ð¸
ĠÑģÐ¸Ð»ÑĮÐ ½ÑĭÐ¼
ĠÐ¼ Ð°Ð½Ðµ
Ñģ ÑĤÐ²Ð¾Ð²Ð°ÑĤÑĮ
Ð ²Ð»Ð°Ñģ
» Ñĸ
Ð¿ ÑĥÐ»ÑĮ
ÑĢÑıÐ »ÑģÑı
Ð²Ð¸ Ð´Ð°
ĠÐ¾Ð±Ñĭ ÑĩÐ½ÑĭÐµ
ĠÐ½ÐµÐ´Ð ²Ð¸Ð¶Ð¸
ĠÐ¿ÑĢÐ¾Ð¼ Ð¾Ð»
ĠÐĶ Ð°Ð»ÑĮÑĪÐµ
¸Ð²Ð° Ð»Ð°
ĠÐ¼Ð¸Ð½ Ð¸ÑģÑĤÑĢÐ°
ĠÑĩÐµÐ »ÑİÑģÑĤ
Ð¼Ð¸Ð½ Ñ
ĠÐĶ ÑĢÑĥÐ
ĠÐ·Ð° Ð¼Ð¾
ÑģÐ»Ð ¾ÑĢÐ¾Ð´
Ph one
Ð ²Ð°Ð¹
ĠÑīÐµ Ðº
Ð¿ Ð¿Ð°
Ñģ ÑĤÐ¾ÑıÐ½
ĠÐ¾Ð± ÑīÐµÐµ
ÑĤÐ¾ÑĢÐ ¼
ĠÐ¾Ð±Ð¾ ÑģÐ½Ð¾Ð²
Ð¿ ÑĥÑī
ĠÑĢÐ°Ð²Ð ½Ð¾Ð²Ðµ
³ Ð¾Ð½Ñ
Ġ3 9
ĠÐ½ÐµÐº ÑĥÐ´Ð°
³Ð° ÑĤÑĮÑģÑı
ĠÑģÐ»Ñĥ ÑħÐ¸
ĠÐ¼Ð¾Ð½ Ð
ĠÑĩÑĥÐ´ Ð¾Ð²Ð¸
ÑĢÐµÐ½ Ð½Ð¾Ð¹
²ÑģÑĤÐ ²Ð¸Ðµ
Ð¾ÑĢÐ ½
ĠÐ¿Ð¾Ð´Ð¾Ð¹ Ñ
ĠÐ¿Ð¾Ð´Ð¾Ð¹Ñ Ĥ
Ð½Ð° ÑĤÐ°
ĠÐ´Ð¾ÐºÑĥÐ¼ ÐµÐ½ÑĤ
ĠÑįÑĤÐ° Ð¿
ĠÐĳ ÐµÐ»Ð°
ĠÐ¿Ð¾Ð´Ð¾Ð¹ÑĤ Ð
ĠÐ¿Ð¾Ð´Ð¾Ð¹ÑĤÐ ¸
ĠÐºÐ¾Ð»Ð¸ ÑĩÐµÑģÑĤÐ²Ðµ
ĠÐ½Ð°ÑĪ ÑĳÐ»
ĠÐ²ÐµÑģ Ð¾Ð¼
ĠÐ¾Ð´ÐµÐ ¶Ð´Ðµ
ĠÐ¿Ð¾ÑģÑĤ ÑĢÐ¾Ð¹
ĠÐ¿Ð° Ð´Ð°ÐµÑĤ
ĠÐ¾ÑĤÐ´Ðµ Ð»ÐµÐ½Ð¸Ñı
ĠÐ¿ÑĢÐ¾ ÑģÐ¸
ĠÑĢÐ°Ð½ Ñ
ĠÐ±ÑĢÐ°ÑĤ ÑĮÐµÐ²
ĠÐ¸ÑģÐ¿Ð¾Ð»ÑĮÐ·Ð¾Ð² Ð°Ð½Ð¸Ðµ
ĠÐŁÑĢÐ¾ÑģÑĤ Ð¸ÑĤÐµ
ÐµÐ½Ð¸Ñı Ð¼Ð¸
ĠÐ¼Ð°Ð»ÐµÐ½ÑĮ ÐºÐ¾Ð³Ð¾
ĠÐ¿ÑĢÐ¸Ð³Ð¾ÑĤÐ¾Ð² Ð
ĠÐ¿ÑĢÐ¸Ð ±Ð°Ð
m y
Ð´Ð ²Ðµ
ĠÐŁÐ¾Ð±Ðµ Ð´Ñĭ
Ġm e
Ñ ĤÑĢÐµÐ¹
ĠÑģÐ¾Ð±Ð »Ð°Ð·Ð½
Ġ Ð²Ð¿Ð»Ð¾ÑĤÑĮ
Ð ²o
Ð¾Ð¿ Ð»Ð°
ÑģÐµÑĤ Ñ
ÐºÐ¾Ð² ÑĭÐ¹
¾Ð»Ð »
ÑģÐ »Ð¸ÑģÑĮ
ĠÐ¿Ð¾ÐºÐ ¸
ĠÐ¼Ð¸Ð½ Ð¸ÑģÑĤ
Ð¼Ðµ Ð½Ðµ
ĠÐĳÐ¾Ð³ Ð¾Ð¼
ĠÑĢÐ¾Ð´Ð¸ ÑĤÐµÐ»ÑıÐ¼Ð¸
ĠÑįÑĤÐ° Ð¿Ðµ
ĠÐ¿ÑĢÐµ ÑģÐ»ÐµÐ´
ÐłÐµÐ ±ÑıÑĤ
ĠÐ¿ÑĢÐ¾ÑģÑĤ ÑĭÑħ
²Ð ½Ð¾Ðµ
ĠÑĤÐµÐ° ÑĤÑĢÐ°Ð
ĠÑĢÐ°Ñģ ÑģÑĥÐ´
ĠÐ¼ÐµÐ½ Ñİ
ĠÐ¿Ð¾Ð´Ð¾Ð· ÑĢÐµÐ²
ÐµÐ½Ð ·Ð¸Ð¸
ÑĦÑĦ ÑĦÑĦ
ĠÐ¾Ð´Ð ½Ð¸Ñħ
ÐµÐ»Ñģ Ñ
ĠÐ¼ÐµÑģÑĤ Ð½Ð¾Ð³Ð¾
ĠÐĶ ÐµÐ»Ð°
Ñī ÐµÐ½Ð¸Ð¸
ÑĥÐ¶Ðµ Ð±Ð
ĠÑĥÐ»ÑĭÐ±Ð ºÑĥ
Ð ½Ð¾ÑĤ
ÑĢÐ°Ð ±Ð°Ð½
ĠÐ¿ÑĢÐ¾ÑĦ Ð¸Ð»Ð°ÐºÑĤ
ĠÐ½Ð°ÑģÑĤÐ¾ÑıÑī Ð¸Ðµ
Ð²ÑıÑĤ Ñģ
Ġ Ð¸Ðµ
ĠÑĤÐµ ÑĢÑıÑĤÑĮ
Ð »Ð¾Ð¿Ð°
Ð²ÑıÑĤÑģ Ñ
ĠÐ¿Ð¾ÑĢÐ ½Ð¾
Ð²ÑıÑĤÑģÑ ı
ĠÐ·Ð°Ð ±Ð°Ð
Ð°Ð³Ð½ Ð
ĠÑģÐµ Ð´ÑĮ
ĠÑĩÐµ Ðº
½ Ð¸ÑĤÐµ
ĠÑĢÐ°Ñģ ÑĤÐµÐ½
ĠÐ¡Ð¸ ÑĢÐ¸Ð¸
Ð°Ð³Ð½Ð ¸
v o
Ð ¸Ð´ÐµÐ½ÑĤ
ĠÐ·Ð°Ð¿Ð»Ð°ÑĤ Ð
ĠÐ¿Ð°ÑĢÐº Ðµ
ĠÐ·Ð°Ð¿Ð»Ð°ÑĤÐ ¸
Ð »Ð¾Ð»
¿ÑĢÐ ¾ÑģÑĭ
Ð® Ð¢
ÐµÐ»ÑģÑ ı
ĠÐ¾ÑĤÐ·ÑĭÐ ²Ñĭ
ĠÐ¸Ð· Ð»Ñĥ
Ð¾ ÑĨÐ¸
ĠÐºÐ¾Ð½ÐºÑĥÑĢÑģ Ðµ
Ġ ÑģÑĭÑĢ
ĠÑĢÐ°Ð· Ð±ÑĥÐ´
Ð¸ÑĢÐ¾Ð² Ð°Ð½Ñĭ
ÑĤÐµ Ð»ÐµÐ½
ĠÑģÐ»Ñĥ ÑĩÐ°Ñı
ĠÐ½ÐµÐ±Ð µÑģ
ÑĤÐµÐ ·
ĠÑĢÐµÐ³Ð¸ Ð¾Ð½Ðµ
ĠÐ¼ÑĥÐ¶ ÑģÐºÐ¾Ð¹
ÐµÐ½ÑĮ ÐºÐ¸Ðµ
ĠÑģÑĤÑĢÐ°Ð½ Ð½Ð¾Ðµ
ÑĸÐ ¹
ĠÐĲÐ¼ÐµÑĢÐ¸ ÐºÐµ
²Ð ½Ð¾Ð³Ð¾
ĠÐĴ ÐµÑĢÐ°
Ð´Ð° ÑĩÐ°
ÑĥÑģ Ðµ
ĠÑĥÐ´Ð¸Ð² Ð»ÐµÐ½Ð½Ð¾
¶ ÑĥÑİ
Ð¾Ð² Ð¾Ð¼
²Ð°Ð»Ð¸ Ñ
ĠÐºÐ° ÑĤÐ°Ð»
ĠÐ¶Ð ¸Ð·Ð½Ðµ
ĠÐ²Ñĭ Ñĥ
ĠÐ¢ ÑĢÐ°
ĠÑģÑĤÑĢÐ°Ð´ Ð°
±Ð¾ ÑĤÐ°
²Ð¾Ð¾Ñħ ÑĢÐ°Ð½
ĠÑģÑĤÑĢÐ°ÑĪÐ ½Ð¾Ð³Ð¾
ĠS p
ĠÐ½Ð° Ð¿Ð¾Ð»
ĠÐ¿ÑĢÐ¾ÑĩÐ¸ ÑĤÐ°ÑĤÑĮ
V I
ĠÐ·Ð°Ð´ÑĥÐ¼ Ð°Ð»ÑģÑı
Ð¾Ð¶Ð ¸Ð²
Ð»Ð¸Ð½ Ð
ÐĹÐ´Ð µÑģÑĮ
ĠÐ²Ñĭ ÑĢÑĥ
ĠÐ½Ð° ÑħÐ¾Ð´Ð¸ÑĤ
ĠÐ¿ÑĢÐ¸ÑĢÐ¾Ð´ Ð°
Ð¡ Ðķ
ĠÐŃ Ñħ
²Ñģ ÑĤÐ²ÐµÐ½Ð
ĠÐ³ÑĢÑıÐ ·ÑĮ
ÑģÑĤÐ²ÐµÐ½Ð ½ÑĥÑİ
ĠÑģÑĤÑĢÐµÐ» ÑıÑĤÑĮ
ĠÐľÐ° ÑĪÐ°
ĠÐ¿ÑĢÐ¾ÑģÑĤÑĢÐ°Ð½ ÑģÑĤÐ²Ðµ
ÐµÑĢÐ ¾
ÑĪÐ° ÑİÑĤÑģÑı
ĠÐ±Ðµ Ð»Ð¾
ĠÑģÐ¸Ð¼Ð¿ ÑĤÐ¾Ð¼
ĠÐ½Ð° ÑĢÐ¸Ñģ
F A
ĠÑĤÐ¾Ð²Ð° ÑĢÑĭ
Ð½Ð° Ð¿ÑĢÐ¸Ð¼ÐµÑĢ
ĠÑģÐ½ Ð¸Ð¼Ð
ĠÑĥÐ½Ð¸Ð²ÐµÑĢÑģ Ð¸ÑĤÐµ
ĠÐ¼ÐµÑĢÐ¾Ð¿ÑĢÐ¸ÑıÑĤ Ð¸Ð¹
ĠÐºÐ°Ð¿ ÐµÐ»ÑĮ
ĠÐ¿ÑĢÐ¾Ð¸Ñģ ÑħÐ¾Ð´ÑıÑī
Ð¸Ð²Ð ½Ð¾Ð¹
ĠÑĨÐ° ÑĢÐ°Ð¿
ĠÐ¼Ð¾Ð»Ð ½
ĠÐ¿ÑĢÐ¾Ð² Ð¾Ð´Ð¸ÑĤ
Ð¢ ÐµÐ¼
ĠÐ¾ÑĤÐ·ÑĭÐ ²
ĠÐĿÐ¸ÐºÐ° ÐºÐ¸Ñħ
Ð¾Ðº ÑĢÑĥÐ³
ĠÐ¿Ð¸ ÑĤÐ¾Ð¼
ĠÐ¡Ð°Ð¼ ÑĭÐ¹
ĠÐ´Ð¾Ð¿ ÑĥÑģÐºÐ°
ÑıÐ½Ñ ĭ
ĠÐ¡Ñ ĤÐ¸Ð²
ĠÐ½ÐµÐ¾Ð± ÑħÐ¾Ð´
ĠÐ¿Ð¾ÐºÐ°Ð·ÑĭÐ ²Ð°ÑĤÑĮ
Ð¸Ð» Ñĥ
ĠÐ¿Ð¾Ñģ Ð»Ð°Ð½
ĠÐ·Ð° ÑħÐ»Ð¾Ð¿
ĠÐ²Ð¾Ð» Ðµ
Ġ Ð²Ð»Ð°Ñģ
ĠÐ·Ð°ÑīÐ¸ ÑīÐ°ÑĤÑĮ
²Ð°Ð»Ð¸Ñ Ĥ
ĠÑģÑİ Ð¶Ðµ
ðŁĺŃ ðŁĺŃ
ĠÑĦ Ð»Ð¾ÑĤÐ°
ÑĮÐµ ÑĢÐ°
ĠÐ¿ÑĢÐ¸Ðµ ÑħÐ°ÑĤÑĮ
Ð¼Ð¾Ð» Ð¾Ð´
ĠÐºÐ¾Ð» ÐµÐ½ÑıÑħ
Ġ ÑĩÐ°Ñı
ĠÐ¿ÑĢÐ¸ Ð±ÑĭÑĤ
ÐŁÐµ ÑĢÐµ
Ð¸Ð¼ ÑĭÐ¹
² ÑĪÐ¸Ñħ
Ð¼Ð¾Ñģ ÐºÐ¾Ð²
ĠÐ¼Ð° Ð¼Ð¾
ĠÐ½Ð¾Ð¶Ð ¾Ð¼
ÐĳÐ »
ÑĤÐ°Ñ ĤÐ¾Ð¼
ÐĹ Ðĺ
ĠÑĩÐ¸ÑģÑĤ Ð¾Ð¹
ĠÐĲÐ½Ð´ ÑĢÐµÑı
ul t
ĠÑģÐµÐº ÑģÐ°
y Ð
ĠÑĩÐµÑĢÐ ½Ð¾Ð³Ð¾
Ð¾ÑĢÐ¼ Ð
ĠÐ¿ÑĢÐ¸ ÑģÐ»
Ð° ÑİÑĤÑģÑı
Ġ ÑĤÐ¸Ð¿Ð¸
ÐºÐ¾Ð½Ðµ ÑĩÐ½Ð¾
ĠÐ±Ð°Ð±Ñĥ ÑĪÐºÐ¸
ÑĦÐ ³Ð°Ð½
ĠÐ¾ÑĤÐºÑĢÑĭÑĤÐ¸ Ñ
ĠÐ¾ÑĤÐºÑĢÑĭÑĤÐ¸Ñ ı
ÑĤÐ°Ð ½Ñĥ
ĠÑĢÐ°Ñģ ÑģÐ¼ÐµÑıÐ»ÑģÑı
Ðļ ÑģÑĤÐ°ÑĤÐ¸
ĠÑģÐ ½Ð¾Ð¼
Ð¾Ð´Ð ²Ð¸Ð½
Ñĥ ÑħÐ°
ĠÐ·Ð°Ð¼Ð ºÐ°
ÑģÐ° Ð½Ð°
ĠÐ¡ ÐµÐ½
ĠÐŁ Ð»Ð¾
Ð¡ Ð«
ĠÐĺ Ð²Ð°Ð½Ð°
ĠÐ¿Ð¾Ð» Ð¸Ðº
Ð¸ÑģÑ ĤÐ¾Ð¼
ÑĢÐ°Ð »Ð¸Ð·
»Ð¸Ð½ Ð
ĠÑĤÐ¾ ÑĩÐºÐ°
Ð²Ð¸Ð´Ð¸ Ð¼Ð¾Ð¼Ñĥ
ĠÐºÐ° ÑĢÐ´
Ġ ÑİÑĤ
Ñİ ÑīÐµ
ĠÐĳÑĥÐ´ ÑĮÑĤÐµ
ĠÐĳ ÑĢÐ°
ĠÑĢÐ°Ñģ ÑĩÐµ
ÑĢÑĤÐ ²Ð¾Ð¹
ĠÐļ Ð°Ð¹
² Ð¸Ñħ
ĠÐ¿Ð¾Ð³ Ð°
Ð¸ÑģÐº Ð¾Ð¿
ÑĦ Ð¾ÑĤÐ¾
ĠÐ¿ÑĢÐ¸Ð¾Ð± ÑĢÐµ
ĠÑĥÐ²Ð°Ð ¶ÐµÐ½Ð¸ÐµÐ¼
ĠÐ´ÐµÐ»Ð° Ð¼Ð¸
ÑĤÑĢÐ ¾Ð»
Ð¾Ð½Ð° Ð¼Ð¸
ĠÑģÐ¾ÑģÐµ Ð´ÐµÐ¹
ÑĨ Ð¸Ð½Ñĭ
ĠÐ´ÐµÑĢÐµÐ ²Ð
ĠÐ·Ð° ÑĩÐ°ÑģÑĤÑĥÑİ
Į Ð´
ĠÑģÑĩÐ¸ÑĤÐ° ÐµÑĤÐµ
ÑĢÑĥÐ ½
Ð¾Ð³Ð¸ Ñ
ĠÐ¿Ð¾ÐºÑĥÐ¿ Ðº
ĠÐ¼Ð¾Ð»Ð¾Ð´ ÑĨÑĭ
ĠÐ°Ð¿ Ð¿
ĠÐ¼Ð» ÑĢÐ´
ĠÑģÐ»Ð¾Ð¶Ð ½ÐµÐµ
ĠÐ³Ð°Ð· ÐµÑĤ
ĠÐ¿ÑĢÐ¾Ð¶Ð¸Ð² Ð°Ð½Ð¸Ñı
² Ð¾Ð½Ð¸
²Ð¸ ÑĤÐµ
l ic
ĠÐºÐ¾ÑĢÐ¸ ÑĩÐ½ÐµÐ
ÐµÐ½Ð ½Ð¾ÑģÑĤÑĮ
ĠÐ·Ð°Ð½ ÑıÑĤÑĮ
ĠÐ²ÑĭÑģÐ ¾ÑĤÐµ
ĠÐ¸ÑģÐ¿ ÑĢÐ°Ð²
Ð·Ð°Ð½Ñ Į
ĠÑĤÑĥÐ¿ Ð¾Ð¹
ĠÐ¾ÑĤÐºÑĢÑĭÑĤ Ð¸Ðµ
ÑģÑĤÑĢÐ ¾Ð½
ĠÐºÑĢÐ°ÑģÐ°Ð²Ð¸ ÑĨÐ°
ÑĳÐ ¹
ÑĪÐµÐ½ Ð½Ð°Ñı
ÐĶ Ð¾Ð¼
ĠÐ½Ð° ÑĢÐ¸ÑģÐ¾Ð²
Ġ ÑĤÑĢÐ°ÑĤ
ĠÐļÐ°Ð» Ð¸Ð½
Ð²Ð¸Ð· Ð
ÑĢÐ¸ ÑĤÐµÑĤ
ÐºÑĤ ÑıÐ
Ð²Ð¾Ð ¸
ĠÑģÐ¸Ð³ Ð½Ð°
ĠÐ±Ð¾ÑĢÑĮÐ ±Ð°
ĠÑģÐ¾Ð² Ð¼Ðµ
ĠÐ¾Ñģ ÑĥÑīÐµÑģÑĤÐ²
ĠÐ¿Ð¾ÐºÑĥÐ¿Ðº Ð
ĠÐ¿Ð¾ÐºÑĥÐ¿ÐºÐ ¸
ĠÐºÑĢÑĭÐ»Ñ Į
ĠÐ¾Ð±Ð¼ Ð°Ð½ÑĭÐ
Ð´Ð¾Ð²Ð ¸
ĠÐĳ Ð°Ð»
ĠÐ¿ÑĢÐ¸ÐºÐ¾ ÑģÐ½Ð¾Ð²
ðŁĳ ĩ
Ð»ÐµÑĤÐ¸Ñ ı
ĠÐ¼Ðµ ÑĤÐ°Ð»
ĠÐ¿Ð¾Ð´Ð°ÑĤ Ñ
ĠÐ¿Ð¾Ð´Ð°ÑĤÑ Į
ĠÑģÐ¿ ÑĥÑģ
Ð°Ð°Ð°Ð° Ð°Ð°Ð°Ð°
ĠÐľÐ¸Ð½ Ð¸ÑģÑĤÐµ
ĠÐļ Ð¾Ð»Ð¸
Ð ²ÐµÐ½ÑĤ
ĠÑĢÐµÐ ±Ñı
ĠÐ¾ÑģÑĤ ÑĢÐ¾
ĠÐ¿ÑĢÐ¸Ð´ÑĥÐ¼ Ð°Ð»
ĠÐŁ Ð°Ð»
ĠÑĥÐ½Ð¸Ð²ÐµÑĢÑģ Ð¸ÑĤÐµÑĤ
ĠÐ·Ð°Ð¿Ð ¸ÑģÐº
ĠÐ¿Ð¾Ñħ Ð¾Ð
ĠÑģÑĢÐµ Ð´Ñĭ
Ð¸ÑĤÐµ Ð»ÐµÐ¼
Ð»ÐµÐ½Ð ½Ð¾Ð¼
ĠÐ¾ÑģÑĤÑĢÐ¾Ð² Ðµ
ĠÐ½ÐµÑĢÐ ²Ñĭ
ĠÐ¼Ð¸Ðº ÑĢÐ¾
ĠÐ¾Ð³ÑĢÐ¾Ð¼ Ð½Ð°Ñı
Ð¾Ð¶Ð ºÐ¾
ĠÐ¾Ðº ÐºÑĥÐ¿
ĠÐ¾ÑĢÐ º
ĠÐ¾ÑĦÐ¸ÑĨÐµ ÑĢÐ¾Ð²
ĠÑıÐ ·Ñĭ
ĠÐ¿ÑĢÐ¸ ÑģÐ¿Ð¾ÑģÐ¾Ð±Ð
ÐļÐ°Ðº Ð¸Ðµ
ĠÐ¿Ð¾Ð» ÐµÐ
ÐĹ Ð«
ĠÐ¼Ð°ÑģÑģÐ°Ð ¶
ĠÑĪÐ ²Ðµ
Ð²Ð° ÑĢÐ¸
ĠÐ´Ð²Ð¾ ÑĢÐ°
Ð¿Ð°Ñ Ģ
ðŁİ Ĥ
ĠÐĵ Ð¾ÑĤ
ĠÐ¿ÐµÑĢÐµÐ´ Ð°Ð»
ĠP ro
am e
ĠÐ·Ð°Ð½Ð¸Ð¼Ð° ÑİÑĤÑģÑı
ĠÐ¿Ð¾Ð² Ð
ÐĻ Ð¢Ðķ
Ð´Ð¾ ÑĢÑĭ
ĠÑħÐ¾ÑĢÐ¾ ÑĪ
ÑĥÐ ·Ð¾Ð²
ĠÐ±Ð°Ð ±Ð°
ĠÐ¼Ð¾ ÑĢÑģÐºÐ¾Ð¹
ĠÐ¾ÐºÑĢÑĥÐ ³Ð°
ĠÐ²Ñĭ ÑģÐ°
ĠÐ¿ÑĢÐ¾Ð¼ ÐµÐ¶
ĠÐ²Ð¾Ð· Ð¾Ð±Ð
ĠÐĴ Ð¾Ð½
ĠÐ²ÑĭÑģÐ¾Ðº Ð¸Ñħ
Ð´Ð¸Ñ ĤÐ¾Ð²
³ Ð¾Ð»ÑĮ
ĠÑģÐ¾Ð²ÐµÑĤ ÑģÐºÐ¾Ð¹
ÑģÐ ²Ð°
ĠÐ½Ð¾ ÑģÐ¸Ð»
Ð¾Ð± ÑħÐ¾Ð´Ð¸
an k
Ð¥Ð¾ ÑĩÑĥ
ĠÐĴÐ¸Ñ Ĥ
ĠÑģÑĤÐ° ÐºÐ°Ð½Ð°
ĠÐ·Ð° Ð¾Ð´Ð½Ð¾
Ð°Ðµ Ð¼Ð¾Ð¹
Ð ²Ð´
ĠÐĴÐ° Ð´Ð¸Ð¼
ĠÐ¼ Ñģ
Ð±Ð°Ñ Ĥ
Ð¾Ð½ÑĮ ÐºÑĥ
ĠÐ²Ñĭ ÑıÐ²
ðŁĺģ ðŁĺģ
ĠÐ¿ÑĢÐ¾Ð¸Ð·Ð¾ ÑĪÐµÐ»
Ġ Ð¿Ð»Ð¸ÑĤ
ÑĨÐ¸ Ð¾Ð½Ð°Ð»
ĠÐ¿Ð»Ð° ÐºÐ°ÑĤÑĮ
ĠÑĩÐ¸ÑĤÐ° Ð»Ð°
ĠÑĤÐµÑħÐ½ Ð¾Ð»Ð¾Ð³Ð
ÑĤÐµ ÑĨ
ÑģÐ ¸ÐºÐ¸
ĠÐ²Ð¸ Ð´Ñı
ĠÐ±Ð »Ð¾Ð³
o o
Â» ...
Ð±Ð ¾Ð
ÑĢÑģ Ð¾Ð½
ĠÐºÑĢÑĥÑ ĤÐ¾Ð¹
² Ð·Ð°
Ñİ Ñİ
ĠÑĢÑı Ð´Ð¾Ð²
i en
ĠÐºÐ¾Ð¼Ð¿ÑĮÑİ ÑĤÐµÑĢÐ
ĠÐ²ÑĭÐ ½
Ġ ÑıÐ´
ĠÐºÐ¾Ð¼Ð¼ ÑĥÐ½Ð°
ĠÐ¿ÐµÑģ Ð¾Ðº
Ġ ÑģÐ°Ð½ÑĤÐ¸
ĠÐĺÑģÑĤÐ¾ ÑĢÐ¸Ñı
ĠÑģÐ ¶Ð°Ð»
ĠÐĵÐ¾Ð²Ð¾ ÑĢÑıÑĤ
Ðļ ÑĥÐ¿
ÑĢÐ¾ ÑĩÐºÐ°
ĠÐºÐ°Ñģ ÑĤÑĢÑİ
Ġ ÑĤÑıÐ½ÐµÑĤ
ÑĩÐµÐ½Ð ½ÑĥÑİ
Ðº Ð¾ÑģÑĤÑĮÑİ
Ġâļ ¡
²Ð°Ð¹ÑģÑ ı
n ik
ĠÐľÐ°ÑĤÑ Į
ĠÐ¡ ÑĤÐ°Ð²
ĠÐ¾Ð ¶Ð¸Ð²
ĠÐ¿Ð¾Ð»Ð¸ÑĤÐ¸ÑĩÐµÑģÐº Ð¾Ð¹
ĠÐ¿ÑĤ Ð¸ÑĨÐ°
ĠÑĤÐ° Ð±Ð»Ðµ
ĠÐł Ð°Ð´Ð
ÐµÐ· Ð´Ðµ
ÑĢÐ¾Ð² Ñ
ĠÐŁÑĢÐ¸ÑıÑĤ Ð½Ð¾Ð³Ð¾
âĻ ¥
ÐĴÐ ·
ÑĢÑĭ ÑĤÑĮÑģÑı
ĠÐ·Ð°Ð±Ð »ÑĥÐ
ĠÐ·Ð°Ñģ Ñ
ĠÐ¿Ð¾Ð¸ÑģÐº Ð
ĠÐ¿Ð¾Ð¸ÑģÐºÐ ¸
ĠA r
ĠÐ¾ÑĤÐ ½Ñİ
ĠÐ·Ð° Ð¿Ñĥ
Ð¿ ÑĥÐ³Ð°
á ´
ĠÐ´Ð¾Ð³Ð¾Ð²Ð¾ ÑĢÐ°
ĠÐ²Ðµ ÑĢÐ¸ÑĤ
ĠÑģÐ°Ð¼Ð¾ ÑĥÐ±Ð¸Ð¹
ĠÐ¿ÑĢÐ¾ÑĨ ÐµÐ½ÑĤ
Ġâĺ º
Ð¸Ð ±Ð°
ÑĤÑĥÐ ¸
ĠÑģÐ¾Ð²ÐµÑĤ ÑĥÑİ
ĠÐ¿Ð¾ÐºÐ°Ð·ÑĭÐ ²Ð°ÑİÑĤ
Ð¸Ð² ÑĪÐ¸ÐµÑģÑı
Ð¸Ð²Ð° ÑİÑĤÑģÑı
ĠÑģÐ°Ð¼ ÑĭÐ¼Ð¸
ĠÐ¼Ð°Ñģ ÑĪÑĤÐ°
ĠÐ·Ð° Ð¿Ñ
ĠÐ¾ÑĤÐ½Ñİ Ð´ÑĮ
ĠÐ¿ÑĢÐ°Ð²Ð¸Ð»Ð° Ð¼
Ñ ĮÐ´
ĠÐ³ÑĢÑıÐ·Ð ¸
Ð ±ÑĥÐ»
ĠÑĪÑĤÐ°Ð ±Ð°
ĠÐ¿Ð¾Ð´ Ð¿Ð¾Ð»
ĠÑĥÐµ ÑħÐ°ÑĤÑĮ
ĠÐ½ÐµÐ¾Ð´Ð½ Ð¾ÐºÑĢÐ°ÑĤÐ½Ð¾
ĠÐ¿Ð»Ð° Ð½Ð°
»Ð¾Ð²Ð¸ Ñ
ĠÑĩÐ°ÑģÑĤÐ¸ ÑĩÐ½Ð¾
ĠÑģÐ¼Ðµ Ð»Ð¾
ĠÐ¾ÑĤ ÑĢÐ°
ĠÑģÐ¾Ð±ÑģÑĤÐ²ÐµÐ½Ð ½ÑĥÑİ
ĠÐ¸Ð¼Ð¿ÐµÑĢÐ° ÑĤÐ¾ÑĢÐ°
Ð¢ Ðł
ÑģÐ¸Ð »Ð¾Ð²
¶Ð ½ÑĭÐ¼Ð¸
ĠÐ´Ñĥ ÑħÐµ
ºÐ°ÑĤ Ñ
Ð¸Ð½Ñ ĮÑĤÐµ
ĠÐ»ÑİÐ±Ð¸Ð¼ ÑĭÐµ
ĠÐ¼ÑĥÐ¶ ÑĩÐ¸Ð½Ðµ
Ð£ Ðº
ĠÐ·Ð° Ð´Ð°Ð
ĤÐ²Ð¾Ð² Ð°Ð»
ĠÐŁÐµÑĢÐ ²Ð°Ñı
ĠÐ¿ÑĢÐ¸Ð ·ÐµÐ¼Ð
ĠÐºÐ»ÑĥÐ ±Ðµ
ĠÐ¿ÑĢÐ¾ÑģÑĤ Ð¸ÑĤÐµ
ĠÐ¡ Ð°Ð²
ĠÑģÐº ÑĥÐ»ÑĮÐ¿
ĠÐ´Ð¾Ð¶Ð´Ñ ı
ĠÐ½Ðµ ÑĥÐ¶ÐµÐ»Ð¸
Ð¾Ð³Ð¸Ñ ı
ĠÐ¼Ð°ÑĢÐº ÐµÑĤ
ĠÐ¿Ð¾Ð¼Ð½ Ð¸ÑĤÐµ
ĠÐ±ÑĢÑİ Ðº
ĠðŁĵ į
ĠÐ¼Ð¾Ð» ÑĩÐ°Ð½Ð¸Ðµ
ĠÑĥÐ¼ Ð½ÑĭÐ¹
Ġ6 5
Ðµ Ð»Ðµ
Ð»Ð° Ðº
Â» ),
Ð¡ Ðł
ĠÐ£ ÑģÐ»Ð¾Ð²Ð¸Ñı
ĠÐµÐ´Ð¸Ð½ ÑģÑĤÐ²ÐµÐ½Ð½Ð°Ñı
ĠÐ»ÑİÐ±Ð¾Ð¼ Ñĥ
Ĺ ¿
ĠÐ´Ð¸Ñģ ÑĨÐ¸Ð¿
ĠÑģÐ°Ð» Ð¾Ð½
ĥÑĥÑ ĥÑĥÑ
Ð¿Ð¾Ð»Ð ¸
ÐµÑĢÐ¼ Ð°
[...]
