{"<s>":0,"<pad>":1,"</s>":2,"<unk>":3,"<mask>":4,"!":5,"\"":6,"#":7,"$":8,"%":9,"&":10,"'":11,"(":12,")":13,"*":14,"+":15,",":16,"-":17,".":18,"/":19,"0":20,"1":21,"2":22,"3":23,"4":24,"5":25,"6":26,"7":27,"8":28,"9":29,":":30,";":31,"<":32,"=":33,">":34,"?":35,"@":36,"A":37,"B":38,"C":39,"D":40,"E":41,"F":42,"G":43,"H":44,"I":45,"J":46,"K":47,"L":48,"M":49,"N":50,"O":51,"P":52,"Q":53,"R":54,"S":55,"T":56,"U":57,"V":58,"W":59,"X":60,"Y":61,"Z":62,"[":63,"\\":64,"]":65,"^":66,"_":67,"`":68,"a":69,"b":70,"c":71,"d":72,"e":73,"f":74,"g":75,"h":76,"i":77,"j":78,"k":79,"l":80,"m":81,"n":82,"o":83,"p":84,"q":85,"r":86,"s":87,"t":88,"u":89,"v":90,"w":91,"x":92,"y":93,"z":94,"{":95,"|":96,"}":97,"~":98,"¡":99,"¢":100,"£":101,"¤":102,"¥":103,"¦":104,"§":105,"¨":106,"©":107,"ª":108,"«":109,"¬":110,"®":111,"¯":112,"°":113,"±":114,"²":115,"³":116,"´":117,"µ":118,"¶":119,"·":120,"¸":121,"¹":122,"º":123,"»":124,"¼":125,"½":126,"¾":127,"¿":128,"À":129,"Á":130,"Â":131,"Ã":132,"Ä":133,"Å":134,"Æ":135,"Ç":136,"È":137,"É":138,"Ê":139,"Ë":140,"Ì":141,"Í":142,"Î":143,"Ï":144,"Ð":145,"Ñ":146,"Ò":147,"Ó":148,"Ô":149,"Õ":150,"Ö":151,"×":152,"Ø":153,"Ù":154,"Ú":155,"Û":156,"Ü":157,"Ý":158,"Þ":159,"ß":160,"à":161,"á":162,"â":163,"ã":164,"ä":165,"å":166,"æ":167,"ç":168,"è":169,"é":170,"ê":171,"ë":172,"ì":173,"í":174,"î":175,"ï":176,"ð":177,"ñ":178,"ò":179,"ó":180,"ô":181,"õ":182,"ö":183,"÷":184,"ø":185,"ù":186,"ú":187,"û":188,"ü":189,"ý":190,"þ":191,"ÿ":192,"Ā":193,"ā":194,"Ă":195,"ă":196,"Ą":197,"ą":198,"Ć":199,"ć":200,"Ĉ":201,"ĉ":202,"Ċ":203,"ċ":204,"Č":205,"č":206,"Ď":207,"ď":208,"Đ":209,"đ":210,"Ē":211,"ē":212,"Ĕ":213,"ĕ":214,"Ė":215,"ė":216,"Ę":217,"ę":218,"Ě":219,"ě":220,"Ĝ":221,"ĝ":222,"Ğ":223,"ğ":224,"Ġ":225,"ġ":226,"Ģ":227,"ģ":228,"Ĥ":229,"ĥ":230,"Ħ":231,"ħ":232,"Ĩ":233,"ĩ":234,"Ī":235,"ī":236,"Ĭ":237,"ĭ":238,"Į":239,"į":240,"İ":241,"ı":242,"Ĳ":243,"ĳ":244,"Ĵ":245,"ĵ":246,"Ķ":247,"ķ":248,"ĸ":249,"Ĺ":250,"ĺ":251,"Ļ":252,"ļ":253,"Ľ":254,"ľ":255,"Ŀ":256,"ŀ":257,"Ł":258,"ł":259,"Ń":260,"ĥÐ":261,"ÑĥÐ":262,"ĢÐ":263,"ÑĢÐ":264,"¾Ð":265,"ĩÐ":266,"ÑĩÐ":267,"ÑĢÐ°":268,"Ð°":269,"½Ð°":270,"Ð½Ð°":271,"ĭÐ":272,"ÑĭÐ":273,"Ñħ":274,"¾Ð²":275,"¶Ð":276,"±Ð":277,"ÑĪ":278,"ÑĢÐµ":279,"ºÐ°":280,"Ð¼":281,"Ð¼Ð":282,"ĤÐ°":283,"ÑĤÐ°":284,"Ð¾Ð²":285,"¾Ð»":286,"Ñİ":287,"»Ð°":288,"ĠÐ½Ð°":289,"¾Ð¼":290,"ÐºÐ°":291,"¾Ð´":292,"ÑĢÐ°Ð":293,"Ð´":294,"Ð´Ð":295,"Ðº":296,"ĠÐº":297,"ÑĢÐ¸":298,"Ð»Ð°":299,"¾Ð³":300,"ĠÐ´Ð":301,"·Ð°":302,"Ð¾Ð»":303,"Ð·Ð°":304,"Ð°Ð":305,"ĢÑ":306,"ÑĢÑ":307,"Ð¾Ð´":308,"²Ñ":309,"Ð¾Ð¼":310,"ĠÐ¼Ð":311,"Ð±Ð":312,"ÑĪÐ":313,"¾Ð½":314,"¾Ð¹":315,"Ð²Ñ":316,"ĥÑ":317,"Ð¾Ð³":318,"ÑĨ":319,"Ð¾Ð":320,"ÑĩÐµ":321,"¶Ðµ":322,"ÑĥÑ":323,"Ð¾Ð½":324,"Ð°Ð»":325,"âĢ":326,"Ð¾Ð¹":327,"Ñģ":328,"ÑģÐ":329,"ĠÑģÐ":330,"¾Ñģ":331,"Ð¾Ñģ":332,"ĩÑ":333,"ÑĩÑ":334,"ĠÐ·Ð°":335,"Ñĥ":336,"Ñī":337,"¿ÑĢÐ":338,"ĠÐ²Ñ":339,"²Ð°":340,"ĠÐ¾Ð":341,"¾ÑĢÐ":342,"Ñį":343,"ĮÐ":344,"¾Ñ":345,"Ð¾Ñ":346,"Ð¾ÑĤ":347,"½ÑĭÐ":348,"µÑģ":349,"Ð°Ð½":350,"»Ð":351,"Ð»Ð":352,"Ð»Ð¸":353,"Ð»Ðµ":354,"ÑĩÑĤ":355,"ÑĮÐ":356,"ÐĴ":357,"Ðµ":358,"ÐµÐ":359,"½Ðµ":360,"Ð½Ðµ":361,"ĠÐ½Ðµ":362,"ĤÐµ":363,"ÑĤÐµ":364,"ÐµÐ½":365,"ÐµÑ":366,"¸Ðµ":367,"Ð¿ÑĢÐ":368,"Ð¿":369,"Ð¿Ð":370,"ĠÐ¿Ð":371,"ÐĿ":372,"Ð¾Ð³Ð":373,"¸Ð":374,"Ð¸Ð":375,"Ð´Ðµ":376,"ĠÑĩÑĤ":377,"ÐŁ":378,"Ð¡":379,"ÑģÐº":380,"ĠÐ¿ÑĢÐ":381,"ĠÑį":382,"Ð¾":383,"½Ð¾":384,"ĤÐ¾":385,"ÑĤÐ¾":386,"Ð½Ð¾":387,"Ð¸Ðµ":388,"ĠÐºÐ°":389,"Ð¾ÑĢÐ":390,"ĠÑĥÐ":391,"±Ñ":392,"ĠÐ±Ð":393,"Ðŀ":394,"Ð¾ÑģÑ":395,"ĠÐ¾ÑĤ":396,"ĠâĢ":397,"³Ð¾":398,"ÐµÑĤ":399,"ÑĩÐ°":400,"Ð¾Ð³Ð¾":401,"ĠÑĩÑĤÐ¾":402,"Ð¼Ðµ":403,"ĢÑĥÐ":404,"ĠÐ´":405,"ÐĲ":406,"²Ðµ":407,"ĠÐ¿Ð¾":408,"ÑĢÑĥÐ":409,"ÑĢÐµÐ":410,"Ðļ":411,"ÑĪÐµ":412,"Ð¿ÑĢÐ¸":413,"ıÐ":414,"ĠÐĴ":415,"ĠÐ¼":416,"ĠÐ¸Ð":417,"ÑĦ":418,"ĠÐ²Ñģ":419,"ĠÐ¿ÑĢÐ¸":420,"²Ð¾Ð":421,"ĤÐµÐ":422,"¸Ñģ":423,"..":424,"ĠÐŁ":425,"ĠÑĢÐ°Ð":426,"ÑĤÐ°Ð":427,"¸Ñħ":428,"¸Ð¼":429,"Ð¼Ð¸":430,"Ð´Ð°":431,"ÑĤÐµÐ":432,"¸Ðº":433,"µÑģÑ":434,"ĠÐĿ":435,"Ð¢":436,"Ðľ":437,"Ðĺ":438,"ĠÐ¡":439,"Ð²Ð°":440,"ıÑ":441,"ĠÑĤÐ°":442,"ÐĶ":443,"ĠÐ´Ðµ":444,"Ð½ÑĭÐ":445,"Ð¾ÑģÑĤ":446,"»ÑĮÐ":447,"ÑĥÑĤ":448,"ĠÐ°":449,"ÑĥÐ´":450,"Ð²Ðµ":451,"Ð¶Ð":452,"ĠÐµ":453,"Ð¶Ðµ":454,"ÑĩÐµÐ":455,"ĭÑħ":456,"ıÑĤ":457,"»Ð¸":458,"±Ñĭ":459,"±ÑĭÐ":460,"ðŁ":461,"Ð¸Ðº":462,"Ð¿Ðµ":463,"Ð¿Ð¾Ð":464,"Ð¸Ð¼":465,"»Ðµ":466,"Ð¸Ñħ":467,"ĠÐļ":468,"ÑĥÑģ":469,"ĠÑħ":470,"Ð±ÑĭÐ":471,"ÑıÐ":472,"ĠÐºÐ°Ðº":473,"Ð¿Ð¾Ð´":474,"ĠÐ¿Ð¾Ð":475,"ĠâĢĶ":476,"Ð¸Ð½":477,"ĠÐ¾":478,"½ÐµÐ":479,"Ðł":480,"Ð»ÐµÐ":481,"ĠÐ±ÑĭÐ":482,"ÑĩÐ¸":483,"ĠÑģÐµ":484,"ĠÐ¿Ð¾Ð´":485,"²Ð":486,"Ð²Ð":487,"ĠÐ¸Ð·":488,"ĠÐŀ":489,"ĠÐľ":490,"ĠÑĤÐ°Ðº":491,"ĠÐ¾Ð½":492,"ÑĭÑħ":493,"ĠÑĥ":494,"ĤÑģ":495,"ÐºÐ¾":496,"»Ñİ":497,"Ð¾Ðµ":498,"ĠÐ²Ð":499,"ÑĤÑģ":500,"µÑģÑĤ":501,"¾ÑĤ":502,"ĠÐ¼Ðµ":503,"Ð¾Ð»Ñ":504,"²Ð¾":505,"ÑĤÑģÑ":506,"Ð¸Ð¹":507,"ĠÐĲ":508,"¸Ð»Ð¸":509,"Ðķ":510,"ĠÐĶ":511,"Ð¾Ð´Ð":512,"Ð°Ðµ":513,"ÑĤÑģÑı":514,"½Ð¾Ð¹":515,"²ÑĭÐ":516,"ĠÐ¿Ðµ":517,"ĠÐ¢":518,"ÑıÑĤ":519,"ĮÑģ":520,"Ð¸Ð¸":521,"ĮÑģÑ":522,"Ð²Ð¾Ð":523,"ĠÑĢÐ°Ð·":524,"¸Ð½":525,"ÑģÐ°":526,"Ðĳ":527,"Ð¸Ð»":528,"ÑģÐµ":529,"ĠÐĺ":530,"ÑĮÑģÑ":531,"ĠÑįÑ":532,"Ð¾Ð»ÑĮ":533,"ĠÑįÑĤ":534,"ĠÐ²ÑģÐµ":535,"ÑĥÑİ":536,"Ð¿Ð¾Ð»":537,"ĠÐ¶Ðµ":538,"Ð½ÐµÐ":539,"ÑĨÐ":540,"ĠÑĤÐµ":541,"ÐµÐ³Ð¾":542,"ÑĢÐ¾Ð²":543,"½Ð¾Ð²":544,"ĢÑĭÐ":545,"ÑĪÐµÐ":546,"½Ð¾Ð³Ð¾":547,"Ġ-":548,"·Ð½Ð°":549,"Ð»Ñİ":550,"Ð¸Ñģ":551,"½ÑĥÐ":552,"½Ð¸Ðµ":553,"ÑģÐ¿":554,"ĠÑįÑĤÐ¾":555,"ÑģÐ¾Ð":556,"ĠÑĦ":557,"Ġ1":558,"ĠÐ¿Ð¾Ð»":559,"ĠâĢĵ":560,"ÐĽ":561,"Â«":562,"Â»":563,"ÐµÐ½Ð":564,"ÑĮÑģÑı":565,"ĠÐ²Ð¾Ð":566,"Ñĳ":567,"Ð²ÑĭÐ":568,"Ð²Ð¾":569,"Ð¿Ð°":570,"Ð´Ð¸":571,"Ð¯":572,"ĠÐ²Ñĭ":573,"ÑĢÐ¾Ð":574,"Ð¼ÐµÐ":575,"½ÑĭÑħ":576,"Ð±Ñĭ":577,"Ð»Ð¾":578,"½Ð¸Ðº":579,"»Ð¾Ð²":580,"ÑĨÐ¸":581,"Ðĵ":582,"Ð¿ÑĢÐµ":583,"ĠÐ¼Ð¾Ð":584,"ÑģÐºÐ°":585,"Ð°Ðº":586,"ÑĢÑı":587,"½Ð¾ÑģÑĤ":588,"ĠÂ«":589,"Ð£":590,"âĢĶ":591,"²Ð¸":592,"ĠÐºÐ¾ÑĤ":593,"ĠÐ±Ñĭ":594,"ĠÑģÐ¾Ð":595,"ÑĢÑĤ":596,"ĠÐ½Ð¾":597,"ĠÐł":598,"ĠÐ¿ÑĢÐµ":599,"¸Ð»":600,"ĠÐ½ÐµÐ":601,"ÑĥÐ¼":602,"...":603,"ÑĢÐ°Ñ":604,"ĠÐ»Ð¸":605,"Ð´ÐµÐ":606,"±ÑĥÐ´":607,"ÐµÐ¹":608,"ĠÐ²Ðµ":609,"ĠÐ²ÑĭÐ":610,"ÑĢÐ¸Ð":611,"ĠÐĳ":612,"Ð¾Ð»ÑĮÐºÐ¾":613,"ÑģÑĤÐ°":614,"ÑīÐµ":615,"ĠÐ¾Ð±":616,"Ð¸Ð»Ð¸":617,"ÑģÐ¸":618,"ÐµÑģÑĤ":619,"ĠÐµÐ³Ð¾":620,"ĠÐ±Ðµ":621,"ÐĹ":622,"Ð¼ÐµÐ½":623,"ĠÑģÐ¿":624,"ĠÑĤÐ¾":625,"Ð¼Ñĥ":626,"Ð°Ð½Ð":627,"ĠÑģÐ°":628,"Ð¾Ðº":629,"Ð¾Ð³Ð´Ð°":630,"ÑĩÐ°Ñģ":631,"Ð±Ðµ":632,"ĠÑĩÐµ":633,"ĠÐ¶Ð":634,"³Ð°":635,"ĤÑĮÑģÑı":636,"ÑİÑ":637,"ÑĪÑ":638,"Ð·Ð½Ð°":639,"»Ð¾":640,"Ð»Ð°Ñģ":641,"Ð±ÑĥÐ´":642,"ÑİÑĤ":643,"ĠÑĢÐµ":644,"ÐµÐ½Ñ":645,"ĠÐ±Ð¾Ð»":646,"Ð½Ð°Ñ":647,"ÑĤÐµÐ»ÑĮÐ":648,"ÑĤÑĮÑģÑı":649,"¾ÑģÑ":650,"Ð¾Ð¼Ñĥ":651,"Ð¶":652,"ĠÑĢÐ°":653,"Ġ(":654,"ÑĢÐ°Ð½":655,"½Ð¾Ðµ":656,"ĠÐ±ÑĥÐ´":657,"ĠÐ»Ñİ":658,"Ð¼Ð°":659,"ÑĢÑĭ":660,"Ð»Ð°Ð":661,"ÑģÐ»Ð¸":662,"Ð¼Ñ":663,"¸Ð·":664,"ÑĥÐ¿":665,"ĠÐ²Ð°":666,"²Ð°Ð»":667,"ÑĩÐµÐ½":668,"ĠÑģÐ²Ð¾Ð":669,"ĠÐ¿ÑĢÐ¾Ð":670,"ÑĢÑĥ":671,"ÑĪÑĮ":672,"ÐµÑĢÐ":673,"ĠÐ¼ÐµÐ":674,"Ð´Ñ":675,"Ġ2":676,"ÑĪÐ¸":677,"ĠÐ¼Ð°":678,"ĠÐ´Ð»":679,"ĠÐ´Ð»Ñ":680,"ĠÐ´Ð»Ñı":681,"ĠÐĵ":682,"ÐŃ":683,"Ð§":684,"ÑģÐ»Ðµ":685,"¶ÐµÐ":686,"ĠÐ¾Ð±Ð":687,"¶Ð½Ð¾":688,"¾ÑģÑĤ":689,"Ð¿ÑĢÐ°Ð":690,"Ð½ÑĭÐ¹":691,"ÑģÑĤÐ°Ð":692,"ÑĢÑĥÐ³":693,"Ð°Ð¹":694,"Ð¾Ð²Ð°":695,"ÐºÑĥ":696,"ÑĢÑģ":697,"Ð¾Ð´Ð¸":698,"ÐµÐ»":699,"ĠÑģÐµÐ":700,"ĠÐ·Ð½Ð°":701,"ĠÐ¼ÐµÐ½":702,"ĠÐ¾Ñģ":703,"ÑĢÐ°ÑĤ":704,"Ð»Ð°ÑģÑ":705,"ĠÐ¿ÑĢÐ¾":706,"Ð½ÑĭÐµ":707,"ĠÐ¯":708,"Ð»ÐµÐ½":709,"¶Ð´":710,"Ð½ÑĥÐ":711,"ÑĪÐ°":712,"±Ñı":713,"ÑĨÐ°":714,"Ð·Ð°Ð":715,"ÐºÑ":716,"±Ð°":717,"Ð½Ð°Ñı":718,"ĠÐĽ":719,"ĠÐ¼ÐµÐ½Ñ":720,"ĤÐ¾Ð":721,"âĢĵ":722,"ÑĢÐ¾":723,"Ð°ÐµÑ":724,"Ð°ÐµÑĤ":725,"¸ÐºÐ°":726,"²ÐµÑĤ":727,"Ġ#":728,"ĠÐ¿Ð°":729,"Ð³Ð¾":730,"³Ð¾Ð´":731,"ÑĩÐµÑģÐº":732,"Ð½Ð¸Ðº":733,"ĠðŁ":734,"ĠÐºÐ¾Ð½":735,"ĠÐĹ":736,"Ð¸Ð²":737,"ĠÑĥÑģ":738,"ĠÐ¿ÐµÑĢÐµ":739,"ÑĤÐµÐ»":740,"ÑĤÐ¾Ð":741,"ĠÐ¼Ñ":742,"Ð¾ÑģÑĮ":743,"Ð¿Ð¾Ð¼":744,"½ÑĭÐ¹":745,"ĤÐ¾Ð»ÑĮÐºÐ¾":746,"ÑĤÐ¾Ð»ÑĮÐºÐ¾":747,"ĠÑģÑĤÐ°":748,"Ð¸ÐºÐ°":749,"ĠÐ¼ÐµÐ½Ñı":750,"²Ð°Ñ":751,"ĠÐķ":752,"Ð¥":753,"ĠÐ£":754,"ĠÐ´Ð¾":755,"ĠÐ¸Ð½":756,"Ð¿Ð¾ÑĤ":757,"Ð¾ÑĢ":758,"Ġ\"":759,"ÐµÑģ":760,"00":761,"Ð»Ð°ÑģÑĮ":762,"³Ð¾Ð²":763,"½Ð¸Ð¼":764,"ÑĢÐ¾Ð´":765,"ĠÐ±ÑĭÐ»Ð¾":766,"ĠÑģÐ»":767,"ÐµÐ½Ð¸":768,"¾Ð±":769,"ĠÐŃ":770,"Ð°Ð½Ð¸":771,"ĮÑİ":772,"ÐµÑĢ":773,"ĠÑĢÑĥÐ":774,"ÑĭÐ¹":775,"ĠÐ¼Ñĭ":776,"Ð½ÑĭÐ¼":777,"ĠÐ²Ð¸":778,"ĠÐ¿ÑĢÐ¸Ð":779,"»Ñģ":780,"ĠÐ¿Ð¾ÑĤ":781,"Ð°Ð²":782,"Ð³Ð¾Ð´":783,"ĠÐºÐ¾Ð¼":784,"Ð¾Ð±Ð":785,"ĠÐ±ÐµÐ":786,"½ÑĭÐµ":787,"ÑĢÐµÐ½":788,"ĠÐ²Ð¾Ð·":789,"Ð¾ÑĢÑĭÐ":790,"ÑģÐ¾Ð²":791,"Ð»Ð°Ñ":792,"ĠÑģÐºÐ°":793,"Ð¾Ð»Ð":794,"ĠÐ´ÐµÐ":795,"Ð°Ð»Ð":796,"½Ð¾ÑģÑĤÑ":797,"¸Ð²":798,"ĠÐ¾Ð¿":799,"ÑĢÐ°Ð·":800,"¸Ð½Ð°":801,"ĠÐŀÐ":802,"ĠÐ¾Ð½Ð°":803,"ĠÐ½Ð°Ñģ":804,"ĠÑģÐº":805,"¸ÑģÑ":806,"ÑĩÐ½Ð¾":807,"ĠÑĤÐ¾Ð»ÑĮÐºÐ¾":808,"ĠÐ¸Ð»Ð¸":809,"²ÑĢÐµ":810,"ÑĢÐ¸Ñ":811,"¶Ð¸":812,"·ÑĭÐ":813,"ĠÑĩÐµÐ":814,"½Ð¾Ð¼":815,"Ð¸ÑģÑ":816,"ÑĢÐ¾Ð¼":817,"»ÑģÑ":818,"»ÑģÑı":819,"ĠÑĢÐ°Ñģ":820,"Ð²Ð¸":821,"Ð²ÑĢÐµ":822,"ÐºÑĤ":823,"Ð°Ð»Ð¸":824,"ĠÑģÐ¾":825,"ĠÐ§":826,"ÑĥÐ»":827,"ĮÑ":828,"ĤÑĢÐµ":829,"¶Ð°":830,"Ð¼Ð¾Ð":831,"ĠÑĨ":832,"ĠÐ¿ÑĢÐ°Ð":833,"ĠÐ²ÑĢÐµ":834,"·Ñ":835,"ĤÐ¾Ð¼":836,"ĠÑĥÐ¶Ðµ":837,"ĠÐ¾Ð´":838,"ÑĩÐ°Ð":839,"ÑĩÐ°ÑģÑ":840,"ÑİÑī":841,"ĠÐ¼Ð½Ðµ":842,"ĤÑĥ":843,"ĠÐ±Ð¾Ð»Ñ":844,"ÑĢÑĮ":845,"ÑĨÐ¸Ð¸":846,"Ð¾Ð±":847,"²Ð»":848,"ĠÑĤÐµÐ":849,"ĠÐ·Ð°Ð":850,"ĤÐ¾ÑĢÐ":851,"ÑĤÑĢÐµ":852,"ÑĪÐº":853,"ĠÐ°Ð":854,"ÑĩÐ°ÑģÑĤ":855,"Ð²Ñĥ":856,"ĠÐ±Ð¾Ð»ÑĮ":857,"ĠÐ´ÑĢÑĥÐ³":858,"ĠÐ³Ð¾Ð´":859,"¸Ð·Ð":860,"Ð°Ð»ÑĮÐ":861,"ÑĢÐµÐ·":862,"ĤÐ²Ð¾":863,"Ð´Ð¾":864,"ÑıÑĤÑ":865,"ĠÑĢÐ°Ð±Ð":866,"ĠÐ¿Ð¾Ð¼":867,"Ð½Ð¾Ð²":868,"Ð¤":869,"Ð°Ð»Ñ":870,"³Ð¾Ð»":871,"Ð¿Ð¾Ð½":872,"ĠÐºÐ¾ÑĤÐ¾ÑĢÑĭÐ":873,"½Ð¾ÑģÑĤÐ":874,"¶ÐµÐ½":875,"ĠÐ½Ð°Ð":876,"½Ð¾ÑģÑĤÐ¸":877,"ÑĩÐº":878,"½ÑĥÑİ":879,"ĠÐĿÐ°":880,"ÐµÐ¼":881,"¸ÑĤÐµ":882,"Ð¸Ð½Ð°":883,"½Ð¸Ð":884,"ÑıÑĤÑĮ":885,"Ð¿Ð¾Ñģ":886,"Ð¾Ð±Ñĭ":887,"Ð»Ð°ÑĤ":888,"Ð»ÐµÑ":889,"Ð¶Ð´":890,"Ð½Ð¾Ð¹":891,"Ð³Ð¾Ð²":892,"ĠÐ¸Ñħ":893,"Ð¼Ð¾ÑĤ":894,"Ð¾Ð¿":895,"ĠÐ´Ð¾Ð»":896,"ÑĭÐµ":897,"ÑĤÐ°Ñ":898,"µÑģÑĮ":899,"ÑħÐ¾Ð´":900,"ÑĥÑī":901,"Ð½ÑĭÑħ":902,"ĠÐ¿Ð¾Ñģ":903,"¶ÐµÑ":904,"Ð¾ÑĢÐ¼":905,"ĠÐ¾Ð½Ð":906,"ĠÐ¾Ð½Ð¸":907,"½ÑĭÐ¼":908,"ĠÐ±ÑĭÐ»":909,"ĤÑĢÐ°":910,"Ð¼ÐµÑ":911,"Ð¾ÑĢÐ¾":912,"ÑĥÑģÑ":913,"»Ð¾Ð²Ðµ":914,"!!":915,"¶ÐµÑĤ":916,"¸ÑĩÐµÑģÐº":917,"ĠÐµÑģÐ»Ð¸":918,"ÑĩÐµÐ½Ñ":919,"Ð¿Ð¾Ð²":920,"ĠÐ¿Ð¾Ð½":921,"ĠÐµÐµ":922,"ÑĢÑĭÐ":923,"ĠÐºÐ¾Ð³Ð´Ð°":924,"ÐµÐ½Ð¸Ñ":925,"²Ð¾Ð¹":926,"ÑĤÐµÐ»Ñ":927,"ÐµÑģÑĤÑ":928,"ĠÐ±ÐµÐ·":929,"Ð³Ð¾Ð»":930,"Ð°Ð½Ð¸Ðµ":931,"ĠÑĥÐ´":932,"ĤÐ²Ð°":933,"¸Ð¹":934,"ÑĪÐµÐ½":935,"ÐµÑģÑĤÑĮ":936,"ĠÐĿÐ¾":937,"ÑĭÐ¼":938,"ÑħÐ°":939,"²Ð¸Ð":940,"ĠÐŀÐ½":941,"ÑĩÐµÐ½ÑĮ":942,"³Ð»Ð°":943,"·Ð´Ð":944,"ÐµÐ½Ð¸Ñı":945,"ĠÐ¥":946,"ĠÑĩÑĤÐ¾Ð±Ñĭ":947,"Ð¼Ð¾":948,"Ð¾Ð½Ð°":949,"ĠÐ¼Ð¾Ð³":950,"ĠÐ²Ð¾":951,"ĮÑı":952,"ĠÐ³Ð¾Ð»":953,"½Ð¾ÑģÑĤÑĮ":954,"ĠÐ´Ð°":955,"Ð»Ð¸Ð":956,"Ð°Ð½Ð¸Ñ":957,"ĠÐ¿Ð¾Ð²":958,"ĠÐµÑīÐµ":959,"¸ÑĨ":960,"ĠÐ¿Ð¾ÑģÐ»Ðµ":961,"ĠÐ»ÑİÐ±Ð":962,"½Ð¸ÐºÐ°":963,"Ð»ÐµÑĤ":964,"¸Ð·Ð½":965,"Ð°Ð³":966,"ÐºÐ°Ñ":967,"ĠÐ±ÑĥÐ´ÐµÑĤ":968,"ÑĤÐ²Ð¾":969,"»ÐµÐ":970,"ĠÑĩÐµÐ»Ð¾Ð²Ðµ":971,"ÐµÐ½ÑĤ":972,"Ð°Ð½Ð¸Ñı":973,"ðŁĺ":974,"Ð¾ÑıÐ":975,"ĠÐµÑģÑĤÑĮ":976,"Ð´Ñĥ":977,"ĠÑģÐ¾Ð²":978,"Ð°Ð¶Ðµ":979,"ÑĢÐ¸ÑĤ":980,"ÐºÐ¾Ð¼":981,"Ð¼Ñı":982,"ĠÐĿÐµ":983,"ĠÑħÐ¾ÑĤ":984,"ĠÑģÐ²Ð¾Ðµ":985,"¸Ð¼Ð¸":986,"²Ð»Ñ":987,"ÐµÐ½Ð¸Ðµ":988,"±Ðµ":989,"ÑħÐ¾Ð´Ð¸":990,"¿Ðµ":991,"ÐµÐ·":992,"ÑĢÑĥÑ":993,"ÑĥÐ´Ð°":994,"ÐµÐ²":995,"ÐºÐ°Ð":996,"ÑĤÐ¾Ð¼":997,"ÑĤÐ¾ÑĢÐ":998,"ĠÐ²Ð·":999,"Ð¸ÑĩÐµÑģÐº":1000,"Ġ3":1001,"½Ñĥ":1002,"½ÑĥÑĤ":1003,"ĠÐ³Ð¾Ð²":1004,"²Ð°ÑĤ":1005,"ĠÐ¼Ð¸":1006,"Ð°Ð»ÑĮ":1007,"ÑĥÐº":1008,"ĠÐ¿ÑĢÐ¾Ñģ":1009,"ĠÐºÐ":1010,"ÐºÐµ":1011,"²Ð¾Ð´":1012,"Ð±Ð¾":1013,"ĠÐ´Ð¾Ð":1014,"Ð·Ð°Ð»":1015,"²Ð»Ñı":1016,"ĠÐŁÐ¾":1017,"²Ð°ÑĤÑ":1018,"ÑĥÑģÑĤ":1019,"ĠÑĤÐ¾Ð":1020,"²Ð°ÑĤÑĮ":1021,"ÑĥÐ»Ñ":1022,"ÑĤÑĥ":1023,"ĠÐ¾Ð´Ð":1024,"Ð¾Ð·":1025,"ÑģÐ»":1026,"Ð¸ÑĨ":1027,"ÑħÐ":1028,"ÑĥÐµ":1029,"¸Ð»Ð°":1030,"Ð¨":1031,"ÐµÑĤÑģ":1032,"Ð²ÐµÑĤ":1033,"Ð¿Ñ":1034,"ÐµÑĤÑģÑ":1035,"ÑĢÐº":1036,"ÐµÑĤÑģÑı":1037,"ÑĩÐ¸Ñ":1038,"ÑĤÐµÐ»ÑĮÐ½Ð¾":1039,"Ð¾Ñı":1040,"ÑīÐ°":1041,"ĠÐ¾Ðº":1042,"Ð´ÐµÑ":1043,"ÑĮÐµ":1044,"Ð°Ð·":1045,"ĠÐ´Ð¾Ð¼":1046,"Ð¸ÑĤÐµ":1047,"Ð½Ð¾Ð³Ð¾":1048,"³Ð¾ÑĢÐ":1049,"ĠÐ¾ÑĩÐµÐ½ÑĮ":1050,"ĠÐ¤":1051,"Ð¼Ñĭ":1052,"ĠÐ½Ð¾Ð²":1053,"Ð°Ð½Ñ":1054,"Ð³Ð»Ð°":1055,"Ð°ÐµÑĤÑģÑı":1056,"ĠÐ¿ÑĢÐµÐ´":1057,"Ðĸ":1058,"¸ÑĢÐ¾Ð²":1059,"ĠÐ¿Ð¾ÐºÐ°":1060,"ÐºÐ¾Ð²":1061,"ÑĤÐ²Ð°":1062,"ÑĥÐ½":1063,"ÑĩÐ¸ÑĤ":1064,"ĠÐ½ÐµÑ":1065,"ÐµÐµ":1066,"ÑĢÐ´":1067,"ĠÐ³Ð¾Ð²Ð¾":1068,"Ð°Ð¼":1069,"ĠÐ¸Ñģ":1070,"ĠÐ¼Ð¾Ð¶Ð½Ð¾":1071,"ĠÐ²ÑĢÐµÐ¼Ñı":1072,"ĠÑıÐ":1073,"ĠÐ½ÐµÑĤ":1074,"ÑĢÐ°ÑģÐ":1075,"ĠÐºÑĤÐ¾":1076,"ĠÐ¾ÑģÑĤÐ°Ð":1077,"ĠÐ¿ÑĢÐ¾Ð´":1078,"Ð²Ð°Ñ":1079,"ĠÑĪ":1080,"ĠÐ½ÑĥÐ":1081,"ĠÐ¶Ð¸Ð·Ð½":1082,"¸ÑģÑĮ":1083,"ÑģÐµÐ":1084,"Ð¸Ð¼Ð¸":1085,"¸Ñİ":1086,"Ð³Ð¾ÑĢÐ":1087,"ĠÐ´Ð°Ð¶Ðµ":1088,"Ð¾Ð»ÑĮÐ":1089,"²ÐµÐ½Ð":1090,"½Ð¸Ñħ":1091,"Ð²ÐµÐ½Ð":1092,"½ÐµÑģ":1093,"ĠÑĩÐµÐ¼":1094,"ĠÐ³Ð»Ð°":1095,"ÑĮÑİ":1096,"ÐºÐ¾Ð½":1097,"ĤÐ¾Ð³Ð¾":1098,"ÐµÐ³":1099,"ĤÑĢÐ°Ð":1100,"Ð¸Ð·":1101,"ÑĤÐ°Ð½":1102,"²ÐµÐ½":1103,"ĤÐ¾Ð²":1104,"ĠÐ¼ÑĥÐ":1105,"ÑĥÑĩ":1106,"Ð°Ñģ":1107,"Ð´ÐµÐ½":1108,"ĠÐ¿Ð¾Ð»Ñĥ":1109,"ÑĨÐµ":1110,"ÑĨÐ¸Ñ":1111,"ÑĥÐ±Ð":1112,"Ð¸Ñİ":1113,"¸Ð¼Ð":1114,"³Ð´Ðµ":1115,"ÑĤÐ¾Ð³Ð¾":1116,"ĠÑĢÑĥÐº":1117,"³ÑĢÑĥÐ":1118,"ĠÑģÐµÐ±Ñı":1119,"ĠÐ¿ÑĢÐ¾ÑģÑĤÐ¾":1120,"Ð¸ÑĢÐ¾Ð²":1121,"¸ÑģÐ¿":1122,"ĠÐ¼Ð¾Ð¶ÐµÑĤ":1123,"ĠÐ¿ÑĢÐµÐ´Ð":1124,"Ġ,":1125,"ĠÑģÐ»Ñĥ":1126,"ÑīÐ":1127,"ĠÐ¶":1128,"Â».":1129,"ĠÑģÐ»Ð¾Ð²":1130,"Ð¿Ð¾ÑģÑĤ":1131,"ÑĤÐ°ÑĤ":1132,"ĤÐ¾Ð»":1133,"ÑĤÑĢÐ°Ð":1134,"ÐºÐ¾Ð¹":1135,"Ð»ÑĮÐ":1136,"¹Ñģ":1137,"ÑĨÐ¸Ñı":1138,"Ð³Ð´Ðµ":1139,"ĤÑĥÐ¿":1140,"Ð´ÑĮ":1141,"Ð¾Ð¶Ð":1142,"ĠÑģÐ°Ð¼":1143,"ĠÐ¿ÐµÑĢÐ":1144,"¾Ð³Ð¾":1145,"ÑĤÑĥÐ¿":1146,"ĠÐ±ÑĭÑ":1147,"²Ð¾ÑĤ":1148,"))":1149,"ÐµÐ¼Ð":1150,"ĠÐ´ÐµÐ½":1151,"ÑĩÐµÑģ":1152,"Ð´ÐµÑĤ":1153,"ÑĩÐ°Ñ":1154,"ĠÑģÑĤÐ°Ð":1155,"ÑģÐ´Ðµ":1156,"ÐºÐ°Ñı":1157,"ÑĤÑĢÐ°":1158,"¸Ð¸":1159,"ĠÐĲÐ":1160,"ĠÐ³Ð¾ÑĢÐ":1161,"Ð¸ÑģÐ¿":1162,"ĠÑģÐ´Ðµ":1163,"ĠÑĤÐ°Ð¼":1164,"ĠÐ±ÑĭÑĤ":1165,"Ð²Ð¾ÑĤ":1166,"Ð½ÐµÑģ":1167,"Ð´ÐµÐ»":1168,"ĠÐ±ÑĭÐ»Ð°":1169,"ĤÑĢÑĥÐ":1170,"Ð²ÐµÐ½":1171,"Ð»Ð¸Ñģ":1172,"ĠÐ³Ð´Ðµ":1173,"ÑĤÑĢÑĥÐ":1174,"ÑĢÐµÑ":1175,"Ð¸Ð»Ñģ":1176,"ĠÐĺÐ":1177,"ĠÐŃÑĤÐ¾":1178,"ĠÐ¸ÑģÐ¿":1179,"Ð¸Ð»ÑģÑ":1180,"Ð¸Ð»ÑģÑı":1181,"Ð¾Ð²Ð°Ñ":1182,"ÑģÐºÐ¾Ð¹":1183,"ĩÑĥÐ":1184,"ÑİÑĤÑģÑı":1185,"ĠÐ±ÑĭÑĤÑ":1186,"ĠÐ±ÑĭÑĤÑĮ":1187,"ĠÐºÐ¾ÑĤÐ¾ÑĢÐ":1188,"Ð³ÑĢÑĥÐ":1189,"ĠÑĢÐµÐ":1190,"Ð¼ÐµÑĤ":1191,"ĠÐ¼Ð¾Ð»":1192,"²Ð¾Ð»":1193,"¾Ðº":1194,"ĠÑģÐ°Ð¼Ð":1195,"±Ð¸":1196,"Ð»Ð°ÑĤÑ":1197,"ĠÑĥÐ¼":1198,"ĤÑıÐ":1199,"ĠÐµÐ¼Ñĥ":1200,"Ð»ÐµÐ½Ð":1201,"Ð±Ð°":1202,"ĠÐ¿ÑĢÐ¾Ð²":1203,"Ð»Ð°Ð½":1204,"Ð·Ð´Ð":1205,"ĠÑĤÐµÐ±Ñı":1206,"ht":1207,"Ð»Ð¸ÑģÑ":1208,"ÑĤÐ¾Ð»":1209,"²Ñģ":1210,"Ð²Ð°ÑĤ":1211,"ĠÑħÐ¾ÑĢÐ¾":1212,"Ð°Ð¿":1213,"ÑĩÐµÐ³Ð¾":1214,"ĠÐ³ÑĢÑĥÐ":1215,"Ð°Ð»Ð°":1216,"ĤÐ²ÐµÐ½Ð":1217,"ĠÐ¿Ð¾ÑģÑĤ":1218,"ĠÑįÑĤÐ¾Ð¼":1219,"ĠÐ±ÑĭÐ»Ð¸":1220,"ĠÐ½ÐµÑģ":1221,"er":1222,"ĤÑĢÐ":1223,"Ð±Ð¸":1224,"Ð¼ÐµÐ½Ð":1225,"ÑĤÐ°Ð»":1226,"ÑĤÐµÐ»ÑĮ":1227,"ÑĤÑıÐ":1228,"ÑīÐ¸":1229,"ÑĢÐµÑĤ":1230,"¹ÑģÑ":1231,"ĠÐ²Ð¾ÑĤ":1232,"ÑĤÑĢÐ":1233,"ĠÑĤÐ¾Ð³Ð¾":1234,"ÑģÐ½":1235,"Ġ5":1236,"Ġâ":1237,"ĠÐ¶ÐµÐ":1238,"ÑĢÐµÑģ":1239,"ĠÑįÑĤÐ¾Ð³Ð¾":1240,"Ð»ÐµÐ¹":1241,"ĠÐºÐ¾":1242,"ÑĪÐ°Ñ":1243,"ĠÐ¿Ð¾Ðº":1244,"ÑģÐºÐ¸Ð¹":1245,"³Ð¾ÑĤ":1246,"²Ð°Ñı":1247,"ĤÑĢÐ°Ð½":1248,"ĠÑĤÐ¾Ð¶Ðµ":1249,"ÑĤÑĢÐ°Ð½":1250,"±Ñĥ":1251,"ıÑħ":1252,"ĠÐ½Ð¸Ðº":1253,"ÑĤÐ²ÐµÐ½Ð":1254,"ĠÐ¿Ð¾Ð¿":1255,"Ð½Ð¾Ðµ":1256,"ĠÑģÐ»Ðµ":1257,"Ð³Ð°":1258,"ĠÐ¸Ð³":1259,"ÑĥÐ°":1260,"Ð´Ð¸Ð½":1261,"ÑĢÐ¼":1262,"ĠÑĢÐ°Ð±Ð¾":1263,"ĤÑĢÐ¸":1264,"ĠÐ»ÐµÑĤ":1265,"ĠÐļÐ°Ðº":1266,"ÑģÐ¸Ñ":1267,"ÑĢÐ¾Ñģ":1268,"ĠÐºÐ¾ÑĤÐ¾":1269,"Ġ4":1270,"Ð¸Ð»Ð°":1271,"ĠÐ¼ÐµÑģ":1272,"ĠÑģÐ¸":1273,"Ð½Ð¸Ð":1274,"Ð¾Ð»Ð½":1275,"Ð½Ð¸Ñħ":1276,"ĠÐ¿Ð¸":1277,"in":1278,"ÑģÐºÐ¾Ð³Ð¾":1279,"ĠÐ¸Ð½ÑĤÐµ":1280,"»ÑĥÑĩ":1281,"ĤÐ²Ðµ":1282,"ÑĢÑĤÐ":1283,"ÐµÐ½ÑĮ":1284,"ĤÑĥÑĤ":1285,"ÑĤÑĥÑĤ":1286,"ĠÐ½ÐµÐ³Ð¾":1287,"ĠÐ±Ð¾Ð»ÑĮÑĪÐµ":1288,"Ð´Ñĭ":1289,"Â»,":1290,"Ð´Ð¾Ð²":1291,"ÑĢÑĥÑģ":1292,"ÑĮÑı":1293,"ĠÐ²Ð°Ñģ":1294,"__":1295,"ĠÐ·Ð´Ð":1296,"ÑĪÐºÐ°":1297,"ĠÐĶÐ°":1298,"ÑıÐ»":1299,"¸ÑģÐº":1300,"ĠÐ¼Ð¸Ð½":1301,"ĠÐ¿ÑĢÐ¾ÑĤ":1302,"Ð²Ñĭ":1303,"ĠÐ´Ñĥ":1304,").":1305,"Ð»ÐµÐ½Ð¸Ðµ":1306,"ĠÐºÐ¾ÑĤÐ¾ÑĢÑĭÐµ":1307,"ĠÐľÐ°":1308,"ĠÐ»ÐµÐ":1309,"ÑĪÐ¸Ñħ":1310,"ÑĤÑĢÐ¸":1311,"Ð´Ð¾Ð¼":1312,"Ð»Ð°ÑĤÑĮ":1313,"Ð»Ð¸ÑģÑĮ":1314,"tp":1315,"Ġ19":1316,"ĠÐ¿Ð¾Ð´Ð":1317,"ĠÐ³Ð¾Ð´Ð°":1318,"ÑĪÐµÐ»":1319,"Ð¸ÑģÑĮ":1320,":/":1321,"ÑĢÐ°Ð²":1322,"ÑĢÐ³":1323,"http":1324,"ĠÐ¢Ð°Ðº":1325,"Ð»ÐµÐ½Ð¸":1326,"»Ð°Ñģ":1327,"ĠÑĤÐ¾Ð¼":1328,"Ð¾ÑĦ":1329,"²Ð¸Ð½":1330,"ÑĩÑĥ":1331,"ĠÑĥÐ¿":1332,"ĠÐ¿Ð¾Ð·":1333,"ĠÑģÐµÐ±Ðµ":1334,"ĠÑĪÐ":1335,"¶Ð°Ð»":1336,"ÑĥÐ¹":1337,"Ð´Ðº":1338,"²Ð¸Ñ":1339,"±ÑĬ":1340,"ĤÑĢÐ¾Ð":1341,"ÑĩÐºÐ°":1342,"Ð¦":1343,"Ð»ÑĥÑĩ":1344,"»Ð°ÑģÑ":1345,"ÐµÑĨ":1346,"Ð½Ð¾Ð¼":1347,"ĠÑĢÐ¾Ð´":1348,"ĠÐ¼Ð½":1349,"ĠÑħÐ¾":1350,"ÑĩÐ°ÑĤ":1351,"ÑĢÐµÐ»":1352,"Ð»ÐµÐ½Ð¸Ñ":1353,"ÐºÑģ":1354,"¾Ðµ":1355,"Ð¼ÐµÐ½Ð¸":1356,"Ð½Ð¸ÐºÐ°":1357,"ĠÐ½Ð¸Ñħ":1358,"ĠÐºÐ°Ð¶Ð´":1359,"ÑĤÑĢÐ¾Ð":1360,"¿ÐµÑĢÑĮ":1361,"an":1362,"ÑģÐ¼Ðµ":1363,"ĠÐ´ÑĥÐ¼":1364,"ÑĩÑĮ":1365,"ĠÐ¸Ð¼":1366,"ÐµÐ»Ñ":1367,"¸ÑĩÐµÐ³Ð¾":1368,"Ð¸ÑĩÐµÐ³Ð¾":1369,"ÑĤÐ²Ðµ":1370,"³Ð¾ÑĤÐ¾Ð²":1371,"ĠÐ»ÑĥÑĩ":1372,"ÑĳÐ":1373,"ĠÐĹÐ°":1374,"ÑĢÐ¸Ñģ":1375,"Ð·Ð°Ñ":1376,"ıÐ¼Ð¸":1377,"ÑĪÐ¸Ð¹":1378,"Ġhttp":1379,"ĠÑĤÑĥÑĤ":1380,"Ð²Ð¸Ñ":1381,"ÑĤÐ°ÑĤÑ":1382,"ÑĪÐµÐ¹":1383,"ÑĢÑıÐ":1384,"ÑģÐ¼Ð¾ÑĤ":1385,"Ð¾Ð²Ð°ÑĤ":1386,"ÑĩÑĥÐ":1387,"ĠÐ½Ð°Ð´Ð¾":1388,"ÑĨÑ":1389,"ĠÐ³Ð¾":1390,"ĠÐ³Ð¾ÑĢÐ¾Ð´":1391,"ĠÐºÐ¾Ð»":1392,"ÑĢÐ¾Ðº":1393,"Ð´Ð¸Ñ":1394,"ÑıÐ½":1395,"om":1396,"Ð²Ð¾Ð´":1397,"½ÐµÐµ":1398,"ÑģÑĤÐ¾ÑĢÐ":1399,"ĠÐĸ":1400,"ÑĩÐºÐ":1401,"ÑĩÐºÐ¸":1402,"Ð½Ñĥ":1403,"²Ð°Ð»Ð":1404,"¹ÑģÑĤ":1405,"ÑĩÐµÑ":1406,"Ð¿Ð¸":1407,"ĠÐºÐ¾ÑĤÐ¾ÑĢÑĭÐ¹":1408,"²Ð°Ð»Ð¸":1409,"ĠÐ²ÑģÐµÑħ":1410,"ĠÑģÐµÐ¹":1411,"ĠÐ¶ÐµÐ½":1412,"ĠÑĢÐ°Ð±Ð¾ÑĤ":1413,"ĠÑĤÐµÐ±Ðµ":1414,"Ð»ÐµÐ½Ð¸Ñı":1415,"ÑīÑĳ":1416,"Ð¸Ð²Ð":1417,"½ÐµÐ¹":1418,"Ð·Ð°ÑĤ":1419,"ÑĢÐ°Ñı":1420,"ĤÐ¾Ð¼Ñĥ":1421,"ĠðŁĺ":1422,"Ð¸ÑģÑĤ":1423,"ĠÑįÑĤÐ¾ÑĤ":1424,"Ġ20":1425,"ĠÐ¨":1426,"Ð²Ð¾Ð»":1427,"ÑĤÐ¾Ð¼Ñĥ":1428,"ĠÐ²Ð°Ð¼":1429,"ĠÐĴÑ":1430,"ÑĢÑĤÐ¸":1431,"ĠÐ²ÑĭÐ¿":1432,"¶ÐµÐ½Ð¸Ðµ":1433,"ÑĢÐ¸Ð¸":1434,"²Ð¸ÑĤ":1435,"ĠÐ¾Ð´Ð¸Ð½":1436,"ĠÑģÑĤÐ¾ÑĢÐ":1437,"ĠÑĩÑĥÐ":1438,"ĠÐ³Ð¾Ð»Ð¾Ð²":1439,"ĠÐ¾ÑĤÐ²ÐµÑĤ":1440,"ĠÐķÑģÐ»Ð¸":1441,"²Ð¾Ð²":1442,"ĠÑģÐ¾Ð±":1443,"½Ð½Ð¾":1444,"ĠÐ½ÐµÐ¿":1445,"ÑĥÑĤÑ":1446,"on":1447,"ĠÐ»Ðµ":1448,"Ð¿Ñĭ":1449,"Ð´Ð°Ñ":1450,"ÑĢÐ°Ð±Ð":1451,"¸Ð¼Ðµ":1452,"Ð·Ð°ÑĤÑ":1453,"²Ðº":1454,"ÑĥÐµÑ":1455,"Ð·Ð°ÑĤÑĮ":1456,"ĠÐ´ÐµÐ½Ñ":1457,"ÑĥÐµÑĤ":1458,"ĠÐ´ÐµÐ½ÑĮ":1459,"ÐºÐ¸Ð¹":1460,"Ð°ÐµÐ¼":1461,"¿ÑĢÐ¾":1462,"Ð¾Ð¶Ð¸":1463,"ĠÐ±Ð°":1464,"ĠÐĴÑģÐµ":1465,"ÑĢÐ°ÑĤÑ":1466,"²ÑģÑ":1467,"Ð°Ñİ":1468,"Ð²Ð¾Ð¹":1469,"³Ðµ":1470,"ĤÐ²ÐµÐ½":1471,"ÑĩÐ°Ð»":1472,"Ð¸Ð¼Ðµ":1473,"Ð½Ð°Ð":1474,"ÑĢÐ¸ÑĤÑ":1475,"ĠÐ¾ÑģÐ":1476,"ĠÑģÐºÐ°Ð·Ð°Ð»":1477,"ÑĢÐµÐ´":1478,"Ð¿Ð¸Ñģ":1479,"ÑĤÐµÑ":1480,"ĠÑģÐµÐ¹ÑĩÐ°Ñģ":1481,"ĠÐ°Ð²Ñ":1482,"Ð¾Ð´Ð½":1483,"ĠÐ²ÑģÑĳ":1484,"ĠÐ¾Ð±ÑĬ":1485,"µÑģÑĤÐ":1486,"ĠÐĴÑĭ":1487,"ĠÐºÐ¾ÑĢÐ":1488,"ĠÐ´ÐµÐ»Ð°":1489,"Ð¶ÐµÐ":1490,"ĠÐ¼Ð°Ð»":1491,"Ð´ÐµÐ¹":1492,"ÑģÑĤÑĢÐ°":1493,"ÑĢÐ¸ÑĤÑĮ":1494,"ÑģÑĤÐ²ÐµÐ½Ð":1495,"ðŁ¤":1496,"ÑĩÐ¸Ð½":1497,"Ð½ÑĭÐ¼Ð":1498,"Ð½ÑĭÐ¼Ð¸":1499,"²ÑģÑĤ":1500,"µÑģÑı":1501,"ÐµÐ»Ð¸":1502,"ĠÐ±Ð¾Ð»ÐµÐµ":1503,"ÑĨÑĭ":1504,"ĠÑģÐ¼Ðµ":1505,"Ð·ÑĭÐ":1506,"Ð¾Ð²Ð°ÑĤÑ":1507,"Ð¾ÑģÑĤÐ":1508,"ÑĩÐ¸Ð»":1509,"ÑĤÐ°ÑĤÑĮ":1510,"½Ð¸ÑĩÐµÐ³Ð¾":1511,"ĠÐ´ÑĢÑĥÐ":1512,"Ð½Ð¸ÑĩÐµÐ³Ð¾":1513,"ÑģÑĤÐ²Ð¾":1514,"Ð±Ð¾Ð»":1515,"ÑģÐ²Ñ":1516,"ÑĩÐµÐ¼Ñĥ":1517,"¸Ð»ÑĮÐ":1518,"ĠÐ¿Ð¾ÑĤÐ¾Ð¼":1519,"ÑĢÐ°Ð´":1520,"ĠÑĩÐ°ÑģÑĤ":1521,"ÑĤÐ²ÐµÐ½":1522,"ĠÐºÑĥ":1523,"ÐµÐ¿":1524,"²Ð°ÐµÑĤ":1525,"ÑĤÐ¾Ð²":1526,"ĠÑĢÐ°Ð´":1527,"ĠÑĤÑĢÐµ":1528,"ĠÐļÐ°":1529,"ĠÐ³Ð»Ð°Ð·Ð°":1530,"¸ÑģÑĤ":1531,"ĤÐ¾Ñı":1532,"ÑĤÐ¾Ñı":1533,"ÑĪÐµÐ³Ð¾":1534,"ĠÐ½Ð¸ÑĩÐµÐ³Ð¾":1535,"·Ð´":1536,"ĠÐ¶Ð¸":1537,"ÑģÑĭÐ":1538,"Ð¼ÐµÐ½Ð½Ð¾":1539,"ĠÑĢÐ°Ð·Ð":1540,"Ð»Ð¾Ð²":1541,"ıÐ¼":1542,"ĠÐ²Ð¾Ð¿ÑĢÐ":1543,"Ð¾Ð²Ð°ÑĤÑĮ":1544,"ĠÐ¼Ð¾":1545,"ÑģÐ¸Ð»":1546,"ĠÐ¾ÑĤÐº":1547,"ĠÐ²ÐµÑĢÐ":1548,"Ð¾ÑģÑĤÐ¸":1549,"ĠÑģÐ²Ñ":1550,"Ð·Ð°Ð½":1551,"ĠÑħÐ¾ÑĤÑ":1552,"Ð½ÐµÑ":1553,"ĠÑģÑĤÐ¾ÑĢÐ¾Ð½":1554,"ĠÑĥÑĤ":1555,"ÐµÐ³Ð´Ð°":1556,"),":1557,"ĠÐ²ÑģÐµÐ³Ð¾":1558,"ÑĩÐµÐ¼":1559,"Ð±ÐµÐ":1560,"²Ð°Ð":1561,"ĠÐ´Ð²Ðµ":1562,"en":1563,"·Ð¾Ð²":1564,"ÑĢÐ°ÑĤÑĮ":1565,"ĠÐ¿ÑĢÐ¸Ð½":1566,"ĠÐ´ÐµÑ":1567,"Ð¾Ð½Ðµ":1568,"ĠÐµÑīÑĳ":1569,"ĠÑĩÐµÐ»Ð¾Ð²ÐµÐº":1570,"ÐµÑĤÐµ":1571,"ÐµÑģÑĮ":1572,"ĠÐ¾Ð³":1573,"ĠÐ·Ð°Ðº":1574,"Ð½Ð¸Ð¼":1575,"ÑĢÐ°Ð»":1576,"Ð²Ñģ":1577,"²ÐµÑĢ":1578,"ĠÐ¸Ð¼Ðµ":1579,"Ð¾Ð»Ð¸":1580,"ÐºÐ¾Ð»ÑĮÐºÐ¾":1581,"ĤÐ¾ÑĤ":1582,"ĠÐ¿ÐµÑĢÐµÐ":1583,"ÐŀÐ":1584,"ıÑī":1585,"ĠÐ²Ð¾Ð´":1586,"½Ð¸Ð¹":1587,"ÑĤÐ¾ÑĤ":1588,"Ġ8":1589,"Ð°Ð»Ñģ":1590,"Ð¸Ð¼Ð":1591,"ar":1592,"Ð¸ÐºÐ":1593,"ĠÐ´ÐµÐ¹ÑģÑĤ":1594,"Ð°Ð»ÑģÑ":1595,"ÑģÐºÐ°Ñ":1596,"ÑİÑģ":1597,"Ð¾Ð¶Ðµ":1598,"ĠÐ¾ÑĢÐ":1599,"Ð¿ÑĢÐµÐ":1600,"ĭÑ":1601,"ĠÑģÐ¼Ð¾ÑĤ":1602,"ĠÐ¢Ñ":1603,"ĠÑĩÐµÑĢÐµÐ·":1604,"ÑĪÐ¾":1605,"ĠÐ´Ð¾Ð±":1606,"Ñĸ":1607,"Ð²ÐµÑĢÐ":1608,"ÑģÑĤÑĢÐ°Ð½":1609,"ÑģÑĤÐ²Ð°":1610,"»ÑĭÐ":1611,"Ð«":1612,"ÑģÑĤÐ¾Ð":1613,"ÐµÑģÑĤÐ":1614,"ĠÐºÑĢÐ°ÑģÐ":1615,"ĠÐłÐ¾Ñģ":1616,"ıÑģ":1617,"Ð®":1618,"ÑĩÐ¸Ðº":1619,"ĠÐ´Ð¾ÑĢÐ":1620,"Ð°Ð»ÑģÑı":1621,"ĠÐŁÑĢÐ¸":1622,"ĠÐ§ÑĤÐ¾":1623,"¾ÑģÑĤÐ°Ð":1624,"ĠÐ»Ð°":1625,"ÑĪÐºÐ":1626,"ÑĨÐ¸Ñİ":1627,"ÑĥÑĤÑĮ":1628,"ĠÑģÐ¾Ð¾Ð±":1629,"ÑħÐ¾Ð´Ð¸Ñ":1630,"ÑħÐ¾Ð´Ð¸ÑĤ":1631,"ĠÐ¼Ð½Ð¾Ð³Ð¾":1632,"¶ÐµÐ½Ð":1633,"ÑĪÐºÐ¸":1634,"ĠÑĤÑĢÑĥÐ":1635,"ÑĢÐ°Ðº":1636,"ÑĤÐµÐ»ÑĮÑģÑ":1637,"ÑĩÐ¸ÑĤÐ°":1638,"ĠÐ¶Ð¸Ð·Ð½Ð":1639,"ĠÐ¶Ð¸Ð·Ð½Ð¸":1640,"ĠÐ¢Ñĭ":1641,"ĠÐ½ÑĥÐ¶Ð½Ð¾":1642,"Ð¸Ð½Ñ":1643,"Ð¸Ð³":1644,"¸Ð²Ð°":1645,"¹Ñ":1646,"Ð¾Ð´Ð½Ñ":1647,"ÑĢÑĭÑ":1648,"Ð¸ÑģÐº":1649,"ÑģÑĤÑĥÐ¿":1650,"ÑĦÐµ":1651,"ÑĥÐ»ÑĮ":1652,"¾ÑĦ":1653,"Ð´Ð¸ÑĤ":1654,"Ð»Ð¸ÑĩÐ":1655,"¾Ð±ÑīÐµ":1656,"ĠÑĢÐ":1657,"Ð¸Ð»Ñ":1658,"ÑģÐ¸ÑĤ":1659,"²Ð¸ÑĤÑ":1660,"Ð¾Ð½Ñ":1661,"ÑĢÑĭÑĤ":1662,"or":1663,"st":1664,"²Ð¸ÑĤÑĮ":1665,"Ð¾ÑģÐº":1666,"ĠÐ¿Ð¾Ð¼Ð¾":1667,"ÑģÐºÐ¸Ñħ":1668,"ĠÐ²ÑģÐµÐ³Ð´Ð°":1669,"ĤÐ¸ÑĩÐµÑģÐº":1670,"ÑĬ":1671,"ÑİÑģÑ":1672,"\\\"":1673,"ĠÐ²Ð¾Ð·Ð¼Ð¾Ð":1674,"Ð¾Ð´Ð½Ñı":1675,"ÑĪÐ¸Ð½":1676,"·Ñı":1677,"ÑĩÐµÑĤ":1678,"Ð°Ð¹ÑĤÐµ":1679,"ĠÐŀÐ½Ð°":1680,"ÑģÐ¸Ð¸":1681,"al":1682,"Ð¬":1683,"ĤÑĭÐ":1684,"ÑĢÐ¸Ð»":1685,"ĠÐ¿Ð¾Ð»Ð":1686,"ĠÐ¼Ð¾Ðµ":1687,"ÑģÑĤÐµ":1688,"Ð¾ÑģÑĤÑ":1689,"ĠÑģÑĤÑĢÐ°":1690,"ĠÐ¿Ð¾Ð½Ð¸Ð¼":1691,"ÑģÑĥÐ´":1692,"¹ÑĤ":1693,"ĠÐ¾Ð±Ðµ":1694,"ĠÐ¾ÐºÐ°":1695,"Ð¿Ð»Ðµ":1696,"ÑģÐµÐ½":1697,"ÐµÑĪÑĮ":1698,"ĠÑģÑĤÑĢÐ°Ð½":1699,"ÐºÐ¸Ñħ":1700,"ĠÐ¼Ð°Ñ":1701,"ÑĪÑĥ":1702,"ĠÐ²Ð¾Ð»":1703,"Ð´ÐµÑĢÐ":1704,"ÑĢÐ°ÑĦ":1705,"ÑĢÐ°Ð¼":1706,"¶Ñĥ":1707,"ĠÑģÐ»ÐµÐ´":1708,"ıÑģÑ":1709,"½Ð¾Ð¼Ñĥ":1710,"Ð¼ÐµÑģ":1711,"ĠÑĤÐµÐ¼":1712,"ÑģÐºÐ°Ñı":1713,"ĠÐ¿ÐµÑĢÐµÐ´":1714,"ĠÑĢÐµÐ·":1715,"ÑĢÐ¾Ð½":1716,"ÑİÑģÑĮ":1717,"ÑĭÑ":1718,"ĠÑĤÐ°ÐºÐ¾Ð¹":1719,"Ð¸ÐºÐ¸":1720,"ĠÐ³ÑĢÑĥÐ¿":1721,"½Ñİ":1722,"ĠÑĩÐ°Ñģ":1723,"ÑıÑĤÐ":1724,"ĠÐ±Ð»Ð":1725,"ĠÐ½Ð°Ð¼":1726,"ĠÐ¿ÑĢÐµÐ´ÑģÑĤÐ°Ð":1727,"ÑĩÐ¸Ð½Ð°":1728,"ĠÐ¿ÑĢÐµÐ":1729,"Ð¾Ð³Ð¸":1730,"ÑģÐ»Ð°":1731,"ÑĢÐµÐ´Ð":1732,"ÑĩÐµÐ½Ð¸Ðµ":1733,"ĠÐĲÐ½":1734,"ĠÐĿÑĥ":1735,"ĠÐ¸ÑģÑĤÐ¾":1736,"ÑĤÐ°Ðº":1737,"ĠÑĦÐ¾ÑĤ":1738,"ĠÐ¾Ð±ÑĢÐ°Ð·":1739,"Ð½ÑĥÐ»":1740,"ÑģÐ¿Ðµ":1741,"»Ñĥ":1742,"¶ÐµÐ½Ð¸":1743,"ĠÐ¿ÑĢÐ¾Ð±Ð":1744,"ÑĤÐµÐ¹":1745,"ĠÐľÑ":1746,"ÑģÐ½Ð¾":1747,"±Ð¾Ð¹":1748,"ĠÐŀÑ":1749,"ĠÐµÐ¹":1750,"Ġ.":1751,"ĠÐ¾Ð±Ñī":1752,"ÑĪÐ¸Ðµ":1753,"Ð½ÐµÑĤ":1754,"Ð²Ðº":1755,"Ð¼Ð°Ñ":1756,"ÑĢÑĭÑħ":1757,"¶ÐµÐ½Ð¸Ñ":1758,"Ġ6":1759,"ĠÑĤÐµÐ¿ÐµÑĢÑĮ":1760,"ĠÐ²ÑģÑĤÑĢÐµ":1761,"Ð´Ð°ÑĤ":1762,"ÐºÑĢÑĭÐ":1763,"Ð°Ð½ÑĤ":1764,"ÑģÑĤÐ²ÐµÐ½":1765,"ĠÐŀÑĤ":1766,"Ð°Ð¼Ð¸":1767,"½Ð¸ÑĨ":1768,"ĠÑĩÐ":1769,"ÑıÐ²":1770,"ĠÐ»ÑİÐ´ÐµÐ¹":1771,"Ð¿ÑĥÑģÑĤ":1772,"½Ð°Ñ":1773,"Ð¿Ð»Ð°":1774,"ĠÐ·Ð´ÐµÑģÑĮ":1775,"½Ð¸Ð¼Ð°":1776,"ĠÐ¼ÑĥÐ¶":1777,"Ð¾Ð½Ð":1778,"ÑĢÐ¸Ð½":1779,"ĠÐľÑĭ":1780,"ĠÐ±Ð»Ð°":1781,"²ÑģÑĤÐ":1782,"Ð¾Ð²Ð¾":1783,"ÑĩÐ°Ð»Ð°":1784,"ĠÐ²Ð·Ð":1785,"½Ð¾Ð²Ð°":1786,"Ð°Ð½Ð¸Ð¸":1787,"ĠÑįÑĤÐ¾Ð¹":1788,"Ð¼ÐµÐ½Ñ":1789,"ĠÐ»ÑĥÑĩÑĪÐµ":1790,"ĠÑĢÐ°ÑģÐ¿":1791,"com":1792,"ĠÑģÑĤÐ°Ñ":1793,"ĠÑģÑĤÐ¾Ð":1794,"ĠÑĥÑĩÐ°ÑģÑĤ":1795,"ĮÐµ":1796,"ÐµÐ»ÑĮ":1797,"¾ÑĢÐ¾Ð²":1798,"ĠÐ´Ð²Ð°":1799,"ĠÑģÐ²Ð¾ÐµÐ":1800,"ºÑĥ":1801,"²Ð¾Ð¼":1802,"²Ð¾Ñİ":1803,"ĠÐ½ÐµÐ¹":1804,"ÑĪÐµÐ½Ð":1805,"Ð°Ñħ":1806,"ĠÑģÐ²Ð¾ÐµÐ¹":1807,"ÐºÐ°Ð½":1808,"ĠÐ¾ÑĤÐ½Ð¾":1809,"Ð¿ÑĢÑı":1810,"ÑĪÐ»Ð°":1811,"ĠÐ²Ðº":1812,"Ð´ÑĭÐ":1813,"ĠÐ²Ð¾Ð¾Ð±ÑīÐµ":1814,"·Ñĭ":1815,"Ð´Ð½Ð¾":1816,"ĠÐ¦":1817,"ÑĥÐ³":1818,"·ÐµÐ¼Ð":1819,"ĠÐ´Ð¾Ð»Ð¶Ð":1820,"at":1821,"¸Ð³":1822,"ÑģÐºÐ¸Ðµ":1823,"ÑĤÐµÑĢ":1824,"¸ÑĤÑĮÑģÑı":1825,"ĠÑģÐ²Ð¾Ñİ":1826,"ÑĦÐ¾ÑĢÐ¼":1827,"ÑĢÐµÐ´Ð¸":1828,"ĠÑģÐ¾ÑģÑĤ":1829,"ĠÐ²Ð¸Ð´Ðµ":1830,"ĠÑįÐº":1831,"ĠÐ½ÐµÑģÐºÐ¾Ð»ÑĮÐºÐ¾":1832,"!!!":1833,"ÑĩÐºÑĥ":1834,"»Ð°ÑģÑĮ":1835,"ÐĿÐ°":1836,"ÑıÑħ":1837,"²ÑĢÐ°":1838,"ÐºÐ¾Ð³Ð¾":1839,"ÑģÑĤÐ¾Ð»":1840,"½ÑĥÑĤÑ":1841,"ĮÑĪÐµ":1842,"Ð¾Ð±Ðµ":1843,"ĠÑįÑĤÐ":1844,"ĠÐ´ÐµÑĤ":1845,"ĠÑĤÐ°ÐºÐ¶Ðµ":1846,"ĠÑĢÐ¾Ð":1847,"ĠÐ¶ÐµÐ½Ñī":1848,"½ÑĭÐ¼Ð":1849,"½ÑĭÐ¼Ð¸":1850,"ĠÐ²Ð¾Ð¿ÑĢÐ¾Ñģ":1851,"ÐµÑĤÑ":1852,"»Ð¾Ð¼":1853,"ĠÐ¿ÑĢÐ°Ð²":1854,"ĠÑĢÐ°Ð±Ð¾ÑĤÐ°":1855,"ĠÐĶÐ":1856,"ĠÑĢÐ°ÑģÑģÐºÐ°":1857,"ĠÐ»ÑİÐ´Ð¸":1858,"¾ÑĢ":1859,"ÑĢÐ¸Ñı":1860,"ĠÐ´ÐµÐ²Ñĥ":1861,"¶ÐµÐ½Ð¸Ñı":1862,"¶Ð°Ñ":1863,"ĠÐ¿Ð¾ÑĤÐ¾Ð¼Ñĥ":1864,"ÑĢÐ°Ð·Ñĥ":1865,"ÑıÑ":1866,"Ð¾ÑĤÑ":1867,"Ð¶ÐµÐ½":1868,"ÑģÐµÐ¼":1869,"ÑĢÐ°Ñģ":1870,"Ġ7":1871,"ĠÐ¿Ð¾Ð·Ð":1872,"ÑĢÐµÐ½Ð":1873,"ĠÐ²ÑģÐµÐ¼":1874,"Ð»Ð¸Ñ":1875,"ĠÑįÑĤÐ¸":1876,"ÑĩÐ°Ð¹":1877,"½ÑĥÑĤÑĮ":1878,"»ÐµÐ½":1879,"ðŁĳ":1880,"ÑĪÐ»Ð¸":1881,"Ð³Ð¾ÑĤÐ¾Ð²":1882,"\".":1883,"ĠÐ¾ÑĢÐ³":1884,"ĠÑģÑĥÐ´":1885,"ĠÐ´Ð¾Ð¼Ð°":1886,"ĠÐ»ÐµÐ³":1887,"Ð¸Ð½Ñĭ":1888,"²Ð»Ðµ":1889,"ÑģÐ¸Ð±Ð¾":1890,"ĠÐ´Ð¸":1891,"Ð¼ÐµÑĢ":1892,"ÑĢÐµÐ¹":1893,"\",":1894,"ĤÐ¾Ð³Ð´Ð°":1895,"ÑĤÐ¾Ð³Ð´Ð°":1896,"ĠÑĤÐ¾ÑĤ":1897,"ÑĩÐ¸ÑĤÑ":1898,"ÑĩÐµÐ½Ð":1899,"ıÑģÑĮ":1900,"ĠÐ²Ð¾Ð¹":1901,"ĠÐ½Ð¸Ð¼":1902,"ĠÑĩÐµÐ³Ð¾":1903,"ÑĩÐ¸ÑĤÑĮ":1904,"²Ð¼ÐµÑģ":1905,"ĠÐµÑ":1906,"Ġ10":1907,"Ð²Ð¼ÐµÑģ":1908,"ÑĪÐ¸Ð¼":1909,"²Ð¸Ðµ":1910,"ĠÐ¿Ð¾ÑģÐ»ÐµÐ´Ð":1911,"ÑĪÐ¸ÑģÑĮ":1912,"Ð¿Ñĥ":1913,"20":1914,"ĠÐ¿ÑĢÐ¾ÑģÑĤ":1915,"²ÑĭÐ¹":1916,"ÑĥÐ¶Ð":1917,"ĤÐ¾Ð¹":1918,"ĠÐ½Ð°Ð´":1919,"ĠÐ´Ð¾ÑĢÐ¾Ð³":1920,"ĠÑģÑĤÐ¾Ð»":1921,"½ÑĥÐ»":1922,"²Ð½Ð¾":1923,"»Ð¾Ð":1924,"ĠÐ¿ÑĢÐ¾Ð³":1925,"ÑĨÐ¸Ð°Ð»ÑĮÐ":1926,"Ð°Ð»Ðµ":1927,"ÑħÐ¾":1928,"Ð¿Ð¾Ð³":1929,"Ð²Ð¸Ð½":1930,"ĠÐ²Ð¼ÐµÑģ":1931,"Ð¿Ð»Ð¾":1932,"²Ñĥ":1933,"ĤÐ¾Ð½":1934,"±Ð°Ð":1935,"Ð¼Ð¸Ð½":1936,"ÑĢÑıÑĤ":1937,"½Ð¾ÑģÑĤÑĮÑİ":1938,"ÑĪÐµÐ½Ð¸":1939,"ðŁĴ":1940,"Ð¾ÑģÑĤÑĮ":1941,"ĠÐ¿ÑĢÑı":1942,"ÑĢÐ°Ð½Ð":1943,"ĠÐ»Ð¸ÑĪÑĮ":1944,"ĠÑĥÐ²Ð¸":1945,"ĠÐ¿Ð»Ð°":1946,"Ð¿Ð¾":1947,"Ð¸Ð»ÑĮ":1948,"ĠÑģÐ¸Ð»":1949,"ĠÐ¾Ð´Ð½Ð°":1950,"Ð¸Ð½Ð":1951,"ÑħÐ¸":1952,"ĠÑģÐ¾Ð¾Ð±Ñī":1953,"ĠÑĥÐº":1954,"ÑĤÐ¸ÑĩÐµÑģÐº":1955,"ĠÐ²Ð·Ð³":1956,"ĠÐ¿Ð¾ÑĩÑĤ":1957,"ĠÑĤÐ¾Ð³Ð´Ð°":1958,"ĠÑĢÑı":1959,"ĠÐ¸ÑģÐº":1960,"ÐºÐ¾ÑĤ":1961,"ÑģÐ¾":1962,"Ð¾Ð´Ð°":1963,"Ð¶Ð¸":1964,"ĭÑģ":1965,"ĠÐ²Ð·Ð³Ð":1966,"ĠÐ²Ð·Ð³Ð»":1967,"ÑĳÑ":1968,"½Ð°Ñı":1969,"ĠÐ¼ÐµÑ":1970,"ÑįÐ":1971,"ÑĢÐ¸Ðº":1972,"ĠÐºÐ°ÐºÐ¾Ð¹":1973,"ĠÐ¶Ð¸Ð·Ð½Ñ":1974,"ĠÐ´Ð½":1975,"ÐºÐ¸Ðµ":1976,"Ð·ÐµÐ¼Ð":1977,"ĠÐĴÐ¾ÑĤ":1978,"ÑĢÐ¾Ð²Ð°":1979,"ĠÐ¶Ð¸Ð·Ð½ÑĮ":1980,"ĠÐ¿Ð¾Ð³":1981,"ÑįÑĤÐ¾Ð¼Ñĥ":1982,"Ð¾Ð´Ð¸Ñ":1983,"ĠÐ´Ð¾ÑģÑĤ":1984,"ÑĭÑģ":1985,"es":1986,"ĤÑĢÐ¾":1987,"±Ð°Ð½":1988,"Ð¶Ð°":1989,"±ÑĥÐ´Ñ":1990,"±ÑĥÐ´ÑĮ":1991,"ĠÐ¼ÐµÐ¶Ð´":1992,"ĢÑİ":1993,"ĠÐ²ÑģÑ":1994,"ĠÑģÐ²Ð¾Ð¸":1995,"ÑĢÐµÑĤÑ":1996,"ÐºÐ°Ð¼Ð¸":1997,"ĠÑģÐ¿Ðµ":1998,"ĠÐµÑĳ":1999,"Ð°Ð»Ð¾":2000,"ÑģÑĥ":2001,"ÑĪÐ°Ñı":2002,"ĠÐ¶Ð´":2003,"ĠÐ±ÑĭÑģ":2004,"¸ÑĩÐ":2005,"ÑĤÐ°Ð¹":2006,"ĠÐ²ÑĭÐ´":2007,"ĠÐĴÐ°":2008,"ÑĤÑĭÐ":2009,"ĠÐ¿Ð»Ð¾":2010,"Ð¾Ð´Ð¸ÑĤ":2011,"ĠÐ·Ð½Ð°Ñİ":2012,"ĠÑģÐ¿Ð°":2013,"ĤÐ¾ÑĢ":2014,"·Ðµ":2015,"ĠÐ³Ð¾Ð´Ñĥ":2016,"Ð½Ð¸Ð±ÑĥÐ´ÑĮ":2017,"ĠÑĤÐµÑħ":2018,"ĠÐ²ÐµÐ´ÑĮ":2019,"Ð´Ð°ÑĤÑ":2020,"://":2021,"ÑĢÐ½":2022,"ĠÑħÐ¾ÑĢÐ¾ÑĪÐ¾":2023,"Ð½ÑĥÑİ":2024,"ÑĩÑĳ":2025,"ĠÐ´Ð¾Ñģ":2026,"ÐĻ":2027,"Ð¼Ð¿":2028,"Ġ9":2029,"ĠÑģÐ²Ð¾Ð¹":2030,"ĠÑģÐ¿ÑĢÐ¾":2031,"ru":2032,"»ÑĮÐ½Ð¾":2033,"ÑĢÐ°Ðµ":2034,"ÑıÑĤÐ¸":2035,"ĠÑĤÑĢÐ¸":2036,"ÑģÑĥÑī":2037,"¸ÑĨÐ°":2038,"ÑģÑĢÐ°Ð·Ñĥ":2039,"ĠÐ¿Ð¾Ñħ":2040,"ĠÐ¿ÑĢÐ¾Ð´Ð¾Ð»":2041,"ĠÑİ":2042,"ĠÐ·ÐµÐ¼Ð":2043,"Ð²ÐµÑģÑĤ":2044,"ĠÑģÐ¸Ð»ÑĮÐ":2045,"ĠÑĥÐ²Ðµ":2046,"Ð²Ð°Ð":2047,"ÑĤÐµÑĢÐ¸":2048,"ĠÑĩÐµÐ»Ð¾Ð²ÐµÐºÐ°":2049,"±Ð¾":2050,"ĠÐ´Ð¾Ð²":2051,"ÑĤÐ¾Ð¹":2052,"Ð¸ÑĤÑĮÑģÑı":2053,"ÑĢÐ¾Ð¿":2054,"ÑĤÐ¾Ð½":2055,"ĠÐ¾ÑģÐ½Ð¾Ð²":2056,"Ð»Ð°Ð²":2057,"Ð¾Ð³Ð»Ð°":2058,"ĠÑģÑĢÐ°Ð·Ñĥ":2059,"ÑĪÐµÐ½Ð¸Ðµ":2060,"ĠÑĤÑĢÑĥÐ´":2061,"ĠÑĩÐ¸":2062,"ÑĩÐµÐ½Ð¸":2063,"ÑĢÐ¿":2064,"Ð¸Ð½Ñĥ":2065,"ĠÑĩÐ°":2066,"Ð·Ð°Ð»Ð°":2067,"ĠÐºÐ¾Ð½Ðµ":2068,"ÑĤÐ°Ð¼Ð¸":2069,"¸Ð´":2070,"it":2071,"Ð´ÐµÑĤÑ":2072,"µÑģÑĤÐ¸":2073,"ĠS":2074,"ÑĪÐ»":2075,"ĠÐ²ÑĭÑħ":2076,"Ð¼Ð¾Ðµ":2077,"ĠÐ³Ð¾ÑĤÐ¾Ð²":2078,"ĠÐ±ÑĥÐ´ÑĥÑĤ":2079,"ĠÑģÐ¿Ð¾Ñģ":2080,"ÑĭÐ¼Ð":2081,"Ð¾ÑĢÑĤ":2082,"ÑĭÐ¼Ð¸":2083,"ÑĨÐµÐ²":2084,"Ð½ÐµÐµ":2085,"ĠÐ²ÑģÑı":2086,"ĠÐ¿Ð¾ÑĩÐµÐ¼Ñĥ":2087,"ĠÐ´Ð°Ð²":2088,"¹ÑĤÐ":2089,"ĠÐ¼Ð°Ð³":2090,"ĠÑĤÐµÐ»Ðµ":2091,"Ð¿Ð¾ÑıÐ":2092,"Ð´ÐµÑĤÑĮ":2093,"Ð²ÑĢÐ°":2094,"ĠÐ»Ð¸ÑĨ":2095,"¹ÑĤÐ¸":2096,"ĠÐ¿Ð¾ÑıÐ":2097,"Ð¿Ð¾Ð¹":2098,"ÑĳÑĤ":2099,"³Ð¾Ð´Ð½Ñı":2100,"ĠÐ¼Ð¾Ð»Ð¾Ð´":2101,"ÑĪÐµÐ½Ð¸Ñ":2102,"ÑĭÑĤ":2103,"ï¸":2104,"ĠÐ¿ÑĢÐ¾Ð±Ð»Ðµ":2105,"ĠÐ·Ð°ÐºÐ¾Ð½":2106,"ÑĩÐ°ÑĤÑ":2107,"ï¸ı":2108,"ÑĪÐ°ÑĤ":2109,"¸ÑĤÑģÑı":2110,"ĠÐºÐ¾Ð¼Ð°Ð½":2111,"ĠÑģÑĥÑī":2112,"ĠÐ°Ðº":2113,"ÑĢÑĨ":2114,"¾Ð»Ñ":2115,"Ð´Ð°ÑĤÑĮ":2116,"Ð²Ð°Ð»":2117,"ĠÐºÑĢÐµ":2118,"ÑĩÐ°ÑĤÑĮ":2119,"²Ð°ÑİÑĤ":2120,"ĠÐ¼Ð¾Ð¼":2121,"ĠÐ¾ÑģÑĤÐ°":2122,"ĠÑģÐ²Ð¾Ð¸Ñħ":2123,"ÑģÑĥÑĤ":2124,"Ð»Ð°ÑģÑĤ":2125,"Ð¾ÑģÑĤÐµÐ":2126,"¸ÑĤÐµÐ»ÑĮÐ":2127,"ÑĢÐµÑĤÑĮ":2128,"vk":2129,"Ġhttps":2130,"ÑħÐ¾Ð²":2131,"ĠÐŀÐ½Ð":2132,"____":2133,"ĠÑģÐµÐ³Ð¾Ð´Ð½Ñı":2134,"¾Ñı":2135,"ĠÐŀÐ½Ð¸":2136,"¸Ð¼ÐµÐ½Ð½Ð¾":2137,"Ð²Ð¸Ðµ":2138,"ĠÑĤÑĢÐ°Ð":2139,"ÑģÑĥÐ":2140,"Ð¼Ð½Ð¾Ð³Ð¾":2141,"Ð¸Ð¼ÐµÐ½Ð½Ð¾":2142,"ĠÐ¿Ð¾ÑģÐ¼Ð¾ÑĤ":2143,"ĠÐ´Ð²Ð¸Ð":2144,"ĠÐ²ÑĢÐµÐ¼ÐµÐ½Ð¸":2145,"Ð¸ÑĨÐ°":2146,"ÑĩÐµÐ½Ð¸Ñ":2147,"ÐµÐ½Ðµ":2148,"²Ð¿Ðµ":2149,"ÐĿÐµ":2150,"Ð²Ð¿Ðµ":2151,"ÑĤÐµÐ»Ñı":2152,"Ð¸Ð»Ð¾ÑģÑĮ":2153,"ĠÑĪÐº":2154,"ĠÐ½ÐµÐµ":2155,"½Ð¾ÑĢÐ¼":2156,"ĠÐ»Ð":2157,"ÑĤÑĢÐ¾":2158,"ÑĢÐ°Ð²Ð¸":2159,"ĠÐ²Ð¾Ð·Ð¼Ð¾Ð¶Ð":2160,"ĠÑģÐ²Ðµ":2161,"Ð½Ð¾ÑĢÐ¼":2162,"½ÑĥÐ»ÑģÑı":2163,"ðŁ¤£":2164,"Ð¾ÐºÐ°":2165,"ÐµÐ½Ð°":2166,"ÑģÐ¾Ð»":2167,"Ð¾Ð¼Ð":2168,"ĠÐ½Ð¸ÐºÐ°":2169,"ĤÐ²Ñĥ":2170,"ĠÑĤÑıÐ":2171,"ĠÐ¾ÑĦ":2172,"Ð½Ð¾ÑģÑĤÐ¸":2173,"Ð¿ÑĢÐ°Ð²":2174,"ĠÐ¸Ð¼ÐµÐ½Ð½Ð¾":2175,"ĠÐ²Ð¿Ðµ":2176,"Ð²Ð¸Ð":2177,"Ð½Ð°ÑĤ":2178,"ĠÐ¸ÑģÐ¿Ð¾Ð»ÑĮÐ":2179,"¶Ð°ÑĤ":2180,"ĠÐłÐ¾ÑģÑģÐ¸Ð¸":2181,"ÑĩÐ¸Ð":2182,"Ð»Ñĥ":2183,"ĠÑģÐ¾Ð²ÐµÑĢ":2184,"ĠÑĦÐ¾ÑĢÐ¼":2185,"Ġ201":2186,"ĠÐ´ÐµÐ»Ð¾":2187,"ĠÐ±ÐµÑģÐ¿":2188,"ÑĪÐµÐ½Ð¸Ñı":2189,"¾Ð³Ð°":2190,"²Ð°Ð½":2191,"ıÑģÐ½":2192,"ĠÑģÐ²ÐµÑĤ":2193,"ĠÐ³Ð°":2194,"ÑĥÑİÑī":2195,"ĠÐ¼ÐµÑģÑı":2196,"ÑģÑİ":2197,"ĠÐ³Ð¾Ð»Ð¾Ñģ":2198,"²Ð½Ðµ":2199,"ÑĢÑĮÐµ":2200,"ĠÐ±Ð¸":2201,"Ġc":2202,"²ÑĭÐµ":2203,"ĠÑĤÐ°ÐºÐ¾Ðµ":2204,"¸Ð»Ð¸Ñģ":2205,"½Ð¾Ð³":2206,"ĠÐ¿Ð¾ÑĩÑĤÐ":2207,"ĠÐ½Ð¾ÑĢÐ¼":2208,"ĠÑģÑĤÐ¾Ð¸":2209,"ĠÐľÐ¾Ð":2210,"ÑĩÐµÐ½Ð¸Ñı":2211,"ĠÐ¸Ð½ÑĤÐµÑĢÐµ":2212,"ÑģÑĤÐ¾Ñı":2213,"ĠÑĥÐ»ÑĭÐ":2214,"ĠÐºÐ¸":2215,"000":2216,"ĭÑĪ":2217,"ÑıÑģÐ½":2218,"ĠÐŁÐ¾Ð´":2219,"ÐŁÐ¾":2220,"ĠÐºÐ½Ð¸Ð":2221,"ÑĩÑĤÐ¾":2222,"ĠÐ¿Ð¾ÑĩÑĤÐ¸":2223,"ĠÑģÐ»ÑĥÑĩÐ°":2224,"±ÑĢÐ¾":2225,"µÑģÑıÑĤ":2226,"²Ð¾Ð½":2227,"ĠÐ¿Ñĭ":2228,"ÐŀÐ½":2229,"ĠÐ²Ð·Ð³Ð»Ñ":2230,"ĠÐ²Ð·Ð³Ð»Ñı":2231,"Ð°Ð»Ð¸ÑģÑĮ":2232,"ĤÐµÐ½":2233,"ĠÐ¡Ð°":2234,"¸Ð»Ð¸ÑģÑ":2235,"Ð´ÑĥÐ¼":2236,"ÑĨÐ¸Ð¾Ð½":2237,"Ð±Ð°Ð":2238,"ĠÐ¿Ð¾Ð±Ðµ":2239,"el":2240,"ĠÑģÑĤÐ°Ð»":2241,"Ð¼Ð¾Ð½":2242,"ĠÐ¼ÐµÐ¶Ð´Ñĥ":2243,"ĤÑĭÑģ":2244,"ĠÑĥÐ´Ð°":2245,"ĠÐ¼Ð¾Ð³Ñĥ":2246,"Ð¾Ð»Ñı":2247,"ÑĤÑĭÑģ":2248,"¾Ð¿":2249,"ĠÑĢÐ°Ð½":2250,"ĠÐ¿ÑĥÑģÑĤ":2251,"ĠÐ´ÐµÐ»Ð°ÑĤÑĮ":2252,"ĠÐºÐ¾ÑĤÐ¾ÑĢÐ°Ñı":2253,"·Ð½Ð°Ð":2254,"ÑĢÐ¾Ð¹":2255,"ÑıÑī":2256,"ÐµÐ»Ð°":2257,"ÑģÑģ":2258,"ĠÐ²ÑĤÐ¾ÑĢÐ":2259,"ĠÐ¼Ð¾Ð¶Ðµ":2260,"ĠÑĤÑĥ":2261,"²Ð¾Ñģ":2262,"ĠÑħÐ¾ÑĤÑı":2263,"³Ñĥ":2264,"ĠÐĺÐ½":2265,"±Ð¾Ð´":2266,"ĠÐ²Ð¾ÑģÐ¿":2267,"Ð»Ð»Ð¸":2268,"ĠÐºÐ¾Ð½ÐµÑĩÐ½Ð¾":2269,"²Ð°ÐµÑĤÑģÑı":2270,"ĠÐ¿ÑĢÐµÐ´Ð¿":2271,"Ð´ÑĨÐ°":2272,"ĠÑģÐ¾Ð²ÑģÐµÐ¼":2273,"¸Ð»Ð¸ÑģÑĮ":2274,"ĠÐºÑĥÐ¿":2275,"Ð½ÐµÐ¹":2276,"Ð¾ÑıÐ½":2277,"ou":2278,"ÑĤÐµÐ»Ð¸":2279,"ÑĪÐ¸Ð":2280,"....":2281,"ĠÑģÐ½Ð¾Ð²Ð°":2282,"ÑİÑīÐ¸Ñħ":2283,"Ð²Ð°ÑĤÑ":2284,"Ð½Ð¸ÐºÐ":2285,"Ð²Ð¾Ð²":2286,"ĠÐ¿Ð»Ðµ":2287,"»Ð¸ÑģÑĮ":2288,"ĠÑĢÑĥÑģ":2289,"ĠÑģÑĤÐ°ÑĤ":2290,"Ġ:":2291,"²ÑģÑĤÐ²":2292,"ÑĢÐ°Ð¹":2293,"ĠÑģÐ´ÐµÐ»Ð°ÑĤÑĮ":2294,"Ð²Ð°ÑĤÑĮ":2295,"ĠÐ¼Ð¾Ð¹":2296,"ĠÑģÐ²Ð¾ÐµÐ³Ð¾":2297,"ĠÐ½Ð¸ÐºÐ¾Ð³Ð´Ð°":2298,"ĤÐ²Ð¾Ð":2299,"¾ÑģÑĤÐ":2300,"ÑĤÐ²Ð¾Ð":2301,"ic":2302,"ÑĤÐµÐ½":2303,"ÐµÐ½Ñĭ":2304,"ĠÐĴÐ":2305,"ÑĢÐ¸Ð¹":2306,"³Ð°Ñ":2307,"ĠÑĤÐ°ÐºÐ¸Ðµ":2308,"ĠÐ´ÐµÑĢÐ":2309,"ÑĢÑĥÑİ":2310,"¾ÑģÑĤÐ¸":2311,"ĠÐ½ÐµÐ¾Ð±":2312,"ÑĤÐµÐ¼":2313,"ĠÑĤÑĭÑģ":2314,"²Ð½":2315,"ÑģÐ¼Ð":2316,"ĠÑĢÑĭÐ":2317,"¶Ð´ÐµÐ½Ð¸Ñı":2318,"ÑĦÐ¾ÑĢÐ¼Ð°":2319,"³Ð¾Ñģ":2320,"ĠÐ¿ÑĢÐ¾Ð¿":2321,"Ġ15":2322,"ĠÐ°Ð´":2323,"ĠÑĢÑĥÐºÐ":2324,"ĠÑĢÑĥÐºÐ¸":2325,"Ġ18":2326,"ĠÐ¿ÑĢÐ¾ÑĤÐ¸Ð²":2327,"ĠÑĢÑĥÐºÐ°":2328,"ĠÐºÐ°ÑĢÑĤ":2329,"Ð½Ð¸ÐºÐ¸":2330,"ĠÐºÐ¾Ð³Ð¾":2331,"ĠÐ¿Ð¾Ð¹":2332,"ÐºÐ°ÑĤ":2333,"ĠÐ¼Ð¸Ð½ÑĥÑĤ":2334,"ĤÐ¸Ñħ":2335,"??":2336,"ÑĢÐµÐ±":2337,"ĢÑĤÐ°":2338,"ĠÐĲÐ»Ðµ":2339,"ĠÐ¾Ð±Ñĭ":2340,"ÑĪÐºÐ¾Ð¼":2341,"Ð½Ð¸ÐºÐ¾Ð²":2342,"ÐµÑĢÐ°":2343,"»ÑĥÐ±Ð":2344,"ÑģÐ¾Ðº":2345,"ÑģÐºÐ¾Ð¼":2346,"ĠÐ¾Ñħ":2347,"Ð³Ð¾Ñģ":2348,"ĠÐ¼ÐµÑģÑĤÐ¾":2349,"»ÑĥÐ":2350,"ĠÑĤÐ²Ð¾Ð":2351,"ÑĩÐ¸Ð²":2352,"ÐºÐ°Ñħ":2353,"ĠÐ¿ÑĢÐ¾Ð¸Ð·":2354,"ĠÐ¿Ð¸Ñģ":2355,"ĠÑģÐ¼Ð":2356,"ĠÑħÐ¾ÑĤÐµÐ»":2357,"ÑĤÐ¸Ñħ":2358,"ĠÑģÐ¾ÑģÑĤÐ°Ð":2359,"ĠÐļÐ":2360,"ĠÑįÑĤÑĥ":2361,"ĠÐ²Ð¼ÐµÑģÑĤÐµ":2362,"ĠÑĥÐ±Ð":2363,"Ð´Ð½Ð°":2364,"¾ÑģÑĤÑ":2365,"¶Ð¸Ñ":2366,"ĠÐ¿Ð¾Ð»Ð¸":2367,"ÑĪÐ°ÑĤÑ":2368,"ĠÑģÐºÐ°Ð·Ð°ÑĤÑĮ":2369,"ÑģÑĤÑĢÐ°Ð":2370,"ĠÐ¿ÑĢÐµÐº":2371,"re":2372,"ÑĤÐ¾ÑĢÐ°":2373,"ĠÑħÐ¾Ð»":2374,"ĠÐľÐ":2375,"ÑĢÐ¾Ð²Ð":2376,"ÑĤÐ°Ð²":2377,"ĠÑģÐ¾Ð±Ð¾Ð¹":2378,"¸Ð½Ðµ":2379,"ÑģÑĩÐ°ÑģÑĤ":2380,"ĠÑĢÐ°Ð±Ð¾ÑĤÑ":2381,"ĠÑĢÐ°Ð±Ð¾ÑĤÑĭ":2382,"±ÑĢÑı":2383,"oÐ":2384,"ĠÑģÐµÑĢÐ´":2385,"ĠÑįÑĤÐ°":2386,"ĠÑģÐµÐº":2387,"ĠÐ³Ð¾Ð²Ð¾ÑĢÐ¸":2388,"ĠÐ½Ð°Ð¿Ð¸Ñģ":2389,"»ÐµÐ¹":2390,"²Ð¾ÑĢÐ":2391,"ÑĪÐ°ÑĤÑĮ":2392,"ĠÐ²Ð°Ð":2393,"ĤÑĥÐ°":2394,"ĠÐºÐ¾Ð¼Ð¿":2395,"ÑĤÑĥÐ°":2396,"Ð´Ñı":2397,"Ð¸ÑĩÐ":2398,"Ð»Ð¸Ð½":2399,"²ÐµÐ·":2400,"·ÑĮ":2401,"ÑĪÐ»Ð¾":2402,"ĠÐ·Ð°Ð¼ÐµÑĤ":2403,"ÑıÐ¼Ð¸":2404,"Ð¾Ð»Ð¾":2405,"ĠÐ®":2406,"ĠÐºÐ²Ð°":2407,"ĠÐ¾ÑģÑĤ":2408,"ĠÐ½Ð°ÑĢÐ¾Ð´":2409,"ÑģÑĤÑĢÐ¾Ð":2410,"ÑĤÐ°Ñı":2411,"Ð±ÐµÐ½":2412,"ĠÑģÐ»Ð°":2413,"Ð»Ð°Ð¹":2414,"¸Ð»Ð°ÑģÑĮ":2415,"Ð¸Ð½Ð°Ð":2416,"ĠÑģÑĤÐ¾Ð¸Ñ":2417,"ĠÑģÑĤÐ¾Ð¸ÑĤ":2418,"Ð¾Ð±ÐµÐ":2419,"ĠÐļÐ¾Ð³Ð´Ð°":2420,"ĠÐ½Ñĥ":2421,"Ð²Ð¸Ñı":2422,"ÑĤÐµÐ»ÐµÐ¹":2423,"ĠÐ¶Ð¸Ð²":2424,"ÑĤÐ°Ñħ":2425,"ĠÐ°Ð¿":2426,"ÑĤÐ²Ñĥ":2427,"ĠÑģÑĩÐ°ÑģÑĤ":2428,"ĠÑģÐ¾ÑĤ":2429,"ÑīÐ°Ñ":2430,"Ð°ÐµÑĪÑĮ":2431,"ÑģÐ¼":2432,"Ð±Ð¾Ð²":2433,"ĤÐµÑģÑĮ":2434,"ÐĿÐĺ":2435,"Ð¡Ð¢":2436,"Ð¸Ð»Ð¸Ñģ":2437,"ĠÐĺÐ·":2438,"¾ÑģÑĤÑĮ":2439,"ĠÐ¿Ð¾Ð´Ð½":2440,"¶Ð´Ð°":2441,"ĠÐ²ÐµÐ»Ð¸":2442,"ĠÑĤÐ¾Ð»":2443,"Ð°Ð½Ñĭ":2444,"ĠÑģÐ´ÐµÐ»Ð°":2445,"ĠÐ¼Ð¾Ð³ÑĥÑĤ":2446,"ÑĢÐºÐ°":2447,"ĠÑıÐ²Ð»Ñı":2448,"Ð´ÑĨÐ°Ñ":2449,"Ð´ÑĨÐ°ÑĤ":2450,"ÑģÑĤÑĢÐµ":2451,"Ð²Ð½Ðµ":2452,"ÑĢÑİ":2453,"am":2454,"Ð¿Ð»Ð°ÑĤ":2455,"ĠÐĿÐµÑĤ":2456,"ĠÑĥÐ»Ð¸":2457,"ĠÐ±Ð¾":2458,"Ð´ÑĢÑĥÐ³":2459,"ÑĭÑĪ":2460,"ÐµÐ½ÑĤÑ":2461,"ÑİÑīÐ¸Ð¹":2462,"Ġt":2463,"ĠÐĽÑİ":2464,"ÑĩÐ½ÑĭÐ¹":2465,"Ð¸Ð»Ð¸ÑģÑ":2466,"ĠÑĤÐ¾ÑĢÐ":2467,"ÑĥÐ·":2468,"ÑĢÑĥÐµ":2469,"19":2470,"Ð¾Ð¿Ð°":2471,"Ð½Ð¾Ð³":2472,"ĠÐ½Ð¸Ð":2473,"Ð°Ð»ÑĮÐ½Ð¾":2474,"Ð¾Ð½Ð°Ð»ÑĮÐ":2475,"ÑĪÐ¸Ð»":2476,"²ÐµÐ":2477,"ĠÐ°ÐºÑĤ":2478,"ĠÑĪÐ¸":2479,"ĠÐ³Ð¾Ñģ":2480,"Ð³Ðµ":2481,"»Ð¾ÑĤ":2482,"ĠÐ²ÐµÑģÑĮ":2483,"ÑģÑĩÐ¸ÑĤÐ°":2484,"ĠÑĥÑģÐ":2485,"et":2486,"Ð¸ÑĤÐµÐ»ÑĮÐ":2487,"ĠÑħÐ":2488,"ÑģÑĤÑĢÑĥÐ":2489,"ÑģÑĥÐ¼":2490,"ww":2491,"Ð»Ð°Ð»":2492,"ÑģÐ¾Ð³Ð»Ð°":2493,"¸ÑģÑĤÐµ":2494,"ÑĩÐ½Ð¾Ð¹":2495,"ĠÐ´ÐµÐ½ÑĮÐ":2496,"ĠÑĥÐ³":2497,"ĠÐ¿Ð¾Ð¶Ð°Ð»":2498,"ĠÐ¿Ñ":2499,"Ð¸Ð´":2500,"ĠÐ´Ð¾Ðº":2501,"Ð¿Ð¾Ð¼Ð":2502,"»Ð¾Ð¶Ð":2503,"ĠÐ·Ð´Ð¾ÑĢÐ¾Ð²":2504,"ĠÐ·Ð½Ð°Ð":2505,"ĠÑĥÐ¶":2506,"ÑģÐ¸ÑĤÑ":2507,"ÐµÐ½Ð¸Ñİ":2508,"½Ð¸ÐºÐ¾Ð²":2509,"ĠA":2510,"ĠÑģÐ»Ð¾Ð²Ð°":2511,"ÑģÐ¸ÑĤÑĮ":2512,"ĠÐ·Ð°Ð½":2513,"ĠÐ¾ÑĤÐ²Ðµ":2514,"Ð´ÐµÐ»Ð°":2515,"Ð¸Ð»Ð¸ÑģÑĮ":2516,"Ð¸Ð²Ð°":2517,"ÑĢÐ¾Ð¼Ðµ":2518,"ĠÑĨÐµÐ»":2519,"ÑĢÐ¸ÑģÑ":2520,"ÑĪÐµÐ¼":2521,"Ð±Ð°Ð½":2522,"ÑĨÐ²ÐµÑĤ":2523,"ĠI":2524,"ÑĪÐºÑĥ":2525,"ĠÐ´Ð¾Ð»Ð¶ÐµÐ½":2526,"ĠÐºÐ¾ÑĤÐ¾ÑĢÑĭÑħ":2527,"ĠÐľÐ½Ðµ":2528,"ÐµÐº":2529,"Ð´ÑĢÐ°Ð":2530,"ÑģÑĤÑĢÐ":2531,"Ð·Ð°Ð´":2532,"³ÑĥÐ":2533,"Ŀ¤":2534,"ĠÑģÑĥÐ¼":2535,"ĠÐ²Ð½Ðµ":2536,"ÐłÐŀ":2537,"ĠC":2538,"ÑĢÐµÐ½Ñ":2539,"ÑħÐ²Ð°ÑĤ":2540,"ÑĦÐ¾Ð½":2541,"Ð°Ð½Ð°":2542,"Ð°Ð»Ð¾ÑģÑĮ":2543,"ÑĢÐ°Ð½Ð¸":2544,"½Ð¾Ð²Ð":2545,"ĠÐ½Ð°Ð·":2546,"ch":2547,"»Ð¸Ð":2548,"²ÐµÑĢÑħ":2549,"ĠÑģÐ¾Ð³Ð»Ð°":2550,"Ġp":2551,"½Ð¸ÐºÐ":2552,"ĠÑģÑĤÐµ":2553,"ĠÐ¾Ð±ÑĢÐ°ÑĤ":2554,"ÑĩÐµÑģÑĤÐ²Ð¾":2555,"ĠÐ½Ð¾Ð³":2556,"ĠÐºÑĥÐ´Ð°":2557,"ĠÐ½Ð°ÑĩÐ°":2558,"ÑĥÐ»Ñı":2559,"Ð´ÐµÐ½Ð":2560,"ĤÐ²Ð¸Ðµ":2561,"ĠÐ½Ð°Ð·ÑĭÐ":2562,"ÑĤÐ°Ð¼":2563,"ĠÐºÐ¾ÑĤÐ¾ÑĢÐ¾Ð¹":2564,"Ð²Ð¸ÑĤ":2565,"»Ð¾Ð½":2566,"½Ð¸ÐºÐ¸":2567,"Ð·Ð°Ð»Ð¾ÑģÑĮ":2568,"ÑĢÑĥÐ´":2569,"Ð´ÐµÑĢÐ¶Ð":2570,"ĠÑĤÐµÐ¼Ð":2571,"²Ð¾Ðµ":2572,"ĠÐ¿ÑĢÐ¾Ðµ":2573,"ĠM":2574,"ÑĢÐ½Ð¾":2575,"ĠÐºÐ»Ð°Ñģ":2576,"ĠÐĴÐµ":2577,"ÑĪÐ¸Ñ":2578,"ĠP":2579,"ĠÑĢÐ°Ð¹":2580,"ÑĢÐ°Ð½Ñ":2581,"ÑĢÐµÑģÑ":2582,"ĠÐ¡Ð":2583,"ĠÑģÑĩÐ¸ÑĤÐ°":2584,"ÑĳÐ½":2585,"»Ð°ÑģÑĤ":2586,"ĠÐ¾Ð¿ÑĢÐµ":2587,"ÑĪÐ¾Ð¹":2588,"¸ÑĤÐ°":2589,"ÐµÐ½Ð¸Ð¸":2590,"ĠÑģÐ¾Ð·Ð´":2591,"ÐļÐ°Ðº":2592,"ĠÐ²Ð½ÑĥÑĤ":2593,"Ð¿Ð¾ÑĢ":2594,"Ð¾Ð½Ð¸":2595,"ĠÐ¿Ð¾Ð¼Ð¾Ñī":2596,"ĠÐŁÐ°":2597,"ĠÐŁÐ¾ÑĤ":2598,"ĠÐ¾ÑĤÐ":2599,"Ð½ÑĥÐ»Ð°":2600,"ĠÑģÐ°Ð¼Ð¾Ð¼":2601,"ĠÑģÐ»Ð¸":2602,"Ð´ÐµÐ»Ð¸":2603,"Ð´ÐµÐ½Ð¸":2604,"ÑĦÐ":2605,"ĠÑįÑĤÐ¸Ð¼":2606,"ĠÐ¿ÑĢÐ¾Ð¸Ñģ":2607,"ĠÐ¾Ð±Ñı":2608,"ĠÐ½ÐµÐ¼":2609,"ĠÐºÐ°Ð¶Ð´ÑĭÐ¹":2610,"ĠÐ¼Ð°Ð»ÐµÐ½ÑĮ":2611,"ĠÐºÑĢÑĥÐ":2612,"ĠÐĿÐ¸Ðº":2613,"ÑĢÐ¾Ðµ":2614,"ĠÐķÐ":2615,"Ð²Ð¾Ð¼":2616,"ĠÐ½ÐµÐºÐ¾ÑĤ":2617,"ĠÐ½Ð°Ð·Ð°Ð´":2618,"ĠÐ´ÑĢÑĥÐ³Ð¾Ð¹":2619,"Ð»ÑĥÐ±Ð":2620,"ÑĢÐ¾Ð±Ð":2621,"ĠÑĦÐ°Ðº":2622,"ĠÑĥÑģÐ¿Ðµ":2623,"ĠÐ¿Ð¾ÑĢÐ":2624,"ĠÐ¿Ð¾Ð´Ð°":2625,"ĠÑħÐ¾ÑĩÑĥ":2626,"ÑıÑĤÑģ":2627,"ĠÐ·Ð°Ð¼Ðµ":2628,"ĠÑĢÑĥÐ±Ð":2629,"ĠÐ²Ð½Ð¸Ð¼":2630,"ĤÐ¸Ðº":2631,"ÑĥÐ»ÑĮÑ":2632,"»Ð¸Ð½":2633,"ÑĥÐ´Ð°ÑĢÑģ":2634,"Ð¾ÐºÐ¾Ð¹":2635,"ÑīÐµÐµ":2636,"il":2637,"ĠÑįÑĤÐ¸Ñħ":2638,"ĠÐ¿Ð¾Ð¼Ð":2639,"ĠÐ½Ð¸ÐºÑĤÐ¾":2640,"ĠÑĢÐ¾Ñģ":2641,"ĠÐłÐ°Ð·":2642,"ĠÐ¿ÑĢÐ¾Ð²Ðµ":2643,"Ð²Ð¾Ñģ":2644,"ÑıÑĤÑģÑ":2645,"ĠÑģÐ»ÑĥÑĩÐ°Ðµ":2646,"ĠÐ½Ð°Ð´Ðµ":2647,"ĠÐŁÐµ":2648,"ÑĥÑĢÐ":2649,"ĠÑĢÐµÐ·ÑĥÐ»ÑĮ":2650,"ĠÑħÐ°":2651,"ðŁĮ":2652,"ro":2653,"ĠÑĩÐµÑ":2654,"ĠÑģÐ²ÑıÐ":2655,"ĠÑħÐ¾ÑĤÑĮ":2656,"Ð»ÐµÐºÑĤ":2657,"ĠÐ´ÑĢÑĥÐ³Ð¸Ñħ":2658,"ĠÐ¿ÑĢÐ°Ð²Ð¸":2659,"ÑģÐ¸Ð¹":2660,"Ð¾Ð³ÑĢÐ°ÑĦ":2661,"ĠÐ¸Ð½ÑĦÐ¾ÑĢÐ¼Ð°":2662,"Ð°ÑģÑ":2663,"Ġâľ":2664,"ÑħÐ°Ñ":2665,"ĠÐ±ÐµÑģ":2666,"Ð±Ñĥ":2667,"ĠÐ¼Ð½Ð¾Ð³Ð":2668,"ĠÐĿÐ¾Ð²":2669,"ÑİÑīÐ¸Ðµ":2670,"ÐµÑĢÐ¼":2671,"ĠÑĢÑıÐ´Ð¾Ð¼":2672,"»Ð¾Ðº":2673,"as":2674,"Ð³Ð¾Ð´Ð°":2675,"ÑıÐ»ÑģÑı":2676,"Ð²Ð¾Ð½":2677,"ÐµÐ½Ð¸Ð¹":2678,"Ð·Ð´":2679,"ĠÐĶÐ»":2680,"ĠÐĶÐ»Ñ":2681,"ĠÐĶÐ»Ñı":2682,"ÑģÐµÑ":2683,"ÑıÑĤÑĮÑģÑı":2684,"ÑģÐ»ÐµÐ":2685,"Ð¾ÑĢÐµ":2686,"ĠÐ¾Ð±Ð»Ð°ÑģÑĤ":2687,"ĠÑģÐ¾Ð±Ð¸":2688,"Ð°Ð»ÑĮÑĪÐµ":2689,"ĠÐ¾Ð´Ð½Ð¾Ð¹":2690,"ÑĩÐ½ÑĭÐµ":2691,"ĠÐ¼Ð°ÑĤÐµÑĢÐ¸":2692,"ÑıÑĤÐ½Ð¾":2693,"10":2694,"ĠÐ±ÑĥÐ´Ñĥ":2695,"Ð¾ÑĢÑĥÐ":2696,"ÑĪÐ¸ÑĤ":2697,"¶Ð°ÑĤÑ":2698,"¸Ð´Ðµ":2699,"ĠÑĥÐ»ÑĭÐ±Ð":2700,"ÑĥÑĤÐ":2701,"ĠÐ±Ð°Ð":2702,"¾Ð»ÑĮ":2703,"is":2704,"¶Ð°ÑĤÑĮ":2705,"ÑĢÐ¾Ð²Ð°Ñ":2706,"ĠÐ²Ð¾Ðµ":2707,"ĠÐ½ÐµÐ¼Ð½Ð¾Ð³Ð¾":2708,"ĠÐ¿ÑĢÐ¸Ð·Ð½Ð°":2709,"ÑĢÐ¸ÑģÑĤ":2710,"ĠÐ¿Ð¾Ð´ÑĥÐ¼":2711,"ÑĪÐ½Ð¾":2712,"¸Ð»Ð¾":2713,"ĠÐ¿Ð¾Ðµ":2714,"ĠÐ±Ð°Ð½":2715,"ÐĿÐŀ":2716,"ĠÐ´ÐµÑĤÐµÐ¹":2717,"ĠÑģÑĭÐ":2718,"ĠB":2719,"ĠÐµÐ´Ð¸Ð½":2720,"ĠÐ¼Ð°ÑĤ":2721,"ĠÑĤÐ¾ÑĩÐ½Ð¾":2722,"ĠÐ±ÑĭÑģÑĤÑĢÐ¾":2723,"ĠÐ´ÐµÐ½ÑĮÐ³":2724,"ĠÐ²Ð¾Ñģ":2725,"ºÐµ":2726,"ĠÐ´ÐµÐ½ÑĮÐ³Ð":2727,"ĠÐ´ÐµÐ½ÑĮÐ³Ð¸":2728,"ĠÑģÐ²Ð¾Ð¸Ð¼":2729,"ÑīÐ¸Ñ":2730,"ĠÑģÐºÐ°Ð·Ð°Ð»Ð°":2731,"ıÐ»Ð°":2732,"ÑīÐ¸ÑĤ":2733,"ĠÑĢÐµÐ±ÐµÐ½":2734,"ÑĢÐ°Ñī":2735,"ÑĢÐ¾Ð´Ðµ":2736,"Ð´ÐµÐ½Ð¸Ñ":2737,"ĠÐ¿Ð¾Ð¼Ð¾Ð³":2738,"ĠÐ¾ÑĩÐµ":2739,"Ð¾Ð´Ñĥ":2740,"ĠÐ²ÑĭÑģÐ¾Ðº":2741,"ĠÐ´Ð½Ñ":2742,"ĠÑĦÐ¾ÑĤÐ¾":2743,"ĤÐ²Ð¾Ð¼":2744,"Ð´ÐµÐ»Ñ":2745,"ĠÐ´Ð²Ñĥ":2746,"ĩÑĥÑĤÑĮ":2747,"ÑģÐ¸Ñı":2748,"ĠÑģÐ¼Ð¾Ð³":2749,"ĠN":2750,"ĠÐ¼Ð°ÑĪÐ¸Ð½":2751,"¶Ð¸ÑĤ":2752,"Ð´Ð°Ð»":2753,"Ð¾ÑĢÐ°":2754,"Ð¾ÑĢÐ¾Ð":2755,"ÑĢÑĥÑĤ":2756,"ĠÐ¿ÑĢÐ¾ÑĦ":2757,"ÑĩÑĥÑĤÑĮ":2758,"ÑģÐ¼Ñĭ":2759,"ĠÑģÐ¸ÑģÑĤÐµ":2760,"Ġ+":2761,"ĠÐ´Ð¾Ð¿":2762,"ĠÑĤÐµÑ":2763,"ol":2764,"ÐĺÐ":2765,"½ÐµÐ¼":2766,"ĠðŁĳ":2767,"ÐłÐĲ":2768,"Ð°Ð°":2769,"ĠÐºÐ°Ð":2770,"ĠðŁĴ":2771,"ĠÐµÐ":2772,"ĠÐ¿Ð¾Ð²Ðµ":2773,"ĠÐ·Ð½Ð°ÐºÐ¾Ð¼":2774,"ĠÑĢÐ°ÑģÑģ":2775,"ÑĤÐµÑģÑĮ":2776,"Ð¾Ð»Ð¾Ð³Ð":2777,"ÑĳÐ¼":2778,"ĠÐ´Ð½Ñı":2779,"ĠÐºÐ²Ð°ÑĢÑĤÐ¸":2780,"ÑĢÐ°Ð»ÑĮÐ":2781,"»ÑıÐ":2782,"ĠÑģÐ¼":2783,"ÑĪÑĥÑİ":2784,"ºÐ¾Ð²":2785,"ÑĤÐ°ÑĤÐ¾":2786,"ÐºÐ»Ð°":2787,"Ġs":2788,"ĠÐ²ÑĭÐ³":2789,"ĠÐ½Ð°ÑģÑĤÐ¾Ñı":2790,"²Ð°Ð»Ñģ":2791,"²Ð°Ð»ÑģÑ":2792,"²Ð°Ð»ÑģÑı":2793,"ĠÐ¼Ð¾Ð¼ÐµÐ½ÑĤ":2794,"ĠÑĪÐµ":2795,"ĢÑĢÐ¸":2796,"he":2797,"ĠÑģÑĤÑĢÐ°Ð":2798,"Ð»Ð°Ð·":2799,"ĠÑħÐ¾ÑĩÐµ":2800,"ÐŃÑĤÐ¾":2801,"ĠÐ¿Ð¾ÑĢ":2802,"ĠÐ´Ð²ÑĥÑħ":2803,"ÐµÐ½Ð½Ð¾":2804,"ÑĢÑıÐ´":2805,"ÐµÑģÑĤÐ¸":2806,"ĠÐ¼ÐµÑģÑĤ":2807,"ĠÑģÐ½":2808,"Ġ\\\"":2809,"³ÑĢÐ°Ð":2810,"½Ð¸ÑĨÐ°":2811,"²Ð¾Ð´Ð¸":2812,"ĠÐ´Ð¾Ð»Ð¶Ð½":2813,"ÑĥÑĤÐµ":2814,"ÐĿÐ¾":2815,"Ð»Ð¸ÑĤ":2816,"ĠÑıÐ·ÑĭÐ":2817,"ÑĪÑĮÑģÑı":2818,"ĠÐ²Ð¸Ð":2819,"ĠÑģÑĤÐ¾ÑĢÐ¾Ð½Ñ":2820,"id":2821,"ĠÑģÑĤÐ¾ÑĢÐ¾Ð½Ñĭ":2822,"ĠÐ´Ñ":2823,"ÑģÐºÐ":2824,"ĠT":2825,"Ð´ÐµÐ½Ð¸Ñı":2826,"²ÑĭÐ¼":2827,"ĠÐ¿Ð»Ð°ÑĤ":2828,"ĠÐ³Ð¾Ð»Ð¾Ð²Ñĥ":2829,"ĠÐ¾ÑĤÐºÑĢÑĭÐ":2830,"ÐĶÐ°":2831,"ĠÑģÐ²Ð¾Ð±Ð¾Ð´":2832,"Ð¶ÐµÑĤÑģÑı":2833,"ĠÐ´Ð¾Ð»Ð¶Ð½Ñ":2834,"ĠÐ´Ð¾Ð»Ð¶Ð½Ñĭ":2835,"ÑģÑĤÐ°Ñ":2836,"ÑħÐ½":2837,"ĠÑĥÐ·Ð½Ð°":2838,"Ð¸ÑĢÐ¾Ð²Ð°":2839,"»Ð¸Ðº":2840,"Ð¢Ðŀ":2841,"Ð±Ð¾Ð»Ñ":2842,"ÑĢÐ°Ð±Ð¾":2843,"ĠÐ·Ð°Ð¿Ð°":2844,"ıÐ»Ð¸":2845,"ĠÑĩÐµÑĤ":2846,"±ÑĢÐ°":2847,"Ð¾ÑģÑĤÐµÐ¹":2848,"ĠÑĤÐ¾Ð¼Ñĥ":2849,"ĠÐ¸Ð·Ð²ÐµÑģÑĤ":2850,"Ġd":2851,"ÑĤÐ¾ÑĢ":2852,"ĠÐ±ÐµÐ»":2853,"ĠÑĤÐ°ÐºÐ¸Ñħ":2854,"ÐºÐ°ÑĤÑ":2855,"Ð°Ð´":2856,"ĠÑĪÑ":2857,"ÑĥÐ¶Ðµ":2858,"ĠÐ¢Ðµ":2859,"ÑĨÐµÑģ":2860,"ĠÑģÐ»Ð¸ÑĪÐºÐ¾Ð¼":2861,"ÑĢÐµÑģÑĤ":2862,"ĠÐľÐ¾ÑģÐº":2863,"ĠÑĦÐ":2864,"Ð½ÐµÐ¼":2865,"ÑĢÐµÐ½Ð¸":2866,"ÐºÐ¸Ð¼":2867,"Ð¿Ð¾Ð¼Ð½":2868,"--":2869,"ĠÐ¿Ð¾Ð·Ð²":2870,"ĠÐ¿Ð¾ÑįÑĤÐ¾Ð¼Ñĥ":2871,"ĠÐ½Ð°Ð±Ð":2872,"·ÑĮÑı":2873,"²ÐµÑĢÐ":2874,"ĠÑĢÐµÐ³":2875,"ÑĥÑĢ":2876,"³Ð»ÑĥÐ±Ð":2877,"ĠÐ¾Ð´Ð½Ð¾Ð³Ð¾":2878,"ÑĢÐ¾Ð²Ð°ÑĤ":2879,"Ġ200":2880,"ÐĿÑĥ":2881,"Ð°Ð½Ð¾":2882,"ÑĨÑĥ":2883,"¾Ð±Ð":2884,"ÑıÑĤÑģÑı":2885,"ĠÐ½Ð°ÑĩÐ¸Ð½Ð°":2886,"ÑĤÐ°Ð½Ð¾Ð²":2887,"ÑĥÐ»Ð°":2888,"ĠÐ¾ÑģÐ¾Ð±ÐµÐ":2889,"ĠÑĪÐ°":2890,"ÑıÑı":2891,"ÑĨÐµÐ½":2892,"ĠÐ½Ð°ÑĩÐ°Ð»":2893,"ĠÐ²Ð¸Ð½":2894,"ĠÑģÐ¸ÑĤÑĥÐ°":2895,"?!":2896,"Ġ12":2897,"ĤÑĥÐ´Ð°":2898,"ĳÐ":2899,"ÑĭÐ»":2900,"ÑĤÑĥÐ´Ð°":2901,"ĠÐ½ÐµÐ´Ð":2902,"ÑģÐ½Ð°":2903,"ÑĳÐ»":2904,"Ð¿Ð»Ð°Ð½":2905,"ĠÑģÐºÐ¾Ð»ÑĮÐºÐ¾":2906,"½Ð¸Ð¼Ð¸":2907,"ÑģÐºÐ¸":2908,"ĠÐ±ÑĥÐ´ÑĤÐ¾":2909,"Ð¼ÐµÐ½ÑĤ":2910,"ĠÑĨÐ²ÐµÑĤ":2911,"ĠÑĩÐµÑĢÐ":2912,"»ÑĮÐ·Ñı":2913,"ĠÐ³Ð¾ÑģÑĥÐ´Ð°ÑĢÑģ":2914,"ĠÐºÐ¾ÑĤÐ¾ÑĢÐ¾Ð³Ð¾":2915,"Ð»Ð°Ñı":2916,"Ð³Ð»ÑĥÐ±Ð":2917,"¾ÑĤÐµ":2918,"ĠÐŀÐ´Ð½Ð°":2919,"²Ð°ÑĤÑĮÑģÑı":2920,"ĮÑĤÐµ":2921,"le":2922,"ĠÐ·Ð½Ð°ÑĩÐ¸ÑĤ":2923,"ĠÐ²ÑģÑİ":2924,"¾ÑıÑĤ":2925,"ĠÐ¼Ð°Ñģ":2926,"50":2927,"Ð¼Ð¾Ð¹":2928,"ĠÐ¿Ð¾Ð´Ð¾Ð±Ð":2929,"ÐºÐ°ÑĤÑĮ":2930,"ĠÑģÐ¾Ð²ÐµÑĢÑĪÐµÐ½":2931,"ĠÐ¿ÑĢÐ¸Ð¼Ðµ":2932,"ÑĢÐ°Ñħ":2933,"ĠÐºÐ°ÐºÐ¸Ðµ":2934,"Ð¼Ð¾Ð¶Ð½Ð¾":2935,"ĠÐŁÐ¾ÑģÐ»Ðµ":2936,"ĠÐ³Ð»ÑĥÐ±Ð":2937,"ĠÐ¿Ð¾ÑĤÐµ":2938,"ĠÐ´ÐµÑģÑıÑĤ":2939,"ĠÐ¢Ð¾Ð»ÑĮÐºÐ¾":2940,"ÑĪÐ¸ÑĤÐµ":2941,"²Ð»Ð°ÑģÑĤ":2942,"Ð¸Ð´Ðµ":2943,"ĠÐ°Ð²ÑĤÐ¾Ð¼":2944,"ĠÐ²ÐµÑĩÐµ":2945,"ÑīÐµÐ¼":2946,"Ð°ÐµÑĤÐµ":2947,"ĠÐ±Ð¾Ð»ÑĮÐ":2948,"ıÐµÑĤ":2949,"ÑģÐ¸Ð»Ð°":2950,"ĠÐ´ÐµÐ¹ÑģÑĤÐ²Ð¸":2951,"ÑĦÐ¸":2952,"ÑģÐ¸Ð¼":2953,"Ð°Ð½Ð¸Ð·":2954,"ÑģÐ»Ñĥ":2955,"ĠÐĶÐµ":2956,"ĠÑĥÐ±Ðµ":2957,"ÑĩÐ°ÐµÑĤ":2958,"ĠÐ¸ÑģÐ¿Ð¾Ð»ÑĮÐ·":2959,"ĠÐ³Ð»Ð°Ð²Ð":2960,"ÑģÑĤÐ²Ñĥ":2961,"Ð°Ð½Ð³":2962,"Ð¿Ð°Ð»ÑĮ":2963,"Ð±Ð¾Ð»ÑĮ":2964,"ÑĨÐ¸Ð¹":2965,"Ð¸Ð½Ð³":2966,"ðŁı":2967,"Ð¾Ð»ÑĮÐ½Ð¾":2968,"²Ð´ÑĢÑĥÐ³":2969,"Ð²Ð´ÑĢÑĥÐ³":2970,"ĠÐºÐ°ÑĩÐµÑģ":2971,"ĠÑĥÑģÐ»":2972,"ĠÑģÐ¾Ð²ÐµÑĤ":2973,"Ð¼Ð¸Ñ":2974,"ÐºÐ°Ð·":2975,"Ð½Ð°Ð»":2976,"Ð²Ð»Ð°ÑģÑĤ":2977,"ÑģÑĤÐ¾":2978,")))":2979,"ĠÐ¼Ð¾Ð´":2980,"Ð´ÑĥÑĤ":2981,"½ÐµÐ³Ð¾":2982,"ĠÐ¼ÐµÑĤ":2983,"ÑİÐ":2984,"»Ð°Ð":2985,"Ð¶Ð°Ñ":2986,"ÑĢÐ¾Ð²Ð¸":2987,"ÑįÑ":2988,"ĠÑģÐ½Ð°":2989,"ĠÑĢÑĥÐºÑĥ":2990,"¸Ð¿":2991,"Ð³ÑĥÐ":2992,"Ð½Ð¾ÑģÑĤÑĮ":2993,"ĠÐľÐ¸":2994,"²Ð¾Ð·":2995,"ĠÐ²Ð´ÑĢÑĥÐ³":2996,"ÑģÐ¸Ñħ":2997,"ĠÐ¶Ð¸Ð":2998,"Ð¶Ð°Ð»":2999,"Ð±Ñ":3000,"²ÑĥÐµÑĤ":3001,"Ð¼Ð°ÑĤ":3002,"ĠÑĤÐ°ÐºÐ°Ñı":3003,"ĠÐ²Ð»Ð°ÑģÑĤ":3004,"Ð´ÐµÐ½Ð¸Ðµ":3005,"ÐµÐ½ÑĤÑĭ":3006,"ĠÐ¾Ð³ÑĢÐ¾Ð¼":3007,"ÑĩÐµÐ¹":3008,"ĠÐ¿Ð¾Ð»ÑĮÐ":3009,"ĠÐ¼ÐµÑģÑĤÐµ":3010,"Ð°Ð½Ð½ÑĭÐ¹":3011,"ÑĢÑĤÑ":3012,"ĠÐ·Ð°Ð²Ñ":3013,"ÐµÐ²Ð°":3014,"ĠÐºÐ¾Ð½ÑĨÐµ":3015,"ra":3016,"ĠÐ¿Ð°Ð»ÑĮ":3017,"Ð²ÐµÐ·":3018,"ĠÐ½Ð°Ð²ÐµÑĢÐ":3019,"Ð°ÑģÑĤ":3020,"ĠÑĢÑĥÐ±Ð»ÐµÐ¹":3021,"ĠÑģÑİ":3022,"ĠÐ³Ð¾Ð²Ð¾ÑĢÐ¸ÑĤ":3023,"ÐºÐ¾Ð»ÑĮ":3024,"ĠÑģÐ¼Ñĭ":3025,"ĠÐ½ÐµÐ¾Ð±ÑħÐ¾Ð´Ð¸":3026,"Ð¼ÐµÑĢÐ¸":3027,"Ð¸Ð½Ðµ":3028,"Ð´Ð¸ÑĤÑ":3029,"ÑıÐ³":3030,"ĠÑģÐ¾Ð»":3031,"½ÑĥÐ»Ð°ÑģÑĮ":3032,"ĠÑĥÐºÐ°":3033,"ÐļÐĲ":3034,"ÑģÐ»Ð¾":3035,"¶Ð¸Ð²":3036,"ĠÐĶÐ¶Ð":3037,"¶Ð½":3038,"ĠÐºÐ¾ÑĤÐ¾ÑĢÐ¾Ð¼":3039,"ĠðŁ¤":3040,"ÑĢÑģÑ":3041,"ĠÐ¾Ð±ÑĬÑıÑģÐ½":3042,"¸Ð·Ð½ÐµÑģ":3043,"ÑĥÐ»Ð¸":3044,"ÑıÐ»Ð°":3045,"Ġ!":3046,"ĤÐ¾Ðº":3047,"ĠÐ¾Ð±ÑīÐµÑģÑĤ":3048,"ĠÐ¶Ð¸Ð²Ð¾ÑĤ":3049,"Ð´Ð°Ð²":3050,"ĠÐ¼Ð¸Ñ":3051,"ÑħÐµ":3052,"ĠÐ¢Ð°":3053,"ĠÐ²Ð¾ÐµÐ":3054,"²Ñĭ":3055,"ĠÑģÐ¿ÑĢÐ¾ÑģÐ¸Ð»":3056,"ÑĢÐ°Ð»Ð¸":3057,"18":3058,"Ð¾Ð´Ð¸ÑĤÑ":3059,"Ð¾Ð´Ð¸ÑĤÑĮ":3060,"ĠÐ¿ÑĢÐ°Ðº":3061,"ĠÑĩÑĥÑĤÑĮ":3062,"ĠÐ»ÑİÐ±Ð¾Ð²":3063,"ĠÐ¿Ð¾Ð»ÑĥÑĩÐ¸":3064,"Ð»Ð¾Ð½":3065,"ĠÐ³ÑĥÐ":3066,"ĠÐ´ÐµÐ²Ð¾":3067,"Ð¿Ð°ÑģÐ¸Ð±Ð¾":3068,"ÑĩÐ½ÑĭÑħ":3069,"Ð´Ð¾Ð½":3070,"Ġ?":3071,"ÑĩÐµÐº":3072,"ĠÑĩÐ°ÑģÑĤÑ":3073,"ĠÑģÑĤÑĢÐ¾Ð":3074,"ÐµÐ¿ÐµÑĢÑĮ":3075,"ĠÐķÐ³Ð¾":3076,"ĠÐŁÐŀ":3077,"Ð¿ÑĥÑģ":3078,"ÑĥÐºÐ°":3079,"ðŁĻ":3080,"ÑģÐºÐ¾Ðµ":3081,"ÐºÐ¾Ðµ":3082,"ĠÑĥÑģÐ»Ð¾Ð²":3083,"ĠÐ²Ð¾Ð·Ð´Ñĥ":3084,"ĠÐĳÐ¾Ð³":3085,"ÑĩÐ½Ð¾Ð³Ð¾":3086,"ĠÐ¾Ð³Ð":3087,"ÑĢÐ½Ðµ":3088,"ðŁĳį":3089,"ĠÐ»Ð¸ÑĨÐ¾":3090,"ĠÑģÐ»Ð¾Ð²Ð½Ð¾":3091,"ĤÑĢÐµÐ»":3092,"½Ð¸Ð·":3093,"Ð´Ð°Ð":3094,"±ÑĢÐ°ÑĤ":3095,"ĠÐļÐ¸":3096,"ÑĤÑĢÐµÐ»":3097,"ÑĢÐµÐ²":3098,"Ð°Ð½Ð¸ÐµÐ¼":3099,"ĠÐ¾ÑĤÐºÑĢÑĭÑĤ":3100,"ÑģÐºÐ¸Ð¼":3101,"ÑģÑĤÐ°ÑĤ":3102,"ĠÐ¼Ð½Ð¾Ð¹":3103,"Ð¸Ð¿":3104,"Ð¾Ð¶Ð´":3105,"Ð±Ð¾ÑĢÐ":3106,"Ð±ÑĢÐ¾":3107,"Ð¾Ð¼Ð½":3108,"½Ð¾Ð":3109,"ÑĢÐ¸ÑĤÐµ":3110,"ĠÐ¿ÐµÑĢÐ²ÑĭÐ¹":3111,"ÑĤÐµÐ»ÑĮÑģÑĤÐ²Ð°":3112,"ĠÐ¿Ð»Ð°Ð½":3113,"Ð²ÑıÑĤ":3114,"ĠÐ¾Ð½Ð¾":3115,"âĿ¤":3116,"ÑĢÐ°Ð±Ð¾ÑĤ":3117,"ÑĩÐ°ÐµÑĤÑģÑı":3118,"ÑĮÑĪÐµ":3119,"Ð´Ð°Ð½":3120,"ÑĤÐ°Ð»Ð¸":3121,"ĠÑĢÐ°Ð±Ð¾ÑĤÑĥ":3122,"ĠÑĩÐ°ÑģÑĤÑĮ":3123,"ÑĨÐ¾Ð²":3124,"ĠÑĢÐ°Ð²Ð½Ð¾":3125,"ĠÑģÑĤÐ¾ÑĢÐ¾Ð½Ñĥ":3126,"ĠÑģÐ°Ð¼Ð°":3127,"ĠÑģÐ°Ð¼Ð¸":3128,"ot":3129,"ĠÐ´Ð°Ð²Ð½Ð¾":3130,"ĠÐ½Ð¾Ð¼":3131,"ĠÐ¾Ñī":3132,"ÑĥÐ½Ð°":3133,"²Ð°Ð»Ð°":3134,"ÑĢÐµÐ½Ð¸Ñ":3135,"ĠÐ·Ð½Ð°Ñ":3136,"ĠÐ¼ÐµÐ´Ð":3137,"ĠÐ°Ð»":3138,"³ÑĢÐ¾Ð¼":3139,"¸Ð½Ñ":3140,"Ð¸Ð»Ð°ÑģÑĮ":3141,"ĠÐ°Ñ":3142,"ĠÐ´ÑĢÑĥÐ³Ð¸Ðµ":3143,"ĠÐ´Ð°Ð»ÑĮÑĪÐµ":3144,"ĠÐ¾ÑĤÐ¿ÑĢÐ°Ð":3145,"12":3146,"ÑĥÐ¹ÑģÑĤÐ°":3147,"Ð´Ð¾Ñħ":3148,"eÐ":3149,"Ð¸Ð½Ð¾":3150,"ĠÐ¿ÑĢÐ¾Ð¸Ð·Ð":3151,"ÐĹÐ°":3152,"ĠÑĦÐ¸Ð»ÑĮ":3153,"Ð»ÐµÐ¼":3154,"Ġ30":3155,"ĠÐ´Ð°Ð":3156,"ÑĢÑĤÐµ":3157,"Ð´ÐµÐ»ÑĮÐ":3158,"ÐµÑħ":3159,"Ð²Ð¾ÑĢÐ":3160,"ÑģÐ¸Ð»Ð¸":3161,"ÑģÑĤÐ°Ð²":3162,"ÑĢÐµÐ·Ð":3163,"ĠÐ³Ð¾ÑĢÐ¾Ð´Ð°":3164,"ĠÐ±ÑĢÐ¾":3165,"ĠÐ³Ðµ":3166,"Ð°Ð½Ð¸Ñİ":3167,"ÑĢÐµÐº":3168,"ĠÑĥÑĩÐ¸":3169,"Ð»ÐµÐ½Ñ":3170,"ĠÐºÑĢÐ°ÑģÐ¸Ð":3171,"Ð¼ÐµÐ½ÑĤÐ°":3172,"¾ÑģÑĭ":3173,"ĠÑģÐ¾Ð±ÑģÑĤÐ²ÐµÐ½Ð":3174,"ĠÑĤÐ¾Ð½":3175,"ÐķÐĿ":3176,"ÑĤÐ°ÑĤÐ¾ÑĩÐ½Ð¾":3177,"Ð²ÑĭÑħ":3178,"¶Ð´Ðµ":3179,"ĠÐĳÐ°":3180,"ĠÐļÑĤÐ¾":3181,"ĠÐ¾ÑģÑĤÐ°Ð»ÑĮÐ":3182,"Ð´Ð¸ÑĤÑĮ":3183,"Ð¢Ð°Ðº":3184,"ÑĥÐµÑĤÑģÑı":3185,"ĤÐ¾Ð²Ð°":3186,"ĠÑĤÐ°ÐºÐ¾Ð³Ð¾":3187,"ĠÐĽÐ":3188,"ĠÐ½Ð°Ñĥ":3189,"Ð¾Ð»Ð¾ÑĤ":3190,"ÑĪÐ¸Ð²":3191,"ĠÑıÐ²Ð»ÑıÐµÑĤÑģÑı":3192,"ÑģÐµÐ»":3193,"ÑĢÐ¸Ð·":3194,"ĤÐº":3195,"ĠÐºÐ°Ð¶ÐµÑĤÑģÑı":3196,"ĠÐ¿ÑĢÐµÐºÑĢÐ°ÑģÐ":3197,"ÑĥÑĤÐ¸":3198,"ĠÐ¢Ð¾":3199,"ĠÐ¿ÑĢÑıÐ¼Ð¾":3200,"Ð´ÐµÐ½Ñ":3201,"¸Ð»Ñ":3202,"ÑĤÑĢÐ¾Ðµ":3203,"ĠÐ¾Ð´Ð½Ð¾":3204,"ĠÐºÐ¾Ð":3205,"ĠÑģÑĤÐ°Ð»Ð¾":3206,"ÑĢÐµÐ½Ð¸Ñı":3207,"Ð·Ðµ":3208,"Ð¾Ð½Ñĭ":3209,"±ÑĭÑ":3210,"ĠÐ¸Ð´Ðµ":3211,"ÑģÑĢÐ°Ð":3212,"ÑıÑĤÐ¸Ñ":3213,"ÐµÐ½ÑĤÐ¾Ð²":3214,"Ð²ÑıÐ":3215,"ÐµÑĤÐ°":3216,"ĠD":3217,"²Ð»Ð°":3218,"ĠÐłÐµ":3219,"½ÑĥÐ»Ð°":3220,"ÑģÑĤÐµÐ":3221,"ÐĴÐĲ":3222,"ĠÐ¼Ð¾Ñı":3223,"²Ð¸Ð»Ð¸":3224,"ĠÐ¼Ð¾ÐµÐ":3225,"ĠÐŁÐ¾Ð»":3226,"ĠÐ¼Ð¾ÐµÐ¹":3227,"ĠÐ²ÐºÑĥÑģ":3228,"ĠÐ½ÐµÐ»ÑĮÐ·Ñı":3229,"Ġm":3230,"ĠÐ¶Ð¸Ñ":3231,"Ð¿ÑıÑĤÑĮ":3232,"Ð°Ð³Ð°":3233,"ĠÐºÐ¾Ð»Ð¸":3234,"ĠÐ²ÑĭÐ³Ð":3235,"Ð½ÐµÑĢÐ³":3236,"Ð°Ð´Ð":3237,"ĠÑģÐ¿Ð¾ÐºÐ¾Ð¹":3238,"ĠÐ¡Ðµ":3239,"ĠÐ¿ÑĢÐ°Ð²Ð¸Ð":3240,"Ð»ÐµÐ³":3241,"Ð¿ÑģÐ¸Ñħ":3242,"ĠÐ²Ð¾Ðº":3243,"ĠÐ±Ð»Ð¸Ð·":3244,"ĠÐºÐ»Ð¸":3245,"ĠÐ·Ð°Ð±ÑĭÐ":3246,"30":3247,"Ð½Ð°ÑĤÑ":3248,"±ÑĢÑĭÐ":3249,"ĠÑĤÐµÐ¿":3250,"Ð¾Ð¶Ð¸Ñ":3251,"ĠÑĤÐ°ÐºÐ¸Ð¼":3252,"Ð¸Ð½Ð¾Ð¹":3253,"ĠÐ·Ð°Ð±Ð":3254,"ĩÑĥÐ´":3255,"²Ð°Ð»Ð¸ÑģÑĮ":3256,"Ð°Ð±Ð":3257,"15":3258,"ĠÐ½Ð°ÑħÐ¾Ð´":3259,"Ð¸ÐºÐ¾Ð²":3260,"±ÑĥÐº":3261,"ĠÐ¿Ð¾ÐºÑĥÐ¿":3262,"ĠÐ²ÑĭÐ¿Ð¾Ð»Ð½":3263,"ÑĢÐ¸Ñİ":3264,"ĠÐ¼Ð°Ð³Ð°Ð·":3265,"ÐµÐ½Ð¸ÐµÐ¼":3266,"ĠÑģÑĥ":3267,"ıÐº":3268,"ÑĢÐ°Ð¼Ð¸":3269,"ðŁİ":3270,"ÑģÐ¾Ð´":3271,"Ð°ÑİÑĤ":3272,"ĠÑģÑĢÐ°Ð":3273,"Ð´ÑĨÐ°ÑĤÑ":3274,"ĠÐĽÐ¸":3275,"Ð´ÑĨÐ°ÑĤÑĮ":3276,"ĠÐ¾Ð¶Ð¸":3277,"ed":3278,"ÑĤÐ¾Ð²Ð°":3279,"ÐµÑĤÑĮ":3280,"ĠÐ´ÐµÐ»Ðµ":3281,"ĠÑĪÐºÐ¾Ð»":3282,"ĠÐ¾Ð±Ð¼":3283,"ÑĢÐ¸Ð¼":3284,"ĠÐ½Ð°Ð¿ÑĢÐ°Ð²":3285,"Ð¾Ð½Ð¾Ð²":3286,"ĠÑĤÐµÐ»ÐµÑĦÐ¾Ð½":3287,"Ð¸ÑĤÐ°":3288,"ĠÐ¿Ð¾ÑģÑĤÑĥÐ¿":3289,"ĠÐ¾Ð±ÑĢÐ°Ð·Ð¾Ð¼":3290,"ĠÐ¸Ñİ":3291,"ÑĤÐµÑĢÐµ":3292,"ÑĤÐ°Ð»Ð°":3293,"Ð´Ð¸ÑĤÐµ":3294,"²Ð»ÑıÐµÑĤ":3295,"ÑĢÐ°ÑĤÑĮÑģÑı":3296,"±ÑĭÑĤ":3297,"Ð¶Ð°ÑĤ":3298,"ĠÐ´ÑĥÐ¼Ð°Ñİ":3299,"ĠÐ±Ð»Ð°Ð³Ð¾Ð´Ð°":3300,"ÐºÑģÐ°Ð½":3301,"Ð·Ð°Ð»Ð¸":3302,"ÑĥÑģÑĤÑ":3303,"ĠÐ¿ÑĢÐ°Ð·Ð´Ð":3304,"ĠÐľÐ¾Ð¶ÐµÑĤ":3305,"ĠÐĳÐµ":3306,"ÑĤÐ¾Ðº":3307,"ĠÑĩÐµÑģ":3308,"ÑĩÐ¸Ð»Ð¾ÑģÑĮ":3309,"ĠÐ°ÑĢÐ¼":3310,"ĠÐĺÐ»Ð¸":3311,"Ð¸ÑĢÐ¾Ð²Ð°Ñ":3312,"ÑĩÑĥÐ´":3313,"ĠÐ·Ð½Ð°ÐµÑĤ":3314,"ÑĤÐ°ÐºÐ":3315,"ac":3316,"ĠÑģÐ¾Ð´":3317,"Ð°Ð³Ð":3318,"ÑĢÐ°ÑĤÑĥ":3319,"ÑıÐ»Ð¸":3320,"Ð½Ð¸Ð¼Ð¸":3321,"ĠÑħÐ¾Ð´":3322,"ÑĤÐ¸Ðº":3323,"ĠÐ¾Ð¿Ð°":3324,"ÑħÐ¾ÑĤ":3325,"Ð¼ÐµÐ»":3326,"ÑħÐ°ÑĤ":3327,"Ð¸ÑĢÐ¾Ð²Ð°ÑĤ":3328,"ĠÐ¼Ð¸ÑĢ":3329,"ðŁĺĤ":3330,"ĠÐ¼ÑĥÐ·ÑĭÐ":3331,"Ð¸ÑĢÐ¾Ð²Ð°ÑĤÑ":3332,"Ð¸ÑĢÐ¾Ð²Ð°ÑĤÑĮ":3333,"ĠÐ¶Ð°Ð»":3334,"Ġo":3335,"ÐµÐ½ÑĤÐ°":3336,"ĠÐ¿Ð°Ð¼":3337,"ĠÐºÐ¾ÑĤÐ¾ÑĢÑĥÑİ":3338,"Ð°Ð½Ð¸Ð·Ð°":3339,"ĠÐ¶Ð¸ÑĤ":3340,"ĠÐ·Ð°ÑıÐ²":3341,"Ġ16":3342,"²Ð¾ÑĢ":3343,"Ð¾ÑģÐ¿":3344,"ĠÐ»ÑİÐ±Ð¸":3345,"ĠÐŃÐ":3346,"ÑĪÐµÐº":3347,"ĠÐ½Ð°ÑĪÐµÐ¹":3348,"Ġ)":3349,"ĠÑģÐµÐ¼":3350,"Ġ0":3351,"Ġ100":3352,"ĠÐ¼Ð¾Ð¸":3353,"²ÑĢÐ¾Ð´Ðµ":3354,"ÑĤÐº":3355,"ÑıÑĤÐ¸Ñı":3356,"ĠÑĩÐµÑģÑ":3357,"ĠÑĩÐµÑģÑĤ":3358,"ÑıÐ¼":3359,"ĠÐ½Ð°Ð¹ÑĤÐ¸":3360,"Ð²ÑĢÐ¾Ð´Ðµ":3361,"Ð»Ð»":3362,"Ð°Ð½Ð½ÑĭÐµ":3363,"ĠÑĤÑĢÐ":3364,"ĤÑĥÐ´":3365,"ÑĥÐ°Ð»ÑĮÐ":3366,"½Ð¾Ñģ":3367,"ĠÐĴÐ¸":3368,"½Ð¸ÐµÐ¼":3369,"ÑĪÐµÐµ":3370,"ÑĢÐµÐ½ÑĮ":3371,"ĠÑĩÐ°ÑģÑĤÐ¾":3372,"aÐ":3373,"ĠÑģÐ»ÐµÐ´ÑĥÑİÑī":3374,"ĠÐ¾Ð±Ð»Ð°ÑģÑĤÐ":3375,"ĠÐĿÐĲ":3376,"Ð±ÑĢÐ°ÑĤ":3377,"ĠÐ¾Ð±Ð»Ð°ÑģÑĤÐ¸":3378,"ĠÐ½ÐµÐ·Ð°":3379,"ĠÑģÑĥÑīÐµÑģÑĤÐ":3380,"Ð¾Ð¶Ð¸ÑĤ":3381,"ĠÑĤÐ°Ð½":3382,"ĠÑģÐ¿Ð¾ÑģÐ¾Ð±Ð":3383,"ĠÑģÐ°Ð¼Ð¾Ðµ":3384,"¶Ð¸Ð":3385,"Ð¾Ð²Ð°Ñı":3386,"ÑĢÐ°Ð²Ð¸ÑĤÑģÑı":3387,".,":3388,"ÑģÑĥÑĤÑģ":3389,"ĠÐ¼Ð°Ð»ÑĮ":3390,"ÐºÐ°Ð¼":3391,"ÑģÑĥÑĤÑģÑ":3392,"Ð¾ÑĤÑı":3393,"ÑĤÐ°ÐµÑĤ":3394,"ĠÐ¿ÑģÐ¸Ñħ":3395,"Ð¾Ð²Ð°Ð»Ð°":3396,"ĠÐļÐ¾Ð½":3397,"ÑĤÑĥÐ´":3398,"ĠÐ¾ÐºÐ¾Ð»Ð¾":3399,"ĠÐ¿Ð¾Ð´Ð´ÐµÑĢÐ¶Ð":3400,"ĠÐ¡ÐµÑĢÐ":3401,"ĠÐºÑĢÐ¸":3402,"ĠÑģÐ²Ñı":3403,"Ð¿ÑĢÐ¾":3404,"ĠÐ»Ð¸Ð±Ð¾":3405,"ĠÑģÐ²":3406,"ÑģÐ¾Ð¼":3407,"ĠÐ¾Ð¿ÑĢÐµÐ´Ðµ":3408,"ĠÐ¿Ð¸ÑģÐ°":3409,"17":3410,"ĠÐ´ÐµÐ¹ÑģÑĤÐ²Ð¸ÑĤÐµÐ»ÑĮÐ½Ð¾":3411,"Ġ17":3412,"³Ð°Ð·":3413,"Ð¾Ð²Ð¾Ð¹":3414,"¾ÑĢÑĥÐ":3415,"ĠÐ½ÐµÐ±Ð¾Ð»ÑĮ":3416,"ÑħÐ¾Ð´Ð¸ÑĤÑģÑı":3417,"Ð»Ð¸Ð²":3418,"³Ð»Ð°Ð·":3419,"ĠÐ¿ÑĢÐ¾Ð¼":3420,"ĠÑĢÐ°Ð·Ð²Ð¸ÑĤ":3421,"ÑįÑĤÐ¾":3422,"ÑģÑĢÐµÐ´":3423,"Ð¼Ð¾Ð²":3424,"ĠÐ²ÑĭÐ³Ð»":3425,"ĠÐ½Ð°ÑĪÐ¸":3426,"ĠÐ²ÑĭÐ³Ð»Ñ":3427,"ĠÐ²ÑĭÐ³Ð»Ñı":3428,"ÑĭÐ¿":3429,"ĠÐ½Ð¸Ð¼Ð¸":3430,"Ð¾Ð»ÑĮÑģÑ":3431,"³ÑĢÐµ":3432,"ĠÐ½Ð°Ðº":3433,"ĠÐºÐ¾ÑĤÐ¾ÑĢÑĭÐ¼":3434,"ĠÑģÑĤÐ°Ð»Ð¸":3435,"ÐķÐ¢":3436,"ĠÐ³ÑĢÑĥÐ´":3437,"ÑĢÑĳ":3438,"ÑĮÐ¸":3439,"ĠÐ¶Ð¸ÑĤÑ":3440,"ĠÐ¿Ð¾Ð½ÑıÐ»":3441,"ÐķÐł":3442,"ĠÐ½Ð°Ð¿":3443,"ĠÑĩÐ°ÑģÑĤÐ":3444,"ÑħÐ¾Ð´Ð":3445,"ĠÐ¾ÑĢÑĥÐ":3446,"ÑĢÐµÐ·Ð¸":3447,"ÑĤÐ²Ð¾Ð¼":3448,"ĠR":3449,"ĠÐºÐ¾ÑĤÐ¾ÑĢÐ¾Ðµ":3450,"ÑĥÑģÑĮ":3451,"ĠÑįÑĤÐ¾Ð¼Ñĥ":3452,"ĠÐ¼ÑĥÐ¶ÑĩÐ¸Ð½":3453,"¸Ñī":3454,"ÐĽÐĲ":3455,"ĠÑĤÑĥÐ´Ð°":3456,"ĠÐ¶ÐµÐ½ÑīÐ¸Ð½Ð°":3457,"ĠÐ´Ð½ÐµÐ¹":3458,"ĠÐºÑĢÐ°Ð¹":3459,"ĠÐºÑĢÐ¾Ð²":3460,"Ð³ÑĢÐ°Ð":3461,"ĠÐ¾ÑĤÐ²ÐµÑĤÐ¸Ð»":3462,"±ÑĢÐ°ÑĤÑĮ":3463,"ĠÐ´ÐµÐ½ÐµÐ":3464,"ÑģÐµÑĤ":3465,"ÑĥÐ¹ÑĤÐµ":3466,"ĠÐ¿ÑĢÐ¾Ð³ÑĢÐ°Ð¼":3467,"Ð¾Ð²Ð":3468,"ĠÐ½Ð°ÑĪ":3469,"ĠÑĨÐ°":3470,"ĠÑģÑĢÐµÐ´":3471,"ĠÑĩÐ°ÑģÑĤÐ¸":3472,"ĠÐ²Ð¾ÐµÐ½":3473,"ĠÐ²Ð¸Ð´ÐµÐ»":3474,"ÑĪÐ¸Ð½Ð°":3475,"ĠÑģÐ»ÑĥÑĩÐ°Ð¹":3476,"½ÑĥÐ²":3477,"ĠÑĩÑĳ":3478,"ĠÐ´Ð¾Ð»Ð³Ð¾":3479,"ĠÑĤÐ²Ð¾Ðµ":3480,"ĠÐ±ÑĢÐ°ÑĤ":3481,"ĠÐ´ÐµÑĢÐµÐ":3482,"ĠÐ²ÑĢÐ¾Ð´Ðµ":3483,"ĠÐ·Ð°ÑĤÐµÐ¼":3484,"ĠÐ¾ÑĤÐ»Ð¸":3485,"ĠÐ§Ðµ":3486,"ĠÐ¼Ð°Ð»Ð¾":3487,"ĠÐºÐ¾Ð¼Ñĥ":3488,"ĠÐ¾Ð±ÑıÐ·Ð°":3489,"ĠÐ¾Ð¿ÑıÑĤÑĮ":3490,"ÑĩÐ½Ð°Ñı":3491,"ĠÑĤÑĢÐ°Ð½":3492,"ĠÐ´Ð¾Ð³":3493,"¾ÑĤÐ²ÐµÑĤ":3494,"ĠÑĢÐ°ÑģÐº":3495,"ÑĢÐºÐ":3496,"ÑĢÑĮÐµÐ":3497,"ÑĩÐ°Ð»ÑĮÐ":3498,"Ð¾ÑĤÐµ":3499,"ÐµÐ¹ÑĩÐ°Ñģ":3500,"ĠÐ¿ÑĢÐ¸Ðº":3501,"ĠÐ¡Ð¾Ð²":3502,"ÐĲÐ":3503,"ĠÑĥÐ¶Ð°":3504,"Ð¾ÑĢÑĭÐµ":3505,"ĠG":3506,"ĠÐ¶Ð¸ÑĤÑĮ":3507,"ÑģÑĤÑĢÑĥÐº":3508,"ÑĥÐºÐ":3509,"ĠÑĩÑĥÐ´":3510,"Ð³Ð»Ð°Ð·":3511,"ĠÐºÐ¾Ñģ":3512,"ĭÑĢÐµ":3513,"ĠÐ¼ÐµÐ»":3514,"Ð·Ð°Ð»ÑģÑı":3515,"ÑĦÑĦÐµ":3516,"Ð¶Ð½Ð°":3517,"ĠÐ¾Ð±ÑĬÐµ":3518,"²Ð¸Ð»Ð°":3519,"ðŁ¤£ðŁ¤£":3520,"ĠÐ²ÑģÑĤÑĢÐµÑ":3521,"ĠÑģÑĤÐ¾Ñı":3522,"ĠÐ½Ð°Ð·Ð":3523,"ÑĪÐ¸ÑĤÑ":3524,"ĠÐŀÐ´Ð½Ð°ÐºÐ¾":3525,"ĠÑģÑĤÑĢÐµ":3526,"ĠÐ¾Ð±Ð½Ð°":3527,"ĠÑĤÐ¾Ð²Ð°":3528,"ĠÐ¿ÑĢÐ¾ÑĨÐµÑģ":3529,"ĠÐ¸Ð¼Ð":3530,"ĠÐ²ÐºÐ»Ñİ":3531,"¸ÑĢÑĥÐµ":3532,"ĠÑģÐ¿Ð°ÑģÐ¸Ð±Ð¾":3533,"ĠÑĢÐ°Ð½ÑĮÑĪÐµ":3534,"Ð³Ð°Ð·":3535,"op":3536,"ĠÐ½Ð°Ð¹":3537,"ĠÑĩÑĥÐ²Ñģ":3538,"ĠÐ¸Ð·Ð":3539,"ĠÐĽÐ°":3540,"ĠÐŁÑĢÐ¾":3541,"ĠÐ½Ð°ÑĩÐ°Ð»Ð°":3542,"ĠÐ²Ð·Ð³Ð»ÑıÐ´":3543,"ÐķÑģÐ»Ð¸":3544,"¸Ð»Ñģ":3545,"ĠÐ³ÑĢÐ°Ð":3546,"ĠÐ»ÐµÑģ":3547,"Ð°Ð½Ðµ":3548,"ĠÐ´Ð²ÐµÑĢÑĮ":3549,"16":3550,"±Ð°Ð»":3551,"¸Ð»ÑģÑ":3552,"Ġ14":3553,"¸Ð»ÑģÑı":3554,"ĠÐ³Ð»Ð°Ð·":3555,"ĠÑĢÐ°Ð·Ð²Ðµ":3556,"³Ð°ÑĤ":3557,"ĠÐĴÐ¾Ð·":3558,"ĠÐ°Ð³":3559,"ÑĪÐ¸ÑĤÑĮ":3560,"¶ÐµÐ½Ð¸Ð¸":3561,"ĠÐ·Ð°Ð²Ð¸":3562,"ne":3563,"ĠÐ¼ÐµÑģÑĤÐ°":3564,"ĠÐ¼Ð½Ð¾Ð³":3565,"ĠÐ¿ÑĥÑģÑĤÑ":3566,"14":3567,"ĠÐ±Ð»Ð¸Ð":3568,"ov":3569,"ĠÐ£Ðº":3570,"ÑĭÐ½":3571,"Ð¾Ð¶Ð¸ÑĤÑ":3572,"ĠÐ¾ÐºÑĢÑĥÐ":3573,"Ð¾Ð¶Ð¸ÑĤÑĮ":3574,"ĠÑģÐ¾Ð²ÐµÑĢÑĪÐµÐ½Ð½Ð¾":3575,"ĠÐ¼Ð¸Ð»Ð»Ð¸":3576,"ĠÐ³Ð¾Ð²Ð¾ÑĢÐ¸ÑĤÑĮ":3577,"ad":3578,"ĠÐ¿Ð¾Ð»ÑĮÐ·":3579,"ĠÐ´ÐµÐ²ÑĥÑĪÐºÐ°":3580,"ÑĤÐµÐ»ÑĮÐ½ÑĭÐ¹":3581,"ĠH":3582,"Ð¸Ð»ÑĮÐ":3583,"ĮÐ½Ð°Ñı":3584,"ĠÐ¸Ð¼ÐµÐµÑĤ":3585,"ĠÐ¿Ð¾ÑĢÑı":3586,"ĠÑģÑĤÐµÐ":3587,"ĠÐ¿ÑĢÐ¾ÑĦÐµÑģ":3588,"ĠÐ½Ð°Ð±Ð»Ñİ":3589,"Ð¼Ð¾Ð¼":3590,"ÑģÑĢÐµÐ´Ð¸":3591,"ĠÑĥÐ´Ð¾Ð²":3592,"ºÐ¾Ð¹":3593,"Ð¡Ð¡":3594,"ĠÐ±ÑĥÐ´ÑĥÑī":3595,"¾ÑĢÐ´":3596,"ÑģÐ»ÐµÐ´Ð¾Ð²":3597,"ÑģÐºÑĥÑİ":3598,"ÑĢÐµÐ¼ÐµÐ½":3599,"±ÑĥÐ":3600,"ĠÐ¾ÑĤÐ»Ð¸ÑĩÐ":3601,"ÑĨÐ¸ÐµÐ¹":3602,"ĠÑģÐ¾ÑģÑĤÐ¾ÑıÐ½":3603,"ÑģÑĤÑĢÐµÐ»":3604,"ĠÑī":3605,"ĠÐ³Ð¾Ð²Ð¾ÑĢÐ¸Ð»":3606,"ĠÐ¿ÑĭÑĤÐ°":3607,"ĠÐ·Ð°Ð³":3608,"ĠÐĲÐ»ÐµÐºÑģÐ°Ð½":3609,"ĠÐ·Ð½Ð°Ð»":3610,"ĠÐ´ÑĢÑĥÐ·ÑĮÑı":3611,"ĠÑĦÐ°":3612,"ĠL":3613,"Ð²Ð»Ð°":3614,"ĠÐ´Ð¾Ð±Ð°Ð":3615,"ĠÑģÐ°Ð¼Ð¾Ð³Ð¾":3616,"ĠÐ²Ð¾ÐºÑĢÑĥÐ³":3617,"Ð¸Ð²Ð¸":3618,"ĠÐĹÐ½Ð°":3619,"ing":3620,"ĠÐ¸Ð·Ð¼ÐµÐ½":3621,"ĠÐ¾ÑģÑĤÐ°Ð½Ð¾Ð²":3622,"ĠÑįÐ½ÐµÑĢÐ³":3623,"ĠÑĢÐ¸":3624,"ĠÐ³Ð°Ð·":3625,"µÑģÑĤÑ":3626,"ĠÑģÑĢÐµÐ´Ð¸":3627,"Ð´Ð¸Ð":3628,"ĠÑģÑĥÐ":3629,"ĠÑģÑĤÐ°Ð»Ð°":3630,"ĠÑĩÐµÑĤÑ":3631,"ĠÐ¢ÐµÐ¿ÐµÑĢÑĮ":3632,"ÑģÐ¼Ð¾Ð":3633,"ÑģÑĥÐ¿":3634,"ĠÑĩÐ°ÑģÐ¾Ð²":3635,"ÑĤÐ°ÐºÐ¸":3636,"ÑĥÐ¶":3637,"ĠÐĴÐ»Ð°":3638,"ĠÐ±Ñĥ":3639,"Ð¿Ð¾Ð»Ð":3640,"Ð°Ð½Ð½ÑĭÑħ":3641,"Ð¶Ñĥ":3642,"ĠÐ¿ÐµÑĢÑģ":3643,"ÑģÑĤÐ²ÐµÐ½Ð½Ð¾":3644,"ĠÐ¾Ð±Ð»Ð°":3645,"ĠÑĢÑĥÐºÐ¾Ð²":3646,"ĠÑģÐ¼Ð¾Ð":3647,"ÑĥÑīÐµÑģÑĤ":3648,"Ð¾Ð´Ñ":3649,"ĠÐ³Ð¾ÑģÐ¿":3650,"ÑĨÐ¸Ð°Ð»":3651,"Ð¨ÐĲ":3652,"ĠÐºÑĢÑĥÐ¿":3653,"Ð¶Ð°ÑĤÑ":3654,"ĠÑģÐ»Ñ":3655,"ÑħÐ°ÑĤÑ":3656,"ĠÐ¾ÑĢÐ³Ð°Ð½Ð¸Ð·":3657,"ĠÐ´Ð¾Ð»Ð":3658,"ÑİÑīÐ¸Ð¼":3659,"ĠÐ±Ð¾Ð":3660,"Ð°Ð»Ñĭ":3661,"ĠÐºÐ°ÐºÐ°Ñı":3662,"ĤÑİ":3663,"¾ÑıÐ":3664,"ÐµÐ¹Ñģ":3665,"ĠÐºÑĢÐ°":3666,"Ð¾ÑıÑĤ":3667,"ÑĢÑĦ":3668,"ÑħÐ°ÑĤÑĮ":3669,"Ð¸Ð½Ð°Ð½":3670,"ĠÑģÐµÐ¼Ñ":3671,"Ð±Ð¸Ñ":3672,"ĠÑģÐ¾Ñħ":3673,"ĠÑĥÑ":3674,"ĠÑħÑĥÐ´":3675,"ĠÑĢÐ°Ð·Ð¼Ðµ":3676,"ÐºÑĥÑİ":3677,"Ð¶Ð°ÑĤÑĮ":3678,"ĠÑģÐ²ÑıÐ·":3679,"ĠÐ²Ð°Ð¶Ð":3680,"ĠÐ´Ð¾Ð»Ð¶Ð½Ð°":3681,"ĠÐĿÐ°Ð":3682,"Ð¸ÑĨÑ":3683,"ĠÐ´Ð²Ð¾":3684,"ĠÐ°Ð²ÑĤÐ¾":3685,"ĠÐ¸ÑİÐ":3686,"ĠÐ²Ð°ÑĢÐ¸":3687,"ĠÐ²ÑĭÐº":3688,"Ð¾Ñĳ":3689,"±Ð¸Ñ":3690,"ĠÑģÐ¾ÑĤÑĢÑĥÐ´":3691,"ÑģÐ»Ñ":3692,"ÐµÐ½Ñı":3693,"ĠÑĤÐ¸Ñħ":3694,"Ð¸ÑĨÑĭ":3695,"ĠÑĤÑĢÐµÑ":3696,"ÑĢÐ°Ð»Ñ":3697,"ĠÐ²ÑĤÐ¾ÑĢÐ¾Ð¹":3698,"ĠÑĤÑĢÐµÑĤ":3699,"ĠÐ·Ð´":3700,"ĠÐ¶ÐµÐ»Ð°":3701,"ĠF":3702,"ĠÐĴÐ°Ð¼":3703,"ĠÐĳÑĥÐ´":3704,"ÑĢÐ¾Ð²Ð°ÑĤÑ":3705,"ÑģÑĤÐ°ÑĤÐ":3706,"ĠÐ²ÑĭÑģÑĤÑĥÐ¿":3707,"ĠÐ¸ÑģÐ¿Ð¾Ð»Ð½":3708,"ĠÐ²Ð»Ð°":3709,"Ð¸ÑģÑĤÑĢÐ°":3710,"ÑĢÐ¾Ð²Ð°ÑĤÑĮ":3711,"ÑĥÐ±Ð»Ð¸Ðº":3712,"Ð¼ÐµÐ½Ð°":3713,"us":3714,"¸Ð½Ñĭ":3715,"ĠÑģÐ¸Ð»ÑĮÐ½Ð¾":3716,"ĠÐ¿ÑĢÐ¾Ð´ÑĥÐº":3717,"ĠÑģÐºÐ¾ÑĢÐ":3718,"ĠÑģÐ»Ð¾Ð¶Ð":3719,"Ð¸ÑĤÑģÑı":3720,"Ġb":3721,"Ð¿ÑĢÐ¸Ð¼ÐµÑĢ":3722,"ÑĩÐºÐµ":3723,"ÑģÑĬ":3724,"ÑĢÐ°Ð»Ð°":3725,"ĠÐ¿ÐµÑĢÐ¸":3726,"ĠÐĿÐ°Ð¿":3727,"ĠÑģÐ»Ñĭ":3728,"Ð³ÑĢÐµ":3729,"ĠÐ½Ð°Ð´Ð":3730,"¹Ð":3731,"²ÑĢÐ°ÑĤ":3732,"ĠÐ¾ÑĢÐ³Ð°Ð½Ð¸Ð·Ð°":3733,"Ð´ÑĭÑħ":3734,"ÑģÑĤÐ°ÑĤÐ¸":3735,"ĠÑħÐ¾ÑĩÐµÑĤ":3736,"ĠÐĲÐ»":3737,"ÐĿÐĲ":3738,"»ÐµÐ½Ð½Ð¾":3739,"ĠÐ´Ð°Ñ":3740,"ĠÐ´ÑĢÑĥÐ³Ð°":3741,"»Ð¾Ð¿":3742,"ĠÐ¿Ð¾Ð¼Ðµ":3743,"ÑĢÐ¾ÑģÑĤÐ¾":3744,"Ð¸Ð¼Ð°":3745,"ÑįÐ½":3746,"Ð±ÑĥÐº":3747,"ĠÑįÐ»ÐµÐºÑĤ":3748,"ÑĢÑĮÐµÐ·":3749,"ÐĽÐ¬":3750,"·Ð½Ð°ÐºÐ¾Ð¼":3751,"ĠÐ¿Ð¾Ð»Ð¾Ð²":3752,"ĠÐ¿Ð¾Ð¶Ð°Ð»ÑĥÐ¹ÑģÑĤÐ°":3753,"ĠÐ»Ð¸Ð":3754,"ÑģÐ»ÐµÐ´":3755,"ĠÐ¼Ð¾Ð½":3756,"ĠÐ³Ð¾Ð»Ð¾Ð²Ð¾Ð¹":3757,"½Ð¾Ðº":3758,"ĠÑĢÐ°Ð·Ð³Ð¾Ð²":3759,"ĠÑĢÐ°Ð´Ð":3760,"ĠÐ²ÑģÐµÐ¹":3761,"ĠÑĢÐ°Ð´Ð¸":3762,"ĤÐ¾ÑıÐ":3763,"Ð¿ÑıÑĤ":3764,"ÑĤÐ¾ÑıÐ":3765,"Ð°Ð½Ð¸Ð¹":3766,"ÐµÐ¶Ð´":3767,"ĠÑħÐ°ÑĢÐ°Ðº":3768,"ðŁı»":3769,"ĠÑĤÐ¾Ð±Ð¾Ð¹":3770,"ĠÐ¿ÑĢÐ°Ð²Ð´Ð°":3771,"ÑĤÑİ":3772,"½Ð¸Ð¼Ð°Ñ":3773,"ĠÐŁÑĢÐ¸Ð":3774,"ĠÐ²Ð¾Ð·Ð¼Ð¾Ð¶Ð½Ð¾":3775,"ÑīÐµÐ½Ð¸Ñı":3776,"ĠÐ»Ð¸ÑĨÐ°":3777,"Ð¾ÐµÐ´Ð¸Ð½":3778,"Ð¿Ð¾Ð»Ð½Ðµ":3779,"Ð¾Ð·ÑıÐ":3780,"ÐºÐ°Ðº":3781,"ĠÑģÑĤÑĢÐ":3782,"ÑĨÐ¸Ð¾Ð½Ð°Ð»ÑĮÐ":3783,"ÑģÐ»ÑĥÐ¶Ð":3784,"ÑĩÐ°Ñı":3785,"ÐµÑĤÑĭ":3786,"Ð¼Ð°Ð½":3787,"ÐµÑĤÐ":3788,"ÑĩÐµÑģÐºÐ°Ñı":3789,"ĠÑĦÐ¸Ð·":3790,"»Ð¾ÑģÑĮ":3791,"²Ð¾ÑģÑĤ":3792,"½ÑĥÑĤÑĮÑģÑı":3793,"and":3794,"±Ð¸ÑĤ":3795,"ÑĤÐ¸ÑĩÐµÑģÐºÐ":3796,"ÑĤÐ¸ÑĩÐµÑģÐºÐ¸":3797,"ĠW":3798,"ĠÑģÑĬ":3799,"ĠÐ¼Ð¸ÑĢÐ°":3800,"ĠÐ¼Ð¾Ð³Ð»Ð°":3801,"Ð»ÐµÐ½Ð¸Ð¸":3802,"âĻ":3803,"ĠÑģÐ¾ÑģÐµ":3804,"ut":3805,"²Ð¾Ð²Ð°ÑĤÑĮ":3806,"ĠÑģÑĥÐ¿":3807,"ÑĢÐ¾ÑĤ":3808,"ĠÐ¼ÐµÐ½ÑĮÑĪÐµ":3809,"________":3810,"ÑģÑĤÑĥÐ´":3811,"²Ð¾Ð³Ð¾":3812,"ÑĩÐµÑĢÐ°":3813,"ÑģÐ»ÐµÐ½":3814,"ĠÑģÐºÐ°Ð":3815,"ĠÐ´Ð¾ÑģÑĤÐ°ÑĤÐ¾ÑĩÐ½Ð¾":3816,"ĠÐ²ÐµÑī":3817,"ĠÐ±ÐµÑĢÐµÐ":3818,"ĮÑıÐ½":3819,"ÑĥÑİÑ":3820,"ĤÐ¸Ð½":3821,"ÑĥÑİÑĤ":3822,"ĠÐŀÐ±":3823,"ÑĩÐ½Ð¾Ðµ":3824,"ĠÐ±Ð¾Ð»ÑĮÑĪÐ¾Ð¹":3825,"ion":3826,"ĠÑģÐ´ÐµÐ»Ð°Ð»":3827,"ĠÐ²ÑģÑĤÑĢÐµÑĤ":3828,"ÐļÐŀ":3829,"ĠÐ³ÑĢÑĥÐ¿Ð¿Ñĭ":3830,"¶Ð¸Ð¼":3831,"ÑĢÐ¸ÑıÑĤ":3832,"ÑĢÐ°Ð»ÑģÑı":3833,"ĠÑģÐ¾Ð¾ÑĤÐ²ÐµÑĤ":3834,"ĠÐ·Ð°Ð²ÑĤÑĢÐ°":3835,"ıÐµÑĤÑģÑı":3836,"Ð°Ð½Ð½Ð¾Ð¹":3837,"ĠÐ¡Ð¾":3838,"²Ð°ÐµÐ¼":3839,"ĠÐľÐ°Ðº":3840,"ÐºÐ¾Ð½ÐµÑĨ":3841,"ĠÑĢÐ°Ð·Ð³":3842,"ĠÐķÑģ":3843,"ÑĥÐºÐ¸":3844,"ÑĦÐ°":3845,"Ð²ÑĥÑİ":3846,"ĠÐºÑĢÐ¾Ð¼Ðµ":3847,"Ð¼ÐµÐ½Ð¸Ñ":3848,"²ÑĢÐ°Ð":3849,"ĠÐ·Ð°Ð¼Ð":3850,"ÑĨÐµÐ¿":3851,"ĠÑĤÐµÑĢÑĢÐ¸":3852,"ĠÐ´Ð°Ð»Ðµ":3853,"ÑĢÐµÐ»Ð°":3854,"ÑĤÐµÐ»ÑĮÑģÑĤÐ²Ð¾":3855,"ÑĩÐ½":3856,"ĠÑģÐµÐ½":3857,"Ð¸ÑĢÑĥÐµ":3858,"ĠÑĤÐµÑĢÑĢÐ¸ÑĤÐ¾":3859,"Ð±Ð¸ÑĤ":3860,"Ð»Ð¸Ð·":3861,"ÐĺÐ¢":3862,"ĠÐ·Ð°ÑģÑĤÐ°Ð":3863,"ÑĥÐ»ÑĮÑĤÑĥ":3864,"ĠÐ·Ð½Ð°ÑĤ":3865,"ÑĢÑĤÐ°":3866,"ĠÐ·Ð°ÑĩÐµÐ¼":3867,"ÑĢÐºÐ¸":3868,"ĠÐ½Ð¾Ð²ÑĭÐ¹":3869,"ĠÑģÐ°Ð¼ÑĭÐ¹":3870,"ĠÐ²Ð½Ð¸Ð¼Ð°Ð½Ð¸Ðµ":3871,"Ð¸Ð»Ð¾":3872,"ĠÐ³ÑĢÐµ":3873,"Ġ13":3874,"»ÑĥÐ¿":3875,"ĠÐ¿Ð°ÑĢÑĥ":3876,"ĠÑģÐ²Ð¸":3877,"½Ð¸ÑĨÑ":3878,"ÑĪÐ»Ð¾ÑģÑĮ":3879,"im":3880,"od":3881,"ĠÑħÐ¾Ð»Ð¾Ð´":3882,"ĠÐŁÐ":3883,"ĠÑĢÐ°ÑģÐ¿Ð¾Ð»":3884,"ĠÐķÑģÑ":3885,"ĠÐ²ÑĢÐ°":3886,"ÐŀÐ½Ð°":3887,"ÑģÑĩÐ¸":3888,"ĠÐ¿Ð»Ð¾ÑīÐ°":3889,"ĠÐ½ÐµÐ¼Ñĥ":3890,"Ð²ÑĢÐ°Ð":3891,"ÑĤÑıÐ±ÑĢÑı":3892,"ĠÐķÑģÑĤ":3893,"Ð´Ð²Ð°":3894,"ĠÐŁÐ¾ÑĩÐµÐ¼Ñĥ":3895,"ĠÐºÐ¾Ð¿":3896,"ÑīÐ°Ñı":3897,"ĠÐºÑĢÑĥÐ³":3898,"ĠÐ´Ð¾ÐºÑĥÐ¼":3899,"ĠÐ²ÑĭÑĪÐµ":3900,"ĠÐ¿ÑıÑĤÑĮ":3901,"ĠÐ²Ð¾Ð·Ð²ÑĢÐ°":3902,"ÑıÑĩ":3903,"Ð´ÐºÐ":3904,"ĠÐ¡ÑĤÐ°":3905,"ÑĤÐ°Ð»ÑģÑı":3906,"ĠÐ¿Ð¾Ð½Ð¸Ð¼Ð°Ñİ":3907,"Ð´ÐºÐ¸":3908,"ĠÐ´ÐµÑĤÐ":3909,"Ð¾ÑĢÐ¸":3910,"Ð¼ÐµÑĢÐ¸ÐºÐ°Ð½":3911,"Ð¾ÑģÑĭ":3912,"¹ÑĤÐµ":3913,"ĠÐ¼ÑĭÑģÐ»Ð¸":3914,"ÑħÐ¾Ð":3915,"·Ð²Ð¾Ð½":3916,"ĠÐ¿ÑĢÐ¾Ð´Ð°Ð":3917,"ĠÐ¶ÐµÑģ":3918,"ĠÐ´ÐµÑĤÐ¸":3919,"ĠÐ·Ð°Ð½Ð¸Ð¼":3920,"ĠÐ¼Ð¾Ð³Ð»Ð¸":3921,"Ð¼Ð°Ñı":3922,"ĠÐ¿ÑĢÐ¾Ð¸Ð·Ð¾":3923,"Ð»Ð¸Ðº":3924,"ĠÐ¼Ð°Ðº":3925,"ÑħÐ¾Ð´Ñ":3926,"ĠÐ²Ð¾Ð´Ñ":3927,"ĠÑģÐ»ÑĥÐ¶Ð":3928,"ĠÑĢÐ°Ð±Ð¾ÑĤÐ°ÑĤÑĮ":3929,"ĠÐ°Ð½":3930,"½Ð¸ÑĨÑĭ":3931,"Ð´ÐµÐ¼":3932,"Ð¾Ð½ÑĮ":3933,"ÑģÐ»Ð¾Ð²":3934,"ĠÐ¾Ð±Ð¾Ð":3935,"Ð¾ÑĢÐ¾Ð²":3936,"ĠÐ¿ÑĥÑģÑĤÑĮ":3937,"ĠÐ¿ÑĢÐ¾Ð¹":3938,"ĠÐ¡Ð¸":3939,"ÑģÑĢÐµÐ´Ð":3940,"ÐµÐ³Ð¾Ð´Ð½Ñı":3941,"ĠÐºÐ°Ð¿Ð¸":3942,"ĠÑĢÐ¾Ð´Ð¸ÑĤÐµ":3943,"ĠÐ¾ÐºÐ¾Ð½":3944,"ĠÐºÑĥÑģ":3945,"ĠÐ²ÑĢÐ°Ð":3946,"ub":3947,"ÐµÐ´Ð":3948,"Ð²ÐµÑĢ":3949,"ĠÑĢÐµÑĪÐ¸Ð»":3950,"ĠÑħÐ²Ð°":3951,"ĠÐ¿Ð¾ÑıÐ²":3952,"ÑģÐ¿ÑĢÐ":3953,"ĠÐºÐ½":3954,"ĠÐ¼Ð°ÑĤÑ":3955,"ĠÐ²Ð¾Ð·Ð¼Ð¾Ð¶Ð½Ð¾ÑģÑĤÑĮ":3956,"ent":3957,"ĠÑģÐ¾Ð´ÐµÑĢÐ":3958,"13":3959,"ĠÐ¼Ð¾Ð·":3960,"ĠÐ±ÑĥÐº":3961,"½Ð¾Ð³Ð¸":3962,"ĠÐķÐ²":3963,"Ð½Ð¾Ð³Ð¸":3964,"ÑĪÐºÐµ":3965,"Ð¼ÐµÐ½Ð¸ÑĤ":3966,"ĠÐ²Ð¾Ð´Ñĭ":3967,"ÑĢÐµÐ±Ð":3968,"ĠÐ½Ð°ÐºÐ¾Ð½ÐµÑĨ":3969,"ĠÑģÐ¾Ð·":3970,"ĠÑĤÑĭÑģÑıÑĩ":3971,"ĠÑĥÐ¼Ðµ":3972,"ay":3973,"ĠÐºÑĥÑĢÑģ":3974,"ĠÑĤÐ¾Ð¿":3975,"Ð½Ð¾Ñģ":3976,"Ð¾ÑĢÐµÐµ":3977,"ĠðŁĵ":3978,"·ÐµÑĢÐ":3979,"ÐľÑ":3980,"Ð»Ð»Ðµ":3981,"Ð´Ð°Ð¼":3982,"ĠÐĴÐ¾":3983,"¾ÑĢÐ¾ÑĤ":3984,"ĠÐ¢Ð°Ð¼":3985,"ĠÑģÐ¾Ñģ":3986,"ĠÐ°Ð½Ð³":3987,"ĠÑģÐ²Ð¾Ð¸Ð¼Ð¸":3988,"ĠÐ´Ð»Ð¸Ð½":3989,"ĠÑĨÐµ":3990,"Ð¼Ð¾ÑģÑĤÐ¸":3991,"Ð»Ð°Ð´ÑĭÐ":3992,"¶Ð½Ð°":3993,"ÑĪÐµÐ¼Ñĥ":3994,"Ð¾Ð»Ñĭ":3995,"ĠÐ¼ÐµÐ½ÐµÐµ":3996,"ĠÐ¿Ð¸ÑģÑĮ":3997,"ÑĤÐµÑĢÐ":3998,"³ÐµÐ½Ðµ":3999,"ÑīÐµÐ½Ð¸Ðµ":4000,"ĠÐ²Ð¸Ð´":4001,"ÑĦÑĦÐµÐºÑĤ":4002,"ĠÐ¾ÐºÐ°Ð·Ð°":4003,"ĠÐ¡Ð¿Ð°ÑģÐ¸Ð±Ð¾":4004,"cÑ":4005,"ĠÐ²Ð¾Ð¿ÑĢÐ¾ÑģÑĭ":4006,"ĠÐ¾Ð´Ð½Ñĥ":4007,"ĠÐĴÐ°Ñģ":4008,"ĠÐ²ÑĭÑħÐ¾Ð´":4009,"ĠÐ·Ð°ÐºÐ»Ñİ":4010,"ÑĢÐ¾Ð³":4011,"ĠÑģÐ»ÐµÐ":4012,"ĠÐ½Ð¾Ð³Ð¸":4013,"Ð»Ð¾Ð¼":4014,"ĠÑģÐ¸Ð»Ñ":4015,"ag":4016,"ĠÐ±Ð¾Ð³Ð°":4017,"Ð¿Ð°Ð¿":4018,"±ÑĥÐ¼":4019,"½ÑĢÐ°Ð²Ð¸ÑĤÑģÑı":4020,"ÑħÐ°ÑħÐ°":4021,"Ð½ÑĢÐ°Ð²Ð¸ÑĤÑģÑı":4022,"ÐºÐ¾Ð½Ð¾Ð¼":4023,"ÑħÐ¾Ð¼":4024,"ÑĢÐ¾ÑģÑĤ":4025,"ĠÐ¿Ð°ÑĢÑĤ":4026,"ĠÐ·Ðµ":4027,"ÐµÐ½Ð¾":4028,"ÑĮÐµÐ":4029,"ÐĴÐ¾ÑĤ":4030,"ĤÑĢÐµÐ±":4031,"Ð³ÑĢÐ¾Ð¼":4032,"ĠÑģÑĢÐµÐ´Ð":4033,"ĠÐ¼Ð¸ÑĢÐµ":4034,"ĠÐ¼Ð¾Ð¶ÐµÑĤÐµ":4035,"Ð¼Ð½":4036,"ĠÐ¾ÑīÑĥÑī":4037,"un":4038,"ĠÑĩÐ°ÑģÐ°":4039,"ÑħÐ¾Ð´Ð¸ÑĤÑ":4040,"ĠÐ½ÑĢÐ°Ð²Ð¸ÑĤÑģÑı":4041,"ÑħÐ¾Ð´Ð¸ÑĤÑĮ":4042,"ĠÐ¿Ð¾Ð»Ð½Ð¾ÑģÑĤÑĮÑİ":4043,"Ð¼ÐµÑĤÑ":4044,"ĠÐ²Ð¾Ð²":4045,"ĠÐ±Ð¾Ðµ":4046,"Ð´Ð¸Ð¼":4047,"ĠÐ²ÐµÑĤ":4048,"ĠÐŁÐ¾ÑįÑĤÐ¾Ð¼Ñĥ":4049,"ĠÐ½ÐµÐ´Ðµ":4050,"ÑĤÑĢÐµÐ±":4051,"ĠÐ»ÑİÐ±Ð¸Ð¼":4052,"ĠÑĤÐµÐ»Ð¾":4053,"ĠÐ¿Ð¾Ð»Ð¾Ð":4054,"ĠÑĩÑĥÐ²ÑģÑĤÐ²":4055,"ĠÐļÐ¾Ð¼":4056,"ĠÑĢÑĥÐ±":4057,"Ð¶Ð¸Ñ":4058,"ÐľÑĭ":4059,"ÑģÑĤÐ°Ð½":4060,"ĠÐ¾ÑģÐ¾Ð±ÐµÐ½Ð½Ð¾":4061,"ÑĢÐ¸Ð½Ð°":4062,"ÑĢÐµÐ²Ð":4063,"ĠÑĢÐµÑĪÐ¸":4064,"ÐĲÐĲ":4065,"www":4066,"ĠÐ¸Ð½ÑĤÐµÑĢÐ½Ðµ":4067,"ĠÑĥÐ½":4068,"Ð»Ð¸Ð¹":4069,"Ð¶Ð¸ÑĤÐµ":4070,"²ÐµÐ»":4071,"Ġ50":4072,"ĠÑģÐ¾Ð±ÑĭÑĤ":4073,"ĠÑģÑĤÑĥÐ´":4074,"Ġ11":4075,"Ð²Ð¾ÑĢ":4076,"ĠÐ¡ÐµÐ¹ÑĩÐ°Ñģ":4077,"ĠÐĹÐ°Ð":4078,"ĠÑĥÑģÑĤÐ°Ð½Ð¾Ð²":4079,"ĠÐłÐ°":4080,"ĠÑģÐ¿ÐµÑĨÐ¸Ð°Ð»ÑĮÐ":4081,"ĠÑĤÐ¾Ð¹":4082,"Ð±ÑĥÐ¼":4083,"ĠÐ¾ÑĦÐ":4084,"Ð¾Ð½ÐµÑĩÐ½Ð¾":4085,"Ð§ÑĤÐ¾":4086,"Ġ25":4087,"»Ð¾Ð´":4088,"ĠÐ¾ÑĦÐ¸":4089,"ĠÐŁÐµÑĢÐ":4090,"ĠÐ½Ð°Ð¿ÑĢÐ¸Ð¼ÐµÑĢ":4091,"ĠÐ³ÑĢÐ¾Ð¼":4092,"ĤÐ¾Ð³":4093,"ĠÐ±ÑĥÐ´ÐµÐ¼":4094,"ĠÐ´Ð¾Ð¼Ð¾Ð¹":4095,"ĠÑĩÑĤÐ¾Ð±":4096,"ÑĥÐ½Ðº":4097,"ĠÐ²Ð¸Ð´Ð¸":4098,"ĠÑĢÐµÐ°Ð»ÑĮÐ":4099,"½ÑıÑı":4100,"ĠÐ£ÐºÑĢÐ°Ð":4101,"os":4102,"Ð½Ð°Ð¼Ð¸":4103,"ĠÑģÑĥÑīÐµÑģÑĤ":4104,"ĠÐ¼Ñĥ":4105,"ÐµÐ¹ÑģÑ":4106,"ĠÑĥÑĢÐ¾Ð²":4107,"ĠÐ²Ð¾Ð¹Ð":4108,"ÐľÐ°":4109,"ĠÐºÐ°Ñģ":4110,"ĠÑĤÑĢÐµÐ±":4111,"ĠÐ²ÑĭÑĢÐ°Ð":4112,"Ġf":4113,"ĠÑģÑĩÐ¸":4114,"ĠÐ½Ð°ÑģÑĤÐ¾ÑıÑī":4115,"um":4116,"Ð¼ÐµÐ¹":4117,"ÑĩÐ°Ð»Ð¸":4118,"ĠÑĢÐµÐ±Ñ":4119,"ÑĤÐ°Ð½Ð":4120,"Ð»ÐµÐ·":4121,"ÐļÐĺ":4122,"ĠÑģÑİÐ´Ð°":4123,"ĠÐ¿Ð¾Ð½ÑıÑĤÑĮ":4124,"Ð³ÐµÐ½Ðµ":4125,"Ð´ÐµÑĤÑģÑı":4126,"ĠÐ½Ð¾Ñģ":4127,"ÑĩÐ¸ÑĤÑĭÐ":4128,"ĠÐ²Ð¾Ð¹Ð½":4129,"²Ð°Ð½Ð¸Ðµ":4130,"ĠÐ±Ð¾Ð³":4131,"²Ð¿Ð¾Ð»Ð½Ðµ":4132,"Ð²Ð¿Ð¾Ð»Ð½Ðµ":4133,"Ð½Ð°Ð´Ð":4134,"ĠÐ¢Ð¾Ð³Ð´Ð°":4135,"³ÑĢÐ°Ð´":4136,"ĠÐºÐ¾Ð½ÐºÑĥ":4137,"ÑĢÐ°Ð·Ð":4138,"Ð¾ÑĢÑİ":4139,"·Ð²Ñĥ":4140,"Ð·Ð²Ð¾Ð½":4141,"ĠÐ´Ð¾Ð»Ð³":4142,"ÐŀÑ":4143,"ĠÑĢÐ°ÑģÑ":4144,"ĠX":4145,"Ð»Ð¸ÑĤÑ":4146,"ĠÐ¾Ð±ÑĢÐ°Ð·Ð¾Ð²":4147,"¾Ð½Ð°":4148,"ĠÐ½Ð°ÑĢÑĥ":4149,"ĠÐ¿Ð°Ð¿":4150,"ĠÐĵÐ°":4151,"ÑĪÐ°ÐµÑĤ":4152,"ĠÐ¾ÑģÐ¾Ð±Ð":4153,"ÑģÑĤÐµÐ½":4154,"ĠÑģÐµÑĢÐ´ÑĨÐµ":4155,"ĠÐĶÐ°Ð¶Ðµ":4156,"µÑģÑĤÑĮ":4157,"âĢį":4158,"ĠÑĢÐ°ÑģÑģÐºÐ°Ð·ÑĭÐ":4159,"ĠÐ±ÑĥÐ¼":4160,"Ð»ÑĥÐ¿":4161,"ĠÐ´ÐµÐ½ÐµÐ³":4162,"ĠÐ¾ÑģÐ¾Ð":4163,"ÑĩÐ½ÑĭÐ¼":4164,"ĠÐ²Ð¸Ð´ÐµÐ¾":4165,"Ð±Ð»Ð¸":4166,"ĠÐ¶Ð°":4167,"ĠÐ¾ÑĤÐºÐ°":4168,"ĠÐ´ÐµÑĢÐµ":4169,"ÑĤÑĢÐ¾ÐµÐ":4170,"½Ð¸ÑĨÑĥ":4171,"ĠÐ²Ð¿Ð¾Ð»Ð½Ðµ":4172,"ĠÑģÐ»Ð¾Ð²Ð¾":4173,"ĠÐ¸Ð½ÑĤÐµÑĢÐµÑģ":4174,"ÑĤÐ¾Ð³":4175,"ĠÑĦÐ¾ÑĤÐ¾Ð³ÑĢÐ°ÑĦ":4176,"ĠÐ½Ð°ÑĪÐ¸Ñħ":4177,"ĠE":4178,"ĠÑĩÐµÑĤÑĭÑĢÐµ":4179,"ĠÐĳÐ¾Ð»ÑĮ":4180,"Ð¿Ð¾Ñ":4181,"±ÐµÐ":4182,"ÑĢÐ°ÑģÑ":4183,"ĠÐ°Ð´Ð¼Ð¸Ð½":4184,"ĠÑĩÐ¸ÑģÑĤ":4185,"ĠÐ¿Ñĥ":4186,"²Ð»ÑıÑĤÑĮ":4187,"ÑĢÑĭÐ¼":4188,"ĠÐ´Ð¾ÐºÐ°":4189,"Ð¶Ð¸ÑĤ":4190,"ÐŀÑĤ":4191,"ÐµÐ½Ð½ÑĭÐ¹":4192,"ĠÐ¾Ð±Ð½Ð°ÑĢÑĥÐ":4193,"ĤÐ²Ð¸Ñı":4194,"ĠÐ¿Ð¾ÑģÑĤÐ°Ð":4195,"Ð½Ð°Ñħ":4196,"ÑıÐº":4197,"ĠÑģÑĥÑĤ":4198,"³ÑĢÐ°":4199,"ÐĴÑģÐµ":4200,"ÑĢÐµÐ½Ð¸Ðµ":4201,"Ð¿ÑĢÐµÐ·Ð¸":4202,"»Ð¾Ð³":4203,"ĠÐĶÐ¾":4204,"ĠÐºÐ½Ð¸Ð³":4205,"ÑĩÐµÑģÑĤÐ²Ð°":4206,"ĠÐ´Ð°Ð»":4207,"²Ð°Ð¹":4208,"Ð¾Ð²Ð¸":4209,"²Ð»Ð¸":4210,"ĠÐ´Ð¾Ð»Ð¶Ð½Ð¾":4211,"ÑĤÐµÑĤ":4212,"ÐĵÐŀ":4213,"Ð¿Ð°Ð»":4214,"ÑĸÐ":4215,"ÑĤÐµÐ»ÑĮÐ½Ð¾ÑģÑĤÐ¸":4216,"Ð²ÑĥÐµÑĤ":4217,"ÐºÐ¾Ð»":4218,"ĠÑģÐºÐ¾ÑĢÐµÐµ":4219,"ĠÐ´Ð¾ÑģÑĤÐ°Ð":4220,"ĠÐ¿Ð¾Ñ":4221,"ÑĢÐ½ÑĭÐ¹":4222,"ĠÐ´Ð°ÑĤ":4223,"ĠÐ³ÑĢÐ°Ð¶Ð´":4224,"ÑģÐ¾Ð»Ð½":4225,"ĠÐ³ÐµÐ½Ðµ":4226,"ĠÐ½Ð¾ÑĩÑĮ":4227,"ĠÐºÐ¾ÑĢÐ°Ð±Ð":4228,"ĤÐ¸Ð²":4229,"ĠÑĢÑĥ":4230,"ĠÐ»ÑİÐ±Ð¾Ð¹":4231,"ĠÐ¸ÑģÐºÐ»Ñİ":4232,"ıÑı":4233,"ĠÐ·Ð²Ð¾Ð½":4234,"ĠÑĤÐ°Ð¹":4235,"³ÑĥÑģ":4236,"ĠÐ¿Ð¾Ð²ÑĤÐ¾":4237,"ĠÑĩÐ¸ÑĤÐ°":4238,"·Ð¾Ð»Ð¾ÑĤ":4239,"ap":4240,"!!!!":4241,"ĠÐ¡Ð¨ÐĲ":4242,"ĠÐ·Ð½Ð°ÑĤÑ":4243,"ĠÐ·Ð½Ð°ÑĤÑĮ":4244,"ĠÐ¿Ð¾ÑģÑĤÐ¾ÑıÐ":4245,"ĠÐŀÑĩÐµÐ½ÑĮ":4246,"ÑĢÐ¸ÑĩÐµÑģÐº":4247,"ĠÐ½Ð°Ð¼Ðµ":4248,"Ð¾ÑĢÐ´":4249,"Ð°Ð¶Ð´":4250,"ÑĢÑĥÑģÑ":4251,"ĠÐ½ÐµÐ¼Ðµ":4252,"Ð¾Ð¿Ð°ÑģÐ":4253,"ĠÐĳÐ":4254,"Ð¶ÐµÑ":4255,"ÑĤÐ°Ð»ÑĮÐ":4256,"Ð·Ð¾Ð»Ð¾ÑĤ":4257,"Ð¸Ñī":4258,"ÑģÑĤÐ°Ð½Ð¾Ð²":4259,"ÑİÑīÐµÐ¹":4260,"ÑģÑĤÐ²Ðµ":4261,"ÐĿÐ«":4262,"Ð¶Ð´Ñ":4263,"¿ÑĢÐ¾Ð²":4264,"ĠÐ¿Ð¾Ð´Ð¾":4265,"ÑĥÑĢÐ½Ð°":4266,"ĠÑģÑĤÐ°ÑĢ":4267,"Ð¶Ð´Ñĭ":4268,"Ð¾ÑģÑı":4269,"ÑģÑĭÐ»":4270,"ĠÐķÑģÑĤÑ":4271,"ĠÐµÐ²":4272,"ĠÐķÑģÑĤÑĮ":4273,"¸Ð¿Ð°":4274,"ÑĢÐ½Ð":4275,"ÑĪÐµÑ":4276,"Ð¾Ð¼Ð°":4277,"ÐļÐ¾Ð³Ð´Ð°":4278,"Ð¾ÑĢÐ¾Ð½":4279,"ig":4280,"ĠÐ¸Ð´":4281,"½Ð¸Ð¸":4282,"ĠÐ¥Ð¾ÑĢÐ¾":4283,"ĠÐ»ÑİÐ´Ñ":4284,"ÐĽÐĺ":4285,"²Ð¸Ð»":4286,"ĠÐ»Ð¾":4287,"ĠÑĥÑĩÐµ":4288,"Ð´Ð¾Ðº":4289,"¾ÑĢÐ¾Ð":4290,"ĠÐ²ÑģÐ¿Ð¾Ð¼Ð½":4291,"ÑĢÐ°ÐµÑ":4292,"ÑĢÐ½Ð¸":4293,"²Ð°ÑıÑģ":4294,"²Ð°ÑıÑģÑ":4295,"²Ð°ÑıÑģÑĮ":4296,"Ð²ÑĥÑ":4297,"ĠÑĥÑģÐ»Ð¾Ð²Ð":4298,"ĠÐ°Ð²ÑĤÐ¾Ð¼Ð¾Ð±Ð":4299,"ĠÐ¿ÑĢÐ¸Ð³Ð»Ð°":4300,"ÐŁÑĢÐ¸":4301,"Ð¾Ð²Ð°ÑĤÑĮÑģÑı":4302,"ĠÑģÐ¾Ð»Ð½":4303,"ĠV":4304,"ĠÐ»ÑİÐ±Ð»Ñİ":4305,"ÑĢÐ°ÐµÑĤ":4306,"Ð¾Ð¸":4307,"Ð¸Ð¿Ð°":4308,"ĠÑĥÐµ":4309,"ĠÑģÐ²ÑıÐ·Ð":4310,"³Ð»Ð°Ð²":4311,"¶Ð¸Ðµ":4312,"ĠÑĢÐ°ÑģÑĤ":4313,"ĠÐ¾Ð±Ð¾":4314,"ĠÐ²Ð°Ð¼Ð¸":4315,"ĠÑģÐ²ÑıÐ·Ð¸":4316,"ĠÐ·Ð°Ð´ÑĥÐ¼":4317,"ÑĢÐ¾Ð·":4318,"Ð´ÐµÐ½ÑĤ":4319,"ĠÑģÐ¸Ð¼Ð":4320,"ĠÐ¸Ð½ÑĤÐµÑĢÐµÑģÐ":4321,"ÑħÑĥ":4322,"¹ÑģÑı":4323,"ĠÐ¼Ð¸Ñģ":4324,"ĠÐĽÐµ":4325,"ÑīÐ°ÑĤÑĮÑģÑı":4326,"ĠÐ¿ÑĢÐµÐ´Ð»Ð¾Ð":4327,"ÑĨÐ°Ð¼Ð¸":4328,"ĠÐĹÐ°Ð¿":4329,"ĠÐ¸ÑģÑĤÐ¾ÑĢÐ¸Ð¸":4330,"ĠÑģÐ°Ð¼Ð¾Ð¹":4331,"ĠÐ¿ÑĢÐ¾ÑĪÐ»":4332,"ĠÐ´ÐµÑı":4333,"ĠÑĥÑģÐ»Ð¾Ð²Ð¸":4334,"Ð¸ÑģÑĤÑ":4335,"ĠÐ²Ð¾Ð¹Ð½Ñ":4336,"ĠÐ²Ð¾Ð¹Ð½Ñĭ":4337,"ĠÑģÐ¾ÑģÑĤÐ¾ÑıÐ":4338,"ĠÐ¿Ð¾Ð±Ð":4339,"ĠÐŁÐ¾Ð":4340,"ÑĩÑĮÑİ":4341,"ÐºÐ°Ð»":4342,"ĠÐ°Ð±":4343,"ĠÑĦÐ¸Ð³":4344,"Ð³Ð»Ð°Ð²":4345,"ĠÐ¼Ñı":4346,"ir":4347,"Ð»Ð¾ÑĤ":4348,"ĠÐ¾ÑĤÐ½Ð¾ÑĪÐµÐ½":4349,"ĠÐŁÑĢÐ¾ÑģÑĤÐ¾":4350,"ĠÑĥÑģÐ¿":4351,"90":4352,"ĠÐ¿ÑĢÐµÐ´ÑģÑĤÐ°Ð²Ð¸":4353,"ĠÐ¾Ð´Ð½Ð°ÐºÐ¾":4354,"ĠÐ½ÐµÐ¸Ð·":4355,"²Ð¾ÑģÐº":4356,"ĠÐ¼ÑĥÐ¶ÑĩÐ¸Ð½Ð°":4357,"Ð¿Ð¾Ð»Ð½":4358,"ÑģÑĤÐ¾Ð»ÑĮÐºÐ¾":4359,"²Ð°Ð»Ð¾ÑģÑĮ":4360,"ĠÐĺÐ²Ð°Ð½":4361,"ÑĨÐµÐ¼":4362,"ĠÐ¾ÑĪÐ¸":4363,"Ð²Ð¾ÑģÐº":4364,"ĠÑģÑĤÑĢÐ°Ð½Ñ":4365,"Ð¿ÑĥÑĤÐ¸":4366,"ĠÐ¸ÑģÐºÑĥÑģ":4367,"ĠÑģÑĤÑĢÐ°Ð½Ñĭ":4368,"ĠÐ»ÐµÐ³ÐºÐ¾":4369,"ĠÑĥÐ·":4370,"ĠÐ·Ð°ÑĢÐ°Ð":4371,"ÑĥÑı":4372,"ÑĪÐ¸Ð»Ð¸":4373,"Ð½ÑĥÐ²":4374,"²Ð°Ñİ":4375,"¾Ð»Ð":4376,"ĠÐłÐ¤":4377,"ĠÑģÐµÑĢÑĮÐµÐ·":4378,"ÑģÐ¾Ð½":4379,"ĠðŁĮ":4380,"½Ð¾Ð²Ñ":4381,"ĠÐ¸Ð½Ð¾Ð³Ð´Ð°":4382,"¾ÑĤÑ":4383,"²Ð¸Ð¸":4384,"ĠÐ²Ð½ÐµÑĪÐ":4385,"³ÑĢÐ°ÑĦ":4386,"ĠÐ¼Ð½Ð¾Ð³Ð¸Ðµ":4387,"½Ð¸ÐºÐ¾Ð¼":4388,"Ð»Ð¸Ñı":4389,"Ð·Ð¾Ð²":4390,"ĠÐĲÐ½Ð´":4391,"ĠÑģÑĤÐ°Ð½":4392,"ÐĶÐĲ":4393,"ÑģÑĤÐ²Ð¾Ð¼":4394,"ĠÐ¿Ð¾Ð¿ÑĢÐ¾":4395,"Ð¾Ð»Ð¾Ð´":4396,"ÑĩÐµÑĢ":4397,"Ð²ÐµÑĤÐ°":4398,"ÑıÐµÑĤ":4399,"Ð¼Ð¿Ð":4400,"ĠðŁĶ":4401,"ĠÐ¼ÐµÑĩ":4402,"ĠÑģÐ¾Ðº":4403,"ĤÑĢÐµÐ½":4404,"ĠÐºÑĢÑĭ":4405,"ÐµÑĢÐº":4406,"Ð±Ð¾Ð¼":4407,"ĠÐ¸Ð·Ð¾Ð±":4408,"Ð´ÑĤ":4409,"ĠÑĢÐ°Ð±Ð¾ÑĤÐ°ÐµÑĤ":4410,"ĠÑĦÐ¸":4411,"ĠÐĹÐ´Ð":4412,"ĠÐ¡Ñ":4413,"ÑĢÐµÐ¼":4414,"Ð²Ð¾Ðµ":4415,"ĠÐ³Ð¾ÑĢÑı":4416,"ÐµÐ·Ð":4417,"ĠÐ½Ð¾Ð²ÑĭÐµ":4418,"ĠÑĢÐ¾ÑģÑģÐ¸Ð¹":4419,"ÑĥÑģÐ°":4420,"ºÐ°Ñħ":4421,"¸Ð¾Ð½Ð°":4422,"Ð²Ð¾Ð²Ð°ÑĤÑĮ":4423,"ĠÐ³Ð»ÑĥÐ±Ð¾Ðº":4424,"ĠÐ¿ÑĢÐµÐ·Ð¸":4425,"ĠÐĴÐµÐ´ÑĮ":4426,"ĠÐ»ÑİÐ±Ð¸Ñ":4427,"ĠÐ»ÑİÐ±Ð¸ÑĤ":4428,"ÑĤÐµÐ»ÑĮÐ½ÑĭÐµ":4429,"ĠÑħÐ¾Ð·ÑıÐ":4430,"11":4431,"ÑĤÐ²ÐµÑĢÐ´":4432,"ĠÑģÐ²Ð¾ÐµÐ¼":4433,"ĠÐ¸Ð¼Ñ":4434,"ĠÐºÐ¾Ð½ÑĤÑĢÐ":4435,"ĠÐ¿Ð¾ÑģÐ»ÐµÐ´":4436,"ÐļÐ°":4437,"Ġ/":4438,"ĠÑģÐ¼Ð¾ÑĤÑĢÐµÑĤÑĮ":4439,"±ÑĢÐ¸":4440,"ÑĥÑģÐºÐ°":4441,"ĠÑĢÐµÐ·ÑĥÐ»ÑĮÑĤÐ°":4442,"ĠÐ¾Ð¿Ñ":4443,"ĠÑĢÐ°Ð·Ð»Ð¸ÑĩÐ":4444,"Ð»ÑıÐ":4445,"ÑĤÑĢÐµÐ½":4446,"ÑĢÐ¸Ð³":4447,"ĠÐ¸ÑģÐ¿Ð¾Ð»ÑĮÐ·Ð¾Ð²":4448,"ĠÐ²Ð¾ÑģÐº":4449,"ÐµÑı":4450,"Ð¿Ð»":4451,"ĠÐ·Ð½Ð°ÐµÑĪÑĮ":4452,"Ð¼Ð¾Ñģ":4453,"ĠÐ¿Ð¾Ð¼Ð¾ÑīÑ":4454,"ĠÐ¿Ð¾Ð¼Ð¾ÑīÑĮ":4455,"ĠÐ¼ÐµÑģÑıÑĨ":4456,"Ð´ÐºÐµ":4457,"ĠÐ²ÐµÑĢ":4458,"ĠÑģÐ¸Ð»Ñĭ":4459,"ĠÑģÐºÐ¾ÑĢÐ¾":4460,"ÑĤÐµÐ»ÑĮÐ½Ð¾Ð¹":4461,"Ð¾Ð»Ð¾Ð³Ð¸ÑĩÐµÑģÐº":4462,"ĠÐ·Ð¾Ð»Ð¾ÑĤ":4463,"ÐłÐĺ":4464,"ĠÐ½ÐµÐ²Ð¾Ð·":4465,"½Ð¾Ð²Ð¸":4466,"Ð¿ÐµÐ½":4467,"Ð»Ð°Ð²Ð°":4468,"ĠÑģÑĤÐ°ÑĤÑ":4469,"ÐĴÐŀ":4470,"ÑİÑīÐµÐ³Ð¾":4471,"ĠÐ¥Ð°":4472,"ĠÑģÐ¼ÐµÑĢÑĤÐ¸":4473,"ĠÐ´Ð¾Ð²Ð¾Ð»ÑĮÐ½Ð¾":4474,"ĠÐ¸Ð¼Ñı":4475,"ĠÐŁÐ¸":4476,"ĠÐ¸Ð½ÑĤÐµÑĢÐµÑģÐ½Ð¾":4477,"ÑįÑĤ":4478,"ÑĪÑĳÐ»":4479,"ÑĤÐ¸Ð½":4480,"ĠÑĥÐ¿ÑĢÐ°Ð":4481,"ÑģÐºÐ¾":4482,"ÑħÐ¾Ð´ÑıÑĤ":4483,"ĠÐ¾Ð±ÑĭÑĩÐ½Ð¾":4484,"ĠÑįÐ":4485,"ĠÐ¿Ð¾ÑģÑĤÐ¾ÑıÐ½Ð½Ð¾":4486,"ÑģÐ¾ÐµÐ´Ð¸Ð½":4487,"ĠÐ¿ÑĥÑĤÐ¸":4488,"ĠÐŁÐ¾ÑĤÐ¾Ð¼":4489,"ÑģÐµÐ¹":4490,"²ÐºÐ":4491,"Ð¼Ð°Ñħ":4492,"ĠÑĤÑĢÐµÐ±Ð¾Ð²":4493,"ĠÑĤÑĥÐ¿":4494,"ĠÑĢÐ°Ð·ÑĥÐ¼":4495,"¶Ð´ÐµÐ½Ð¸Ðµ":4496,"ĠÐºÐ¾Ð¼Ð¿Ð»Ðµ":4497,"ĠÑģÐµÐºÑĥÐ½":4498,"ĠÑģÑĤÐ°ÑĤÑĮ":4499,"ÐµÐ»ÑĮÐ":4500,"ĠÑģÑĤÐµÐ½":4501,"ĠÑħÐ¾ÑĤÐµÐ»Ð¾ÑģÑĮ":4502,"ĠÐ¿Ð»Ð¾ÑħÐ¾":4503,"²ÐºÐ¸":4504,"ÑĪÐµÐ´":4505,"ÑģÑĤÐ¾ÑıÐ":4506,"ÑĢÑģÐºÐ¾Ð¹":4507,"ĠÐ³Ð¾ÑĢÐ¾Ð´Ðµ":4508,"ÑĤÐ°Ð»Ñ":4509,"Ġa":4510,"ĠÐ·Ð°Ð´Ð":4511,"Ð¼Ð¾Ðº":4512,"ĠÐļÑĢÐ°ÑģÐ":4513,"Ġ*":4514,"Ð¾Ð²Ðµ":4515,"ĠÐ¼Ð¾ÐµÐ³Ð¾":4516,"Ð»Ð¸ÑĤÑĮ":4517,"ÑİÑīÐ°":4518,"ÑģÑĳ":4519,"ĠÐ½Ð°ÑĪÐµÐ³Ð¾":4520,"ĠÑĥÐ´Ð¸Ð²":4521,"ĠÐ¿Ð¾Ð²ÐµÑĢÐ":4522,"Ð¾Ð»ÑĮÐ·":4523,"ĠÐ²Ð¾ÑĢÐ":4524,"Ð½ÑĥÑĤÑĮ":4525,"Ð»ÐµÐ½Ñĭ":4526,"ĠÑģÑĤÐ¾Ð»ÑĮÐºÐ¾":4527,"ĠÑģÐ¿ÑĢÐ°":4528,"ÑİÑīÐ°Ñ":4529,"Ð½ÑĥÐ»ÑģÑı":4530,"âĢįâĻ":4531,"ĠÑģÐ¾Ð±Ð°Ðº":4532,"ĠÐ¿Ð¾Ð´Ð³Ð¾ÑĤÐ¾Ð²":4533,"ĠÑįÑĦÑĦÐµÐºÑĤ":4534,"ĠÐ±Ñ":4535,"ĠÐºÐ°ÐºÐ¾Ðµ":4536,"em":4537,"ÑĦÑ":4538,"»Ð¸Ð²":4539,"ĠÐ·Ð°ÑīÐ¸":4540,"Ð»ÐµÐ½Ð¸ÐµÐ¼":4541,"¶Ð°Ð¹":4542,"ÑĥÑĤÐ±Ð¾Ð»":4543,"ĠÐ¿ÑĢÐµÐ¶Ð´Ðµ":4544,"ĠÐ¼Ð°Ð¼Ð°":4545,"ĠÑģÐ¿ÑĢÐ°Ð":4546,"ĠÐ¿ÑĢÐ¸Ð²ÐµÑĤ":4547,"Ð¿Ð°Ð½":4548,"Ð±ÑĢÐ°":4549,"ÐºÐ°Ð·ÑĭÐ":4550,"ĠÐ±ÐµÑģÐ¿Ð»Ð°ÑĤ":4551,"ÑĢÑģÑĤ":4552,"½Ð¾ÑģÑĤÐµÐ¹":4553,"ĠÐ½Ð°Ð¼Ð¸":4554,"Ð²ÐµÑģÑĤÐ¸":4555,"Ð¥ÐĲ":4556,"¸Ð¾Ð½":4557,"ıÑĢÐº":4558,"ÐķÐľ":4559,"Ð²Ð°Ñı":4560,"ÑĤÐ°Ð½Ð¸":4561,"ĠÑģÐ½ÐµÐ":4562,"?)":4563,"ĠÐ¥Ð¾ÑĤÑı":4564,"ÑĪÐµÑĤ":4565,"²ÑģÑĤÐ²Ð¾Ð²":4566,"ur":4567,"ĠÐ·Ð°ÑīÐ¸ÑĤ":4568,"ĠÑĪÐ¸ÑĢÐ¾Ðº":4569,"ĠÐ¿ÑĢÐ¸Ð±Ð":4570,"Ð³ÑĢÐ°ÑĦ":4571,"ĠÑģÐµÑģÑĤ":4572,"ĠÐ¾ÑĤÐµÑĨ":4573,"ĠÐ½Ð°ÑģÐµ":4574,"ÑĪÐºÐ¾Ð¹":4575,"ĠÐ¿Ð¾Ð¿ÑĢÐ":4576,"ĸÐ":4577,"ĠÐºÐ¸Ð²Ð":4578,"ÑĭÑĪÐ°Ð»":4579,"Ġl":4580,"ÐµÐ½Ð½ÑĭÑħ":4581,"ĠÐ¿ÑĢÐ¾Ð´Ð¾Ð»Ð¶":4582,"ÐµÑĤÐ¸":4583,"ºÐ°Ñ":4584,"Ð°Ð¹Ñ":4585,"Ð©":4586,"ĠÐ·Ð°Ð¿ÑĢÐµ":4587,"ĠÐ½Ð°Ð²ÐµÑĢÐ½Ð¾Ðµ":4588,"ĠÑĤÐµÐ»":4589,"Ð¾Ð»Ð°":4590,"ĠÐ¿ÑĢÐ¾Ð½":4591,"Ð±ÐµÐ»":4592,"ĠÑħÐ¾ÑĩÐµÑĤÑģÑı":4593,"ĠÑģÐ¾ÑģÑĤÐ¾ÑıÐ½Ð¸Ð¸":4594,"ĠÐ³Ð¾Ð²Ð¾ÑĢÑıÑĤ":4595,"ÐµÐ½Ð½ÑĭÐµ":4596,"¶Ð½Ñ":4597,"ĠÑĩÐµÑĤÐ²Ðµ":4598,"Ð´Ð°ÐµÑĤ":4599,"25":4600,"ĠÐ¿ÑıÑĤ":4601,"ĠNo":4602,"ÑıÑĢÐº":4603,"Ð´Ð°Ð»Ð¸":4604,"¸Ð´ÐµÑĤ":4605,"ÑĢÐ°ÑģÑĤ":4606,"ÐĴÑ":4607,"ĠÐºÐ¾Ð¼Ð¿Ð°Ð½Ð¸Ð¸":4608,"Ð²Ñı":4609,"ÑģÐ¿Ð¾ÑĢÑĤ":4610,"ĠÑīÐµ":4611,"ĠÐºÑĥÐ»ÑĮÑĤÑĥ":4612,"±Ð°ÑĤÑĭÐ":4613,"ĠÐ¶ÑĥÑĢÐ½Ð°":4614,"ĠÐºÐ»Ð°":4615,"Ð¸Ð´ÐµÑĤ":4616,"¸ÑĤÐ¾Ð³":4617,"ĠÐ±Ð»Ð°Ð":4618,"ÐºÐ¸Ð¼Ð¸":4619,"Ð¸ÑĤÐ¾Ð³":4620,"ĠÑģÑĤÑĢÐµÐ»":4621,"ĠÑģÐ¿Ð¾ÑģÐ¾Ð±":4622,"ĠÑĢÐ°Ð·ÑĢÐµ":4623,"ĠÐ²ÐµÑīÐ¸":4624,"ÑĥÑģÑĤÑĮ":4625,"ıÑİÑĤ":4626,"¸ÑĢÑĥ":4627,"Ð¸ÑģÐ°":4628,"ĠÐ·Ð°Ð´Ð°":4629,"±ÑĢÐ¾Ñģ":4630,"ĠÐ¿Ð¾Ð·Ð´Ð":4631,"ĠÐ²ÑĭÐ±Ð":4632,".)":4633,"ĠÐ·Ð°ÐºÑĢÑĭÐ":4634,"ĠÐĴÐµÐ»Ð¸":4635,"ĠÑģÐ°Ð¼ÑĭÑħ":4636,"ĠÐºÑĢÐµÐ¿":4637,"¶Ðº":4638,"ĠÑĤÐ²Ð¾":4639,"ĠÐ¿Ð¾ÐºÐ°Ð·ÑĭÐ":4640,"ĠÐĿÐķ":4641,"ĠÐ¸ÑĤÐ¾Ð³":4642,"ĠÐ»Ð¸Ñģ":4643,"ĠÑĥÐ²Ð¸Ð´ÐµÐ»":4644,"¶Ð¸ÑĤÑ":4645,"ĠÐ¸Ð´ÐµÑĤ":4646,"ĠÑĢÐ°Ð±Ð¾ÑĤÐµ":4647,"ĠÐ±ÐµÐ·Ð¾Ð¿Ð°ÑģÐ":4648,"ĠÐĴÑĭÐ":4649,"ÑĤÐ¾Ð±Ñĭ":4650,"ĠÐ²Ð¸Ð´Ð½Ð¾":4651,"ĠÐ¿ÑĢÐ¸ÑĩÐ¸Ð½":4652,"ĠÐ¿ÑĢÐ°Ð²Ð¸Ð»ÑĮÐ½Ð¾":4653,"¶Ð¸ÑĤÑĮ":4654,"ĠÑıÑĢÐº":4655,"Ð¾Ð·Ñı":4656,"¸Ð²Ð°ÑĤÑĮ":4657,"ÑĢÐµÐ»Ð¸":4658,"½Ð¾Ð²ÑĮ":4659,"²ÐµÑĢÑģ":4660,"ĠÐ¶ÐµÐ½ÑīÐ¸Ð½Ñĭ":4661,"ĠÐ¿ÑĢÐ¾Ð±Ð»ÐµÐ¼Ñĭ":4662,"¸Ð²Ð°ÑİÑĤ":4663,"ĠÐ³ÑĢÐ°ÑĦ":4664,"ĠÐ¿ÑĢÐ¾Ðº":4665,"ĠÐ²ÑĭÐ·":4666,"ĠÐ²Ð½Ð¾Ð²ÑĮ":4667,"¾ÑĤÑĭ":4668,"ĠÐ¿Ð¾ÑģÐµ":4669,"ie":4670,"ĠÐĴÐ¾Ð":4671,"ĠÐ°Ð¼ÐµÑĢÐ¸ÐºÐ°Ð½":4672,"³Ð»ÑĥÐ¿":4673,"ĠÐ³Ð»Ð°Ð²":4674,"ĠÐ¿ÑĢÐ¸Ð½ÑĨÐ¸":4675,"ÑĤÐµÐ»ÑĮÐ½Ð°Ñı":4676,"»ÑİÑģ":4677,"ĠÐ¿ÑĢÐ°Ð²Ð°":4678,"²Ð»ÑıÑİ":4679,"ĠÐ´Ð°Ð»ÑĮÐ":4680,"ĠÐ²Ð¾Ð»Ð¾Ñģ":4681,"ĠÐ¾Ð¿ÐµÑĢÐ°":4682,"ĠÐ¾Ð±ÑĢÐ°Ñī":4683,"ĭÑĤÐ°":4684,"ĠÑĥÐ³Ð¾Ð»":4685,"ĠÐ¾Ð±ÐµÑģÐ¿Ðµ":4686,"¸ÑĩÑĤ":4687,"ĠÑĥÐ²Ð°Ð":4688,"Ð´ÑĢ":4689,"Ð¸ÑĩÑĤ":4690,"ĠÑıÐ·ÑĭÐº":4691,"Ð¿ÑĥÑĤÐµ":4692,"ĠÐºÐ¾ÑĢÐ¾ÑĤ":4693,"¶Ð´Ð°Ñ":4694,"Ð¿Ð¾Ð¼Ð¸Ð½Ð°":4695,"ĠÑģÐ»ÐµÐ´ÑĥÐµÑĤ":4696,"²Ð¸Ð»Ð¸ÑģÑĮ":4697,"ĠÑĤÐµÑħÐ½":4698,"Ġw":4699,"Ð¸Ð²Ð°Ð»":4700,"ĠÑĢÐµÐ³Ð":4701,"99":4702,"ĠÐ»ÑİÐ±Ð²Ð¸":4703,"Ð¶ÐµÑĤ":4704,"Ð»Ð¸Ð²Ð¾":4705,"ĠÐ²Ð½Ð¸Ð·":4706,"ĠÐĵÐ¾ÑģÐ¿":4707,"ĠÑĥÐ±Ð¸Ð¹":4708,"ĠÐ»ÑİÐ±Ð¾Ð²Ñ":4709,"ĠÐ»ÑİÐ±Ð¾Ð²ÑĮ":4710,"ĠÐ¿ÑĢÐ¾ÑĤÑıÐ":4711,"ĠÐ¼Ð°ÑĤÑĮ":4712,"ÑħÐ¾Ð´Ð°":4713,"ĠÑĥÐ²ÐµÑĢÐµÐ½":4714,"ÑĢÐ°Ð½ÑĤ":4715,"!Â»":4716,"ĠÐ¿Ð¾Ð·Ð¸":4717,"ĠÐŁÐµÑĤ":4718,"Ð´ÑĤÐ":4719,"ĠÐ²ÐµÑģ":4720,"ĠÐŁÑĢÐ¾Ð´":4721,"ĠÐ±ÑĢÐ°":4722,"ĠÐ±Ð¾Ð¹":4723,"ĠÐ¿ÑĢÐ¾ÐµÐºÑĤ":4724,"Ð¿Ð¾Ñı":4725,"Ð´ÑĤÐ¸":4726,"ĠÑħÐ¾ÑĩÐµÑĪÑĮ":4727,"Ð°Ð½Ð¾Ð²":4728,"40":4729,"ĠÐ¿Ð¾ÑģÑĤÐ°":4730,"ĤÑĢÑı":4731,"ĠÐ¿ÑĢÐµÐ´Ð¿Ð¾Ð»":4732,"ĠÐ²Ð»Ð°ÑģÑĤÐ":4733,"ĠÐ¿ÑĢÐ¾Ð¸ÑģÑħÐ¾Ð´Ð¸ÑĤ":4734,"ĠÐ¼Ð³":4735,"³ÑĢÐ°Ð½":4736,"¶Ð½Ñĭ":4737,"Ð°Ð±Ð¾":4738,"ıÐ»Ð°ÑģÑĮ":4739,"ĠÑģÐµÑ":4740,"·ÐµÐ¹":4741,"ĠÐ¿Ð¾Ð´Ð¿Ð¸Ñģ":4742,"ĠÐ¡Ðº":4743,"ĠÐ¼ÐµÐ´Ð¸":4744,"Ð³Ð»ÑĥÐ¿":4745,"ÑĢÐ¸Ð»Ð°":4746,"ĠÑģÑĤÐ¾ÑıÐ":4747,"Ð´ÐµÐ»ÑĮ":4748,"ĠÑĢÐµÐ±ÐµÐ½ÐºÐ°":4749,"ĠÑĪÐ°Ð³":4750,"ĠÐ¼ÑıÐ³":4751,"ĠÐ½ÐµÐ¾Ð±ÑħÐ¾Ð´Ð¸Ð¼Ð¾":4752,"Ð»ÑĥÐ":4753,"Ð¸ÑĨÐµ":4754,"ĠÐºÐ¾Ð¼Ð½Ð°":4755,"ĠÐ¿ÑĢÐ¸ÑĪÐ»Ð¾ÑģÑĮ":4756,"ĠÑįÐºÐ¾Ð½Ð¾Ð¼":4757,"ĠÐ³Ð»Ð°Ð²Ð½Ð¾Ðµ":4758,"²ÑĪÐ¸Ð¹":4759,"½ÑİÑİ":4760,"Ð·Ð°Ð½Ð":4761,"Ð¾ÑĤÑĮ":4762,"ÑģÑĤÐ²ÐµÐ½Ð½ÑĭÐ¹":4763,"ĠÐ¸ÑģÑĤ":4764,"ĠÐ£Ð":4765,"ÐµÐ·Ð½":4766,"II":4767,"ĠÐ¿ÐµÑģÐ½":4768,"ĠÐ³Ð»Ð°Ð·Ð°Ð¼Ð¸":4769,"ĠÐ¿ÑĢÐµÑģÑĤÑĥÐ¿":4770,"ÑĢÐ½Ð¾Ð¹":4771,"ĠÐ²Ð¾Ð·Ð":4772,"ÑĢÑĭÐ¹":4773,"ÑĩÐ¸ÐºÐ":4774,"ĠÐ±Ð¾Ð»ÑĮÑĪÐ":4775,"¶ÐµÐ½Ð¸ÐµÐ¼":4776,"ÑĩÐ¸ÐºÐ¸":4777,"ĠÑĢÑĥÐºÐ°Ñħ":4778,"ÑĢÐµÐ¼ÐµÐ½Ð½Ð¾":4779,"Ð¾Ð¶":4780,"ĠÐ¿Ð¾Ð¼Ð¾ÑĩÑĮ":4781,"Ð¾ÑĤÑĭ":4782,"ĠÐ²Ð»Ð°ÑģÑĤÐ¸":4783,"ĠÐ¾ÑĪÐ¸Ð±Ð":4784,"¸Ð´Ð¸":4785,"âľ":4786,"ÐĺÐĲ":4787,"ÑĢÑıÑĤÑ":4788,"ak":4789,"ĠÑĩÐ¸Ñģ":4790,"ÐĽÐŀ":4791,"Ð»ÐµÐ´":4792,"ÐµÑģÐ»Ð¸":4793,"ĠÐ½Ð°ÑģÑĤÑĥÐ¿":4794,"ĠÐ¸Ð¼Ð¿Ðµ":4795,"ĠÑĢÐ¾Ð¶Ð´ÐµÐ½Ð¸Ñı":4796,"ĠÑĥÐ´Ð¾Ð²Ð¾Ð»ÑĮÑģÑ":4797,"ĠÑĢÐ¾Ð¼":4798,"ĠÐ¾Ð¿Ð°ÑģÐ":4799,"ĠÐ¾Ð´Ð½Ð¾Ð¼":4800,"Ð¸Ð·Ð":4801,"ĠÐºÑĥÐ¿Ð":4802,"ĠÐ²Ð·ÑıÑĤÑĮ":4803,"Ð²Ð¸Ð¸":4804,"ÑĢÑıÑĤÑĮ":4805,"ÑĩÐ¸Ð»Ñģ":4806,"ÑĩÐ¸Ð»ÑģÑ":4807,"ÑĳÑĤÑģÑı":4808,"ÑĩÐ¸Ð»ÑģÑı":4809,"ĠÑįÐºÑģÐ¿Ðµ":4810,"ÐµÑģÑĤÐ²ÐµÐ½":4811,"ĠÐ¼ÐµÑĢÐµ":4812,"ĠÐ±Ð»":4813,"ĠÐ¾Ð±Ñĥ":4814,"ĠÐ°Ð»ÑĮ":4815,"ĠÐ¿Ð¾ÑĩÑĥÐ":4816,"ĠÐ½Ð°Ñħ":4817,"ĠÐ¿ÑĢÐ¾ÑıÐ":4818,"ÑĪÐ½":4819,"²ÑĩÐµÑĢÐ°":4820,"ĠÐ¾Ð±ÑıÐ·Ð°ÑĤÐµÐ»ÑĮÐ½Ð¾":4821,"Ð²ÑĩÐµÑĢÐ°":4822,"ĠÐ¿ÑĢÐ¸Ð²Ð»Ðµ":4823,"ĠÐ´ÑĥÐ¼Ð°Ð»":4824,"ĠÐĳÑĭÐ":4825,"ĠÐ°Ð½ÑĤ":4826,"ĢÑħ":4827,"ĠÐºÑĥÐ¿Ð¸":4828,"Ð¼Ð¾ÑĤÑĢÑı":4829,"¶Ð´Ñ":4830,"ĠÐ²Ð·Ñı":4831,"ĠÐ´Ð¾Ð¼Ðµ":4832,"ĠÑĥÐ»Ð¸ÑĨÐµ":4833,"ĠÐ¿Ð¾Ð¼Ð¾ÑīÑĮÑİ":4834,"ÑģÐ¾Ð»ÑİÑĤ":4835,"ĠÐºÐ¾Ð½ÑĨÐ°":4836,"ĠÐļÐ¾Ð½ÐµÑĩÐ½Ð¾":4837,"ĠÑģÐµÑĤ":4838,"ÑĪÐ¸Ð¼Ð¸":4839,"ĠÐ½Ð¸Ð·":4840,"ĠÐ´Ð°Ð»ÐµÐºÐ¾":4841,"ĠÐ¿Ð¾Ð¼Ð½":4842,"ÑĢÑī":4843,"ĠÑĥÐ´Ð°Ð»Ð¾ÑģÑĮ":4844,"ĠÐ¸Ð·Ñĥ":4845,"ĠÐ³Ð»ÑĥÐ¿":4846,"ĠÐ¶ÐµÐ»Ð°Ð½":4847,"Ð¢Ñ":4848,"ĠÑĢÐµÑĪÐµÐ½Ð¸Ðµ":4849,"ĠÐ¿Ð¾Ð»ÑĥÑĩÐ¸ÑĤÑĮ":4850,"ĠÐ³ÑĢÐ°Ð¶Ð´Ð°Ð½":4851,"ÑĩÐ°Ð½":4852,"ĠÐºÐ»Ñİ":4853,"³Ð°ÑĤÑ":4854,"ĠÐºÐ¾Ð¼Ð¼ÐµÐ½ÑĤÐ°":4855,"ĠÑĥÐ¿ÑĢÐ°Ð²":4856,"ik":4857,"ĠÐ¿ÑĥÑĤÐµ":4858,"ĠÐ¿ÑĢÐ¾Ð¸Ð·Ð²Ð¾Ð´":4859,"¶Ð°Ð»Ð°":4860,"ĠÑĨÐµÐ½Ñ":4861,"ÐĴÑĭ":4862,"ĠÑĢÑĥÐºÐ¾Ð¹":4863,"og":4864,"ĠÐ½Ð°ÑģÑĤÑĢÐ¾ÐµÐ":4865,"Ð°Ð½Ð½ÑĭÐ¼":4866,"Ġ:)":4867,"Ð¿Ð¾Ð³Ð":4868,"½Ð¸Ð¼Ð°ÑĤ":4869,"ĠÐ¿Ð¾Ñı":4870,"Ð¼ÐµÑģÑĤ":4871,"ĠÐºÐ¸Ð½":4872,"ĠÑģÐºÐ":4873,"ĠÐ½ÐµÑĳ":4874,"ĠÑıÐ½":4875,"·ÑĥÐ":4876,"½Ð¸Ð¼Ð°ÑĤÑ":4877,"½Ð¸Ð¼Ð°ÑĤÑĮ":4878,"ĠÑĤÑĭÑģÑ":4879,"ĠÐ¿ÑĢÐ¸ÑĢÐ¾Ð´":4880,"ĠÐ»ÑİÐ´ÑıÐ¼":4881,"ĠÑĤÑĭÑģÑı":4882,"Ð´Ð½":4883,"iv":4884,"ĢÑĪ":4885,"¾ÑĤÐ¾":4886,"Ð¾Ð»Ð¸Ñ":4887,"ĠÐ¾ÑĤÐ¼ÐµÑĤ":4888,"ĠÑĥÑĩÐ°ÑģÑĤÐ¸Ðµ":4889,"ÑĥÐ½Ñ":4890,"Ð³ÑĢÐ°Ð½":4891,"³ÐµÐ¹":4892,"Ð½Ð°Ð½":4893,"ÑĢÐ°Ð¿":4894,"ĠÐ¿Ð¾Ð´ÑĢÐ¾Ð±Ð":4895,"ĠÑģÐ¸Ñħ":4896,"ĠÑĤÑıÐ¶Ðµ":4897,"ĠÐĿÐ":4898,"ÑĢÐµÐ¿":4899,"Ð¸Ð´Ð¸":4900,"ĠÐºÐ°Ð¶Ð´Ð¾Ð³Ð¾":4901,"ĠÐ½ÐµÐ´ÐµÐ»Ñİ":4902,"ÑĩÐ½ÑĥÑİ":4903,"ĠÐ¸Ð³ÑĢÑĥ":4904,"ĠÐ¼ÑĥÐ¶Ð":4905,"ĠÐ¿Ð¸ÑģÐ°Ñ":4906,"ĠÐ¿Ð¸ÑģÐ°ÑĤ":4907,"ĠÐ¿ÑĢÐ¾ÑĤÐ¸Ð":4908,"Ð²Ð¾Ð´Ð¸":4909,"ĠÑĢÑĥÐºÐ°Ð¼Ð¸":4910,"ĠÐ¾Ð´Ð½Ð¸Ð¼":4911,"ĠÐ¿Ð¾Ð³Ð":4912,"Ð¾ÑĢÐ¾Ð´":4913,"»ÑıÐ½":4914,"Ġâĺ":4915,"ĠÑģÐ¸Ð»Ð°":4916,"²ÑĭÑħ":4917,"ÐľÐĲ":4918,"ĠÐºÐ»ÑĥÐ":4919,"¶ÐµÐ¹":4920,"Ð´ÑĢÐ°":4921,"ÑĤÐµÐ»ÑĮÐ½Ð¾ÑģÑĤÑĮ":4922,"¸ÐµÐ¹":4923,"ĠÐ¿Ð¸ÑģÐ°ÑĤÑ":4924,"ĠÐ¿Ð¸ÑģÐ°ÑĤÑĮ":4925,"ĠÐ±ÑĭÐ²Ð°ÐµÑĤ":4926,"ÑĤÐµÐ»ÑĮÐ½ÑĭÑħ":4927,"ÑĥÐµÐ¼":4928,"ĠÑģÐ¸Ð":4929,"ĠÑģÑĤÐ°Ð½ÐµÑĤ":4930,"ĠÑĤÐ°ÐºÑĥÑİ":4931,"ÑĮÑĤÐµ":4932,"ĠÐ¸Ð³ÑĢÑĭ":4933,"ĠÐŁÐ¾ÐºÐ°":4934,"±ÑĢÐµ":4935,"ÑĥÐ³Ð°":4936,"ĠÐ´ÑĥÐ¼Ð°":4937,"ĠÑĢÐ°Ð·Ð°":4938,"ÑģÐ¸Ð":4939,"ĤÐ²Ð¾Ð¹":4940,"Ð»Ñģ":4941,"Ð¢Ñĭ":4942,"ÑĥÑģÐº":4943,"ÑĤÐ²Ð¾Ð¹":4944,"ĠÑģÐ°Ð¼Ð¾":4945,"ĠÐ²Ð¼ÐµÑģÑĤÐ¾":4946,"ĠÐ½Ð°ÐºÐ°":4947,"ðŁĶ":4948,"ĠÐ½Ð°ÑħÐ¾Ð´Ð¸ÑĤÑģÑı":4949,"Ð¾ÑģÑĤÑĮÑİ":4950,"ĠÐ½Ð°Ð¿ÑĢÐ°Ð":4951,"Ð»ÐµÑĤÐ":4952,"ÑģÑĤÑĭÐ":4953,"ÑģÐ½Ð¾Ð²":4954,"ĠÐ³ÑĢÐ°Ð½":4955,"ÑĢÐµÐ½Ð°":4956,"ÑĢÐ¾ÑģÐ»":4957,"³Ð¾Ð²Ð¾":4958,"ĠÑĤÐµÑĩÐµÐ½Ð¸Ðµ":4959,"Ð»ÐµÐ½Ð°":4960,"ĠÑĥÐ½Ð¸Ð":4961,"Ð¢ÐĲ":4962,"Ð¸ÑĩÐµÑģÐºÐ¾Ð¹":4963,"ĠÑģÐ²Ð¾Ñĳ":4964,"Ġ...":4965,"ĠÐ²ÑĭÑģ":4966,"ia":4967,"ÑĩÐ¸Ð¼":4968,"ĠÐ¸Ð½Ð°":4969,"ĠÐ´Ð°ÑĤÑ":4970,"ðŁĻı":4971,"ıÐ´Ñı":4972,"ºÐ°Ð":4973,"Ð»Ð°Ð½Ð¸Ðµ":4974,"ĠÑģÐ¸Ð½":4975,"ĠÑģÐµÐ·":4976,"ÑĤÐµÐ»ÐµÐ¼":4977,"Ð¾Ð¶ÐµÑĤ":4978,"ĠÑĤÐµÐ»Ð°":4979,"ÑħÐ¾Ð´Ð¸Ð¼":4980,"ÑīÐ°ÑĤ":4981,"ĠÐĴÐ»Ð°Ð´Ð¸":4982,"ĠÐ·Ð°Ð´":4983,"ĠÐ½Ð°Ð¿Ð¸":4984,"ĠÑĨÐ¸":4985,"ĠÑĢÐ¸Ñģ":4986,"ec":4987,"Ð»Ð¸Ð²ÑĭÐ":4988,"ðŁĺĬ":4989,"ÐºÐ¾ÑĢÐµ":4990,"ĠÐ´Ð²ÐµÑĢÐ¸":4991,"ĠÐ½Ð¸ÐºÐ°Ðº":4992,"Ð°ÑĤÑĮÑģÑı":4993,"ĠÐŁÐ¾Ñģ":4994,"ÑģÑĤÐ¸Ñħ":4995,"ĠÐ´Ð¾Ð²Ðµ":4996,"¶Ð¸Ð½":4997,"Ð¾Ð¶Ð½Ð¾":4998,"ĠÐĵÐ´Ðµ":4999,"ĠÐ±Ð¾Ð»ÑĮÑĪÐ¸Ð½":5000,"ÑĩÐºÐ¾Ð¹":5001,"ĠÐµÑģÑĤ":5002,"Ð·Ð°ÑĨÐ¸Ð¸":5003,"ĠÐ½ÑĥÐ¶ÐµÐ½":5004,"ĠÐĿÐ¸":5005,"³Ð°ÑĤÑĮ":5006,"Ð±Ð¾Ð¹":5007,"ĠÐ·Ð°Ð²Ðµ":5008,"ĠÐºÐµÐ¼":5009,"ĤÐ²Ð¾Ð²":5010,"¶Ð°Ð»Ð¸":5011,"ĠÐ¿Ð¾Ð´Ð¾Ð·":5012,"ĠÐĳÐµÐ·":5013,"ĠÐ³Ð¾Ð´Ñ":5014,"Ð»Ð°Ð³":5015,"ĠÐ³Ð¾Ð´Ñĭ":5016,"ĠÐ²Ð¸Ð¶Ñĥ":5017,"ĠÐ¿Ð¾Ð»ÐµÐ·":5018,"Ð¿ÑĥÑĤÑĮ":5019,"ÑĢÐ½Ð°":5020,"22":5021,"¾ÑĢÐ¾Ð´":5022,"ÑĩÐ½Ð¸Ðº":5023,"ÑıÑģÑĮ":5024,"ÑĢÐ°Ð½ÑĨ":5025,"ÑĪÐ°Ð»Ð°":5026,"ĠÐ³Ð¾Ð»Ð¾Ð²Ðµ":5027,"ÑĩÐ¸ÐºÐ°":5028,"Ð¸ÐºÐµ":5029,"ĠÑĪÑĤ":5030,"ÐľÐŀ":5031,"ĠÑģÐµÑĢÐ":5032,"Ð»Ð¸Ð±Ð¾":5033,"¶ÐµÐ»":5034,"ÑİÑīÐ°Ñı":5035,"ÐºÑĤÐ°":5036,"ÑĥÐ´Ð":5037,"Ð¾ÑĢÐ¾Ð¼":5038,"ĤÐ¸Ð¿Ð°":5039,"Ð¼Ð¸ÑĤ":5040,"ĠÐºÐ¾ÑģÑĤ":5041,"±ÑĥÑĢÐ³":5042,"ĠÐ·Ð°Ð½Ð¸Ð¼Ð°":5043,"ĠÐ½Ð¾ÑĢÐ¼Ð°Ð»ÑĮÐ":5044,"¹Ð½":5045,"oc":5046,"ÑĤÐ¸Ð¿Ð°":5047,"²Ð¸Ð»Ð°ÑģÑĮ":5048,"Ð½Ð°ÑĤÑĥ":5049,"¿ÑĢÐ¾Ñģ":5050,"ĠÐ¿ÑĥÑĤÑĮ":5051,"ĠÐľÐ¸Ñħ":5052,"¾ÑĤÐ¸Ð²":5053,"ĠÑįÐ¼Ð¾":5054,"ĠÐ´ÐµÐ²ÑĥÑĪÐºÐ¸":5055,"ÑģÐ¸Ñİ":5056,"ĠÑģÐ°Ð¼Ð¾Ð»":5057,"ĠÐ¿Ð¾Ð¼Ð¾ÑīÐ¸":5058,"²Ð°Ð»Ð¾":5059,"ĠÐ´ÑĥÐ¼Ð°Ñ":5060,"Ð²Ð¾ÑģÑĤ":5061,"¸Ð´ÑĤÐ¸":5062,"Ð¸Ð´ÑĤÐ¸":5063,"ÑģÐ¸Ð²":5064,"ĤÐ¾ÑıÑĤ":5065,"Ð´ÐµÐ²":5066,"80":5067,"ÑĤÐµÐ»ÑıÐ¼":5068,"ĠÐ¾Ð¿Ðµ":5069,"ÑĢÐµÐ»Ñ":5070,"ĠÐ¾Ð¿ÑĭÑĤ":5071,"ĠÐ½ÐµÐ½Ð°":5072,"ĠÐ¾Ð¿Ð¸Ñģ":5073,"¸ÑĪÑĮ":5074,"ĠÐ·Ð°Ð¼ÐµÑĤÐ¸Ð»":5075,"ĠÐºÐ°ÐºÐ¸Ð¼":5076,"Ð»Ð°Ð²Ð":5077,"ĠÐ²Ð¾Ð´Ð¸":5078,"ÐĺÐ½":5079,"ĠÐ¾ÑĤÐ´ÑĭÑħ":5080,"ÑĢÐ°ÑĤÐ":5081,"ĠÐºÐ¾ÑĢÐ¸":5082,"Ð´Ð°ÑİÑĤ":5083,"ÑĤÐ¾ÑĢÑĭ":5084,"ĠÐ¾ÑĤÐ½Ð¾ÑģÐ¸":5085,"ĤÑĥÐ":5086,"¸Ð±Ð¾":5087,"ÑģÐºÐ¾Ð¼Ñĥ":5088,"ĠÐľÐ¾Ð¶Ð½Ð¾":5089,"ĠÑĤÑĢÐµÐ½":5090,"¸Ð»ÑĮ":5091,"ÑĤÑĢÑı":5092,"ws":5093,"ĠÐ¸Ð´ÑĤÐ¸":5094,"ĠÐ²Ð¾Ð»Ð¾ÑģÑĭ":5095,"ĠÐ¸Ð½Ð°ÑĩÐµ":5096,"ĠÐ½ÐµÐ¾Ð¶Ð¸":5097,"ĠÐ´ÑĢÑĥÐ³Ð¾Ð¼":5098,"ÐµÐ´Ðµ":5099,"**":5100,"ĠÐ¾ÑĩÐµÑĢÐµ":5101,"ĠÑģÑĤÐ¸Ñħ":5102,"ĠÑģÐµÐ»":5103,"ĠÐ²Ð·ÑıÐ»":5104,"Ð¸Ð±Ð¾":5105,"ıÐ´ÑĭÐ":5106,"ÑıÐ´ÑĭÐ":5107,"ĠâĢ¢":5108,"»ÑıÐ´ÑĭÐ":5109,"ĠÐ¼Ð³Ð½Ð¾Ð²":5110,"ĠÐľÐ¸Ð½":5111,"ÑĢÐ°Ð»Ð¸ÑģÑĮ":5112,"³Ð¾Ð½":5113,"ÑĩÐ°Ð¼Ð¸":5114,"ĠÐĹÐĲ":5115,"ÑģÐºÑĥ":5116,"ÑĢÑį":5117,"ðŁĺį":5118,"ĠÐ¿Ð»":5119,"ĠÐ½ÐµÑĢÐ":5120,"ĠÐ²ÑĩÐµÑĢÐ°":5121,"ĠÐµÐ´Ð²Ð°":5122,"ĠÑģÐ½Ð°ÑĩÐ°Ð»Ð°":5123,"Ð¾Ð³Ð°":5124,"ÑĢÑĤÑĮ":5125,"ÑĤÐµÑĢÐ°":5126,"±ÑĥÑĤ":5127,"ĠÑħÐ²Ð°ÑĤ":5128,"ĠÐ²Ð°ÑĪ":5129,"ÑĢÐ½ÑĭÐµ":5130,"ĤÐ²Ð¸Ð¸":5131,"Ð°Ð¶Ð":5132,"ĠO":5133,"ĠÐķÑīÐµ":5134,"Ð¾Ð½Ð¸Ñ":5135,"Ð¾Ð²ÑĭÐµ":5136,"ĠÐ»Ñģ":5137,"Ð·ÑĥÐ":5138,"Ð´Ð°Ð²Ð½Ð¾":5139,"ĠÐºÐ°Ð·Ð°Ð»Ð¾ÑģÑĮ":5140,"ĠÐ¡Ð°Ð¼":5141,"ĠÐ¿ÑĢÐ¸Ð¾Ð±":5142,"ok":5143,"ĤÐ²Ð¾ÑĢ":5144,"ĠÑģÐ°Ð¼ÑĭÐµ":5145,"ĠÐ¿Ð°Ð»":5146,"ÑĤÐ²Ð¾ÑĢ":5147,"ÐµÐ»Ñı":5148,"Ð°Ð½Ñģ":5149,"ĠÐ´ÑĥÑħÐ¾Ð²":5150,"ĤÐ¾Ð»ÑĮ":5151,"60":5152,"²Ð¸Ð²":5153,"ĠÐ¼Ð¾Ñİ":5154,"Ġ40":5155,"Ð½Ð°ÑĤÑĮ":5156,"ĠÐºÐ°ÑĩÐµÑģÑĤÐ²Ðµ":5157,"²Ð¾Ð¿":5158,"ĠÑĢÐ°ÑģÐ¿ÑĢÐ":5159,"Ð°Ð¹ÑĤ":5160,"ÑīÑĥ":5161,"ĤÐ¸ÐºÐ°":5162,"ÑģÑĢÐ¾Ðº":5163,"ĠÑĩÐµÐ»Ð¾Ð²ÐµÑĩÐµÑģÐº":5164,"ÑģÑĩÐµÑĤ":5165,"ĠÐĶÐ°Ð²":5166,"Ð±Ð°Ð»":5167,"ÑĪÐ»ÐµÐ½":5168,"ĠÐºÐ¾Ð»Ð¸ÑĩÐµÑģÑĤÐ²Ð¾":5169,"²Ð°Ð»Ð°ÑģÑĮ":5170,"aÑ":5171,"²Ð¾Ñı":5172,"ĠÑĦÑĥÑĤÐ±Ð¾Ð»":5173,"»Ð°Ð³":5174,"ĠÐ²Ð½ÑĥÑĤÑĢÐ¸":5175,"Ð¸ÑĩÐµÑģÐºÐ¸Ñħ":5176,"ĠÐ¾ÑĤÐ½Ð¾ÑĪÐµÐ½Ð¸Ñı":5177,"ĠÐ²ÑĭÐ·ÑĭÐ":5178,"ÑĮÐ±Ð°":5179,"Ð´Ð°Ð»Ð°":5180,"ĠÐ½Ð°Ð·Ð½Ð°":5181,"ĠÐ¶ÐµÐ»":5182,"ÑĢÐ¸ÐºÐ":5183,"ÑĤÐ¾ÑıÑĤ":5184,"ĠÐ¡ÐµÐ³Ð¾Ð´Ð½Ñı":5185,"ÑĤÐ°Ð½Ð¸Ñ":5186,"ĠÐºÑĥÐ¿Ð¸Ñ":5187,"ĠÐ¸Ð³ÑĢÐ°":5188,"ÐĶÐ":5189,"ÑħÐ¾Ð´ÑıÑī":5190,"ĠÐ·Ð½Ð°ÑĩÐ¸":5191,"ĠÐºÑĥÐ¿Ð¸ÑĤ":5192,"Ð¸ÐµÐ¹":5193,"ÑĢÐ¸Ð»Ð¸":5194,"ÑĤÐ°Ð½Ð¸Ñı":5195,"ĠÐ½Ð°ÑĩÐ°Ð»ÑĮÐ":5196,"ÑģÑģÑĭÐ»":5197,"ĠÑĥÑģÐ¸Ð»Ð¸":5198,"ĠÑģÐ¿Ð¾ÐºÐ¾Ð¹Ð½Ð¾":5199,"24":5200,"!)":5201,"ĠÑĥÑĤÑĢÐ°":5202,"ĠÐ´Ð¾Ð¿Ð¾Ð»Ð½":5203,"ĠÐ¾ÑĨÐµÐ½":5204,"ĠÑģÐ¿ÑĢÐ¾ÑģÐ¸Ð»Ð°":5205,"ĠÑģÑĢÐ¾Ðº":5206,"ĠÐ½Ð°Ð¿ÑĢÑıÐ":5207,"ĠÐ´Ð¸Ð²":5208,"ĠÐ¿Ð¾Ð·Ð²Ð¾Ð»Ñı":5209,"ĠÐ³ÑĢÑĥÐ¿Ð¿Ð°":5210,"ĠÐ´ÑĢÑĥÐ³Ð¾Ðµ":5211,"ĠÑģÐ¾Ð²ÑĢÐµÐ¼ÐµÐ½":5212,"ÑĤÑĢÐ¾Ð¹":5213,"ÑĤÑĥÐ":5214,"ĠÐ´ÐµÐ»Ð°ÐµÑĤ":5215,"Ð»ÐµÐº":5216,"¿Ð°":5217,"ĠÐ¼Ð¾Ð¶ÐµÑĪÑĮ":5218,"ÑĤÐ¾Ð»ÑĮ":5219,"ÑĢÐ¸ÐºÐ¸":5220,"ĠÐ²Ð¸Ð´ÐµÑĤÑĮ":5221,"ĠÑĢÐµÐ´Ðº":5222,"ĠÑĥÐ»":5223,"±Ð¸ÑĤÑ":5224,"Ð¸Ð½Ðº":5225,"ÑĩÐ¸Ðµ":5226,"Ġ[":5227,"ĠÐ´Ð¾ÑģÑĤÑĥÐ¿":5228,"ðŁį":5229,"ĠÐ¿ÑĢÐ¸Ð´ÑĥÐ¼":5230,"²Ð°Ð½Ð¸Ñı":5231,"ÐºÐ¾Ð»ÑĮÐºÑĥ":5232,"ĠÐ¿Ð¾Ð¿Ñ":5233,"ÑĢÐµÐ³":5234,"ĠÐºÐ°Ð½":5235,"ĠÑĩÐ¸ÑģÐ»Ðµ":5236,"ĠÐ¼Ð°ÑģÑĤÐµ":5237,"Ð´Ð½ÐµÐ":5238,"Ð¸ÐºÑĥ":5239,"±ÑıÑĤÐ°":5240,"ÑĢÑĤÑĭ":5241,"Ð°Ð½Ð½Ð¾Ð³Ð¾":5242,"ĠÐ²Ð°ÑĢÐ¸Ð°Ð½ÑĤ":5243,"ÑĥÑį":5244,"ĠÐ²ÑĭÐ±":5245,"Ð»Ð¸Ð¸":5246,"ĠÐ·ÑĥÐ":5247,"³ÑĢÑıÐ":5248,"ÑģÐ¸Ð»Ñģ":5249,"ĠÑĤÐ²Ð¾Ð¹":5250,"ÑģÐ¸Ð»ÑģÑ":5251,"ĠÐ¾ÑģÐ²Ð¾Ð":5252,"ÑģÐ¸Ð»ÑģÑı":5253,"ĠÑħÐ¾Ð·Ñı":5254,"ÑĥÑħ":5255,"ĠÐ¿Ð¾Ð²Ñ":5256,"ĠÐ²ÑģÑĤÑĢÐµÑĩÐ°":5257,"ÑĩÐ¸Ð¹":5258,"ĠÑĥÐ¼Ð":5259,"Ġv":5260,"ĠÐ¾ÑĦÐ¸ÑĨÐ¸Ð°Ð»ÑĮÐ":5261,"ÑĢÐµÑĨ":5262,"²Ð´Ð":5263,"ĠÑħÐ¾ÑĤÐµÐ»Ð°":5264,"ĠÐ¿Ð°ÑĢÐµÐ½ÑĮ":5265,"¸Ð°":5266,"ÑīÐ°ÑĤÑ":5267,"ĠÐ¥Ð¾":5268,"²ÑĥÑİ":5269,"ÑīÐ°ÑĤÑĮ":5270,"ĠÑĤÐ¸Ð¿Ð°":5271,"ĠÐ²Ð¿ÐµÑĢÐµÐ´":5272,"ÐºÑĤÐ¾ÑĢ":5273,"ĠÑģÐ°Ð¼ÑĭÐ¼":5274,"ĠÑįÑĤÐ°Ð":5275,"ĠÐ³Ð¾Ð²Ð¾ÑĢÑİ":5276,"ĠÐ¿Ð¾ÑģÐ¼Ð¾ÑĤÑĢÐµÐ»":5277,"ĠÐ½ÐµÐºÐ¾ÑĤÐ¾ÑĢÑĭÐµ":5278,"±ÑĢÑĭÐ¹":5279,"ĠÐ¿ÑĢÐ¾Ð¸Ð·Ð½ÐµÑģ":5280,"½Ð¾Ð²Ð¸ÑĤÑģÑı":5281,"ĠÐ±Ð¸Ð·Ð½ÐµÑģ":5282,"ĠÐ¿Ð°Ð½":5283,"ĠÑģÑĤÐµÐ¿":5284,"ÑĢÐ²ÑĭÐµ":5285,"ÑĨÐµÐ":5286,"ÑĢÑĭÑĤÑ":5287,"ĠÐ°Ð²Ð":5288,"ÑĢÐ°Ð½Ð¸Ñ":5289,"ÐºÐ¾Ð¼ÐµÐ½":5290,"ÑĥÐ±Ð»Ð¸":5291,"ĠÑģÑģÑĭÐ»":5292,"ĠÐļÐ¾":5293,"ĠÐľÐµ":5294,"ĠÐ¾ÑĤÐºÑĥÐ´Ð°":5295,"ÑĩÐµÐ²Ð¸":5296,"ÑĥÑĦ":5297,"ĠÑĤÑĢÐµÑħ":5298,"ĠÐºÐ¾ÑĢÐ¼":5299,"ĠÐ¿ÑĢÐ¾ÑĤÐ¸Ð²Ð":5300,"ĠÐ¼Ð½Ð¾Ð³Ð¸Ñħ":5301,"ĠÐºÐ¾ÑĢÐ¾Ð»":5302,"ĠÐ·Ð°ÐºÐ°":5303,"ĠÐºÐ°ÑĢÐ¼":5304,"ĠÐ¿Ð°ÑĢÐ":5305,"ÑĤÐµÐ»ÑıÐ¼Ð¸":5306,"ce":5307,"Ð¾Ð»Ð¸ÑĤ":5308,"ĠÐ¿ÐµÐ½":5309,"ĠÐ¿ÐµÑĢÐµÐº":5310,"Ð¸Ð²Ð°ÑĤÑĮ":5311,"Ð¼Ð¾Ð»":5312,"ĠÐ¾ÑĩÐµÑĢÐµÐ´ÑĮ":5313,"ÑģÐ°Ð»":5314,"³Ð¾Ð¼":5315,"ĠÑģÑĢÐ°Ð²Ð½":5316,"ÑĥÐ³Ð":5317,"ĠÐ¼Ð°ÑĤÐµ":5318,"ÐŀÐĻ":5319,"Ð¢Ð¬":5320,"ĠÐ»Ð¾Ð²":5321,"Ð²Ð°Ð»Ð¸":5322,"²ÐµÑĢÑħÑĥ":5323,"Ð³ÑĢÑıÐ":5324,"Ð²ÐµÐ":5325,"ĠÐ²Ð°ÑĪÐ¸":5326,"ÑģÐºÐµ":5327,"Ð¿ÑĢÐ¾ÑĩÐµÐ¼":5328,"ÑĢÑıÐ½":5329,"ıÐºÐ°":5330,"Ġ21":5331,"Ð·ÐµÑĢÐ":5332,"ÑģÐµÐ½Ð":5333,"ĠÐĶÑĥÐ¼":5334,"Ð·Ð°Ð½Ð¾":5335,"ĠÐ·Ð°Ð¿Ð":5336,"ĠÑıÐ²Ð½Ð¾":5337,"ĠÑģÐ¿Ð¾ÑĢÑĤ":5338,"ĠÐ½ÑĥÐ¶Ð½Ð°":5339,"³Ð°Ñı":5340,"ĠÑĢÐ°Ð·Ð½ÑĭÐµ":5341,"ĠÐ¿ÑĢÐµÐ´ÑģÑĤÐ°Ð²":5342,"ĠÑģÐ¾Ð¶Ð°Ð»":5343,"ĠÐ¼ÐµÐ´Ð»ÐµÐ½Ð½Ð¾":5344,"Ð¸Ð²Ð½Ð¾":5345,"ÑĩÐ½Ð¾Ð¼":5346,"²Ð¸Ð¹":5347,"±Ñİ":5348,"ĠÑĥÑĤÐ²ÐµÑĢÐ":5349,"ÐľÐĺ":5350,"ĠÑģÐ¾Ð±Ð":5351,"ÐºÑģÑ":5352,"²Ð»ÑıÐµÑĤÑģÑı":5353,"ÐŁÐ¾Ð´":5354,"Ð»ÐµÐ½Ð¸Ñİ":5355,"ĠÑĤÑĢÐ°":5356,"ĠÐłÐ°Ñģ":5357,"ÑĢÐ½Ñ":5358,"ĠÐ´ÐµÐºÐ°Ð":5359,"ĠÐ¾ÐºÐ°Ð·ÑĭÐ":5360,"Ð½Ð°Ð¼":5361,"ĠÑĨÐµÐ»Ð¸":5362,"ÐłÐķ":5363,"Ð½Ð°Ð´Ð»Ðµ":5364,"ĠÐºÐ¾ÑĦ":5365,"ÑĤÐµÐ»ÑĮÐ½Ð¾Ð³Ð¾":5366,"Ð²Ð¾Ð·":5367,"ĠÐ²ÐµÐ·":5368,"ĠÑĥÐ·Ð½Ð°Ñ":5369,"ĠÑĥÐ·Ð½Ð°ÑĤ":5370,"ÑĤÐµÐ»ÑĮÐ½ÑĭÐ¼":5371,"ĠÐ²ÑĭÑĪÐµÐ»":5372,"ĠÑĥÐ·Ð½Ð°ÑĤÑ":5373,"ĠÑĥÐ·Ð½Ð°ÑĤÑĮ":5374,"ĠÐ°Ñģ":5375,"Ġ22":5376,"ĠK":5377,"ĠÐ¼ÐµÑĤÐ°":5378,"ĠÐĶÐ¾Ð±":5379,"¶Ð¸Ð»":5380,"Ð°ÐºÐ¾Ð½":5381,"ĠÐ´Ð°ÑĤÑĮ":5382,"ĠÐ½Ð°Ð¿Ð°":5383,"ĠÐłÐĺÐĲ":5384,"ÑĤÐ¸Ð²":5385,"Ġg":5386,"ÑĩÐµÐ·":5387,"ÑĥÐ½Ð":5388,"ĠÐºÐ¾Ðµ":5389,"ĠÐ´ÑĥÑĪÐ¸":5390,"ĠÐ¿ÑĢÐ¸Ðµ":5391,"ĠÐ²Ð¾Ð·ÑĢÐ°":5392,"ĠÐĵÐµÑĢÐ¼":5393,"ĠÐ¿Ð¾ÑģÐºÐ¾Ð»ÑĮÐºÑĥ":5394,"ĠÑģÐ¾Ð·Ð½Ð°Ð":5395,"Ð²ÑĭÐº":5396,"ĠÐ°ÑĤ":5397,"ÑĢÐ³Ð°":5398,"ĠÐ¿Ð¾ÑģÐ¼Ð¾ÑĤÑĢÐµÑĤÑĮ":5399,"¸ÑĢÐ°":5400,"âĺ":5401,"Ð¾Ð¶ÐµÐ½":5402,"Ð¾ÑĢÑĤÐ°":5403,"ĠÐºÑĥÐ¿Ð¸ÑĤÑ":5404,"ĠÐ´ÑĢÑĥÐ³Ð¸Ð¼":5405,"ĠÐºÑĥÐ¿Ð¸ÑĤÑĮ":5406,"ĠÐ²Ð°Ð¶Ð½Ð¾":5407,"ĠÐ¿Ð¾Ð²Ñĭ":5408,"ĠÐ¼ÐµÑģÑıÑĨÐ°":5409,"ĠÐ¼Ð°Ñı":5410,"ĠÐ¿Ð¾Ð²ÐµÑĢ":5411,"Ð°ÑģÑĤÑ":5412,"ĠÐ¿Ð¾Ð»ÑĥÑĩÐ¸Ð»":5413,"ĠÐ±Ð¾Ð»ÐµÐ·Ð½":5414,"Ð»Ð°Ð½Ñ":5415,"ÑģÐºÐ¾Ð»ÑĮÐºÐ¾":5416,"ĠÐ§ÑĤÐ¾Ð±Ñĭ":5417,"Ð¼ÐµÑĤÑĮ":5418,"ĠÐ°Ð±ÑģÐ¾Ð»ÑİÑĤ":5419,"ĠÐĶÐ¶Ðµ":5420,"ĠÐ·Ð°Ð±":5421,"Ġn":5422,"Ġh":5423,"ÑĢÐ°Ð·Ð¸":5424,"ĠÐ°Ð½Ð°":5425,"ĠÑģÐ¾Ð¿":5426,"Ð¸Ð²Ð°ÐµÑĤ":5427,"ÑģÐºÐ°Ð":5428,"¾Ð²Ð°":5429,"ĠÐ¼Ð¸Ð»":5430,"ĠÐ³ÑĢÑıÐ":5431,"----":5432,"ĠÑģÐ²ÐµÐ":5433,"ĠÐ³Ð¾Ð²Ð¾ÑĢÑı":5434,"²Ð·Ð°Ð":5435,"½Ð¸ÑĨÐµ":5436,"ÑĢÐ°ÑĤÐ¸":5437,"ÐµÐ½Ð½Ð¾Ð¹":5438,"ĠÑĥÐ´Ð¾Ð±Ð":5439,"Ð²Ð·Ð°Ð":5440,"Ġ23":5441,"Ġ24":5442,"ĠÐĲÐ»ÐµÐº":5443,"ĠÐĿÐ¸ÐºÐ¾Ð»":5444,"ĠÐĹÐ´ÐµÑģÑĮ":5445,"ĠÐ½Ð°ÑĩÐ¸":5446,"ĠÑģÐ²Ð¾ÐµÐ¼Ñĥ":5447,"ĠÐ´ÐµÑĤÑģÑ":5448,"ĠÐ½Ð°ÑĩÐ":5449,"ĠÐ·Ð°Ð¼":5450,"ĠÐ¿ÑĢÑıÐ¼":5451,"Ð¸ÑĪÑĮ":5452,"ĠÐ²Ð·Ð´Ð¾Ñħ":5453,"ĠÐ²ÑģÐµÐ¼Ñĥ":5454,"ĠÐ¿Ð¾Ð´ÑĥÐ¼Ð°Ð»":5455,"ĠÑģÐ¸ÑĤÑĥÐ°ÑĨÐ¸Ð¸":5456,"ĠÑĦÐ°ÐºÑ":5457,"ĠÑĦÐ°ÐºÑĤ":5458,"ĠÑĢÐ°Ð·Ð½ÑĭÑħ":5459,"ĠÑģÐ¿ÐµÑĨÐ¸Ð°Ð»":5460,"ĠÐ¿Ð¾ÑĢÑĤ":5461,"Ð»Ð¾Ð´":5462,"Ð°Ð³Ð¸":5463,"ĠÐ½Ð¸ÐºÐ°ÐºÐ¸Ñħ":5464,"ĠÐ¿ÑĢÐ¸Ð´ÐµÑĤÑģÑı":5465,"ĠÐ¼Ð¾Ð¸Ñħ":5466,"ĠÐ¿Ð¾Ð´ÑĬ":5467,"ĠÐ²Ð°Ð»":5468,"ĠÐ¿ÐµÑĢÐ²Ð¾Ð¹":5469,"ĠÐ¸Ð±Ð¾":5470,"ĠÐ´Ñĭ":5471,"ĠÑĨÐµÐ½":5472,"ĠÑĥÐ½Ð¸ÑĩÑĤ":5473,"ÑĥÐ°Ð":5474,"ĠÑĥÑģÐ¿Ð¾Ð":5475,"ÑĢÑĮÐ":5476,"ĠÐ¼Ð°ÑĪÐ¸Ð½Ñ":5477,"ĠÐ¼Ð°ÑĪÐ¸Ð½Ñĭ":5478,"Ð´Ð¸Ð¸":5479,"ĠÐ½Ð¾Ð¼ÐµÑĢ":5480,"Ð´ÑıÑĤ":5481,"ÑĤÐ°Ð½Ñ":5482,"Ð·Ð°Ð½Ñ":5483,"27":5484,"ĠðŁİ":5485,"ĠÑĤÐ¾ÑĢÐ³Ð¾Ð²":5486,"all":5487,"Ð¼ÐµÐ½Ð¸ÑĤÑ":5488,"ĠÐ²Ð¾Ð·Ð¼Ð¾Ð¶Ð½Ð¾ÑģÑĤÐ¸":5489,"ĠÐ¾Ð±Ð¸":5490,"ĠÐ´Ð¸Ðº":5491,"ĠÐĴÐµÑĢÐ":5492,"ĠÑģÐ¾ÑĨÐ¸Ð°Ð»ÑĮÐ":5493,"ÑħÐ°Ð»":5494,"½Ð¾Ð²Ð¸Ñ":5495,"ÑĩÑĳÑ":5496,"ĮÐºÐ°":5497,"ĠÐ½Ð°ÑģÑĤÐ¾Ð»ÑĮÐºÐ¾":5498,"ÑĩÑĳÑĤ":5499,"ÑģÐ¿Ð°":5500,"ĠÑĢÐ¾ÑĤ":5501,"Ð»Ð°ÑĤÑĭ":5502,"²Ð°ÑİÑĤÑģÑı":5503,"Ð¾ÑĤÐ¾":5504,"ÐºÑĢÐµÑĤ":5505,"ĠÐ¿ÑĢÐ¸Ð½Ð°Ð´Ð»Ðµ":5506,"Ð¼ÐµÐ½Ð¸ÑĤÑĮ":5507,"Ð¼Ð¾Ð½Ñ":5508,"ĠÑĤÐ²Ð¾ÑĢ":5509,"²Ð»ÑıÐµÐ¼":5510,"Ð²Ñĳ":5511,"ĠÑħÐ¾ÑĤÐ¸ÑĤÐµ":5512,"ĠÐ±Ð°Ð»":5513,"ĠÐ½Ð¾Ð²ÑĭÑħ":5514,"ĠÑģÐºÑĢÑĭÐ":5515,"ÑĤÐµÐ»ÑĮÐ½Ð¾Ðµ":5516,"ĠÐŁÑĥÑģÑĤÑĮ":5517,"ĠÑĤÐ¾Ð²Ð°ÑĢÐ¸":5518,"Ð¿ÑĢÑĭÐ":5519,"Ð²Ð¾Ð·ÑĮ":5520,"ĠÐºÐ¾Ð½ÐºÑĥÑĢÑģ":5521,"Ð²Ð¾Ñı":5522,"ul":5523,"ÑĩÐ¸ÑĤÑĮÑģÑı":5524,"ĠÐ¿Ð¾ÑģÐ»ÐµÐ´Ð½Ð¸Ð¹":5525,"ĠÐ¿ÑĢÐ¸Ð½Ð¸Ð¼":5526,"Ð°Ð¹Ð":5527,"ĠÑģÐ²Ð°":5528,"ĠÐ²Ð·Ð°Ð":5529,"ÑĢÐ°Ð²Ð´Ð°":5530,"ÐľÐ½Ðµ":5531,"ÑĪÐµÑģÑĤ":5532,"ÑĢÐ¸Ð²":5533,"ĠÐ·Ð°Ð½ÑıÑĤ":5534,"ĠÐ¡ÐºÐ°":5535,"ÑİÐ·":5536,"ĠÐ¿Ð¾Ð¼Ð½Ñİ":5537,"±Ð°Ðº":5538,"Ð»ÐµÐ½Ð¸Ð¹":5539,"ÓĻ":5540,"ĠÐºÐ°ÐºÑĥÑİ":5541,"ÑģÑĢÐµ":5542,"ĠÐ·ÐµÑĢÐ":5543,"ĠÑĤÐ¸ÑħÐ¾":5544,"ĠÐŃÑ":5545,"ÑĩÐ¸Ð»Ð¸":5546,"ĠÐļÑĢÐ¾Ð¼Ðµ":5547,"ÑģÐ»ÑĮ":5548,"ĠÐ¿ÑĢÐ¸Ð¼ÐµÑĢÐ½Ð¾":5549,"ĠÑĨÐµÐ½Ð°":5550,"ĠÐ¼Ð°Ð½":5551,"ðŁĺģ":5552,"Ð²Ð´Ð":5553,"ĠÑģÑĤÐ¾ÑıÐ»":5554,"ĠÐ¤ÑĢÐ°Ð½":5555,"Ð»Ð¾Ð¶Ð":5556,"ĠÑĤÑĢÐ°Ð´":5557,"ĠÐ´Ð¾Ð½":5558,"ĠÐ¾ÑĤÑģÑĥÑĤÑģÑ":5559,"ÐºÐ¾Ð½Ðµ":5560,"ÐĳÐŀ":5561,"ĠÐ¼Ð¸Ð½Ð¸Ð¼":5562,"ĠÐ¸Ð·Ð²ÐµÑģÑĤÐ½Ð¾":5563,"ĠÑģÑĤÑĢÐ¾Ð¸":5564,"ĠÐ¿ÐµÑĢÐ²Ð¾Ð³Ð¾":5565,"ĠÐ·Ð½Ð°ÐµÑĤÐµ":5566,"ĠÐ½ÑĥÐ¶Ð½Ñĭ":5567,"23":5568,"ĠÐ·Ð°ÑıÐ":5569,"Ð¿ÐµÑĤ":5570,"²Ð¾Ð»Ð":5571,"ĠÑģÑĤÐ°Ð½Ð¾Ð²":5572,"ÑħÐ¾Ð´Ñı":5573,"ĠÐ³Ð»Ð°Ð·Ð°Ñħ":5574,"ÑģÑĤÐ¾Ð»ÑĮ":5575,"ĠÐ¾ÑĤÑĨÐ°":5576,"Ð¸ÑĩÐµÑģÐºÐ¸Ðµ":5577,"ĠÐ¿ÑĢÐ¸Ð²Ðµ":5578,"ÑĩÐ¸ÑģÑĤ":5579,"ĤÐ¸ÐºÐ¸":5580,"¸Ð²Ð°ÐµÑĤ":5581,"Ð´ÑĳÑĤ":5582,"ĠÐ·Ð°Ð±Ð¾Ð»":5583,"art":5584,"ĠÑģÑĤÑĢÐ°ÑĪÐ":5585,"ĤÐ²ÑĥÐµÑĤ":5586,"ĠÐ¡Ð°Ð½":5587,"ĠÐ¿Ð¾Ð·Ð°":5588,"ĠÑĢÐ°Ð¹Ð¾Ð½Ðµ":5589,"ĠÑģÑĤÑĢÐ°Ð½Ðµ":5590,"ĠÐĿÐµÐ":5591,"ĠÐ²ÑģÐµÐ¼Ð¸":5592,"ĠÐºÐ°Ð±Ð¸":5593,"ĳÐ½":5594,"Ð¾Ð·Ð":5595,"ĠÐ¿Ð»Ð¾Ñħ":5596,"ıÐ»Ð¸ÑģÑĮ":5597,"ĠÑĢÐ¾Ð´Ð":5598,"Ð²Ð°Ð»Ð°":5599,"ĠÐ¶Ð¸Ð»":5600,"ĠÐ½Ð¾Ð²Ð¾Ð³Ð¾":5601,"ĠÐ´Ð¾ÑĢÐ¾Ð":5602,"ĠÐ¼ÑĥÑģ":5603,"Ð¡Ð¡Ðł":5604,"²ÑĥÐº":5605,"ĠÐ½ÐµÐ´ÐµÐ»Ð¸":5606,"ÑĦÑĦ":5607,"ĠÐ¿Ð¾Ð½ÑıÐ»Ð°":5608,"ĠÐ½ÐµÐº":5609,"ÑĢÐ½ÑĭÑħ":5610,"ĠÐ¾Ð±Ð¾ÑĢÐ":5611,"ĤÑĢÐµÐ":5612,"ĠÐ¿ÑĢÐ°ÐºÑĤÐ¸ÑĩÐµÑģÐºÐ¸":5613,"ĠÐ¿ÑĢÐ¾Ð±Ð»ÐµÐ¼Ð°":5614,"ĠÐºÐ°Ð·Ð°":5615,"Ð¾Ð¼Ð¸":5616,"ĮÑıÐ":5617,"ĠÐ·ÐµÐ¼Ð»Ðµ":5618,"Ð°Ð»ÑĮÐ½Ð°Ñı":5619,"ÑģÐ°Ð½":5620,"ĠÐºÐ¾ÑĢÐ¿":5621,"¶ÐµÐ½Ð¸Ð¹":5622,"ĠÑĤÑıÐ¶ÐµÐ»":5623,"ĠÑĦÐ¸Ð³Ñĥ":5624,"ĠÑģÑĤÑĢÐ°Ð´":5625,"³Ð°Ð½":5626,"ĠÑĤÐµÑĢÑĢÐ¸ÑĤÐ¾ÑĢÐ¸Ð¸":5627,"ĠÐ²ÐµÑģÑĮÐ¼Ð°":5628,"ÑģÐ½Ð¾Ð¹":5629,"ÑĢÐ¾Ð»":5630,"Ð¸Ð¾":5631,"45":5632,"ÑģÐ¸Ð½":5633,"ÑĢÑĥÑģÑĤ":5634,"ĠÐºÐ½ÑıÐ":5635,"ÑģÑĤÐ¾ÑıÑĤ":5636,"ĠÐ´ÑĢÑĥÐ³Ð¾Ð³Ð¾":5637,"ĠÐ¸ÑģÑĩÐµÐ·":5638,"ĠÐ¾Ð³ÑĢÐ°Ð½Ð¸":5639,"»Ð¾Ð¶Ð¸Ð»":5640,"Ð¿ÑĥÐ":5641,"ĠÑģÑĩÐµÑĤ":5642,"ÑħÐ¾Ð´Ð¸Ð»":5643,"ÑĢÑĤÐ¾":5644,"ÐĺÐ·":5645,"ĠÐ¾ÑĩÐµÑĢÐµÐ´Ð":5646,"ĠÑģÐµÐºÑģ":5647,"ĠÑĦÐµÐ²":5648,"ĠÑģÑĤÐ°Ð½Ð¾Ð²Ð¸ÑĤÑģÑı":5649,"ĠÐ¿ÑĢÐ¾Ð»":5650,"ĠÐ´ÑĥÑĪÐµ":5651,"ĠÐºÐ°Ð¿":5652,"ĠÐ²Ð·ÑĢÐ¾ÑģÐ»":5653,"³Ð¾Ð´Ð½Ð¾":5654,"ĠÐĳÐ¸":5655,"ĠÐ¼Ð°ÑĪÐ¸Ð½Ð°":5656,"ĠÐ¼Ð¸Ð¼Ð¾":5657,"Ð±Ð»":5658,"est":5659,"ĠÐ²Ð´Ð":5660,"ĠÐ¿Ð¾Ð½ÑıÑĤÐ½Ð¾":5661,"Ð²ÑıÐ½":5662,"Ð¾Ð²ÑĭÐ¹":5663,"ÑģÑģÐ°Ð":5664,"ĠÐ½ÐµÑģÐºÐ¾Ð»ÑĮ":5665,"ĠÑģÐ¿Ð¾":5666,"ĠÑģÑĢÐµ":5667,"¾ÑĤÑĥ":5668,"ĠÐºÐ¾Ð¼Ð½Ð°ÑĤÑĥ":5669,"ÑĮÐµÑ":5670,"Ð¾Ð·Ð°":5671,"½Ð¾ÑıÐ":5672,"ĠÐ±ÑĥÐ´ÐµÑĪÑĮ":5673,"ĠÐ¿Ð»Ð¾ÑĤ":5674,"ĠÑĤÐ°ÐºÐ¾Ð¼":5675,"Ð¸Ð²ÑĪÐ¸ÑģÑĮ":5676,"ĠÑĥÐ´Ð¸Ð²Ð¸":5677,"ĠÐ²Ð½Ð¸Ð¼Ð°Ð½Ð¸Ñı":5678,"ĠÐ¶Ð¸ÑĤÐµ":5679,"ÑıÐµÑĤÑģÑı":5680,"ĠÐ±Ð»Ð°Ð³":5681,"Ð´Ð¶Ðµ":5682,"ĠÐ¼Ð½ÐµÐ½Ð¸Ðµ":5683,"ĠÐ°Ð²ÑĤÐ¾Ð":5684,"ÑĢÐµÑĤÐ°":5685,"ĠÑģÐ²Ð¸Ð´Ðµ":5686,"ĠÐ´Ð¾Ð³Ð¾Ð²Ð¾":5687,"95":5688,"ĠÑĥÑĤÑĢÐ¾Ð¼":5689,"²ÑģÑĤÐ²Ð¾Ð²Ð°Ð»":5690,"ĠÐĲÐ½Ð":5691,"ĠÐ¾Ð±ÑĢÐ°":5692,"Ð½Ð°ÑĤÑĭ":5693,"ĠÐ²Ð¾ÑģÑĤ":5694,"ÐĽÐķ":5695,"Ð½Ð¾ÑıÐ":5696,"Ð¾Ð´Ñĭ":5697,"ĠÐ¾ÑĤÐ´ÐµÐ»ÑĮÐ":5698,"ĠÐ²Ð¸Ð´Ñĥ":5699,"·Ð²ÐµÐ·":5700,"ĠÐ¾Ð´ÐµÐ¶Ð´":5701,"¸Ð¼ÐµÑĤÑĮ":5702,"Ð¾Ð°":5703,"²ÑģÑĤÐ²ÑĥÐ¹ÑĤÐµ":5704,"ÑĩÐ°ÑİÑĤ":5705,"ĠÑģÑĤÐ¾Ð»ÑĮ":5706,"ĠÑĢÐµÑĩÑĮ":5707,"ĠÐ¾ÐºÐ°Ð·Ð°Ð»ÑģÑı":5708,"ĠÐ¸Ð½Ñģ":5709,"ÑĩÐ¸ÐºÐ¾Ð²":5710,"ĠÑĪÑĥÐ¼":5711,"Ð¸ÑĩÐµÑģÐºÐ¾Ð³Ð¾":5712,"±Ð¸ÑĤÑĮ":5713,"²ÐµÐ´Ð":5714,"ĠÐ¿ÑĢÐ¸ÑıÑĤ":5715,"Ð²Ð°Ð½":5716,"ĠÐ¾Ð±ÑīÐµÐ¼":5717,"ĠÑĩÑĥÐ²ÑģÑĤ":5718,"ÐºÐ¾ÑĢÐ":5719,"ĠÑģÐ¾Ð±Ð°":5720,"ĠÐ¿ÑĤ":5721,"Ð½ÐµÑĢ":5722,"ĠÐĴÐ¾Ð»":5723,"ĮÐ¼Ð¸":5724,"ÑĮÐ½Ð°Ñı":5725,"ĠÑĢÐµÐ·ÑĥÐ»ÑĮÑĤÐ°ÑĤÐµ":5726,"ĠÐºÐ¾Ð½ÑĦ":5727,"·Ð¸Ð¸":5728,"ĠÐ²Ð¾Ð´Ñĥ":5729,"Ð¾Ð²Ð°ÑĢÐ¸":5730,"ĠÑĢÐ°ÑģÐ¿ÑĢÐ¾ÑģÑĤ":5731,"Ð·Ð°Ð½Ð¸":5732,"ĠÑģÐ¼Ð¾ÑĤÑĢÐµÐ»":5733,"ÑĩÐµÐ½Ð¸Ð¸":5734,"ĠÐ½Ð¾ÑĩÐ¸":5735,"ĠÐ½ÐµÐ¿ÑĢÐ¸":5736,"ĠÐ¿ÑĢÐ¾Ð¸Ð·Ð¾ÑĪÐ»Ð¾":5737,"ĠðŁĻ":5738,"ĠÐ¾Ð±ÑģÑĥÐ":5739,"ÑĮÐ¼Ð¸":5740,"ĠÑıÐ½Ð²Ð°":5741,"ĠÐ¿ÐµÑĢÐ¸Ð¾Ð´":5742,"Ð°ÑģÑĤÑĮ":5743,"ĠÐºÐ½Ð¸Ð³Ð":5744,"ĠÐºÐ½Ð¸Ð³Ð¸":5745,"ĠÐºÐ°ÐºÐ¸Ñħ":5746,"¸ÐºÐ":5747,"Ð¸ÐµÐ¼":5748,"Ð´Ð¾Ð¹":5749,"ĠÐ¶Ð´Ð°":5750,"ĠÐŃÑĤÐ¾ÑĤ":5751,"ĠÐ¶Ð´Ð°Ñ":5752,"ĠÐ¶Ð´Ð°ÑĤ":5753,"ĠÐŃÑĤ":5754,"ĠÐĿÐ°Ð´Ð¾":5755,"ÑīÐµÐ¼Ñĥ":5756,"ĠÐ½ÑĥÐ¶Ð":5757,"ĠÐ¶Ð´Ð°ÑĤÑ":5758,"ĠÐ¶Ð´Ð°ÑĤÑĮ":5759,"ĠÐºÑĢÑĭÐ":5760,"ĠÐ¸ÑģÐ¿Ð¾Ð»ÑĮÐ·Ð¾Ð²Ð°ÑĤÑĮ":5761,"ÑĥÐ²":5762,"ĠÑģÐ»ÑĥÐ":5763,"Ð±ÑĥÑĤ":5764,"Ð±ÑĭÑ":5765,"cÑĤ":5766,"Ð´ÐµÑģÑıÑĤ":5767,"ĠÐ½ÑĭÐ":5768,"ÑģÑĤÑĢÐ¸":5769,"ĠÐ²Ð¿ÐµÑĩÐ°ÑĤ":5770,"ĠÐ½Ð°Ð³":5771,"ĠÐ¾Ð±ÑĢÐ°ÑĤÐ½Ð¾":5772,"ĠÐ·Ð°Ð²Ð¾Ð´":5773,"ĠÑĦÐ°Ð½":5774,"ĠÐ¿ÑĢÐ¸Ð³Ð¾ÑĤÐ¾Ð²":5775,"ĠÐ¿Ð¸Ð·":5776,"ĠÐ´ÑĥÐ¼Ð°ÑĤ":5777,"Ð´Ð¸Ð²Ð¸":5778,"ĠÐľÐ¾ÑģÐºÐ²Ðµ":5779,"ÑĢÐ°Ð·Ð´Ð¾":5780,"ĠÑĨÐµÐ½ÑĤ":5781,"Ð·Ð°Ð¿Ð":5782,"Ġthe":5783,"ĠÐ½Ð¾ÑıÐ":5784,"ĠÐłÑĥÑģ":5785,"Ð±ÑĭÑĤ":5786,"ÑĥÐ½Ð°ÑĢÐ¾Ð´":5787,"ĠÐ´ÑĥÐ¼Ð°ÑĤÑ":5788,"ĠÐ´ÑĥÐ¼Ð°ÑĤÑĮ":5789,"ĠÑģÑĭÐ½":5790,"ĠÑĩÐ°Ð¹":5791,"ÑĤÐ¸ÐºÐ°":5792,"Ð·Ð²ÐµÐ·":5793,"ÑĥÐ»ÑĮÑĤ":5794,"ĠÐŁÐ¾ÑĤÐ¾Ð¼Ñĥ":5795,"Ð¿Ð¾ÑģÑĤÐµÐ":5796,"ĠÑĦÐ¸Ð½Ð°Ð½":5797,"ĠÐ¼Ð¸ÑĢÐ¾Ð²":5798,"ĠÐ´Ð²Ð¸Ð³Ð°":5799,"ÑĩÐ½Ð¾ÑģÑĤÐ¸":5800,"ÑĮÐµÐ¼":5801,"ĠÑĢÐµÐºÐ»Ð°":5802,"Ð¾Ð»Ð¾Ð³Ð¸":5803,"ĠÑĤÐµÑĢÐ¿":5804,"½Ð¾Ð²Ð¸ÑĤ":5805,"ĠÑĥÐ²Ð¸Ð´ÐµÑĤÑĮ":5806,"»Ð¸Ð·":5807,"Ð¸Ð¼ÐµÑĤÑĮ":5808,"ÐĲÐ½":5809,"ĠÐ¼Ð¸Ðº":5810,"ĠÐļÐ¾ÑĢÐ":5811,"Ð¾Ð½Ð°Ð":5812,"ĠÐ¿ÑĢÐ¾ÑĦÐµÑģÑģÐ¸":5813,"ÐµÑĤÐµÑĢÐ":5814,"ÑĢÑĤÑĥ":5815,"ĠÑĤÑİ":5816,"ĠÑĢÐµÐº":5817,"ĠÐ´Ð½Ð":5818,"Ð°Ð½Ð½Ð°Ñı":5819,"¾ÑıÑĤÐ½Ð¾":5820,"ĠÐ´Ð²":5821,"ĠÑģÐ¿Ð":5822,"ĠÐ¾ÑģÑĤÐ°Ð»Ð¾ÑģÑĮ":5823,"ĠÐ´Ð½Ð¸":5824,"Ð³ÑĢÐ°":5825,"ĠÐ½Ð¾ÑĢÐ¼Ð°Ð»ÑĮÐ½Ð¾":5826,"ĠÐ´ÐµÐ»":5827,"ĠÐ½Ð°Ð¸":5828,"Ð²Ð»":5829,"ĠÐ¸Ð´Ð¸":5830,"ĠÑģÐ»ÑĥÑĩÐ¸Ð»Ð¾ÑģÑĮ":5831,"ĠÐ¾Ð±Ð²Ð¸Ð½":5832,"ĠÐ¸Ð¼ÐµÑĤÑĮ":5833,"ĠÐ¿ÑĢÐ¸Ð²Ñĭ":5834,"ĠÐ»Ð¾ÑĪÐ°":5835,"ĠÐ¿Ð¾ÑħÐ¾Ð¶Ðµ":5836,"ÑĢÐµÐ¼Ñı":5837,"³ÐµÑĢÐ":5838,"ĠÐĶÐ¸":5839,"ĠÐ¡Ð¡Ð¡Ðł":5840,"Ð°Ð²Ð¸":5841,"Ġâľħ":5842,"ĠÐ¾ÑĢÑĥÐ¶Ð¸Ðµ":5843,"Ð´ÐºÑĥ":5844,"ĠÐĵÐ¾Ð»":5845,"ĠÐ¾ÑĤÐ¼Ðµ":5846,"ĠÐ¿ÑĢÐ¸Ð·":5847,"26":5848,"ĠÑĩÐµÐ¼Ñĥ":5849,"ĠÐ¼Ð°ÐºÑģÐ¸Ð¼":5850,"ĠÐļÑĥ":5851,"ĠÐļÐ¾Ð»":5852,"ÑĩÐ¸Ð»Ð°":5853,"Ð¸ÑĨÐµÐ¹":5854,"¸ÐºÐ¸":5855,"ÐµÑĦ":5856,"¾Ð±ÑĢÐ°Ð·":5857,"Ð½Ð¾Ð¼Ñĥ":5858,"ĠÐ¿Ð¾ÑģÑĤÐµÐ":5859,"Ð´ÑĮÐ¼Ð¸":5860,"70":5861,"ĠÐ¿ÑĢÐ¸Ð±ÑĭÐ":5862,"ĠÐ¶ÐµÐ½ÑīÐ¸Ð½":5863,"ĠÐ¸Ñī":5864,"ĠÐ·Ð½Ð°Ð»Ð°":5865,"ĠÐ²ÐµÑĩÐµÑĢ":5866,"ep":5867,"ÑĢÑģÐºÐ¾Ð³Ð¾":5868,"ĠÐ°Ð²ÑĤÐ¾Ð¼Ð°":5869,"ĭÐ½Ð°":5870,"ĠÐ·Ð°ÑıÐ²Ð¸Ð»":5871,"ĠÐ²ÐµÑĩÐµÑĢÐ¾Ð¼":5872,"łĢ":5873,"ĠÐ¿ÑĢÐ¾ÑģÑĤÑĢÐ°Ð½":5874,"Ð³Ð¾ÑĢÐ¾Ð´":5875,"ĠÐ¾Ð´Ð½":5876,"ÑĢÐ½Ð¾Ð³Ð¾":5877,"ĠÑĢÑĥÐºÐ¾Ð²Ð¾Ð´":5878,"ĠÑĥÐ´Ð¾Ð²Ð¾Ð»ÑĮÑģÑĤÐ²Ð¸Ðµ":5879,"¶ÐºÐ":5880,"ĠÐ°Ð²Ð³ÑĥÑģ":5881,"¶ÐºÐ¸":5882,"Ð¼Ð¾Ð½ÑĤ":5883,"ĠÐ±Ð¾Ðº":5884,"ĠÑĤÑĢÐ°Ð´Ð":5885,"ĠÑĤÑĢÐ°Ð´Ð¸":5886,"³ÑĢÐ¸":5887,"Ð»Ð°Ð´":5888,"ĠÐ¼Ð½Ð¾Ð¶Ðµ":5889,"ĠÐ»Ð°Ð´Ð¾Ð½":5890,"Ð´Ð¾Ð":5891,"²Ð¸Ð·":5892,"ĠÐ±Ð°Ð±Ñĥ":5893,"ĠÐ³Ð¾ÑĢÐ´":5894,"Ð±Ñİ":5895,"ĠÐ¿ÑĢÐ°Ð²Ð¾":5896,"ĠÐ½Ð¾ÑĩÑĮÑİ":5897,"±Ð°Ð·":5898,"²Ð»ÑıÑİÑĤ":5899,"ĠÐĴÐ¸Ðº":5900,"ĠÐ½Ð°Ð»Ð¸ÑĩÐ":5901,"ĠÐ´Ð¾Ð¼Ð°ÑĪÐ":5902,"ow":5903,"Ð¾Ð²ÑĭÑħ":5904,"ĠÐ²ÑģÑĤÑĥÐ¿":5905,"ĠÐ¶ÐµÐ»ÐµÐ·":5906,"?Â»":5907,"ÑĥÐ´Ð¸":5908,"ĠÑģÐ¾ÑħÑĢÐ°Ð½":5909,"ĮÐº":5910,"ĠÐ°ÐºÑĤÐ¸Ð²Ð":5911,"Ð»Ð¸Ð³":5912,"ĠÐ±ÑĥÑĤ":5913,"ĠÑģÐ»Ð¾Ð²Ð°Ð¼":5914,"Ð°Ð½Ð½Ð¾Ðµ":5915,"ĠÑĥÑģÑĤÑĢÐ¾Ð":5916,"ĠÐ½Ð¸ÐºÐ¾Ð³Ð¾":5917,"ĠÐ²Ð¾Ð²ÑģÐµ":5918,"ĠÐ¿Ð¾Ð´Ðº":5919,"ĠÑģÐ²ÑıÑĤ":5920,"ĠÐ¿Ð¸ÑĪÐ¸ÑĤÐµ":5921,"ĠÑĨÐ²ÐµÑĤÐ°":5922,"ÑĥÐ¼Ñ":5923,"ĠÐĹÐµÐ¼Ð":5924,"ĠÐ»Ð¸ÑĪÐ":5925,"ĠÐ²Ð½Ð¸Ð¼Ð°":5926,"ĤÐ¾Ð»Ð":5927,"Ð²ÑĥÐº":5928,"ÑģÑħÐ²Ð°ÑĤ":5929,"±Ð°Ñ":5930,"ĠÑģÐ¿Ð°Ñ":5931,"ĠÐ¿ÑĢÐµÑģÑģ":5932,"ĠðŁĳį":5933,"ÑĢÐ°Ð»Ð°ÑģÑĮ":5934,"ÐķÐ¡":5935,"ÑĤÐ°Ð½Ð°":5936,"¹ÑĤÐµÑģÑĮ":5937,"ĠðŁĺĤ":5938,"ĠÐ½Ð°ÑĩÐ°Ð»Ð¸":5939,"ÑĭÐ²Ð°ÑĤÑĮ":5940,"ĠÑģÐ¼Ð¾Ð¶Ðµ":5941,"ĠÐļÐŀ":5942,"ĠÐ½ÐµÐ²Ð¾Ð·Ð¼Ð¾Ð¶Ð½Ð¾":5943,"ĠÐ¼ÐµÑģÑıÑĨÐµÐ²":5944,"ÑĢÐ¾Ð³Ð¾":5945,"ĠÐ¼Ð¾ÑĤ":5946,"ÑĥÑİÑĤÑģÑı":5947,"ĠÐ²ÑĤÐ¾":5948,"ĠÑģÑħÐ²Ð°ÑĤ":5949,"¶Ð°Ñī":5950,"Ð²Ð¸ÑģÑĤ":5951,"Ð¾Ð¼ÐµÑĤ":5952,"Ð¼Ð°ÑĤÑĢÐ¸":5953,"ĠÐ´ÑĢÑĥÐ·ÐµÐ¹":5954,"Ġ=":5955,"ĠÐ¿ÑĢÐµÐ´Ð¾ÑģÑĤÐ°Ð":5956,"ÑĤÐ²Ð¸Ðµ":5957,"ĠÑĦÐ¾Ð½":5958,"ĠÐ¿Ð»Ð°Ð½Ðµ":5959,"ÑģÐ±Ð":5960,"Ð±ÐµÐ·":5961,"ĠÐ¾ÑģÐ¾Ð±ÐµÐ½":5962,"ÑģÑĤÐ²Ð¸Ðµ":5963,"ĠÐ¥Ð¾ÑĢÐ¾ÑĪÐ¾":5964,"ĠÑĥÑĤÑĢÐ¾":5965,"ĠÐ¼Ð¾ÑĢÐµ":5966,"ĠÐ±ÑĭÐ²":5967,"Ð¼Ñģ":5968,"ĠÐºÑĢÐ°Ñģ":5969,"ÑĢÐ¾ÐµÐ":5970,"Ð¾ÐµÐ":5971,"Ð¾Ð»Ð¾Ð³Ð¸Ð¸":5972,"ĠÐºÐ°Ð¼Ðµ":5973,"ĠÐ½ÐµÐ´Ð¾Ñģ":5974,"Ð²Ð¸Ð¹":5975,"Ð»Ð°Ð¹Ð":5976,"ÒĽ":5977,"ĠÑĥÑĩÐµÐ":5978,"ĠÐ³ÑĢÑĥÐ¿Ð¿Ðµ":5979,"Ð¼Ð¾Ð³Ð¾":5980,"Ð·Ð²Ñĥ":5981,"ÑıÐ´Ñı":5982,"³Ð¾ÑģÑĤ":5983,"¸Ð°Ð½":5984,"ĠÐ·ÐµÐ¼Ð»Ñİ":5985,"ĠÐ¾Ð±ÑĬÐµÐºÑĤ":5986,"ÑĤÐ°Ð½Ð¸Ðµ":5987,"!..":5988,"ÑģÐ¿Ð":5989,"96":5990,"ĠÐ²Ð¾Ð·Ð½Ð¸Ðº":5991,"ĠÐ¿ÑĢÐ¸ÑģÑĥÑĤÑģÑ":5992,"ĠÐºÐ°ÐºÐ¾Ð³Ð¾":5993,"ĠÐĿÐ¾Ð²Ð¾ÑģÑĤÐ¸":5994,"½ÑĥÐ»Ð¸ÑģÑĮ":5995,"ĠÐ»Ð¸ÑĤÐµ":5996,"eÐ½":5997,"ĠÐ·Ð²ÐµÐ·":5998,"ĠÐ¿ÑĥÐ":5999,"ĠÐ±Ð»Ð¸Ð¶Ð°Ð¹":6000,"Ð¶ÐµÐ¹":6001,"ĠðŁ¤£":6002,"Ð¸Ð²Ð°Ñı":6003,"ĠÐ¿Ð°ÑĢÐº":6004,"ĠÐ¿Ð¾Ð²Ð¾Ð´Ñĥ":6005,"ĠÐ²ÑĭÐ±Ð¸":6006,"ĠÑĪÑĥÑĤ":6007,"ÑĩÐµÐ½Ð¾":6008,"ĠÐ·ÐµÐ¼Ð»Ð¸":6009,"ÑģÐºÐ¸Ð¼Ð¸":6010,"av":6011,"Ð½ÐµÐ³Ð¾":6012,"ÑĨÐ¸Ð½":6013,"ĠÑģÐµÐ¼ÑĮÐ¸":6014,"ĠÐ²Ð¾ÑģÐ¿Ð":6015,"ĠÐ²Ð¾ÑģÐ¿Ð¸":6016,"ĠÐ¸ÑİÐ½":6017,"ĠÐ¼Ð¾Ð»Ð":6018,"you":6019,"ĠÐ´ÐµÐ²Ð¾ÑĩÐºÐ°":6020,"ÑĩÐ¸Ñħ":6021,"ĠÐ·Ð°Ð¿Ð¸Ñģ":6022,"ĠÑģÐ¿Ð¸":6023,"ÑĤÐ¾Ð»Ð":6024,"ĠÐĵÐ":6025,"ĠÐ¿ÑĢÐ¾ÑģÐ":6026,"Ð¼Ð¾ÑģÑĤÑĮ":6027,"ĠÐ´Ð¾Ð±Ð°Ð²":6028,"ÑĩÐ¸ÑģÐ»ÐµÐ½":6029,"ÐłÐ£":6030,"Ð»ÐµÐ½Ð½ÑĭÐµ":6031,"37":6032,"Ð¸ÑĤÐµÑ":6033,"ĠÐ³ÑĢÑĥÐ¿Ð¿Ñĥ":6034,"ĠÐ¼Ð¾Ñģ":6035,"ÑħÐ¾Ð´Ð¸Ð»Ð¸":6036,"ĠÐ¿ÑĢÐ¾Ð±Ð»ÐµÐ¼":6037,"ĠÑĩÑĥÐ²ÑģÑĤÐ²Ð°":6038,"ĠÐ¿ÑĢÐ¸ÑĪÐµÐ»":6039,"ÑĤÐºÐ":6040,"ÑĪÐ¸ÑħÑģ":6041,"ĠÐ¿Ð¾ÐºÐ°Ð·Ð°":6042,"ĠÑħÑĥÐ¶Ðµ":6043,"ÑĪÐ¸ÑħÑģÑ":6044,"ÑĪÐ¸ÑħÑģÑı":6045,"ĠÐ¾ÑģÑĤÐ¾ÑĢÐ¾Ð":6046,"ĠÑĦÑĢÐ°Ð½ÑĨ":6047,"ÑĤÐ¾Ð¿":6048,"ÑĩÐ¸Ð²Ð°":6049,"ĠÐ²Ð½ÑĥÑĤÑĢÐµÐ½":6050,"ÑĩÐ°Ð»ÑģÑı":6051,"ĠÐ²Ð¸Ð´ÐµÐ»Ð°":6052,"Ð¿Ð»Ð°ÑģÑĤ":6053,"ĠâľĶ":6054,"ÐµÐ¹Ð":6055,"ĠÐ¸Ð³ÑĢÐ°ÑĤÑĮ":6056,"Ġ000":6057,"ĠÐ³Ð¾ÑĢÐ°Ð·Ð´Ð¾":6058,"ĠÐ¢ÑĥÑĤ":6059,"ĠÑģÐ¾ÑĢÐ":6060,"ab":6061,"ÑģÐ¾Ð³":6062,"¸ÑĨÐ¸":6063,"ĠÐ¿ÐµÑĢÐ²ÑĭÐ¼":6064,"ĠÐĺÑħ":6065,"ĠÐ»Ð¸ÑĩÐ½Ð¾":6066,"·Ð¸Ð¼Ð":6067,"Ð¡Ðļ":6068,"Ð¸Ð½ÐºÐ":6069,"ĠÐ¼Ð°ÑĪÐ¸Ð½Ñĥ":6070,"½ÐµÐ¼Ñĥ":6071,"ĠÐºÑĢÐ¾Ð²Ð¸":6072,"ĠÐ¿Ð¾Ð¿ÑĭÑĤ":6073,"ĠÐ·Ð°Ð¿Ð¸":6074,"ĠÐ¼Ð°ÑĢÑĤÐ°":6075,"ĠÐ¿Ð¾ÑģÑĤÐ°Ð²":6076,"sk":6077,"ĠÐ»ÑİÐ´ÑĮÐ¼Ð¸":6078,"Ð¾Ð²Ð°Ð»":6079,"Ð¾Ð½Ð¸ÑĤ":6080,"¸Ð¼ÐµÐ½Ð¸":6081,"ĠÐ²Ð°ÑĪÐµÐ¹":6082,"Ð¸Ð¼ÐµÐ½Ð¸":6083,"±ÑĢÐ¾Ð½":6084,"ĠÐ»Ð°Ð":6085,"ÑĪÐµÑģÑĤÐ":6086,"ÑģÐ¾Ð¼Ð½":6087,"ĠÐ¿ÑĢÐµÐ´ÑĥÐ¿":6088,"ĠÐ¸ÑģÑĤÐ¾ÑĢÐ¸Ñı":6089,"ĠÑģÑĤÐ¾ÑıÑĤ":6090,"ÑĪÐ¸ÐµÑģÑı":6091,"ÐŁÐ¾ÑģÐ»Ðµ":6092,"Ð¸Ð½ÐºÐ¸":6093,"ĠÐ¶ÐµÐ»Ð°Ð½Ð¸Ðµ":6094,"ÑĦÐ¸ÐºÐ°":6095,"ĠÑĤÐµÐ°":6096,"ĠÑģÐ¼ÑĭÑģÐ»":6097,"ĠÐ±Ð¾Ð»Ð":6098,"ĠÑĩÐµÐ»Ð¾Ð²ÐµÐºÐ¾Ð¼":6099,"ĠÐ»Ð¾Ð¶Ð":6100,"ĠÐ²ÑĭÑģÐ":6101,"Ð³ÐµÑĢÐ":6102,"ĠÑģÑĥÑīÐµÑģÑĤÐ²Ð¾Ð²":6103,"ĠÐ´Ð¸ÑģÐº":6104,"ĠÐ²Ð¾Ð·Ð»Ðµ":6105,"Ð¼ÑĭÐ":6106,"ĠÑģÐ±Ð":6107,"ºÑ":6108,"ĠÐ¿Ð°Ñģ":6109,"ĠÐ¸Ð¼ÐµÐ½Ð¸":6110,"Ð¶Ð°Ð»Ð°":6111,"ÑįÐ¹":6112,"ĠÐ¿Ð¾ÑģÐ»ÐµÐ´Ð½Ð¸Ðµ":6113,"ÑĪÐ°Ð»":6114,"ĠÐ¿Ð¾Ð»Ðµ":6115,"ĠÐ²ÑĭÐ²Ð¾Ð´":6116,"Ð»ÐµÐ½Ð½ÑĭÐ¹":6117,"ĠÐ¡ÐµÐ":6118,"Ð¸Ð¼Ñģ":6119,"ĠÐŁÐ¾Ð½":6120,"½Ð¾Ð²Ð¸ÑĤÑ":6121,"ĠÐ¼ÑĭÑģÐ»ÑĮ":6122,"ÑĢÐ¾ÑĩÐ½Ð¾":6123,"½Ð¾Ð²Ð¸ÑĤÑĮ":6124,"Ð´Ð°Ð½Ð¸Ñı":6125,"ÑģÐ½Ñ":6126,"ĠÐ»ÑĥÐ":6127,"Ð¸Ð°Ð½":6128,"ĠÐ»Ð¸ÑģÑ":6129,"ĠÐ·Ð°Ð¼ÐµÑĩÐ°":6130,"ĠÑģÐ¸Ð»Ñĥ":6131,"ÑĢÑĥÐ¿":6132,"Ð±Ð°Ð·":6133,"²Ð¾Ð»Ñİ":6134,"ĠÑģÐ¾Ð¼Ð½":6135,"¶Ð´Ð°ÑĤ":6136,"ÐµÐ²Ð¾":6137,"¶Ð´Ð°ÑĤÑ":6138,"¶Ð´Ð°ÑĤÑĮ":6139,"35":6140,"ĠÑĢÐ¾ÑģÑĤ":6141,"Ð¸Ð°":6142,"ÑĪÐ¸Ð½Ðµ":6143,"ĠÑĥÐ·Ð½Ð°Ð":6144,"Ð»Ð¾Ð":6145,"ĠÑĢÐ¾Ð´Ð¸":6146,"Ð¼Ð¼":6147,"ĠÐ¾Ð±Ð°":6148,"ĠÐ½ÐµÐ¼ÐµÑĨ":6149,"ĠÐ¸Ð½ÑĦÐ¾ÑĢÐ¼Ð°ÑĨÐ¸Ð¸":6150,"ÑĢÑĭÐµ":6151,"Ð¾Ñħ":6152,"ÑįÑĢ":6153,"ıÑģÐ½Ð¾":6154,"ĠÐĹÐ°ÑĤÐµÐ¼":6155,"ÑĢÐ¾Ð¼Ð°":6156,"ĠÐ»ÑİÐ±Ð¾Ð¼":6157,"ĠÐ°Ð½Ð³Ð»Ð¸Ð¹":6158,"ĠÐ²ÐµÑĢÑģ":6159,"Ð¸Ð¼ÑģÑ":6160,"ĤÑĮÑı":6161,"ĠÐ¾Ð¿ÑĥÑģÑĤ":6162,"ĠÐºÐ¾Ð¼Ð¼":6163,"ĠÑģÐ¾ÑģÑĤÐ¾ÑıÐ½Ð¸Ðµ":6164,"Ð·Ð¸Ð¼Ð":6165,"Ð±Ð¸ÑĤÑ":6166,"ĠÐ½Ð°Ð²Ñģ":6167,"ĠÐºÐ¸Ð»":6168,"ĠÐŀÐ´Ð¸Ð½":6169,"ĠÐ±Ð¾Ð¼":6170,"ĠÐ²Ð¸Ð´Ð¸Ð¼Ð¾":6171,"½Ð¾Ð²ÑĢÐµÐ¼ÐµÐ½Ð½Ð¾":6172,"ĠÐ²ÑĭÑıÑģÐ½":6173,"Ð¿Ð¾Ð·":6174,"ĠÐ½Ð°ÑĩÐ°Ð»Ðµ":6175,"Ð¼ÐµÐ½ÐµÐ¼":6176,"ĠÐ¸Ð·Ð¾Ð±ÑĢÐ°Ð":6177,"98":6178,"ĠÐ¼Ð¾Ð·Ð":6179,"ÑĢÐ½Ð°Ñı":6180,"Ð¸ÐµÑģÑı":6181,"ĠÐ¿ÑĢÐ¾Ð¸Ð·Ð²Ðµ":6182,"ĠÐ¼Ð°Ð³Ð°Ð·Ð¸Ð½":6183,"ĠÐ¿ÑĢÐµÐ²ÑĢÐ°ÑĤ":6184,"ĠÐ²ÑĭÐµ":6185,"ĠÐ·Ð¾Ð²":6186,"ĠÐ¾ÑħÐ¾ÑĤ":6187,"ĠÐ¼ÑĥÐ¶ÑĩÐ¸Ð½Ñ":6188,"ĠÐ¼ÑĥÐ¶ÑĩÐ¸Ð½Ñĭ":6189,"ĠÑģÐºÐ°Ð·":6190,"Ġ500":6191,"ÐŁÐµ":6192,"Ð¸ÑĩÐµÑģÐºÐ¸Ð¹":6193,"ÑįÐ»":6194,"Ð´ÑĨÐ°ÑĤÐ":6195,"Ð»ÐµÐ½Ð½Ð¾Ð¹":6196,"Ð´ÑĨÐ°ÑĤÐ¸":6197,"ĠÐļÐ°Ð¶Ð´":6198,"ĠÐĿÐµÑģ":6199,"ĠÐ¿Ð°ÑĢÐ°":6200,"ĠÐ²ÐµÐºÐ°":6201,"ĠÐ¼Ð¾Ð¶ÐµÐ¼":6202,"ĠÑĩÑĥÐ²ÑģÑĤÐ²Ð¾":6203,"Ð¿ÑĭÐ":6204,"Ð½Ð¸ÐºÐ¾Ð¼":6205,"ĠÐ¾ÑĤÐ¿ÑĢÐ°Ð²":6206,"ĠÐľÐ°Ñ":6207,"ĠÐ²ÐµÐ´":6208,"ÑģÐ±Ð¾ÑĢÐ":6209,"ĠÐ¸ÑİÐ»":6210,"ĠÐ»Ð¸ÑĨÐµ":6211,"ĠÐĴÑģÑĳ":6212,"ĠÐ¼ÐµÑĢÐ¾Ð¿":6213,"ÑĭÐ½Ð°":6214,"ĠÐ±Ð°Ð·":6215,"ðŁĺī":6216,"ĠÐºÐ¾Ð¼Ð½Ð°ÑĤÐµ":6217,"ĠÑıÐ²":6218,"½Ð¸ÑĩÐ":6219,"ĠÐ¿ÑĢÐ¸Ð·Ð½Ð°Ð":6220,"ĠÐ¿ÑĥÑģ":6221,"·ÑĢÑĭÐ":6222,"ĠÐ´ÐµÐ¹ÑģÑĤÐ²Ð¸Ñı":6223,"ĠÑĪÐ¾Ðº":6224,"Ð»ÐµÑģ":6225,"ĠÐ°ÑĢÐ¼Ð¸Ð¸":6226,"ĠÑģÐµÐ½ÑĤÑıÐ±ÑĢÑı":6227,"ºÐ°Ð¼Ð¸":6228,"ĠÐ»Ð°Ð¹":6229,"ĠÑģÐ¸ÑģÑĤÐµÐ¼Ñĭ":6230,"ĠÑģÐ¿Ð°ÑĤ":6231,"Ð¿o":6232,"ĠÐ»Ð¸ÑĩÐºÑĥ":6233,"ĠÐ±Ð¾Ð»ÑĮÑĪÐ¾Ðµ":6234,"ĠÐ¿ÑĢÐ¾ÑĨ":6235,"ĠÑħÐ²Ð°ÑĤÐ°ÐµÑĤ":6236,"ĠÐŀÐ±Ð":6237,"Ð±ÑĢÐ¾Ð½":6238,"ĠÐ±Ð»Ð°Ð³Ð¾":6239,"ĠÐ±Ð¾Ð»Ð¸":6240,"ÑĢÑıÐ»":6241,"ĠÐ¿ÑĢÐ¸ÐºÐ°":6242,"ÑĥÑĤÐ¾":6243,"ĠÑĥÐ½Ð¸Ð²ÐµÑĢÑģ":6244,"Ð³Ð¾ÑģÑĤ":6245,"ĠÐ¾ÑĤÐ²ÐµÑĤÐ¸Ð»Ð°":6246,"ÑĥÑĩÑĪÐµ":6247,"±Ð°Ð¼Ð¸":6248,"???":6249,"ĠÐ¸ÑģÑģÐ»ÐµÐ´Ð¾Ð²":6250,"ĠÐĴÐ¡":6251,"ĠÐ¿Ð»Ð°ÑģÑĤ":6252,"ÑĥÑĤÑĭ":6253,"ĠÐ¿Ð¾Ð¿ÑĥÐ»Ñı":6254,"ĠÐ¾ÑĤÑĢÐ°Ð":6255,"ÑĪÐµÐ½Ñ":6256,"³Ð°Ð»":6257,"Ð¸Ð¾Ð½":6258,"ĠÐĶÐ¶":6259,"ĠÑĢÐ°Ð·Ð²Ð¸ÑĤÐ":6260,"ĠÑĢÐ°Ð·Ð²Ð¸ÑĤÐ¸":6261,"ĠÑģÑĢÐµÐ´ÑģÑĤÐ²Ð°":6262,"ĠÑĤÐµÐ»ÐµÐ":6263,"ĠÑĢÐ°Ð·Ð²Ð¸ÑĤÐ¸Ñ":6264,"ĠÑĢÐ°Ð·Ð²Ð¸ÑĤÐ¸Ñı":6265,"ÑıÐºÐ°":6266,"Ð½ÐµÑĤÑģÑı":6267,"ĠÐ°Ð¿ÑĢÐµÐ»Ñ":6268,"ĤÑĭÐ¹":6269,"Ð´ÐµÑĢ":6270,"ĠÐ½Ð°ÑĪÐ°":6271,"ĠÐ¿ÑĢÐµÐºÑĢÐ°ÑģÐ½Ð¾":6272,"ĠÐ¾Ð·Ð½Ð°":6273,"ĠÐ°Ð´ÑĢÐµÑģ":6274,"ĠÐ´ÐµÐ»Ð°ÑİÑĤ":6275,"ĠÑģÐ¿Ð°ÑĤÑ":6276,"Ð»Ð¸Ð²Ð°":6277,"ĠÑģÐºÑĥ":6278,"ev":6279,"ĠÐ¿Ð¾Ð»Ð¸ÑĤÐ¸ÑĩÐµÑģÐº":6280,"ĠÑĢÐµÐ·ÐºÐ¾":6281,"ĠÐ¿Ð¾ÑģÑĤÐ¾ÑıÐ½":6282,"ĠÑģÐ¿Ð°ÑĤÑĮ":6283,"Ð¿ÑĮÑİ":6284,"ĠÑĦÑĥÐ½Ðº":6285,"Ð±Ð¾Ð»ÐµÐµ":6286,"ĠÐ·Ð°Ð²ÐµÑĢ":6287,"Ð»ÑĭÐ":6288,"·Ð²ÑĥÐº":6289,"ĠÐ¸ÑİÐ½Ñ":6290,"ÑĥÐ³Ð¸":6291,"ĠÐºÐ¸Ð²Ð½ÑĥÐ»":6292,"Ð´Ð¶":6293,"²Ð¸ÑĤÑĮÑģÑı":6294,"ĠÐ²Ð·Ð³Ð»ÑıÐ´Ð¾Ð¼":6295,"ÑĤÐ°ÑĤÑĭ":6296,"ĠÐ¾Ð±ÑĬÑıÐ²":6297,"ĠÐ±Ñİ":6298,"ÐĽÐ¯":6299,"Ð¾Ð´Ð¸Ð½Ð°":6300,"ÑħÐ°Ð»Ð°":6301,"ĠÐ³ÑĢÐ°":6302,"·Ð²Ðµ":6303,"ĠÐ²Ð¿ÐµÑĢÐ²ÑĭÐµ":6304,"ĠÐ¾ÑĤÐ²ÐµÑĤÑģÑĤÐ²ÐµÐ½Ð":6305,"ĠÐ½Ð°ÑĪÐµÐ¼":6306,"ĠÐ¿ÐµÑĢÐ²ÑĥÑİ":6307,"28":6308,"ĠÐ³ÑĢÑĥÐ´Ð":6309,"ess":6310,"ĠÐºÐ¾Ð½ÐºÑĢÐµÑĤ":6311,"ĠÐ¢Ñĥ":6312,"ĠÑĢÐ¾Ð²":6313,"ĠÑģÐ¾ÑģÑĤÐ°Ð²":6314,"Ð²Ð»Ð¸":6315,"ĠÐ¼ÐµÑħ":6316,"ĠÐ½Ð¾Ð²Ð¾Ð¹":6317,"Ð»Ð°Ð¹Ð½":6318,"ÐµÐ»Ð¾Ð²Ðµ":6319,"ĠÐ¿Ð¾Ð½Ð°":6320,"Ð²ÑıÑī":6321,"ÑĨÐ°Ð¼":6322,"±ÑĥÑģ":6323,"ÑĢÑĭÑĤÑĮ":6324,"((":6325,"ĠÑħÐ¾ÑĤÑıÑĤ":6326,"Ð´ÐµÐ¹ÑģÑĤ":6327,"ĠÐºÑĢÐµÑģÑĤ":6328,"ÐµÐ½Ð½Ð¾Ð³Ð¾":6329,"ĠÑįÐ»Ðµ":6330,"¾Ð½Ñ":6331,"ĠÐºÐ¾Ð½Ñģ":6332,"ĠâĿ¤":6333,"ĠÑĤÐµÐ¼Ð¿Ðµ":6334,"¶Ð°ÐµÑĤ":6335,"¾Ð»Ð¸":6336,"ÐĶÐķ":6337,"ĠÐ¼Ð°Ð¹":6338,"½a":6339,"ĠÑĩÐµÐ¼Ð¿Ð":6340,"ĠÐ½ÐµÐºÐ¾ÑĤÐ¾":6341,"ĠÐ³Ð¾ÑģÑĤ":6342,"ĠÐµÐ¶Ðµ":6343,"ÑİÑīÑĥÑİ":6344,"ĠÐ¾ÑĤÐ´Ðµ":6345,"»Ð¾Ð¶Ð¸ÑĤÑĮ":6346,"ÐŁÐŀ":6347,"ĠÐ·Ð°Ð´ÐµÑĢÐ":6348,"Ð¿ÑıÑĤÐ¸":6349,"ÑıÑģÐ½Ð¾":6350,"ĠÐ½Ð¸Ð¶Ðµ":6351,"ĠÐ²Ð»Ð¸":6352,"Ð¾Ð´Ð¸Ð»Ð¸":6353,"ĠÐ±ÐµÐ·Ð¾Ð¿Ð°ÑģÐ½Ð¾ÑģÑĤÐ¸":6354,"Ð¸ÑĨÑĥ":6355,"ÑĢÑģÐºÐ¸Ð¹":6356,"ÑģÑĤÐ¾Ð¹":6357,"44":6358,"ĠÑģÐ»ÐµÐ´ÑĥÑİÑīÐ¸Ð¹":6359,"ÑģÐ¸Ð»ÑĮÐ":6360,"ĠÐ¾Ð³Ð½":6361,"ĠÑģÐ¾Ð¾Ð±ÑīÐ¸Ð»":6362,"ĠÐ¶Ð¸Ð²ÑĥÑ":6363,"Ð°Ð»ÑĮÐ½ÑĭÐ¹":6364,"ĠÐ´ÑĢÐµÐ²Ð":6365,"ÐĽÑİ":6366,"ter":6367,"ºÑĤ":6368,"ÑĥÐ¶ÐµÐ»Ð¸":6369,"ĠÑĢÐ¾Ð´Ð¸ÑĤÐµÐ»Ð¸":6370,"21":6371,"ÑĮÐµÐ²":6372,"»ÑĮÐµ":6373,"ÑĩÐ¾":6374,"ÑĩÐ½Ð¾ÑģÑĤÑĮ":6375,"ĠÑģÐ¼Ð¾Ð¶ÐµÑĤ":6376,"ĠÐĴÐ¾Ð·Ð¼Ð¾Ð¶Ð½Ð¾":6377,"ÑģÐ¾ÑĦ":6378,"ĠÑĪÐµÐ»":6379,"ĠÐ¸Ð½ÑĤÐµÑĢÐ½ÐµÑ":6380,"ĠÐ¾Ð²":6381,"ĠÐ¸Ð½ÑĤÐµÑĢÐ½ÐµÑĤ":6382,"Ð»ÐµÐ½Ð½ÑĭÑħ":6383,"Ð¸Ð½Ð°Ð»":6384,"ÑģÐ½ÑĭÐ¹":6385,"ĠÑħÐ¾ÑĢÐ¾ÑĪÐ¸Ð¹":6386,"ÐµÐ½ÑĤÑĢ":6387,"po":6388,"))))":6389,"ĠÐ±ÑĢÐ¾Ð½":6390,"ĠÑĢÐ°Ð·ÑĢÑĥ":6391,"ĠÐ¡Ð¾Ð²ÐµÑĤ":6392,"Ð´Ð°Ð½Ð¸Ðµ":6393,"ĠÑĢÐ¾Ð»ÑĮ":6394,"ÑĢÐ°ÐµÑĤÑģÑı":6395,"ĠÐ¿Ð¾Ð»ÑĥÑĩÐ°ÐµÑĤÑģÑı":6396,"ĠÐ³ÑĢÑĥÐ´Ð¸":6397,"ĠÐ¸ÑĤÐ¾Ð³Ðµ":6398,"ÐŀÐ½Ð":6399,"³ÐµÐ½":6400,"ĠÐłÐ°Ð±Ð¾":6401,"ĠÑģÐ°Ð¼Ð¾Ð":6402,"ĠÐ¢Ð":6403,"ĠÐ´Ð¸Ñģ":6404,"ĠÐ¿ÑĢÐ¸Ð¼ÐµÐ½":6405,"ĠÑģÐ°Ð»":6406,"ÑĢÑĤÐ¾Ð²":6407,"ĠÐ¿Ð¾ÑĢÑıÐ´ÐºÐµ":6408,"ĠÑĤÑĢÑĥÐ´Ð½Ð¾":6409,"ÐŀÐ½Ð¸":6410,"ĠÐ·Ð¸Ð¼Ð":6411,"ĠÑģÑĤÑĥÐ¿":6412,"ĠÐ´ÐµÑģÑıÑĤÑ":6413,"ĠÐ´ÐµÑģÑıÑĤÑĮ":6414,"Ð°Ð²Ñ":6415,"ĠÐĲÐ²Ñ":6416,"ĠÐ²ÑĭÑģÐºÐ°":6417,"ĠÐ²Ð¸Ð·":6418,"ĠÑĤÐµÐ¾":6419,"ĠÐ·Ð°Ð¹":6420,"ĠÐ³ÐµÑĢÐ":6421,"qu":6422,"¶Ð°ÑĤÑĮÑģÑı":6423,"ĠÐ½ÐµÐ´Ð°Ð²Ð½Ð¾":6424,"ĠÑģÐ±Ð¾ÑĢÐ":6425,"ĠÐ§ÐµÑĢÐ":6426,"²Ð»ÑıÐ»":6427,"ĠÐ¿ÑĢÐ°Ð²Ð¸Ð»ÑĮÐ":6428,"ĠÐķÐµ":6429,"Ð±ÑĢÐ¾Ñģ":6430,"ĠÐľÐµÐ½Ñı":6431,"ĠÑģÐ¾Ð¼":6432,"Ð½Ð°Ð´ÑĨÐ°ÑĤÑĮ":6433,"ĠÐ¾ÑĩÐµÐ²Ð¸":6434,"ĠÐ¾Ð±ÐµÑī":6435,"Ġof":6436,"ÑĤÑĢÐµÐ":6437,"»ÐµÐ½Ð¸Ðµ":6438,"ĠÐ½ÐµÐ¾Ð±ÑħÐ¾Ð´Ð¸Ð¼":6439,"Ð´Ð¸Ñı":6440,"Ð¼ÑĮ":6441,"»Ð¸Ð²Ð¾":6442,"Ð³ÑĢÐ¸":6443,"ĠÑģÐ´ÐµÐ»Ð°Ð»Ð¸":6444,"ĠÐ·Ð²Ñĥ":6445,"eÑ":6446,"ĠÑĢÐµÐ±ÐµÐ½Ð¾Ðº":6447,"ÑĩÐ¸ÑĤÑģÑı":6448,"ĠÐ±Ð»Ð°Ð³Ð¾Ð´Ð°ÑĢÑı":6449,"ĠÐ¿ÑĢÐ¾ÑĨÐµÑģÑģ":6450,"ĠÑĨÐµÐ¿":6451,"Ð±ÐµÐ»Ñ":6452,"ĠÐ²ÑĭÐ±Ð¾":6453,"ĠÐ·Ð´Ð¾ÑĢÐ¾Ð²ÑĮÑı":6454,"ĠÑģÐµÐ¼ÐµÐ¹":6455,"Ð½Ð¾Ð":6456,"ĠÐ´Ð»Ð¸":6457,"²Ð¾Ðº":6458,"Ð¾Ð¸Ñ":6459,"ĠÐ¼ÑĥÐ·ÑĭÐºÐ°":6460,"ĠÑĩÐµÐ»Ð¾Ð²ÐµÐºÑĥ":6461,"ĠÐ³Ð¾Ð»Ð¾Ð²Ñ":6462,"ĤÑĳ":6463,"Ð¿ÐµÑĢÐ":6464,"ĠÐ³Ð¾Ð»Ð¾Ð²Ñĭ":6465,"Ð¼Ð¸ÑĢ":6466,"ĠÑĪÐºÐ¾Ð»Ðµ":6467,"ÑĢÐ¸Ð»ÑģÑı":6468,"ĠÐºÐ¾ÑĢÐ°Ð±Ð»":6469,"ÐŁÑĢÐ¾Ð´":6470,"Ð¾Ð¸ÑĤ":6471,"ĠÑĢÐµÐºÐ¾Ð¼ÐµÐ½":6472,"»ÑıÐ´Ñı":6473,"ĠÐ¿ÐµÑģ":6474,"Ð·Ð²ÑĥÐº":6475,"ĠÐ¿Ð¾Ð³Ð¾Ð²Ð¾":6476,"ĠÑĢÐ°Ð¼Ð":6477,"ðŁĶ¥":6478,"ĠÑģÐ¾Ð³":6479,"ÑĢÐ¾Ð²Ð½":6480,"ĠÑĢÐµÐ°Ðº":6481,"ĠÐ²ÑĭÐ´ÐµÑĢÐ":6482,"ĠÐ¶ÐµÐ½Ð°":6483,"ĠÐ¦ÐµÐ½Ð°":6484,"¸Ð¼Ð¾ÑģÑĤÑĮ":6485,"ĠÐ½Ð°Ð¿Ð¸ÑģÐ°Ð»":6486,"ĠÐ´ÐµÐ¼Ð¾Ð½":6487,"ĠÐ¸ÑİÐ»Ñ":6488,"ÑĩÐ¾Ðº":6489,"ĠÐ¿ÐµÑĢÐµÐ²Ð¾Ð´":6490,"ÐĿÐķ":6491,"Ð°Ð²Ð°":6492,"¶Ð½ÑĭÐ¹":6493,"ĠÐĺÐ¼ÐµÐ½Ð½Ð¾":6494,"ĠÐ¸ÑģÐºÐ°ÑĤÑĮ":6495,"ĠÐĿÐ¸ÑĩÐµÐ³Ð¾":6496,"ĠÐ¼Ð»Ð°":6497,"ĠÑıÑģÐ½Ð¾":6498,"ĠÐ¿ÑĢÐ°Ð²Ð¸Ð»Ð°":6499,"ÑģÐ»ÑĥÐ":6500,"ĠÐ¿Ð¾Ð½Ð¸Ð¼Ð°":6501,"ĠÐ´Ð¾ÑģÑĤÐ¸Ð³":6502,"ĠÐ¿Ð¾Ð²ÐµÑĢÑħÐ":6503,"ĠÐ¿ÑıÑĤÐ¸":6504,"ĠÑģÐ¾Ð¶Ð°Ð»ÐµÐ½Ð¸Ñİ":6505,"ĠÐ¾Ð³Ð¾Ð½ÑĮ":6506,"Ð½ÑĥÑĤ":6507,"ĠÑĥÐ²ÐµÐ»Ð¸":6508,"ĠÐ´ÑĢÐ¾Ð":6509,"ĠÐ¿ÑĢÐµÐ´Ð»Ð°Ð³":6510,"ĠÐ¼ÑĥÐ´":6511,"ĠÐŁÐ¾Ð¼":6512,"ÐºÐ¸Ð½":6513,"ÑģÐµÐ½Ð¸":6514,"ĠÐ¿Ð¾ÑĤÐµÑĢÑı":6515,"ÑĢÐ¾ÑģÑĤÐ¸":6516,"Ð´Ð»":6517,"ĠÑĥÐ´ÐµÑĢÐ":6518,"Ð¾Ð»Ðµ":6519,"ĿĹ":6520,"ĠÐ²ÐµÑģÐµ":6521,"ĠÐ¿ÑĢÐµÐ´Ð¿Ð¾":6522,"ĠÐĳÐ¾":6523,"ĠÑĪÐºÐ¾Ð»Ñĭ":6524,"Ð·Ð²Ðµ":6525,"Ð¡Ð°":6526,"ÑĤÐµÐ»Ñİ":6527,"ĠÑģÐ¿Ð¸Ñģ":6528,"ĠÐ¿Ð¾ÑĢÐ°Ð":6529,"ĠÐĽÐµÐ½":6530,"ĠÐºÐ¾Ð½Ñ":6531,"ÑĢÐ°ÑĤÐ¸Ñ":6532,"ĠÑĥÑģÐ¿ÐµÐ»":6533,"ĠÐ´Ð²Ð¸Ð¶ÐµÐ½Ð¸Ñı":6534,"ĠÐ´ÐµÑĢÐµÐ²Ñ":6535,"Ð´ÐµÑı":6536,"ĠÐ·Ð²ÑĥÐº":6537,"ĠÐºÐ²Ð°ÑĢÑĤÐ¸ÑĢÑĥ":6538,"ĠÑĨÐµÐ½Ð":6539,"·ÑĢÐµÐ½Ð¸Ñı":6540,"Ð¾Ð»Ñĥ":6541,"Ġin":6542,"ÑģÐ½ÑĭÐµ":6543,"Ð¾Ð³Ñĥ":6544,"ĤÐµÐ½Ñĭ":6545,"ĠÐĲÐ»ÐµÐºÑģÐ°Ð½Ð´ÑĢ":6546,"Ð¢Ðķ":6547,"ĠÐ¾Ð±ÑģÑĤÐ¾Ñı":6548,"ÐĿÐµÑĤ":6549,"ĮÑĤ":6550,"Ð¢Ðĺ":6551,"ĠÐ¢ÐµÐ¼":6552,"ÑĢÐ¸ÑĨÐ°":6553,"ĠÐ°Ð¿ÑĢÐµÐ»Ñı":6554,"ÑĤÐ¸ÐºÐ¸":6555,"¸Ð¼ÐµÐ»":6556,"ĠÐ¸ÑİÐ½Ñı":6557,"Ð´Ð°Ð½Ð½Ð¾":6558,"ĠÐ¿ÑĢÐ¸Ð½ÑıÑĤÑĮ":6559,"ĠÐ±ÑĢÐ¾Ñģ":6560,"ĠÐ¿ÑĢÐ¾Ð²Ð¾Ð´":6561,"Ð¿ÑĢÐ¾Ñģ":6562,"ĠÐłÐĲ":6563,"½o":6564,"ĠÑĤÐµÐ»ÐµÑĦ":6565,"ĠÐ§ÐµÑĢÐµÐ·":6566,"ĠÐ¿ÑĢÐ¸Ð³":6567,"ÑĤÑĭÐ¹":6568,"ĠÐºÑģÑĤÐ°ÑĤÐ¸":6569,"ĠÐ°Ð±ÑģÐ¾Ð»ÑİÑĤÐ½Ð¾":6570,"Ð¸ÑģÑĤÑĭ":6571,"ĠÐŀÐ´Ð":6572,"ĤÑĥÐ¼":6573,"ÑĢÐ°Ð¸Ð½":6574,"»ÑıÑĤ":6575,"Ð¾Ð´Ð¸Ð½":6576,"ÑĪÑĥÑĤ":6577,"ÑĩÐµÐ½Ð¸ÐµÐ¼":6578,"Ð½ÐµÑĨ":6579,"ĠÑĤÐµÐ¿Ð":6580,"¾Ð»Ð³Ð¾":6581,"¸ÑĤÐµÐ»ÑĮÐ½Ð¾":6582,"ÐµÐ²Ñģ":6583,"ĠÐ·Ð½Ð°ÑİÑĤ":6584,"33":6585,"ÑģÐ¸Ñģ":6586,"³ÐºÐ°":6587,"ĠÐ¿ÐµÑĢÑģÐ¾Ð½Ð°":6588,"Ð¼Ð¸Ð½Ð°":6589,"ĠÐ¯Ð":6590,"ĠÐ²Ð¾Ð¿":6591,"¸ÑĩÐµÑģÐºÐ°Ñı":6592,"ÑģÐ¸ÑĢÐ¾Ð²":6593,"Ð¾Ð»ÐµÑĤ":6594,"ĠÐ¼Ð¾Ð½Ð°":6595,"ĠÑģÐ¾Ð¾Ð±ÑīÐ°ÐµÑĤ":6596,"Ð¾Ð¶Ð°":6597,"»Ð¾Ð¶Ð¸":6598,"ĠÐ±ÐµÑģÐµ":6599,"ĠÐ»ÐµÐ½":6600,"ÐŀÐŀ":6601,"ĠÐ²ÑĭÐ¸Ð³":6602,"ÑĢÐµÐ±Ð¾Ð²":6603,"ĠÐ¾ÐºÐ°Ð·Ð°Ð»Ð¾ÑģÑĮ":6604,"Ð¸ÑģÑĤÐ¾Ð²":6605,"ÑĢÐ¸ÐºÐ°":6606,"ĠÑĢÐµÐ°Ð»ÑĮÐ½Ð¾":6607,"ÑĩÐ¸Ð½Ðµ":6608,"Ð¾ÑģÑıÑĤ":6609,"ÑģÑĤÐ¾Ð»Ð":6610,"Ð´ÐµÐº":6611,"ĠJ":6612,"Ð¸Ð¼ÐµÐ»":6613,"ĠÐĹÐ½Ð°ÑĩÐ¸ÑĤ":6614,"ĠÑĦÐµÐ²ÑĢÐ°Ð»Ñ":6615,"ÑĤÑĥÐ¼":6616,"ÑģÐ°Ð¹ÑĤÐµ":6617,"ĠÐ±ÐµÐ³":6618,"ÑģÑĭÐ½Ð°":6619,"ÑĩÐºÐ°Ð¼Ð¸":6620,"ob":6621,"Ð¸ÑĢÐ¾Ð²Ð°Ð»":6622,"ĠÐ´ÐµÐºÐ°Ð±ÑĢÑı":6623,"¶Ð½ÑĭÐµ":6624,"ĠÑĤÐµÐ¿Ð»":6625,"Ð¼ÐµÐ½ÑĮ":6626,"ÑĢÑģÑĤÐ²Ð°":6627,"ĠÐĴÑģÐµÐ¼":6628,"ĠÐĲÐ»Ñ":6629,"ĠÐĹÐ°ÑĩÐµÐ¼":6630,"ĠÐĲÑ":6631,"ÑĨÐ¾":6632,"ĠÑĪÐºÐ¾Ð»ÑĮÐ":6633,"Ð°Ð¹ÑĤÐµÑģÑĮ":6634,"ĠÑģÐ»ÐµÐ³ÐºÐ°":6635,"ĠÐ¾ÐºÑĢÑĥÐ¶Ð°":6636,"Ð±Ð¸ÑĤÑĮ":6637,"ĠÐ¸Ð¼ÐµÐ»":6638,"ĠÐ½ÐµÑģÐºÐ¾Ð»ÑĮÐºÐ¸Ñħ":6639,"ĠÑĢÐ°Ð·Ð³Ð¾Ð²Ð¾ÑĢ":6640,"ĠÐĶÐŀ":6641,"ĠÐ·Ð²Ðµ":6642,"ĠÐºÑĢÑĥÑĤ":6643,"ĠÐ»ÑİÐ":6644,"ĠÐ¸ÑģÐ¿Ñ":6645,"ĠÐ¿Ð¾Ð»Ð¾Ð¶Ð¸":6646,"ĠÐ¾ÐºÑĤÑıÐ±ÑĢÑı":6647,"ĠÑĢÐµÑĪÐ¸Ð»Ð¸":6648,"ĠÐļÐĲ":6649,"ĠÑģÑĤÐ¾Ð»Ð":6650,"Ð¼ÐµÐ½ÑĤÑ":6651,"ĠÐ´ÑĭÑħ":6652,"ĠÐ´Ð°Ð»ÑĮÐ½ÐµÐ¹":6653,"ĠÐ»ÑİÐ±Ñ":6654,"Ð¼ÐµÐ½ÑĤÑĭ":6655,"ĠÐ¿Ð¾ÐºÑĥÐ¿Ð°":6656,"ri":6657,"Ð°Ð²ÑĪÐ¸Ð¹":6658,"ÑīÐµÐ½":6659,"ÑĩÐµÑģÐºÐ¸Ñħ":6660,"ex":6661,"ÐĶÐµ":6662,"ĠÑĢÐ°Ð¹Ð¾Ð½Ð°":6663,"ĠÐĲÐ´":6664,"ĠÐ¿Ð¾Ð·Ð²Ð¾Ð½":6665,"ĠÑĦÐ¸Ð»ÑĮÐ¼":6666,"Ð¸Ð¼ÑģÑı":6667,"ÑĢÐ°ÑĤÐ¾ÑĢ":6668,"ÐºÑģÑĤ":6669,"ĠÐ´Ð¾ÑĢÐ¾Ð³Ðµ":6670,"ĠÐ±ÑĥÐ´ÐµÑĤÐµ":6671,"ĠÑģÐ°Ð¹ÑĤÐµ":6672,"ÑĤÐ²Ð¸Ð¸":6673,"¶ÐµÐ½Ñ":6674,"ĠÐķÐ¼Ñĥ":6675,"½ÐµÑ":6676,"ÐºÑĤÐ¾":6677,"ĠÐ¸Ð½ÑĦÐ¾ÑĢÐ¼Ð°ÑĨÐ¸Ñİ":6678,"ÑĥÑģÑĤÐ":6679,"ĠÐ±Ð¾Ñı":6680,"ÑĢÐ¾ÑĦ":6681,"ĠÑĢÐ¾Ð´Ð¸ÑĤÐµÐ»ÐµÐ¹":6682,"ĠÐľÐ°Ð¹":6683,"ÑīÐµÐ¹":6684,"ĠÐĿÐ°Ð´Ðµ":6685,"¾Ð¾Ð":6686,"ÐµÐ¶":6687,"news":6688,"ĠÐ³Ð¾Ð²Ð¾ÑĢÐ¸Ð»Ð¸":6689,"Ð»Ð°Ð¶Ð´":6690,"ĤÐ²Ð¾Ñı":6691,"Ð¸Ð½Ð¸":6692,"ĠÑĢÐµÐ»Ð¸Ð³":6693,"ĠÑģÐºÐ²Ð¾Ð·ÑĮ":6694,"ÑĤÐ²Ð¾Ñı":6695,"ĠÐ³Ð¾Ð»Ð¾Ð²Ð°":6696,"ĠÐ²Ð·Ð³Ð»ÑıÐ":6697,"ĠÐµÐ·":6698,"ĠÑĤÐ²Ð¾Ð¸":6699,"¶Ð½Ð¾Ð¹":6700,"77":6701,"ÑĢÑģÑĤÐ²Ð¾":6702,"ÑĤÐºÐ¸":6703,"ÐĿÐĺÐķ":6704,"Ð¿ÐµÑĢ":6705,"ĠÑĤÐ²ÐµÑĢÐ´":6706,"ĠÐ£Ð¶Ðµ":6707,"ĠÐķÐ²ÑĢÐ¾Ð¿":6708,"ĠÑģÑĤÐµÐº":6709,"ÐłÐ°Ð·":6710,"³Ð°Ð¼Ð¸":6711,"ÑĩÐµÑģÐºÐ¾Ð¹":6712,"ĠÐºÐ°Ð¶Ð´Ð¾Ð¹":6713,"ĭÑĪÐ»ÐµÐ½":6714,"¸ÑıÐ¼Ð¸":6715,"ĠÐ¿ÑĢÐ¸Ð½Ñ":6716,"ÑĥÐ»Ð":6717,"ĠÑģÑĭÐ½Ð°":6718,"ĠÐ»Ð¸Ð½":6719,"ĠÐ´Ð¾ÑģÑĤÐ¸Ð":6720,"Ð¿Ð¾Ð·Ð":6721,"ĠÑģÐ¾Ð½":6722,"ĠÑĥÐ´Ð°Ð»":6723,"ya":6724,"ÑĤÐ°ÐºÑĤ":6725,"ĠÐ¾Ð´Ð½Ð¾Ð²ÑĢÐµÐ¼ÐµÐ½Ð½Ð¾":6726,"ÑĭÑĤÑĭÐ":6727,"½ÑĥÐ²ÑĪÐ¸ÑģÑĮ":6728,"³Ð½ÐµÐ":6729,"ĠÐ¼Ð°Ð»ÑĮÑĩÐ¸Ðº":6730,"¸Ð±":6731,"ĠÑģÐ²ÑıÐ·Ð°Ð½":6732,"ĠÑģÐ²ÐµÑĤÐ":6733,"ĠÐ±Ð¾Ð»ÑĮÑĪÐ°Ñı":6734,"ĠÑĥÑħ":6735,"Ð½ÑĥÐ»Ð¸":6736,"ĠÐ¸Ð¼ÐµÑİÑĤ":6737,"ĤÐ¸Ð¼":6738,"sh":6739,"ĠÑĥÑģÐ»Ñ":6740,"Ð¾Ð½Ð°Ð»":6741,"ĠÑĥÑģÐ»Ñĭ":6742,"ĠÑĤÐµÐ¼Ñĥ":6743,"ĠÐºÐ¾Ð¼Ð¿ÑĮÑİ":6744,"ĠÐ·Ð°ÑħÐ¾ÑĤ":6745,"ĠÐ¿o":6746,"ÑĢÑĤÐµÐ":6747,"ÑģÐ»ÑĥÑĪ":6748,"ĠÐºÑĢÐ¾Ð²Ñ":6749,"ÑĩÐ¸Ð²Ð¾":6750,":)":6751,"Ġ28":6752,"Ð»ÑıÐ´Ñı":6753,"ĠÐ½Ð°ÑĪÐµ":6754,"ĠÑĢÐ°Ð·Ð±Ð¸":6755,"ĠÐ¿ÑĢÐµÐ¿Ð¾Ð´":6756,"ÑıÑİÑĤ":6757,"ÑĢÑĢÐ¸":6758,"ĠÐ»ÐµÑģÑĤÐ":6759,"ÑĩÐ¾Ð½":6760,"ĠÐ½ÐµÐºÐ¾ÑĤÐ¾ÑĢÑĭÑħ":6761,"ĠÐ¼Ð¾Ð»Ð¾Ð´Ð¾Ð¹":6762,"ĠÐºÑĢÐ¾Ð²ÑĮ":6763,"ĠÐ°Ð²Ð¸":6764,"ĠÐ°Ð²Ð³ÑĥÑģÑĤÐ°":6765,"ĠÐ²ÑĢÐµÐ¼ÐµÐ½Ð°":6766,"ĠÐ¿Ð¸Ñ":6767,"Ð¾ÑĢÐ¾Ð³":6768,"ÐŁÐ°":6769,"»ÐµÑ":6770,"³Ð¾Ð´Ð°":6771,"Ð³Ð¾Ð½":6772,"ÑĤÑĢÐµÐµ":6773,"ĠÐ¿Ð¾ÑĪÐµÐ»":6774,"ÑĥÑģÑĤÐ¸":6775,"ĠÐŁÑĢÐ°Ð²Ð´Ð°":6776,"ÑĢÐ°Ð²Ð¸Ð":6777,"ĠÑĤÑĢÐµÐ½Ð¸ÑĢÐ¾Ð²":6778,"Ġi":6779,"ĠÑĢÑĥÐºÐ¾Ð²Ð¾Ð´Ð¸":6780,"ĠÐºÐ¾ÑĦÐµ":6781,"ÑĢÐ¼Ð°":6782,"ĠÐ¾ÑĦÐ¾ÑĢÐ¼":6783,"ĠÐ³ÑĥÐ±Ñĭ":6784,"ĠÑĩÐ°ÑīÐµ":6785,"ĠÐ¢Ð°ÐºÐ¶Ðµ":6786,"ĠÑģÐºÐ°Ð·Ð°Ð»Ð¸":6787,"¼Ð¾":6788,"ĠÐ¿ÐµÑĢÐµÐ´Ð":6789,"ÑĩÐµÐ½Ñĭ":6790,"ÑĥÑĨ":6791,"Ð¾Ð¼Ð°Ð½":6792,"Ð±ÐµÐ»ÑĮ":6793,"ĠÐºÑĢÐ¸ÑĤ":6794,"ĠÑĢÐµÑĪÐ¸Ð»Ð°":6795,"ĠÐ¶ÐµÑģÑ":6796,"ĠÐ¶ÐµÑģÑĤ":6797,"ĠÐºÐ¾Ð²":6798,"ĠÐŁÑĢÐµÐ´Ð":6799,"ĠÐ¸ÑİÐ»Ñı":6800,"ÑĢÐ´Ð°":6801,"Ð´ÑĢÐ°Ð²ÑģÑĤÐ²ÑĥÐ¹ÑĤÐµ":6802,"²ÐµÐ¹":6803,"ĠÐ·Ð°ÐºÐ°Ð·":6804,"ĠÐºÑĢÐ¸Ðº":6805,"Ð²ÑģÐµ":6806,"ĠÑĩÐ¸ÑĤÐ°ÑĤÑĮ":6807,"½ÑĥÐ»Ð¸":6808,"ÐµÑĢÐºÐ¾Ð²":6809,"ĠÐ´Ð¾ÑĢÐ¾Ð³Ñĥ":6810,"ĠÐ¼ÐµÑĤÑĢÐ¾Ð²":6811,"ĩÑĥ":6812,"ĠÐ½Ð°ÑĢÐº":6813,"Ð¸ÑĩÐµÑģÐºÐ°Ñı":6814,"ĠÐ²Ð°ÑĪÐµ":6815,"Ð°Ð½ÑĮ":6816,"ĠÑĥÐ»ÑĭÐ±Ð½ÑĥÐ»ÑģÑı":6817,"ĠÑģÐ¾Ð±Ðµ":6818,"ÐĶÐŀ":6819,"29":6820,"ĠÐ¾Ð±ÑīÐµÑģÑĤÐ²ÐµÐ½Ð":6821,"ÑĮÑıÐ½":6822,"ĠÐ´Ð¾Ð³Ð°":6823,"ĠÐ³ÑĢÐ¸":6824,"ĠÑĥÐºÑĢÐ°":6825,"³Ð¾ÑĢ":6826,"Ð±Ð¾ÑĢÐ°":6827,"ĠÐ½ÐµÐ´Ð¾Ð²":6828,"ĠÐ¿ÑĢÐ¸ÐµÐ·":6829,"ĠÐ²Ð·ÑĢÑĭÐ":6830,"Ġ26":6831,"¸ÑĩÐ°":6832,"ĠðŁĺĬ":6833,"ĠÐ²ÑĭÐ±Ð¾ÑĢ":6834,"ĠÐŁÐłÐŀ":6835,"ĠÐºÐ¾ÑĤÐ¾ÑĢÐ¾Ð¼Ñĥ":6836,"ĠÐ²ÐµÑĢÐ½ÑĥÐ»ÑģÑı":6837,"ĠÐ½ÑĭÐ½Ðµ":6838,"ĠÐ¾ÑģÑĤÐ°Ð»ÑĮÐ½ÑĭÐµ":6839,"ĠÐĳÐ»Ð°Ð":6840,"Ð¾Ð±Ð¾ÑĢÐ¾ÑĤ":6841,"ÑħÐ°Ð»Ð¸":6842,"ĠÐ¿Ð¾Ð¶Ðµ":6843,"Ð´Ð°Ð¼Ð¸":6844,"ĠÐ½Ð¾ÑıÐ±ÑĢÑı":6845,"ĠÑĨÐµÐ½ÑĤÑĢÐµ":6846,"²Ð¾ÑĢÐ¾":6847,"ĠÑģÐºÐ¸":6848,"ĠÐ¼Ð°ÑĤÐµÑĢÐ¸Ð°Ð»":6849,"ĠÐ¸ÑģÑĤÐ¾ÑĢÐ¸Ñİ":6850,"ĠÐ½Ð¸ÐºÐ°ÐºÐ¾Ð³Ð¾":6851,"ĠÑĤÐ²Ð¾Ñı":6852,"ÑĤÐ°Ð»Ð¾":6853,"ÑĢÐ°ÑĤÐ½Ð¾":6854,"ÑĤÐ°ÑĢ":6855,"ĠÐ½Ð¸ÐºÐ¾Ð¼Ñĥ":6856,"ĠÐ¿Ð¾Ð´Ð°ÑĢÐ¾Ðº":6857,"Ð½a":6858,"Ð¶Ð¸Ð¼":6859,"Ð³Ð½ÐµÐ":6860,"ĠÐ²ÑĢÐµÐ¼ÐµÐ½ÐµÐ¼":6861,"ĠÑĥÐ¼Ð°":6862,"ĠÑĤÐ°Ð":6863,"ĠÑħÐ¸":6864,"²ÐµÑģÑĤÐ¸":6865,"ĠÑģÑĤÐ¾":6866,"ÑĤÑĳ":6867,"ÐŁÑĢÐ¸Ð":6868,"ðŁĺĺ":6869,"Ð·Ð°Ð¿Ð½Ð¾":6870,"ÑĮÐ±Ñĭ":6871,"ÑĤÐµÑĢÐµÑģÐ¾Ð²":6872,"ĠÑģÑĥÑħ":6873,"ÑĤÑıÐ³":6874,"ĠÐ¢Ð¸":6875,"ĠÐ²Ð¾Ð´Ð°":6876,"ĠÐ´ÑĥÐ¼Ð°Ð»Ð°":6877,"ĠÐ½Ð°ÑĨÐ¸Ð¾Ð½Ð°Ð»ÑĮÐ":6878,"?..":6879,"Ð½ÑĥÐ»Ð°ÑģÑĮ":6880,"ĠÐ½Ð°ÑĪÑĥ":6881,"ĠÑģÐ¸Ð´ÐµÐ»":6882,"ĠÐ´Ð¾ÑĢÐ¾Ð³Ð":6883,"ĠÐ´Ð¾ÑĢÐ¾Ð³Ð¸":6884,"ĠÐºÐ¾Ð½ÑĨÐ¾Ð²":6885,"ĠÑĢÐµÐ²Ð¾Ð»Ñİ":6886,"ĠÑıÐ½Ð²Ð°ÑĢÑı":6887,"ĠÐ²Ð²ÐµÑĢÑħ":6888,"Ð¾Ð½Ñĥ":6889,"Ġ27":6890,"ÑĤÐµÐ½Ñĭ":6891,"ĠÑĩÑ":6892,"ĠÑĥÐ¼ÐµÑĢ":6893,"ÑıÐ½Ð":6894,"ĠÐ²Ð¾Ð·Ð²ÑĢÐ°Ñī":6895,"ĠÐĺÑģÐ¿":6896,"ĠÐ¼Ð°Ð»Ñĭ":6897,"ĠÐ¾ÐºÐ½Ð°":6898,"ÑģÐ¿ÑĥÐ±Ð»Ð¸Ðº":6899,"³ÑĢÑĥÑģÑĤ":6900,"ĠÐŀÑģÐ¾Ð":6901,"²Ð¾Ð´Ð¸ÑĤ":6902,"ÑĩÐµÑģÐºÐ¸Ð¹":6903,"¾Ð²Ð°Ñ":6904,"ÑĭÑĤÑ":6905,"ĠÐºÐ°ÐºÐ¾Ð¼":6906,"Ð¾ÑģÐ°":6907,"Ð»Ð°ÑĤÐ°":6908,"ĠÐ²Ð°ÑĪÐµÐ³Ð¾":6909,"ĠÐ¿Ð¾Ð·Ð½Ð°ÐºÐ¾Ð¼":6910,"ĠÐ´Ð¾Ð»Ð»Ð°":6911,"Ð»ÑıÐ´ÑĭÐ":6912,"Ð³ÑĢÑĥÑģÑĤ":6913,"Ġ60":6914,"ĠÐ¿Ð¾Ð´ÑĢÑĥÐ":6915,"¾ÑģÑĤÐ¾Ñı":6916,"ĠÐ²Ð¾Ð¾ÑĢÑĥÐ":6917,"ĠÐ½ÐµÐ¿Ð¾Ð½":6918,"ÑģÑĤÑĢÑĥÐ¼":6919,"ĠÐľÐ°Ð»":6920,"ĠÐ¡Ð²ÐµÑĤ":6921,"ĠÐ¼Ð¾Ñī":6922,"ÑİÑīÐµÐµ":6923,"ĠÑģÐ°Ð¼Ð°Ñı":6924,"ĠÐŃÑĤÐ°":6925,"Ð³ÑĢÐ°Ð´":6926,"ĠÐ¼Ð¾Ð·Ð³":6927,"ĠÑĦÑĢÐ¾Ð½":6928,"ĠÐ²Ð¾Ð´Ð¾Ð¹":6929,"ĠÑĢÐ¾Ð´ÑģÑĤÐ²ÐµÐ½Ð":6930,"Ð·Ð°Ð²":6931,"ers":6932,"ĠÐ½ÐµÐ²ÐµÑĢÐ":6933,"ÑĤÐ²ÐµÑĢÐ":6934,"ĠÐºÐ»ÐµÑĤ":6935,"³Ð»ÑıÐ´Ñı":6936,"»Ð°Ð³Ð°":6937,"ÑĢÐ°Ð½Ð¸ÑĤ":6938,"ÐºÐ¾Ð¼Ñĥ":6939,"ĠÐ´Ð¾ÑĩÑĮ":6940,"Ð·ÑĢÐµÐ½Ð¸Ñı":6941,"ĠÐ´Ð½ÐµÐ¼":6942,"Ð³Ð»ÑıÐ´Ñı":6943,"ĠÐ¿ÑĢÐµÐ·Ð¸Ð´ÐµÐ½":6944,"·Ñĥ":6945,"ĠÑģÐ²ÐµÑĤÐµ":6946,"ðŁ¥":6947,"ĠÐ·ÑĢÐµÐ½Ð¸Ñı":6948,"Ð¸ÑĢÑĥ":6949,"Ð°Ð½Ð½":6950,"·ÑĤ":6951,"ĠÐŁÑĢÐµÐ´":6952,"ĠÐ¿Ð¾ÑģÐµÑĤ":6953,"Ð¥ÐĲÐ¥ÐĲ":6954,"ÑģÑĤÐµÐ½Ñĭ":6955,"ĠÐ´ÐµÐ²":6956,"ĠÐ½ÐµÑģÑĩÐ°ÑģÑĤ":6957,"ĠÑĥÑĢÐ¾Ð²ÐµÐ½ÑĮ":6958,"ĠU":6959,"ÑĤÐµÑĢÐµÑģÐ½Ð¾":6960,"ĠÑģÐ´ÐµÐ»Ð°Ð»Ð°":6961,"¾Ð»Ñı":6962,"38":6963,"ĠÑģÐ¾Ð¾ÑĤÐ²ÐµÑĤÑģ":6964,"ĠÐ¿Ð¾Ð½Ð¸Ð¼Ð°Ñ":6965,"ĠÐ³Ð½ÐµÐ":6966,"ÑĢÑĮÑİ":6967,"ĠÐĲÐ½Ð³":6968,"ĠÐ¿Ð¾Ð¸ÑģÐº":6969,"ĠÐºÐ¾ÑĢÐ°Ð±Ð»Ñ":6970,"Ð¸Ð½Ð°Ð»ÑĮÐ":6971,"Ġ90":6972,"ĠÑĦÐµÐ²ÑĢÐ°Ð»Ñı":6973,"ĠÐ³Ð»ÑıÐ´Ñı":6974,"Ð´Ð¸Ð»":6975,"ĠÐ¾ÑĢÐ³Ð°Ð½Ð¸Ð·Ð°ÑĨÐ¸Ð¸":6976,"ĠÐ¸Ð½Ð":6977,"ðŁĴĭ":6978,"ĠÐ²Ð¾Ð·Ð´ÑĥÑħ":6979,"ĠÐ¾ÑģÑĤÑĢÐ¾Ð²":6980,"ĠÐ¸Ð·Ð²Ð¸Ð½":6981,"ÐļÑĤÐ¾":6982,"ĠÐ²Ð·Ð°Ð¸Ð¼Ð":6983,"ĠÑģÐ¸ÑĤÑĥÐ°ÑĨÐ¸Ñı":6984,"ÑĪÐ¸Ð²Ð°":6985,"ÑĥÐ¼Ð°":6986,"ĠÑĥÑģÐ¼Ðµ":6987,"¸Ð»Ðµ":6988,"ÐºÐ°Ð´Ðµ":6989,"ml":6990,"ĠÑĤÑıÐ¶ÐµÐ»Ð¾":6991,"½ÑĢÐ°Ð":6992,"ĠÐ¿ÐµÑĢÐ²ÑĭÐµ":6993,"ĠÑģÑĤÐµÐ½Ñĭ":6994,"ÑĥÐ±":6995,"ÐºÐ¾Ð³":6996,"ĠÑĸ":6997,"ĠÐ³ÑĢÑĥÑģÑĤ":6998,"ĠÐ¨Ð°":6999,"Ð´Ð¸ÑĪÑĮ":7000,"ĠÑĥÐ³ÑĢÐ¾Ð":7001,"ĠÐºÐ¾Ð½ÑĤÑĢÐ¾Ð»":7002,"ÑģÐºÐ°Ð¶Ð¸ÑĤÐµ":7003,"ÑıÐ½Ð¸Ðµ":7004,"ĠÐ¼Ð¸Ð½ÑĥÑĤÑĥ":7005,"ĠâłĢ":7006,"Ð»Ð¸Ð·Ð°":7007,"ĠÑıÐ¹":7008,"ĠÐ±Ð¾ÑĢÑĮÐ":7009,"ÑĢÐµÐ¶Ð´":7010,"Ð²Ð°Ð»ÑĮÐ":7011,"ĠÐ³Ð¾Ð½":7012,"Ð¾ÑĢÑı":7013,"ÑģÑĥÐ±Ð":7014,"ĠÑģÐ»Ð¾Ð¶Ð½Ð¾":7015,"ĠÐ¿Ð°Ð¼ÑıÑĤÑĮ":7016,"ðŁĺĦ":7017,"ÐµÑģÑĤÐ²ÐµÐ½Ð½Ð¾":7018,"ĠÐ²ÑĭÐ¹":7019,"ĠÐ¿ÑĢÐ¸ÐµÑħ":7020,"ĠÐ¿Ð¾Ð·Ð¶Ðµ":7021,"ĠÑģÐ¾Ð±ÑĭÑĤÐ":7022,"Ð°Ð½Ð½ÑĥÑİ":7023,"ĠÐºÐ¾Ð»ÑĮ":7024,"ĠÐ±Ð»Ð¾Ðº":7025,"ĠÐ»Ð°Ð´Ð½Ð¾":7026,"ĠÑĤÑĢÐ°Ð²":7027,"ĠÑħÑĥÐ´Ð¾Ð¶Ð":7028,"ĠÐ´ÑĢÑĥÐ³Ñĥ":7029,"¶ÐºÐ°":7030,"ÑģÑĦÐµ":7031,"ĠÐ¼ÑĥÐ¶Ð¸Ðº":7032,"ĠÐ¿ÑĢÐ¸ÑıÑĤÐ½Ð¾":7033,"½ÑĥÐ¶Ð´":7034,"ĠÐ½ÐµÑģÐ¼Ð¾ÑĤÑĢÑı":7035,"Ð¿Ð¾Ð·Ð¸":7036,"Ð°Ð±":7037,"ĠÐ¶Ð¸Ð²Ð¾ÑĤÐ½ÑĭÑħ":7038,"ĠÑĥÐ´Ð¸Ð":7039,"ÑĢÐ°ÑĤÐ¸ÑĤ":7040,"Ð¼ÐµÐ½Ñĭ":7041,"ĠÑĤÑĢÐ¾Ð":7042,"ĠÑģÑĥÐ´Ñ":7043,"Ð½ÑĢÐ°Ð":7044,"ĠÐ´ÑĢÐ°Ðº":7045,"ĠÐ¿ÑĢÐ¸ÑĪÐ»Ð°":7046,"ĠÐ½Ð°Ð´ÐµÐ¶Ð´":7047,"Ð¼Ð½Ðµ":7048,"ĠÐ½Ð°Ð¾Ð±Ð¾ÑĢÐ¾ÑĤ":7049,"ĠÐºÐ¾Ð¼Ð°Ð½Ð´Ñĭ":7050,"ĠÐ¡ÐµÑĢÐ³ÐµÐ¹":7051,"ĠÐłÐ¾ÑģÑģÐ¸Ñı":7052,"ĠÑħÐ°ÑĢÐ°ÐºÑĤÐµ":7053,"ĠÐľÐ°ÑĢÐº":7054,"ĠÐ°Ð´Ð¼Ð¸Ð½Ð¸ÑģÑĤÑĢÐ°":7055,"ĠÐºÑĢÐ¾Ð²Ð°ÑĤ":7056,"»Ð¾Ð±":7057,"Ð°Ð¹Ñģ":7058,"ĠÑģÐ¾Ð¿ÑĢÐ¾Ð²":7059,"ĠÐ¾ÑĤÑĩÐ°":7060,"ĠÐ·Ð°Ð±Ð¾Ð»ÐµÐ²":7061,"ĠÑĤÐµÐ»ÐµÑĦÐ¾Ð½Ñĥ":7062,"ĠÐ±Ð»Ð¸Ð¶Ðµ":7063,"ĠÐ·Ð°Ð²Ð¸ÑģÐ¸ÑĤ":7064,"ĠÐ½Ð°Ð¿Ð¾Ð¼Ð¸Ð½Ð°":7065,"ÐµÑĤÐµÑĢÐ±ÑĥÑĢÐ³":7066,"ÑĤÐ°Ð¹ÑĤÐµ":7067,"ÑĭÐ´":7068,"Ð¸ÑģÑĤÐµ":7069,"ĠÐ½Ð°ÑģÐºÐ¾Ð»ÑĮÐºÐ¾":7070,"Ð¾Ð±ÑĢÐ°Ð·":7071,"ĠÑĢÑĭÐ½":7072,"ĠÐ¿ÑĢÐ¾ÑĨÐµ":7073,"ĠÐ½Ð°ÑĪÐ»Ð¸":7074,"ĤÐµÑģ":7075,"ĠÐ¸ÑģÐ¿ÑĭÑĤÑĭÐ":7076,"ĠÐ¼ÑĥÐ¶Ð°":7077,"ĠÑĤÐ²Ð¾ÐµÐ":7078,"ĠÐ¿Ð¾Ð¼Ð¾Ð¶ÐµÑĤ":7079,"Ð°Ð½Ð½Ð¾Ð¼":7080,"ĠÐ¼Ð¾ÑĢÑı":7081,"ĠÑĤÐ²Ð¾ÐµÐ¹":7082,"ĠÐ²ÐµÑģÑĤÐ¸":7083,"ĠÑģÐ´ÐµÑĢÐ":7084,"ĠÐ¸ÑģÐ¿Ñĭ":7085,"ĠÑĢÐµÐ³Ð¸":7086,"ĠÐ´ÐµÐ²ÑĥÑĪÐºÑĥ":7087,"²Ð½Ð¾Ð¹":7088,"ÑĢÐ°ÑİÑģÑĮ":7089,"ÑĢÐ¸ÑıÑĤÐ¸Ñı":7090,"cl":7091,"ĠÑĢÐ°ÑģÐ¿ÑĢÐ¾ÑģÑĤÑĢÐ°Ð½":7092,"ĠÑĢÑĭ":7093,"ph":7094,"ĤÐ¸Ð²Ð":7095,"ĠÐºÐ¾ÑģÑĤÑİ":7096,"ĠÐ½ÐµÐ¸Ð·Ð²ÐµÑģÑĤ":7097,"ĠÐ¿Ð°Ð¼ÑıÑĤÐ¸":7098,"ĠÐ¸Ð½Ð´Ð¸Ð²Ð¸":7099,"Ð¼Ð°ÑĤÑĢÐ¸Ð":7100,"²Ð¾Ð»Ð½":7101,"ºÐ°ÑĤ":7102,"ĠÑĢÐ°ÑģÑĪÐ¸":7103,"ÐºÐµÑĤ":7104,"ĠÐ´ÑĭÐ¼":7105,"ĠÐŃÑĤÐ":7106,"ĠðŁį":7107,"Ð²Ð¾Ð»Ð½":7108,"Ð¼ÑĥÑĤ":7109,"Ð°Ð°Ð°Ð°":7110,"ĠÐ³Ð¾ÑģÑĥÐ´Ð°ÑĢÑģÑĤÐ²ÐµÐ½Ð":7111,"¸Ð´Ð":7112,"ĠÑĢÐµÐ·ÑĥÐ»ÑĮÑĤÐ°ÑĤ":7113,"ĠÑģÐ»ÑĭÑĪÐ°Ð»":7114,"ĠÑģÑĤÑĢÐ°Ñģ":7115,"ĠÑĥÑģÐ»Ð¾Ð²Ð¸ÑıÑħ":7116,"ÑĩÐ°Ð»Ð¾":7117,"Ð¸ÑĩÐ°":7118,"ĠÐŁÑĥÑĤ":7119,"ĠÐ½Ð°Ð¿Ð¾Ð»Ð½":7120,"Ð±Ð»ÐµÐ½":7121,"ĠÑĤÐ¾ÑĩÐºÐ¸":7122,"ĠÐ±ÑĭÑģÑĤÑĢÐµÐµ":7123,"»Ð¾Ð³Ð":7124,"Ġ194":7125,"ĠÐ¸Ð¼Ð¸":7126,"ÑĢÐ°Ð³":7127,"ĠÑģÐ²ÐµÑĤÐ°":7128,"Ð¸ÑĢÑĥÐµÑ":7129,"Ð¸ÑĢÑĥÐµÑĤ":7130,"ĠÐ°Ð»ÑĮÐ±Ð¾Ð¼":7131,"ĠÐ±Ð°Ñ":7132,"ĠÑĢÐ¸ÑģÐº":7133,"âĢįâĻĤ":7134,"Ð·Ð°Ð½Ñĭ":7135,"ÐľÐ":7136,"ÑģÑĤÐ°Ð»":7137,"ĠÐ»Ð¾Ð´":7138,"ĠÐ¿Ð¾ÑĢÐ°":7139,"ÐµÐ½Ð½Ð¾Ðµ":7140,"ĠÑģÐ¼ÐµÑĢÑĤÑĮ":7141,"ÑĥÐ¶Ð½Ð¾":7142,"Ð½Ñİ":7143,"ĠÐ¿Ð¾Ð½ÑıÑĤ":7144,"ĠÑģÐµÑĢÐ´ÑĨÐ°":7145,"ĠÐºÑĢÑĥÑ":7146,"36":7147,"ĠÐ¾ÑĤÐ»Ð¸ÑĩÐ½Ð¾":7148,"Ġ300":7149,"ÑĩÐ¸ÑĤÐµÐ»ÑĮÐ½Ð¾":7150,"ÑĥÐ´Ñ":7151,"ĠÑĩÑĥÐ¶Ð":7152,"ĠÐ¿ÑĢÐ¸ÑħÐ¾Ð´":7153,"ÑīÐ¸Ð¹":7154,"ĠÑĦÑĢÐ°Ð½ÑĨÑĥÐ·":7155,"ĠÐ¿Ð¾Ð·Ð´Ð½Ð¾":7156,"ÑģÐ¸Ðº":7157,"ÐĶÐ»":7158,"ĠÐ²ÐµÐ·Ð´Ðµ":7159,"ĠÐ·ÐµÑĢÐºÐ°":7160,"ĠÐ¿Ð¾Ð½ÑĢÐ°Ð²":7161,"ÑĭÑĤÑĮ":7162,"ĠÐ²Ð¾Ð»Ð½":7163,"ĠÐ¡ÑĤ":7164,"ÐĶÐ»Ñ":7165,"Ð´ÐµÑĪÑĮ":7166,"ÐĶÐ»Ñı":7167,"ĠÐ½ÐµÐ²Ð":7168,"ÑĢÐ¸Ð¼ÐµÑĢ":7169,"ĠÐºÑĢÐ°Ð¹Ð½ÐµÐ¹":7170,"ĠÐĿÐ°Ð¼":7171,"ĠÐŃÑĤÐ¸":7172,"ĠÐ¾ÑģÐ¾Ð±Ð¾":7173,"ĠÑģÐ»Ð¾Ð²Ð°Ð¼Ð¸":7174,"one":7175,"ĠÐŀÑĤÐº":7176,"ĠÐ³Ð¾ÑģÑĥÐ´Ð°ÑĢÑģÑĤÐ²Ð°":7177,"Ð¾Ð»Ð¾Ð³":7178,"Ð´Ð°ÑĩÐ¸":7179,"ĠÐ¿ÑĢÑĭÐ":7180,"ĠÐ³Ð¾ÑĤÐ¾Ð²Ñ":7181,"ĠÐ£ÐºÑĢÐ°Ð¸Ð½Ñĭ":7182,"ĠÐ¿Ð¾ÑĤÑĢÐµÐ±Ð":7183,"»ÐµÐ³":7184,"ĠÐ³ÑĢÑıÐ·":7185,"ĠÐ¾ÑģÐºÐ¾ÑĢÐ":7186,"²Ð»ÐµÐºÐ°":7187,"ĠÑģÑĤÑĭÐ":7188,"ĠÐ½Ð°Ð·Ð²Ð°Ð½Ð¸Ðµ":7189,"½ÐµÑģÑĤÐ¸":7190,"ĠÐ½Ð¾Ð²ÑĥÑİ":7191,"ıÑİÑĤÑģÑı":7192,"ĠÐ·Ð°ÑħÐ²Ð°ÑĤ":7193,"²Ð¸Ñģ":7194,"¶Ð½Ð°Ñı":7195,"ĠÐ°ÑĢ":7196,"34":7197,"ĠÐ´Ð¾ÑģÑĤÐ¾Ð¹":7198,"ÑĥÐ½ÐºÑĤ":7199,"Ð¾ÑģÐµ":7200,"¿ÐµÐ½Ð½Ð¾":7201,"Ð½Ð¸ÐºÑĥ":7202,"ĸÑ":7203,"ĠÐ¼Ð¸Ð³":7204,"ĠÐ²ÑĭÑĤÐ°":7205,"Ð°ÐºÐ¾Ð½ÐµÑĨ":7206,"¸Ð»Ð":7207,"ĠÑģÑĥÐ±Ð":7208,"Ð²ÑĥÑİÑĤ":7209,"Ð¿Ð¾Ð»Ñı":7210,"ÑĢÑĥÐµÑ":7211,"Ð¾Ð´Ð½Ð¾Ð¹":7212,"ÑĢÑĥÐµÑĤ":7213,"ĠÐºÐ¾ÑĢ":7214,"ÑĩÐ¸Ð»Ð°ÑģÑĮ":7215,"Ð»Ð°Ð½ÑĤ":7216,"¾Ð²Ð°ÑĤ":7217,"ĠÑĢÐ°Ð·Ð´ÑĢÐ°Ð":7218,"ĠÐ¿ÐµÑĢÐ²ÑĭÑħ":7219,"ĠÑģÑĥÑīÐµÑģÑĤÐ²ÑĥÐµÑĤ":7220,"ÑĦÐ¸ÑĨÐ¸":7221,"ÑģÑĤÐ²ÐµÐ½Ð½ÑĭÐµ":7222,"ÑĥÑģÐ¾Ð²":7223,"½ÑıÐºÐ°":7224,"ĠÐ²ÑĭÑĪÐ»Ð°":7225,"ÑĩÐµÑģÐºÐ¸Ðµ":7226,"Ġk":7227,"ĠÐ´ÑĢÑĥÐ³Ð¸Ð¼Ð¸":7228,"¶Ð°ÐµÐ¼":7229,"ĠÐ´Ð¾ÑĢÐ¾Ð³Ð°":7230,"ĠÐ½ÐµÐ¾Ð±Ñĭ":7231,"ÑĤÐ°ÑıÑģÑĮ":7232,"¸Ð»Ð¾ÑģÐ¾ÑĦ":7233,"ÑģÐ°Ð":7234,"ÑħÐ¾Ð´Ð¸ÑĤÐµ":7235,"ĠÑģÐ¾ÐµÐ´Ð¸Ð½":7236,"ĠÐºÐ»Ð°ÑģÑģ":7237,"ÑģÑĤÐ²ÐµÐ½Ð½Ð¾Ðµ":7238,"ĠÑģÐµÐ¼ÑĮÐµ":7239,"ĠÐ½Ð°ÑĩÐ¸Ð½Ð°ÐµÑĤ":7240,"ĠÐ³Ð°ÑĢÐ°Ð½ÑĤ":7241,"ĠÐ²ÑģÑĤÑĢÐµÑĩÐ¸":7242,"ĠÐ¸Ð³ÑĢÐ¾Ðº":7243,"Ð¾Ð·Ð´ÑĢÐ°Ð":7244,"Ð¾Ð¶Ð¸Ð»":7245,"·Ð½Ð°Ñ":7246,"ĠÐ¿ÑĢÐ¸Ð²ÑĭÐº":7247,"ĠÑħÐ²Ð°ÑĤÐ":7248,"ĠÑħÐ²Ð°ÑĤÐ¸":7249,"ÑģÑĤÐ²ÐµÐ½Ð½ÑĭÐ¼":7250,"ÑĥÐ¼Ñı":7251,"ĠÑģÐ¸Ð³":7252,"ĠÑĩÐ¸Ð½":7253,"ĠÑĥÐ³Ð¾Ð´Ð½Ð¾":7254,"ĠÑģÐµÐ¼ÑĮÑı":7255,"Ð´Ð°Ñı":7256,"Ð»Ð¸Ð»":7257,"ĠÑħÐ²Ð°ÑĤÐ¸Ñ":7258,"ĠÑĥÐ»ÑĥÑĩ":7259,"ĠÑħÐ²Ð°ÑĤÐ¸ÑĤ":7260,"ĠÐ¾ÑģÑĤÐ°Ð»ÑģÑı":7261,"ĠÑĤÐµÐº":7262,"ĠÐ´ÐµÑıÑĤÐµÐ»ÑĮÐ½Ð¾ÑģÑĤÐ¸":7263,"ĠÐ¼ÐµÑĤÐ¾Ð´":7264,"ĠÐ´Ð²Ð°Ð´ÑĨÐ°ÑĤÑĮ":7265,"ĠÑĤÑĢÑı":7266,"ĠÐºÐ°ÑĢÑĤÐ¸Ð½":7267,"ıÑģÑı":7268,"ÑĢÐ°ÑıÑģ":7269,"ĠÑĩÐµÑģÑĤÐ½Ð¾":7270,"ĠÑģÐ¼ÑĭÑģÐ»Ðµ":7271,"Ð¾Ð²Ð¸Ñ":7272,"ĠÐ¾ÑģÐ²Ðµ":7273,"ÑĤÐµÐ³Ð¾":7274,"ÑĢÐ°ÑıÑģÑ":7275,"ĠÐ¾ÑĤÑĢÐµ":7276,"ÑĩÐ°Ð»ÑĮÐ½Ð¾":7277,"ĠÐłÐµÐ":7278,"ÑĢÐ°ÑıÑģÑĮ":7279,"ĠÐ¾ÑĤÐ¿ÑĥÑģ":7280,"ÑĪÐ°ÑİÑĤ":7281,"ĠÑĤÐ°ÐºÐ¸Ð¼Ð¸":7282,"ĠÑģÑĩÐ°ÑģÑĤÑĮÑı":7283,"ĠÑĤÑĭÑģÑıÑĩÐ¸":7284,"Ð»Ð¾Ð³Ð":7285,"ĠÐ¾Ð»":7286,"ĠÑĥÑĢÐ¾Ðº":7287,"¾ÑĢÑĥÐ´":7288,"¶Ð°Ð½":7289,"ĠÐ½Ð°ÑĢÐ¾Ð´Ð°":7290,"ĠÐ½Ð¾Ð²Ð¾Ðµ":7291,"ÑĤÐµÐ³":7292,"ÑĢÐµÐ¼ÐµÐ½Ð":7293,"ĠÑħÐ»Ð¾Ð¿":7294,"ĠÑĥÑģÑĤÑĢÐ°Ð":7295,"Ð¼Ð¸Ð¸":7296,"ĠÐ³Ð¾Ð²Ð¾ÑĢÐ¸Ð»Ð°":7297,"Ģï¸ı":7298,"ĠÑĥÑģÐ¿Ð¾Ðº":7299,"ĠÑħÐ¾Ð´Ð¸ÑĤÑĮ":7300,"ĠÐ¿Ð¾ÐºÐ¾Ð»":7301,"ĠÐ»Ð¾Ð¼":7302,"ĠÐ½Ð°Ð¿Ð¸ÑģÐ°":7303,"³Ñ":7304,"ĠÑĢÐµÐ±ÑĳÐ½":7305,"ĠÑģÐ¸Ð»ÑĮÐ½ÐµÐµ":7306,"ĠÑįÐºÑģ":7307,"ĠÐ½Ð°ÑĩÐ°ÑĤÑĮ":7308,"ĠÐ¿Ð¸ÑģÐ°Ð»":7309,"ĠÐ´ÑĢÑĥÐ³ÑĥÑİ":7310,"²Ð¾Ð»ÑĮÐ":7311,"ĠÐ½Ð°Ð¿Ð¸ÑģÐ°Ñ":7312,"ĠÑĤÐµÐ¼Ð¿ÐµÑĢÐ°ÑĤÑĥ":7313,"ĠÐ¶ÐµÑĢÑĤ":7314,"ĠÐ½ÐµÑĩÐµÐ³Ð¾":7315,"ĠÐ½Ð°Ð¿Ð¸ÑģÐ°ÑĤ":7316,"...Â»":7317,"ÑĢÐ°Ð·Ð¸Ñ":7318,"ĠÐ¾ÑĢÐ¸Ð³":7319,"ÑĨÐ¾Ð¼":7320,"Ð°ÐºÐ¾Ð²":7321,"Ð¡Ð¿Ð°ÑģÐ¸Ð±Ð¾":7322,"ÑĮÐº":7323,"ĠÐ¿ÐµÑĢÐµÑģÑĤÐ°":7324,"³ÑĢÑĥÐ·":7325,"Ð±ÐµÑ":7326,"Ð¸Ð·Ð¼":7327,"ÑħÐ¾Ð´Ð¸Ð»Ð°":7328,"ĠÑģÑĤÑĢÐ°ÑĪÐ½Ð¾":7329,"ĠÐ²Ð¸Ð´ÐµÐ»Ð¸":7330,"ĠÐ²Ð»Ð°ÑģÑĤÑ":7331,"ĠÐ¿Ð¸ÑĤ":7332,"ĠÐ²Ð»Ð°ÑģÑĤÑĮ":7333,"Ð±Ð¸Ð»":7334,"ĠÑĥÐ²Ð¸Ð´ÐµÐ»Ð°":7335,"ĠÑĢÐ°Ð·Ð¾Ð±":7336,"Ð¿Ð°ÑĢÐ°ÑĤ":7337,"ĠÐ¿Ð¾Ð´Ð½ÑıÐ»":7338,"ĠÐ·Ð°Ñģ":7339,"ĠÐ½ÑĢÐ°Ð":7340,"ÑĦÑĤ":7341,"ĠÐ½Ð°Ð¿Ð¸ÑģÐ°ÑĤÑ":7342,"ĠÐ¼Ð¾Ð³Ð»Ð¾":7343,"ĠÐ½Ð°Ð¿Ð¸ÑģÐ°ÑĤÑĮ":7344,"ĠÐºÐ¾Ð½ÐµÑĨ":7345,"ĠÑĪÐµÑģÑĤÑĮ":7346,"ĠÐĶÐ¾Ð½":7347,"ĠÐ¶Ð¸Ð»Ð¸":7348,"ÑĢÐ¸Ð½Ñ":7349,"ĠÐ¼ÐµÐ¶Ð´ÑĥÐ½Ð°ÑĢÐ¾Ð´":7350,"ĠÑĢÐ°Ð·Ð¾":7351,"ÑĤÐ¾ÑĢÐ¾Ð²":7352,"Ð¿ÑıÑĤÐ":7353,"ĠÐ¿Ð¾Ð´ÑĢÑĥÐ³":7354,"Ð¸ÑĩÐµÑģÐºÐ":7355,"Ð¸ÑĩÐµÑģÐºÐ¸":7356,"ĠÑĥÐºÑĢÐ°Ð¸Ð½":7357,"¶Ð°Ñı":7358,"ðŁĺĤðŁĺĤ":7359,"ĠÐ¿Ð¾Ð³Ð¸Ð±":7360,"ĠÐºÐ¾Ð¼Ð¸Ñģ":7361,"²Ð¾Ð´Ð¸ÑĤÑĮ":7362,"ÑģÑĭÐ¿":7363,"Ð´Ð°Ð»ÑģÑı":7364,"Ð¾Ð²ÐµÑĤ":7365,"Ð»ÐµÑĤÐ²Ð¾":7366,"ĠÐ¾ÑĤÐºÐ°Ð·Ð°":7367,"»ÑĮÑı":7368,"ĠÐ¿ÑĢÐ¾Ð·":7369,"ÑĭÑĪÐ»ÐµÐ½":7370,"ĠÐ½Ð°ÑĤÑĥ":7371,"ĠÑĨÐµÐ»Ð¾Ð¼":7372,"Ð¸ÐºÐ¾Ð¼":7373,"aÑĤ":7374,"Ð¼Ðº":7375,"our":7376,"97":7377,"¶Ð°Ð²":7378,"³Ð¾ÑĢÐ¾Ð´":7379,"ĠÐ¾Ð´ÐµÐ":7380,"ÑĤÐ°ÑĨÐ¸Ð¸":7381,"ĠÐŁÐµÑĢÐµ":7382,"ÑİÑīÐ¸Ð¼Ð¸":7383,"ĠÐºÐ¾Ð¶Ð¸":7384,"ĠÑģÐ¿Ð¸Ð½Ð¾Ð¹":7385,"Ð¾Ð³Ð¸Ðµ":7386,"ĠÐ¸Ð½ÑģÑĤÑĢÑĥÐ¼":7387,"ĠÑģÐ¾Ð»Ð½ÑĨÐµ":7388,"oÐ²":7389,"ÑĩÐ°Ñİ":7390,"ĠÐ¿Ð¸ÑĪÐµÑĤ":7391,"ĠÐ¾ÑģÐ½Ð¾Ð²Ð½Ð¾Ð¼":7392,"ĠÐ°Ñį":7393,"ĠÐĳÐ¾Ð³Ð°":7394,"ĠÐ½Ð°ÑĪÐµÐ»":7395,"¾Ð½Ñĭ":7396,"html":7397,"ĠÐ¾ÑģÑĤÐ°Ð²":7398,"ĠÑģÐ¸ÑģÑĤÐµÐ¼Ð°":7399,"ĠÑģÐ°Ð¼Ð¾ÑģÑĤÐ¾Ñı":7400,"eÑĤ":7401,"ĠÐºÐ¾Ð¼Ð½Ð°ÑĤÑĭ":7402,"ĠÑĢÐ°Ð²Ð½":7403,"ÑĤÐµÑģ":7404,"ÑĢÐ°Ð±Ð¾ÑĤÐ°ÑĤÑĮ":7405,"ĠÑĥÐ¿Ð¾Ð¼":7406,"ĠÑĩÐ»ÐµÐ½":7407,"ĠÐ»Ð¸ÑĨÐ¾Ð¼":7408,"ÑĩÐºÐ¾Ð²":7409,"ĠÑģÐºÐ°Ð¶Ðµ":7410,"ĠÑĪÐ°Ð½Ñģ":7411,"ĠÐ±Ð»Ðµ":7412,"ÑĩÐµÑģÑ":7413,"ıÐµÐ¼":7414,"ĠÐ±ÐµÑģÐ¿Ð»Ð°ÑĤÐ½Ð¾":7415,"ÐºÐ¾ÑĤÐ¾ÑĢÑĭÐµ":7416,"ĠÐ¿Ð¾Ð´Ð¾Ð¹":7417,"ĠÑģÐ¾Ð¼Ð½ÐµÐ":7418,"==":7419,"ĠÐ¿Ð¾Ð´Ð½Ð¸Ð¼":7420,"ĠÐºÐ²Ð°ÑĢÑĤÐ¸ÑĢÐµ":7421,"ĠÑģÐ°Ð½":7422,"ĠÑĢÐ°Ð¹Ð¾Ð½":7423,"ÐµÐ»Ð¾ÑģÑĮ":7424,"ĠÐ¾Ð¿ÑĢÐ°Ð²":7425,"Ð¡Ð¯":7426,"½Ð¾Ð¶Ð":7427,"ĠÐľÐ¾":7428,"ÐŁÑĢÐ¾":7429,"ĠÐ²Ð¾Ð·Ð½Ð¸ÐºÐ°":7430,"ÑģÑĩÐµ":7431,"ĠÐ¿Ð¾ÐºÐ¸Ð½":7432,"ĠÐ²Ð¾ÑģÐºÑĢÐµ":7433,"»ÑİÑģÑ":7434,"ÑīÐ¸ÑĤÑ":7435,"ĠÐ½Ð°Ð¸Ð±Ð¾Ð»ÐµÐµ":7436,"ĠÑģÑĦÐµ":7437,"ĠÑıÐº":7438,"ÐµÐ½Ð½Ð°Ñı":7439,"Ð¾ÐºÐ¾":7440,"Ð·Ð°Ð½Ð¸Ñ":7441,"ĠÐ¿ÑĢÐ¸ÑĪÐ»Ð¸":7442,"ÑģÑİÐ´Ð°":7443,"¾Ñĳ":7444,"ine":7445,"66":7446,"ĠÐ¼Ð¾Ð¸Ð¼":7447,"ĠÐ¾Ð±ÑĬÐµÐ´Ð¸Ð½":7448,"ĠÑĢÐ¾Ð´Ð°":7449,"Ð¶Ð°Ð»Ð¸":7450,"ĠÑĥÑĩÐµÐ±Ð":7451,"²Ð°Ð¹ÑĤÐµ":7452,"ÑĥÐ»ÑģÑı":7453,"¾Ð²Ð°ÑĤÑ":7454,"ÐĴÐµ":7455,"Ð¸ÑĤÐµÑĤÐ°":7456,"ĠÐ´Ð²ÑĥÐ¼Ñı":7457,"Ð·Ð°Ð½Ð¸Ñı":7458,"ÐĴÐĺ":7459,"Ìģ":7460,"¾Ð²Ð°ÑĤÑĮ":7461,"ĠÐŃÐ½":7462,"Ð²Ð¾Ð»Ð":7463,"ĠÐ¼Ð°ÑĢÑĪ":7464,"ĠÐ±Ð¾Ð»ÑĮÑĪÐ¸Ðµ":7465,"Ð±ÑĢÐ°ÑĤÑĮ":7466,"Ð³Ð¾ÑĤ":7467,"ÑĤÐ²Ð¸Ñı":7468,"ÐµÐ±":7469,"ĠÑĩÑĳÐ¼":7470,"Ò£":7471,"ĠÐ¼ÐµÐ´":7472,"ĠÐ»Ð¾Ð³Ð":7473,"55":7474,"ÑĢÐºÑĥ":7475,"ĠÑĦÐ¸Ð½Ð°Ð½ÑģÐ¾Ð²":7476,"ĮÐµÐ":7477,"ÑģÐµÐ´Ð°":7478,"·Ð¸Ð½":7479,"ĠÐ²ÑĭÐ¼":7480,"ĠÐ´Ð¾Ð¿Ð¾Ð»Ð½Ð¸ÑĤÐµÐ»ÑĮÐ":7481,"ÑĢÐ¸ÑģÑĤÐ¸Ð°Ð½":7482,"ĠÑĥÑĢÐ¾Ð²Ð½":7483,"ĠÐ¿ÑĭÑĤÐ°Ð»ÑģÑı":7484,"ĠÐĶÐ¶Ð¾Ð½":7485,"Ġand":7486,"ĠÑĢÐ°Ð½ÐµÐµ":7487,"Ð¾ÑģÐºÐ¾Ð²":7488,"ÑĪÐµÐ²":7489,"ĠÑĢÐµÐ±ÑıÑĤÐ°":7490,"ĠÑĥÑĤÐ¾":7491,"Ð¾ÑĤÑĢÐµÐ±Ð":7492,"ĠÐ¿Ð¾Ð»Ñı":7493,"ĠÐ·Ð°Ñħ":7494,"Ð»Ð¸ÑģÑĤ":7495,"ÑĢÐµÑģÑĤÐ":7496,"ĠÑĢÐ°ÑģÑģÐºÐ°Ð·Ð°Ð»":7497,"ĠÐ¿ÑĢÐ¸ÑĩÐ¸Ð½Ð°":7498,"²Ð¸Ñĩ":7499,"ĠÑĤÐµÑĢÐ¼":7500,"ĠÐ¿Ð¾Ð´Ð´ÐµÑĢÐ":7501,"ıÐ´":7502,"ĠÐ½ÐµÐ±Ð":7503,"ĠÐ½a":7504,"ĠÐ½Ð¾Ð²Ð°":7505,"ÑģÐ¿Ð¾Ñģ":7506,"±Ð¾Ð":7507,"ĠÑĩÐ»Ðµ":7508,"ĠÑĦÐ¸Ð»Ð¾ÑģÐ¾ÑĦ":7509,"ÐºÐ°Ð»Ð°":7510,"ĠÑıÐ²Ð»ÑıÑİÑĤÑģÑı":7511,"ÑģÐ±Ðµ":7512,"ÑĢÐ¾Ð¸":7513,"ĠÐ·Ð½Ð°Ð»Ð¸":7514,"200":7515,"ĠÐ¼Ð¸Ð½Ð¸Ð¼ÑĥÐ¼":7516,"Ð»ÐµÐ½Ð½Ð¾":7517,"Ð»Ð¾Ð±":7518,"ĠÐ·Ð°ÑĤÐ¾":7519,"ĠÑģÑĤÑĢÐµÐ¼Ð¸":7520,"ĠÐ´Ð¾ÑĩÐµ":7521,"ÑĤÐ°Ð»ÑĮ":7522,"ÑĥÑĢÐ°":7523,"ĠÑĪÐ¾":7524,"³ÑĥÑģÑĤ":7525,"ÐµÐµÑĤÑģÑı":7526,"ĠÐ²Ð¾Ð¸Ð½":7527,"ĠÐļÐ°Ð¶Ð´ÑĭÐ¹":7528,"ĠÑģÑĤÑĢÐ°ÑģÑ":7529,"ĠÐ±ÑĥÑĤÑĭÐ»":7530,"Ð»Ð¸Ð½Ð°":7531,"ĠÑģÑĤÑĢÐ°ÑģÑĤ":7532,"Ð¿Ð»Ð°Ð":7533,"âĢįâĻĤï¸ı":7534,"________________":7535,"ĠÐºÐ°Ð½Ð°":7536,"ĠÐ°Ð²ÑĤÐ¾ÑĢ":7537,"ĠÐ²Ð°ÑĪÐ¸Ñħ":7538,"ĠÑĪÐ¿":7539,"ĠÐ·Ð°ÑĢÐ¿":7540,"ĠÐ¾ÑĤÐ·ÑĭÐ":7541,"ĠÑģÐ¾Ð±ÑĭÑĤÐ¸":7542,"ĠÐ´Ð²Ð¾Ðµ":7543,"ĠÐ°Ð²Ð°":7544,"ĠÐ½Ð°ÑĩÐ°Ð»Ð¾":7545,"ĠÑģÑĤÐµÐ½Ðµ":7546,"ÑĩÐ¸Ñı":7547,"ĠÐ¿Ð¾ÑħÐ¾Ð´":7548,"ĮÑĦ":7549,"ĠÑĥÐ¿ÑĢÐ°Ð²Ð»ÐµÐ½Ð¸Ñı":7550,"ĠÐ¿ÑĢÐ¾ÑĦÐµÑģÑģÐ¸Ð¾Ð½Ð°Ð»ÑĮÐ":7551,"¶Ð½ÐµÐ¼Ñĥ":7552,"²ÐµÑĢÐ½Ð¾Ðµ":7553,"ĠÑģÐ½Ð¸Ð¼":7554,"ĠÐĲÐº":7555,"ĠÐ³Ð¾ÑĤÐ¾Ð²Ñĭ":7556,"ĠÐ¿ÐµÑĢÐ²Ð¾Ð¼":7557,"ÐļÐ£":7558,"Ġ80":7559,"ĠÐ±ÑĢÐ°ÑĤÑĮ":7560,"ÑĩÐµÑģÑĤ":7561,"ĠÐľÐŀ":7562,"ÑħÐ°Ñħ":7563,"¸Ð»Ñı":7564,"ĠÐ²Ð¾ÑģÐ¿Ð¾Ð¼":7565,"ĠÐ¢ÐµÐ±Ðµ":7566,"ĠÐ¿Ð¾Ð´ÑĩÐ¸Ð½":7567,"Ð´ÐºÐ°":7568,"ĠÑĢÐµÐ¶Ð¸Ð¼":7569,"¶Ð½ÑĭÑħ":7570,"ĠÐ¿ÑıÑĤÐ":7571,"ĠÐ¿ÑĢÐ¾ÑĤÐ¸Ð²Ð¾Ð¿":7572,"²Ð°Ðµ":7573,"ÐĹÐĲ":7574,"ÑħÐ½ÑĥÑĤÑĮ":7575,"ĠÐ»ÐµÑ":7576,"ÑĪÐµÐ³":7577,"ĠÑĤÑĥÐ¼":7578,"ĠÐ¿ÑĢÐ¾ÑĪÐ":7579,"ĠÐ´Ð¾Ð¶Ð´":7580,"ĠÐºÐ°ÑĤÐ°":7581,"Ð²ÑĮÑĤÐµ":7582,"Ð´Ð°Ñħ":7583,"ĠÐ¿Ð¾Ð²ÐµÐ·":7584,"ĠÐ¿Ð¾Ð¿ÑĢÐ¾Ð±Ð":7585,"ĠÐ¿Ð¾Ð»ÑĥÑĩÐ¸Ð»Ð¾ÑģÑĮ":7586,"ĠÐĽÑİÐ´Ð¸":7587,"ĠÑĦÐ¾ÑĢÐ¼Ðµ":7588,"ĠÐĴÐĲ":7589,"Ð±Ð¸Ð½":7590,"ĠÐ²Ð°ÑĪÐ°":7591,"ĠÐ½ÐµÐ¿Ð»Ð¾":7592,"Ð´Ð°Ð»Ðµ":7593,"ĠÐłÐ°Ð·Ð²Ðµ":7594,"ĠÐ·Ð°ÑģÐµ":7595,"iz":7596,"ĠÐ¿ÑĢÐ¾ÑĩÐ¸":7597,"ĠÐ¸ÑģÑĤÐ¾ÑĩÐ":7598,"Ð¸ÑıÐ¼Ð¸":7599,"Ð½Ð¾Ð¶Ð":7600,"ĠÐ¾ÑĤÐ²ÐµÑĤÐ":7601,"ĠÐ¼ÑĢÐ°":7602,"ÐµÑģÑĤÐ²Ð°":7603,"oÑ":7604,"ĠÐ¿ÑĢÐ¾ÑģÑĤÐ":7605,"ÑģÐ²ÐµÑĤ":7606,"ĠÐ½ÐµÐ¾Ð¶Ð¸Ð´Ð°Ð½Ð½Ð¾":7607,"ÑĢÐ°Ð½Ñĭ":7608,"ĠÑħÐ¾ÑĤÐµÐ»Ð¸":7609,"ĠÐ¿Ð¾ÑıÐ²Ð¸Ð»ÑģÑı":7610,"ĠÐ»Ð°Ð³Ðµ":7611,"ÑĩÐµÐ½Ð½ÑĭÐµ":7612,"ĠÑħÑĥÐ¹":7613,"ÑĢÑģÐºÐ°Ñı":7614,"ÑĢÐ¾Ð¿ÐµÐ¹":7615,"ĠÑģÐ²ÐµÑĤÐ»":7616,"¾ÑĢÐ³":7617,"ĠÑģÑĩÐ°ÑģÑĤÑĮÐµ":7618,"Ð¿p":7619,"ĠÐ¼ÐµÑĢÑĤ":7620,"Ð»ÐµÐ½Ð¾":7621,"ist":7622,"ĠÐ·Ð°Ð¶Ð":7623,"ĠÐ´ÐµÐ»Ð°Ð»":7624,"ĠÐ½ÐµÐ±Ð¾Ð»ÑĮÑĪÐ¾Ð¹":7625,"ÑĢÑģÐºÐ¸Ñħ":7626,"ĠÐ¾ÐºÐ°Ð·Ð°Ð»Ð°ÑģÑĮ":7627,"ĠÑħÐ»ÐµÐ":7628,"Ð²ÑĥÑĪÐºÐ°":7629,"ĠÐ¸Ð·Ð±Ðµ":7630,"ĠÐ¿Ð¾Ð»ÑĥÐ":7631,"ÑĩÐµÑģÐºÐ":7632,"Ð¾Ð½Ð½":7633,"ÑĩÐµÑģÐºÐ¸":7634,"if":7635,"½Ð¾ÑģÑĤÑĢÐ°Ð½":7636,"ĠÐ³Ð¾ÑĤ":7637,"ĠÐ§ÐµÐ»Ð¾Ð²Ðµ":7638,"ĠÑģÐºÐ°Ð¶Ñĥ":7639,"Ð´Ð½ÑĭÐ¹":7640,"Ð»Ð°ÑĤÑĥ":7641,"ĠÑĥÑģÑĤÑĢÐ¾Ð¹":7642,"ĠÐ¿Ð»ÐµÑĩÐ°Ð¼Ð¸":7643,"ÑĤÐ¸Ð²Ð":7644,"ĠÐ¿Ð¾Ð»Ð¾Ð¶ÐµÐ½Ð¸Ðµ":7645,"ĠÐ¼Ð¾ÑĢÐ¾Ð":7646,"ĠÐ¿Ð¾ÑģÑĤÑĢÐ°Ð´":7647,"Ð²Ð°Ð»ÑĮÐ½Ð¾":7648,"Ð¶ÑĥÑĤ":7649,"ĠÐ·ÐµÐ¼Ð»":7650,"ĠÐŀÐº":7651,"ĠÐ±ÐµÐ·ÑĥÐ¼":7652,"ĠÐ²Ð»Ñİ":7653,"Ð¿ÑĥÐ±Ð»Ð¸":7654,"Ð¾Ð²Ð¾Ð³Ð¾":7655,"te":7656,"ĠÐĵÐµÐ½":7657,"ĠÑĢÐ°Ðº":7658,"ĠÐºÐ°ÑĤÐµÐ³Ð¾":7659,"ĠÑĢÐµÐ¼Ð¾Ð½ÑĤ":7660,"ĠÑħÑĢÐ°Ð½":7661,"88":7662,"½ÑĳÐ¼":7663,"ĠÐĶÐµÐ½":7664,"ĠÐ¿ÑĢÐ¸Ð±Ð»Ð¸Ð":7665,"ĠÐĲÐ½Ð´ÑĢÐµÐ¹":7666,"ÑĢÐ°ÑĤÐ¸ÑĤÑ":7667,"az":7668,"ÑĢÐ°ÑĤÐ¸ÑĤÑĮ":7669,"¾ÑĤÐ°":7670,"Ð¾Ð¸Ð½":7671,"ÑĢÐ¸ÑĤÑĮÑģÑı":7672,"ÑĩÐµÐ½Ð½ÑĭÐ¹":7673,"ĠÐ¿Ð¾ÑģÐ»ÐµÐ´Ð½ÐµÐµ":7674,"Ð¾ÑĢÐ¾ÑĤ":7675,"ĠÐ¿Ð¾Ð¶Ð°":7676,"ĠÑģÐ»ÐµÐ´ÑĥÑİ":7677,"²Ð°Ð²":7678,"ĠÐºÐ¼":7679,"ĠÑĥÑĢÐ¾Ð²Ð½Ðµ":7680,"ĠÐ·Ð°Ð½Ð¸Ð¼Ð°ÑĤÑĮÑģÑı":7681,"ÑĢÐ°Ñĩ":7682,"ĠÐ´Ð°Ð½Ð½ÑĭÐ¼":7683,"ÑĢÐ½Ñı":7684,"ÐĴÐĶ":7685,"ĠÑģÑĤÐ¾ÑĢÐ¾Ð½Ðµ":7686,"ĠÐ±ÑĭÑģÑ":7687,"ĠÐ±ÑĭÑģÑĤ":7688,"ĠÐŁÐ¾Ð´ÑĢÐ¾Ð±Ð":7689,"²Ð»ÑıÑı":7690,"ÐµÑģÑĤÐ²":7691,"ĠÐ¿ÑĢÐ¾Ð¹Ñ":7692,"ĠÐ¿ÑĢÐ¾Ð¹ÑĤ":7693,"ĠÑĩÐ°ÑģÑ":7694,"½Ð¸ÐºÐ°Ð¼Ð¸":7695,"ĠÐ¡ÐºÐ¾Ð»ÑĮÐºÐ¾":7696,"Ð¾ÑĢÑĭ":7697,"ĠÐ¾Ð´Ð½Ð¾Ð¼Ñĥ":7698,"ĠÐºÐ°ÑģÐ°ÐµÑĤÑģÑı":7699,"ĠÐ¶Ð¸Ð²ÑĥÑĤ":7700,"ĠÐ¿Ð¾ÑĪÐ»Ð°":7701,"¶ÐµÐ¼":7702,"ĠÐľÐ¾ÑģÐºÐ²Ñĭ":7703,"ÐĶÐĺ":7704,"»Ð¾Ð²Ð°":7705,"ĠÐ¼Ð°Ð³Ð":7706,"Ð¿ÑĥÐ½ÐºÑĤ":7707,"ĠÐ½ÐµÐ±Ð¾":7708,"ĠÐ¿ÑĢÐ¾Ñħ":7709,"ÑģÑĥÐ´Ð°":7710,"ĠÐĲÑħ":7711,"ĠÐ²Ð½Ð¸Ð¼Ð°ÑĤÐµÐ»ÑĮÐ½Ð¾":7712,"ĠÐ¼Ð¾Ð»ÑĩÐ°":7713,"ĠÐ¿Ð»Ð°Ð":7714,"ÑīÐ¸Ð½Ð°":7715,"ĠÐ¾Ð±ÑıÐ·Ð°Ð½":7716,"ÑĩÐµÐ»":7717,"ĠÐ´ÐµÐ²Ð¾ÑĩÐºÐ¸":7718,"ĠÐĳÐ¾Ð»":7719,"Ð½Ð°Ð²":7720,"Ð§Ðµ":7721,"ĠÑĢÐµÑĪÐµÐ½Ð¸Ñı":7722,"ĠÐ±Ð»Ñİ":7723,"ĠÑĤÐµÑĢ":7724,"ÑĤÐ°Ð½Ñĭ":7725,"¿Ð°Ñ":7726,"ÐĵÐ»Ð°Ð²Ð°":7727,"ĠÑĨÐµÐ½Ñĭ":7728,"ÑĪÐ¾Ðº":7729,"ÑĩÐµÑĢÐº":7730,"ĠÐ·Ð°Ð»":7731,"Ð¾ÑĢÐ¾Ðµ":7732,"ÑĢÐ°ÑĤÐ¸Ð²Ð":7733,"ĠÐºÐ¾ÑĢÐ¾Ð±Ð":7734,"Ð²Ð¸Ñĩ":7735,"ĠÑģÐ¾Ð»Ð´Ð°ÑĤ":7736,"ĠÐ¿ÑĢÐ°Ð·Ð´Ð½Ð¸Ðº":7737,"ĠÐ´Ð°Ð²Ð°Ð¹":7738,"ĠÐ¼Ð°Ð»ÐµÐ½ÑĮÐºÐ¸Ð¹":7739,"Ð»ÐµÑĢ":7740,"ĠÐºÐ°Ð¼Ð½":7741,"ĠÐ¿Ð¾ÑıÑģÐ½":7742,"ĠÐ·Ð°Ð¿":7743,"ÐµÑĤÐ¾":7744,"ĠÐ½Ð°Ð·ÑĭÐ²Ð°ÐµÑĤÑģÑı":7745,"Ð²Ð¾ÑĢÐ¾":7746,"ĠÐºÐ¾Ð»Ð»ÐµÐºÑĤ":7747,"eb":7748,"Ð´Ð¸Ðº":7749,"ÑĩÐµÐ½Ð°":7750,"ĠÐ¿Ð¾Ð½Ðµ":7751,"ÑĨÐµÐ»":7752,"ĠÐ¼ÑĭÑĪ":7753,"ÑĥÑīÐ¸Ð¹":7754,"ĠÐ¿Ð¾Ð¿Ð°":7755,"ĠÐ¿Ð¾ÑģÐ¼Ð¾ÑĤÑĢÐµÐ»Ð°":7756,"Ð¾Ð²Ð°Ð»Ð°ÑģÑĮ":7757,"ĠÐĽÑİÐ±Ð":7758,"ĠÑģÑĤÐµÐ¿ÐµÐ½Ð¸":7759,"Ð²ÐµÐ»Ð¸":7760,"ÑĩÐµÑģÑĤÐ²Ðµ":7761,"ĠÐĿÐ°Ñģ":7762,"ĠÐºÐ¸ÑĤÐ°Ð¹":7763,"ĠÐ¿Ð¾ÑĪÐ»Ð¸":7764,"ĠÐĿÐ°Ð¿ÑĢÐ¸Ð¼ÐµÑĢ":7765,"ĠÑĢÐ°ÑģÑģÐ¼Ð¾ÑĤ":7766,"ĠÐ³ÑĢÐ°Ð´":7767,"ĠÑĥÐ±ÐµÐ¶Ð´":7768,"Ð¾ÑĩÐºÐ¸":7769,"ĠÐ²ÐµÑĢÐ½ÑĥÑĤÑĮÑģÑı":7770,"ĠÐŀÑģÑĤÐ°Ð":7771,"ĠÐ¿Ð¾ÑĢÑĥ":7772,"Ð°Ð±Ð°":7773,"ĠÐ¿Ð¾Ð»Ð½Ð¾":7774,"ĠÐ·Ð°Ð±Ð¾ÑĤ":7775,"ĠÐ¢Ðŀ":7776,"ĠÐ¿Ð°ÑģÑģÐ°Ð":7777,"ĠÐ¼Ð½Ð¾Ð¶ÐµÑģÑĤÐ²Ð¾":7778,"ĠÑģÑĢÐµÐ´Ñģ":7779,"ĠÐ´ÐµÐ²ÑıÑĤ":7780,"ĠÑģÑĢÐµÐ´ÑģÑ":7781,"ÐŀÐ´Ð½Ð°":7782,"ĠÑģÑĢÐµÐ´ÑģÑĤ":7783,"ðŁ¤Ĺ":7784,"Ð°Ð½Ñı":7785,"ĠÐ¾ÑĤÐ²ÐµÑĤÐ¸":7786,"ĠÐºÐ°ÑĦÐµ":7787,"ĠÐ¿ÑĥÐ±Ð»Ð¸":7788,"ÑĢÐ°ÑĨÐ¸Ð¸":7789,"ĠÐ²ÑĭÐ»Ðµ":7790,"ĠÐ½Ð¾Ð¶Ð":7791,"ĠÐ¿ÑĢÐ¾Ð²ÐµÑģÑĤÐ¸":7792,"ĠÐ¿ÑĢÐ°Ð²Ð¸Ð»Ð¾":7793,"ĠÐ¾ÑĤÐ²ÐµÑĤÐ¸Ñ":7794,"ĠÑģÑĢÐµÐ´ÑģÑĤÐ":7795,"ĠÑģÑĢÐµÐ´ÑģÑĤÐ²":7796,"ĠÑĥÑĤÐ¾ÑĩÐ½":7797,"ĠÐ¾ÑĤÐ²ÐµÑĤÐ¸ÑĤ":7798,"ĠÐ´Ð°Ð½Ð½ÑĭÐ¹":7799,"ĠÐºÐ¾Ð¼Ð¿Ð°Ð½Ð¸Ñı":7800,"³Ð¾ÑģÑĤÐ¸":7801,"ĠÐ»Ð¾Ð":7802,"ÑĪÐµÐ±Ð":7803,"ĠÑģÐ¾Ð¾Ð±ÑīÐµÐ½Ð¸Ñı":7804,"ĠÐ¿Ð»Ð°ÑĤÑĮÐµ":7805,"ĠÐ´Ð²Ð¸Ð¶ÐµÐ½Ð¸Ðµ":7806,"ĠÐ¾Ð´Ð½Ð":7807,"²ÐºÐ°":7808,"ĠÑģÐ°Ð¼Ð¾Ð¼Ñĥ":7809,"ĠÐ¾Ð´Ð½Ð¸":7810,"ĠÐ²ÑĭÐ½ÑĥÐ¶Ð´":7811,"ĠÐ¿Ð¾Ð»Ð¸ÑĨÐµÐ¹":7812,"Ð´Ð°ÐµÑĤÑģÑı":7813,"ĠÐļÑģÑĤÐ°ÑĤÐ¸":7814,"ðŁĺĨ":7815,"Ð´ÐµÐ½Ð¸Ð¸":7816,"ĠÐ¿ÑĢÐ¸ÑĩÐµÐ¼":7817,"ĠÑģÐµÐ¼ÑĮ":7818,"ĠÐ´ÑĥÑĪÑĥ":7819,"ĠÐĴÐ¿ÑĢÐ¾ÑĩÐµÐ¼":7820,"ĤÐºÐ°":7821,"ÑĢÐ·":7822,"ĠÑĢÐ°Ð·Ñĥ":7823,"Ð¸ÑĤÐµÐ»ÑĮÐ½Ð¾":7824,"ĠÐ°ÐºÐºÑĥ":7825,"ÐĴÐ":7826,"pp":7827,"ÑĢÐ¸ÑģÑĤÐ°":7828,"ÑģÐ°Ð¹ÑĤ":7829,"ĠÐ³Ð¾Ð»Ð¾ÑģÐ¾Ð¼":7830,"ĠÐ¿ÑĢÐ¾Ð´Ð¾Ð»Ð¶Ð°Ð»":7831,"ĠÐ´Ð°ÐµÑĤ":7832,"ĠÑģÐ»ÑĥÑĩÐ°Ð¹Ð½Ð¾":7833,"Ð½Ð°ÑĩÐ°Ð»Ð°":7834,"Ã©":7835,"Ð±ÑĢÐ¸":7836,"ÑĪÐµÐ³Ð¾ÑģÑı":7837,"ĠÐ²Ð¾Ð»Ð":7838,"ÑĩÐ¸Ð½Ð¾Ð¹":7839,"ĠÑģÑĤÐ¾Ð»Ð¸ÑĨ":7840,"ĠÐ¿ÑĢÐ¾ÑģÑĤÐ¸":7841,"ÑĤÐµÐ¿":7842,"ĠÐ¢Ð¾ÑĤ":7843,"ud":7844,"ĠÐ²Ð¾ÑĢÐ¾":7845,"ÑĢÑĨÐ°":7846,"ÐµÑĢÐºÐ²Ð¸":7847,"ĠÑĥÑĩ":7848,"ĠÐ¿ÑĢÐ¾ÑĪÐ»Ð¾Ð¼":7849,"ĠÐ²ÑĭÐ¹ÑĤÐ¸":7850,"ĠÐĿÐ¸ÐºÐ°":7851,"ĠÐ²Ð¾Ð·Ñ":7852,"ĠÐŀÑĤÐµ":7853,"ĠÑģÑĤÑĢÐ°Ð½Ð½Ð¾":7854,"ĠÐ°ÑĢÑĤ":7855,"ĠÐĵÐµ":7856,"ĠÐ±Ð¾Ð»ÑĮÑĪÐ¸Ð½ÑģÑĤÐ²Ð¾":7857,"ÑģÑĤÐ²Ð¸Ñı":7858,"ĠÑĥÑĤÐ²ÐµÑĢÐ¶Ð´":7859,"ĠÐ¸Ð·Ð±Ð°Ð":7860,"ĠÑģÐ»ÐµÐ´Ð¾Ð²":7861,"Ð´Ð»Ñ":7862,"Ð°Ð²Ð°ÑĤÑĮ":7863,"ĠÐ¨Ð":7864,"ĠÑĦÐ¾ÑĢÐ¼Ð°":7865,"ĠÑģÑĥÐ´Ð°":7866,"ĠÐ´ÑĢÑĥÐ¶Ð":7867,"Ð³Ð¾ÑģÑĤÐ¸":7868,"ĠÐ§Ð°":7869,"ĠÐ³Ð¾Ð²Ð¾ÑĢÐ¸ÑĤÑģÑı":7870,"ĠÐ¾Ð´Ð¸Ð½Ð¾":7871,"ÑĩÐ½ÑĭÐ¼Ð¸":7872,"Ð¾Ð½Ð¸ÑĤÑ":7873,"ĠÐ½Ð°ÑģÐµÐ»ÐµÐ½Ð¸Ñı":7874,"Ð¾Ð±ÑĢÑĭÐ¹":7875,"ĠÐ½Ð°Ð¿ÑĢÐ":7876,"Ġ89":7877,"!\"":7878,"ÑģÑĤÐ²ÐµÐ½Ð½Ð¾Ð¹":7879,"ation":7880,"ĠÐ»Ñĥ":7881,"ÑĤÐ²Ð¾Ð²":7882,"ĠÐ»Ð¸ÑĤÐµÑĢÐ°ÑĤÑĥ":7883,"ĠÐ³ÑĢÑĥÐ´Ñ":7884,"ĠÐ¿Ð¾Ð´ÑĤÐ²ÐµÑĢÐ":7885,"ĠÐºÐ¸Ð½Ð¾":7886,"ÑģÑĤÐ²ÐµÐ½Ð½Ð°Ñı":7887,"ĠÐĸÐµÐ½":7888,"ĠÐĻ":7889,"Ð¼Ð¾Ð´":7890,"ĠÐľÐ¾Ð¹":7891,"Ð¼Ð¿Ðµ":7892,"Ð¾Ð½Ð¸ÑĤÑĮ":7893,"½ÐµÑĤ":7894,"ĠÐ±Ð¸Ñ":7895,"ort":7896,"ĠÐĵÐ¾Ñģ":7897,"Ð»ÐµÐ½ÑĮ":7898,"ÑģÐµÐ½Ð¸Ñ":7899,"ðŁĩ":7900,"ÑĥÑģÑĤÑı":7901,"ÐŁÐĲ":7902,"ĠÐ²Ð¾Ð·ÑĮ":7903,"ÐŁÐ¾ÑĤ":7904,"ĠÐ¶Ð¸Ð²ÐµÑĤ":7905,"ĠÐ´Ð°Ð»Ð¸":7906,"ĠÑģÑĤÑĢÑĥÐº":7907,"ĠÐ±Ð°Ð½Ðº":7908,"ÑĳÐ·":7909,"ĠÐ¿ÑĥÐ½ÐºÑĤ":7910,"ĠÐ²ÑĭÐ³Ð»ÑıÐ´Ð¸ÑĤ":7911,"ÑĢÐµÐ½Ñĭ":7912,"ÑĳÑģ":7913,"ÐĳÐ":7914,"ĠÐ¾ÑĤÐ½Ð¾ÑĪÐµÐ½Ð¸Ð¸":7915,"ĠÐ·Ð½Ð°Ðº":7916,"ÑħÐ¸Ñ":7917,"ĠÐ¾ÐºÐ¾Ð½ÑĩÐ°":7918,"ÑĭÐ²Ð°ÐµÑĤ":7919,"ĠÑĩÐ°ÑģÑĭ":7920,"ĠðŁĺī":7921,"ĠÐ¿Ð¾ÑģÑĤÐ°Ð²Ð¸ÑĤÑĮ":7922,"ĠÐ¿Ð¾ÑĩÑĥÐ²ÑģÑĤÐ²":7923,"²Ð´Ð¾Ñħ":7924,"ĠÐľÐ¸ÑħÐ°Ð":7925,"ĠÐ½ÐµÐ·Ð°Ð²Ð¸":7926,"Ð¿Ð¾Ð³Ð¸":7927,"ĠÐ¶Ð°Ð»ÑĮ":7928,"ðŁĮ¹":7929,"ĠÐ·Ð°Ð»Ðµ":7930,"ĠÐ¿Ð¾Ð»ÑĥÑĩÐ¸ÑĤÑģÑı":7931,"ÑģÐµÐ½Ð¸Ñı":7932,"ĠÐłÐ¾ÑģÑģÐ¸Ð¹":7933,"ĠÐĳÐµÑĢÐ":7934,"Ġ35":7935,"·Ð»Ð¾":7936,"Ð¢Ðµ":7937,"ĠÐ¸Ð½Ð¾ÑģÑĤÑĢÐ°Ð½":7938,"Ð²Ð´Ð¾Ñħ":7939,"Ð¿Ð»ÐµÐ½":7940,"ĠÐĳÐµÐ»":7941,"ĠÑĢÐ°Ð¼ÐºÐ°Ñħ":7942,"ĠÑĥÐ±Ð¸":7943,"ÐµÑģÐ°":7944,"ĠÐ±ÐµÑģÐºÐ¾Ð½Ðµ":7945,"ÑıÐ½Ð¸":7946,"ÑĨÐµÐ½Ð°":7947,"ĠÐ¸Ð½Ð´Ð¸Ð²Ð¸Ð´":7948,"ĠÐ¼Ð¸Ð½ÑĥÑĤÑĭ":7949,"ĠÑģÐ¾Ð²Ð¼ÐµÑģÑĤ":7950,"ĠÐ½Ð°Ð²ÐµÑĢÐ½ÑıÐºÐ°":7951,"Ð¡Ð":7952,"ĠÑĥÐ·Ð½Ð°Ð»":7953,"ĠÑģÑĤÐ¾ÑıÐ»Ð°":7954,"ĠÐ¾ÑĤÐ½Ð¾ÑĪÐµÐ½Ð¸Ðµ":7955,"ĤÐ¾ÑıÐ½":7956,"Ð²ÐµÑģ":7957,"·ÑĢÐ¸":7958,"Ð¾Ð²Ð¸Ñĩ":7959,"ĠÑģÐ¾Ð¾ÑĤÐ²ÐµÑĤÑģÑĤÐ²Ñĥ":7960,"ĠÐºÐ°Ð±Ð¸Ð½Ðµ":7961,"·Ð½Ð°Ð½":7962,"ÑĤÐ¾ÑıÐ½":7963,"ĠÐ¿Ð¾Ð³Ð¸":7964,"ĠÐļÐ°ÑĢÐ":7965,"ÑĥÐ»Ñĭ":7966,"ĠÐ¾ÑģÑĤÐ°Ð²Ð¸ÑĤÑĮ":7967,"ĠÑĢÑĥÐºÐµ":7968,"ĠÐ½Ð¾Ð²Ð°Ñ":7969,"ĠÐ³Ð¾ÑģÑĤÐ¸":7970,"ĠÐ¿ÑĢÐµÐ²ÑĢÐ°":7971,"ÑĨÐµÐ½ÑĤ":7972,"ĠÐ½Ð¾Ð²Ð°Ñı":7973,"âĢ¢":7974,"ĠÐ¿Ð¾Ð·Ð´ÑĢÐ°Ð":7975,"Ġ70":7976,"ĠÐ¿ÑĭÐ":7977,"ĠÐ±Ð¾Ð»ÑĮÑĪÐ¸Ð¼":7978,"ĠÐ¾Ð´Ð½Ð°Ð¶Ð´Ñĭ":7979,"ĠÐłÑ":7980,"Ð°Ð»ÑĮÐ½Ð¾Ð¹":7981,"ĠÑĤÑĢÑĥÐ´Ð¾Ð¼":7982,"ĠÑĤÑĢÐ°Ð½ÑģÐ¿Ð¾ÑĢÑĤ":7983,"ÑĩÐ½ÐµÐµ":7984,"ĠÐ½Ð°Ð¿Ð¸ÑģÐ°Ð½Ð¾":7985,"ĠÑģÐ²ÑıÑī":7986,"±ÑĢÐ°Ð»":7987,"²Ð»Ñİ":7988,"ĠÐ¿Ð¾Ð¸Ñģ":7989,"ĠÐ²Ð¾Ð¹ÑģÐºÐ°":7990,"âĢįâĻĢï¸ı":7991,"ĠÑģÐ¿ÐµÑĨ":7992,"Ð¿Ð»Ð¾Ð¼":7993,"ĠÐŀÐ¢":7994,"ĠÐ¿ÑĢÐ¾ÑīÐµ":7995,"ĠÐ·Ð°Ð¸Ð½":7996,"Ð»Ð°Ñħ":7997,"ĠÐĴÐ»Ð°Ð´Ð¸Ð¼Ð¸":7998,"ĠÐľÐĲ":7999,"ĠÑģÐ¿ÑĥÑģÑĤÑı":8000,"ĠÐ¾Ð´Ð¸Ð½Ð°":8001,"ÐµÐ²Ð¸":8002,"ĠÐ¾ÑĤÐºÑĢÑĭ":8003,"ĠÐ¾ÑħÑĢÐ°Ð½":8004,"½Ð¾Ð·":8005,"Ġ29":8006,"Ð¾ÑĤÑĥ":8007,"ÑĥÑģÑĤÐ¸Ñ":8008,"ÑĩÐ°ÑĢÐ¾Ð²":8009,"ÑĥÑģÑĤÐ¸ÑĤ":8010,"ĠÑĪÐºÐ¾Ð»Ñĥ":8011,"Ð¿ÑĢÐµÐ·":8012,"ib":8013,"ĠÐ´ÑĥÑĪÐ°":8014,"ĠÑĩÐµÑģÑĤÑ":8015,"ĠÑĢÐ¾Ð¶Ð´":8016,"ĠÐ¿Ð¾Ð·Ð²Ð¾Ð»Ð¸ÑĤ":8017,"ıÐ¿Ð¾Ð½":8018,"ĠÑĩÐµÑģÑĤÑĮ":8019,"ĠÐ°ÑĢÐ¾Ð¼Ð°":8020,"ast":8021,"ĠÐ¿Ð¸ÑģÑĮÐ¼Ð¾":8022,"ÑĮÐµÐ¹":8023,"Ð¸Ð»Ð":8024,"ÑĥÐºÐ¾Ð²":8025,"ÑıÐ¿Ð¾Ð½":8026,"ĠÐ´Ð¾Ð»Ð»Ð°ÑĢÐ¾Ð²":8027,"ĠÑĥÑģÑĤÐ°Ð":8028,"ÑĢÐºÐµ":8029,"ĠÐ´Ð¸ÑĢÐµ":8030,"ÑĪÐ¸Ð¹Ñģ":8031,"ĠÐºÑĢÑĥÐ³Ð":8032,"ÑĪÐ¸Ð¹ÑģÑ":8033,"ÑĪÐ¸Ð¹ÑģÑı":8034,"ÑģÐ¸ÑĤÐµ":8035,"ĠÑĥÑģÐ»Ð¾Ð²Ð¸Ñ":8036,"ĠÑĥÑģÐ»Ð¾Ð²Ð¸Ñı":8037,"ĠÐ²ÐµÑĢÐ½Ð¾":8038,"½Ñĸ":8039,"³ÑĢÐ¾Ð·":8040,"²Ð»ÑıÑĤÑĮÑģÑı":8041,"ÑĩÐµÐ½Ð¸Ñİ":8042,"ĠÐ¾Ð±ÐµÐ":8043,"ĠÐ¾ÑģÑĥÑīÐµÑģÑĤ":8044,"ĠÐ¾Ð±ÑīÐµÑģÑĤÐ²Ð°":8045,"Ġ%":8046,"ĠÐ·Ð°Ð³Ð°":8047,"ÑĢÐ°Ð½Ð¸ÑĩÐ":8048,"²ÑĢÑıÐ´":8049,"ĠÐ¿ÑĢÐ¸ÑħÐ¾Ð´Ð¸ÑĤÑģÑı":8050,"¿Ð°ÑĤ":8051,"»ÐµÐ¼":8052,"Ð¾Ð²Ð°ÑĢÐ¸Ð":8053,"ĠÐ¿Ð¾Ð¿ÑĭÑĤÐ°":8054,"ĠÑģÑĩÐ¸ÑĤÐ°ÑĤÑĮ":8055,"ÐĲÐĲÐĲÐĲ":8056,"ĠÐ¾ÑĤÑģÑĤÑĥÐ¿":8057,"ĠÐ¸Ð½ÑģÑ":8058,"ĠÐ¿ÐµÑĢÐµÐ¼Ðµ":8059,"ĠÐ¸Ð½ÑģÑĤ":8060,"ĠÐ¾ÐºÐ½Ð¾":8061,"Ð½Ð¸ÐºÐ°Ð¼Ð¸":8062,"ĠÑĪÐºÐ°":8063,");":8064,"ĠÐºÐ³":8065,"Ð´ÐµÐºÐ²Ð°ÑĤ":8066,"ĠÐ¥Ð¾ÑĤ":8067,"ĠÐ¾Ð½Ð»Ð°Ð¹Ð½":8068,"Ð±ÑĥÐ":8069,"ĠÐ¸Ð½ÑĦÐ¾ÑĢÐ¼Ð°ÑĨÐ¸Ñı":8070,"ĠÑģÐ¾Ð´ÐµÑĢÐ¶":8071,"ĠÐºÐ¾ÑĤÐ¾ÑĢÑĭÐ¼Ð":8072,"ĠÐºÐ¾ÑĤÐ¾ÑĢÑĭÐ¼Ð¸":8073,"ĠÐ·Ð°ÑĢÐ°Ð±Ð°ÑĤÑĭÐ":8074,"Ð³ÑĢÐ¾Ð·":8075,"ĠÑĥÐ´Ð°Ñ":8076,"ont":8077,"ÐµÐ½Ð¸ÑĤ":8078,"ĠÐ¡ÑĤÐ¾Ð":8079,"ĠÐ½ÐµÑĩÑĤÐ¾":8080,"ĠÑĤÑĢÑĥÐ±Ð":8081,"ĠÑģÑĤÐ¾Ð»Ðº":8082,"Ð¸Ð²Ð½ÑĭÐµ":8083,"ÑĢÐ°ÐµÐ¼":8084,"ĠÐ»ÐµÐ³ÑĩÐµ":8085,"ĠÐ½Ð¾Ð":8086,"ĠÑĢÐ°Ð·Ð²Ð¸Ð":8087,"Ð´Ð»Ñı":8088,"ĠÐ¾ÑģÑĤÐ°ÐµÑĤÑģÑı":8089,"ĠÐ·Ð°Ð²Ð¸ÑģÐ¸":8090,"Ð²ÐµÑĢÑħ":8091,"±ÑĢÐ¾Ð´":8092,"Ð½Ð¾Ð²Ð°":8093,"»Ð¾Ð±Ð":8094,"ĠÑģÐ°ÑħÐ°":8095,"ĠÐ¼Ð½Ð¾Ð³Ð¾Ðµ":8096,"ÑįÐº":8097,"ĠÑĤÑĳ":8098,"ĠÐ¾ÐºÐ°Ð·Ð°Ð»Ð¸ÑģÑĮ":8099,"ÑĪÐµÐ¹ÑģÑı":8100,"ÑĥÐ±Ðµ":8101,"ĠÐ¾ÑģÑĤÐ°Ð»Ð¸ÑģÑĮ":8102,"ĠÐĺÑģÑĤÐ¾":8103,"ĠÑħÐ¾ÑĢÐ¾ÑĪÐµÐ³Ð¾":8104,"ĠÐ¿Ð¾Ð·Ð²Ð¾Ð»":8105,"ÑħÐ¾Ð´Ð¸Ð»Ð¾":8106,"ĠÐ¡Ð¾Ð»":8107,"ĠÐĵÐ»Ð°Ð²Ð":8108,"Òĵ":8109,"ĠÑĩÐµÑĢÑĤ":8110,"ÐºÐ°ÐµÑĤ":8111,"ÑģÐ½Ñĭ":8112,"ĠÐ¼Ð½ÐµÐ½Ð¸Ñİ":8113,"ĠÐ¿Ð°Ð¿Ð°":8114,"±ÑıÑĤ":8115,"±Ð°Ð¹":8116,"ĠÐ¿Ð¾Ð´Ð²Ðµ":8117,"ĠÑģÐ»Ð°Ð´Ðº":8118,"ĠÑģÐ±Ðµ":8119,"ĠÑģÑĤÑĢÐ¾Ð¹":8120,"ĠÐºÐ°Ð·":8121,"ĠÑģÑĤÑĭÐ´":8122,"ĠÐºÐ¾Ð¼Ð°Ð½Ð´Ð¸":8123,"²Ð°Ð³":8124,"ĠÑĢÐ¾Ð·":8125,"ĠÐ¡Ð¼Ð¾ÑĤ":8126,"³ÑĥÐ»":8127,"ÑīÐ°ÑİÑĤ":8128,"ĠÐĲÐ»ÐµÐºÑģÐ°Ð½Ð´":8129,"ĠÐ³ÑĢÑĥÐ´ÑĮ":8130,".\"":8131,"ĠÐ§ÐµÐ¼":8132,"ĠÐ¿Ð¾Ð³ÑĢÑĥÐ":8133,"ĠÐĵÐ¾Ð²Ð¾":8134,"ĠÐ¿Ð¾Ð¿Ð°Ð´":8135,"ÑĥÑĩÑĥ":8136,"ÑĪÐµÐ½Ð¸Ð¹":8137,"ĠÐ¾Ð±ÑĬÑıÑģÐ½Ð":8138,"ĠÐ¾Ð±ÑĬÑıÑģÐ½Ð¸":8139,"ĠÐ±ÑĢÐ¸":8140,"ĠÑĤÐµÐ»ÐµÐ²Ð¸Ð·":8141,"ĠÐ³ÑĢÐ¾Ð·":8142,"ĠÑĥÐ´Ð¾Ð²Ð»ÐµÑĤÐ²Ð¾":8143,"ĠÐ²ÐµÐ":8144,"ĠÐ¿Ð¾ÑĤÑĢÑı":8145,"ĠÐ¿Ð¾Ð»Ð½Ð¾Ð¹":8146,"ĠÐ·Ð¾Ð²ÑĥÑĤ":8147,"ðŁĳı":8148,"ĠÑĦÐ°Ð¼Ð¸":8149,"ÑīÐ°ÐµÑĤ":8150,"ĠÐ¿ÑĢÐ¾Ð´ÑĥÐºÑ":8151,"ĠÐ¿ÑĢÐ¾Ð´ÑĥÐºÑĤ":8152,"½Ð¾ÑģÑĤÑıÐ¼Ð¸":8153,"ĠÑĥÐ´Ð°ÑĢ":8154,"ĳÐ»":8155,"ĠÐ¡Ð¾Ð":8156,"ĠÐºÑĥÐ»Ð°":8157,"ÑĢÐ°Ð·Ð¸ÑĤ":8158,"ĠÐ´Ð¾Ð±Ð":8159,"ĠÐ½Ð°ÑģÑĤÐ¾ÑıÑīÐµÐµ":8160,"ÐºÐ¾ÑĢÐµÐµ":8161,"ðŁĵ":8162,"ÑĢÑĥÐº":8163,"ĠÐºÑĥÑħ":8164,"âĿ¤ï¸ı":8165,"Ð¸ÑĤÐµÑĤ":8166,"ĠÑģÐ¿ÑĢÑı":8167,"ĠÐ½Ð°ÑģÐ»Ð°Ð¶Ð´":8168,"ĠÑĥÑģÑĤÐ°":8169,"ĠÐ²ÑĢÐµÐ¼ÐµÐ½":8170,"ÑĤÑģÑĤÐ²Ð¾":8171,"ĠÐ¸ÑģÑĤÐ¾ÑĢÐ¸ÑĩÐµÑģÐº":8172,"ĠÐ¼Ð¾Ð±Ð":8173,"ĠÐ½ÐµÐ·Ð½Ð°ÐºÐ¾Ð¼":8174,"ĠÐ·Ð°Ð¿Ð°Ñħ":8175,"Ð¸Ð²Ðµ":8176,"ĠÐ¡Ðŀ":8177,"Ð¶Ð½Ð¾":8178,"ÑħÐ¾Ð´Ñĭ":8179,"ÐºÑĨÐ¸Ð¸":8180,"Ð»ÑıÑĤ":8181,"ĠÐŁÐ¾Ð²":8182,"³ÑĢÐ°Ð¼":8183,"ĠÐ±Ð»Ð°Ð³Ð¾Ð¿":8184,"¾ÑĢÑĥÐ´Ð¾Ð²":8185,"ĠÐ¾ÑĤÐ´ÑĭÑħÐ°":8186,"ÑģÐµÐ½Ñ":8187,"ÐĿÐ¾Ð²":8188,"ĠÐ¿ÑĢÐµÐ´ÑģÑĤÐ°Ð²Ð¸ÑĤÑĮ":8189,"ĠÐ¾ÑģÐºÐ¾ÑĢÐ±Ð":8190,"ĤÐ²Ð¾Ð²Ð°ÑĤÑĮ":8191,"ĠÑĢÐ¸ÑĤ":8192,"ĠÐ¼ÐµÐ´Ð¸ÑĨÐ¸Ð½":8193,"ĠÐ²ÐµÑĢÑħ":8194,"ĠÐ¿Ð¾Ð´Ð¾Ð±":8195,"ĠÐ¶ÐµÑģÑĤÐ¾Ðº":8196,"ĠÐ½Ð°Ð´ÐµÑİÑģÑĮ":8197,"ĠÐ¿Ð¾Ð´Ð¾ÑĪÐµÐ»":8198,"ĠÑģÐ°Ð¹ÑĤ":8199,"ĠÐ¿ÑĢÐ¸ÑģÐ¾ÐµÐ´Ð¸Ð½":8200,"ĠÐ²Ð´Ð¾Ñħ":8201,"Ð°Ð¹ÑģÑ":8202,"ĠÑĢÐ°Ð·Ð´Ðµ":8203,"ĠÐ¾ÑĤÐ½":8204,"ĠÐ¿ÑĢÐ¾Ð¹ÑĤÐ":8205,"ĠÐ¿ÑĢÐ¾Ð¹ÑĤÐ¸":8206,"ĠÐ¿Ð¾Ð»ÐºÐ¾Ð²":8207,"ĠÐĶÑĥÐ¼Ð°Ñİ":8208,"ĠÐºÐ°ÑĢÑĤÐ¾":8209,"ĠÐ±ÑĥÐ´Ñ":8210,"ĠÐ»ÑİÐ±ÑĭÐ":8211,"ÐµÐ½Ð½ÑĭÐ¼":8212,"ĠÐ±Ð¾Ð»ÑĮÑĪÑĥÑİ":8213,"ĠÑģÐµÑĢÐµÐ±":8214,"ĠÐ¼Ð°ÑĪÐ¸Ð½Ðµ":8215,"ÐĵÐĲ":8216,"ĠÐ¿Ð»Ð°ÑĤÐ":8217,"ĠÑģÑĩÐ¸ÑĤÐ°ÐµÑĤ":8218,"ĠÐ´ÐµÑĤÑĮÐ¼Ð¸":8219,"Ð¾ÑĤÐ¾Ð²":8220,"ĠÐ´ÐµÑĢÐ¶Ð°ÑĤÑĮ":8221,"ıÑĤÐ¾":8222,"ĠÑĢÐ°Ð±Ð¾ÑĤÐ°Ð»":8223,"ĠÐ¶Ð¸ÑĤÐµÐ»ÐµÐ¹":8224,"ĠÐĶÑĢÑĥÐ³":8225,"ĠÐ¿Ð¾Ð¼Ð¾Ð³Ð°ÐµÑĤ":8226,"ĠÐ¿Ð»Ð°ÑĤÐ¸":8227,"ĠÑĨÐ¸ÑĦ":8228,"ÑĩÐµÐ½Ð¸Ð¹":8229,"ĠÐ¼Ð°Ð³Ð°Ð·Ð¸Ð½Ð°":8230,"ÑĢÑĤÐ¸Ñ":8231,"ĠÐ²Ð¾Ð½":8232,"ĠÑģÑĤÑĢÐ°Ñħ":8233,"ĠÐ¾ÑĤÑģÑİÐ´Ð°":8234,"ĠÐ²ÑģÐºÐ¾ÑĢÐµ":8235,"ĠÐĶÐ¾Ð¼":8236,"ĠÑĥÐ³Ð¾Ð»Ð¾Ð²":8237,"ĠÐºÐ½Ð¸Ð³Ñĥ":8238,"¾ÑĢÐ¼Ð¾":8239,"ĠÑģÐ¼Ð¾ÑĤÑĢÐ¸":8240,"ÑĢÐ°Ð±":8241,"ĠÐ´Ð¾Ð¼Ñĥ":8242,"ĠÐ¿Ð»ÐµÐ½":8243,"ĠÑįÐ»ÐµÐºÑĤÑĢÐ¾Ð½":8244,"ĠÑĥÐºÐ°Ð·ÑĭÐ":8245,"ook":8246,"Ð²ÑĢÑıÐ´":8247,"ĠÐ¿Ð¾ÐºÐ°Ð·Ð°Ð»Ð¾ÑģÑĮ":8248,"ĠÐ¿Ð¾ÑģÑĤÐµÐ¿ÐµÐ½Ð½Ð¾":8249,"ÑģÐ°Ñ":8250,"ĠÑģÐ¸Ð»Ð¾Ð¹":8251,"¸Ð±Ð":8252,"ĠÐ¿Ð¾Ð»Ð½Ð¾Ð¼":8253,"Ð³Ð¾ÑĢ":8254,"ĠÐ´Ð¾Ð±Ð°Ð²Ð¸Ð»":8255,"cc":8256,"ÑĩÐµÑģÐºÐ¾Ð³Ð¾":8257,"ÑĤÐµÐ»ÑĮÐ½ÑĥÑİ":8258,"ĠÐĽÐ°Ð´Ð½Ð¾":8259,"ĠÑĥÑģÐ¼ÐµÑħ":8260,"ÐºÐ°Ð»Ð¸":8261,"ĠÐ²Ð¾ÑģÑģÑĤÐ°Ð½Ð¾Ð²":8262,"ĠÐºÐ¸Ð»Ð¾Ð¼ÐµÑĤ":8263,"ĠÑĢÐ¾":8264,"Ð´Ð½Ð¾Ð¹":8265,"ĠÐ¢Ð¾Ð¼":8266,"ĠÐ¿ÑĢÐ¸Ð·ÑĭÐ":8267,"ĠÑĤÑĢÑĥÐ´Ð°":8268,"ÑİÑīÐ¸ÑħÑģ":8269,"ÑĪÐµÐ¿":8270,"ÑİÑīÐ¸ÑħÑģÑ":8271,"ÑīÐ¸ÑĤÑĮ":8272,"ÑİÑīÐ¸ÑħÑģÑı":8273,"ĠÑĨÐµÑĢÐºÐ¾Ð²":8274,"ĠÐ±ÑĥÐ´ÑĮ":8275,"ðŁĳįðŁĳį":8276,"Ð°Ð»Ð¸Ð·":8277,"ÑĢÐ°Ð½Ð¸ÑĤÑ":8278,"ĠÑĢÐ°Ð±Ð¾ÑĤÐ°ÑİÑĤ":8279,"Ð¼Ð¾Ð½Ð°":8280,"94":8281,"ÑĩÐµÑģÑĤÐ²ÐµÐ½Ð":8282,"ÑĪÐ°Ñİ":8283,"ĠÐĴÐŀ":8284,"ĠÐ¿Ð¾Ð·Ð²Ð¾Ð»ÑıÐµÑĤ":8285,"ĠÑĤÐ¾Ð»Ñģ":8286,"ĠÑģÐ¸Ð´ÐµÑĤÑĮ":8287,"ĠÐ¶ÐµÐ»Ð°Ð½Ð":8288,"ĠÐ½Ð¸Ð±ÑĥÐ´ÑĮ":8289,"ĠÑĢÐ°Ð·Ð²ÐµÑĢÐ":8290,"ĠÐ´Ð°Ð»ÐµÐµ":8291,"ĠÐĿÐŀ":8292,"ĤÑĭÐµ":8293,"ĠÐ·Ð°ÐºÑĢÑĭÑĤ":8294,"ĠÐ¿Ð¾Ð»Ð½ÑĭÐ¹":8295,"ÑĤÐ¸Ð¼":8296,"ĠÑĥÑģÑĤÐ°Ð»":8297,"Ð½Ð°Ð²Ð»Ð¸":8298,"ÑĢÐ°Ð½Ð¸ÑĤÑĮ":8299,"ĠÐ¼Ð¾ÐµÐ¼Ñĥ":8300,"ĠÑģÑĩÐµ":8301,"ĠÐ²Ð¾Ð¿ÑĢÐ¾ÑģÐ°Ð¼":8302,"ÑĪÐºÐ°Ð¼Ð¸":8303,"ĠÐºÐ½Ð¸Ð³Ð°":8304,"ĠÑĤÐ¾ÑĢÐ¾Ð¿":8305,"ĠÑĥÑĩÐ°ÑģÑĤÐ":8306,"ÑĩÐ°Ð½Ð":8307,"Ð¸ÑĩÐµÑģÐºÐ¾Ðµ":8308,"ĠÐ¿Ð°ÑĢÐ½Ñı":8309,"Ð¸Ð²Ð½ÑĭÐ¹":8310,"¶Ð½Ð¾Ð³Ð¾":8311,"ĠÐ¶ÐµÐ»Ð°Ð½Ð¸":8312,"ĠÑģÐ¼Ð¾ÑĤÑĢÐµÐ»Ð°":8313,"ĠÐ¿ÑĢÐµÐ´Ð»Ð¾Ð¶ÐµÐ½Ð¸Ðµ":8314,"ĠÐ¾ÑģÐ¼Ð¾ÑĤ":8315,"Ð°Ð²ÑĪÐ¸Ñħ":8316,"ÑĢÐ°Ð¼Ð°":8317,"ĠÐ½Ð°ÑħÐ¾Ð´Ð¸":8318,"Ð²ÑĮ":8319,"Ð¿Ð°Ñ":8320,"Ð¸ÑģÑĤÐ°":8321,"ĠÐ¿ÑĢÐ¾ÑĪÐ»Ð¾":8322,"ĠÐľÐ¾Ð»Ð¾Ð´":8323,"ĠÐ¸Ð½ÑģÑĤÐ":8324,"ĠÐ¿ÑĢÐµÐ·":8325,"Ð»Ð¾Ðº":8326,"ĠÐ¸Ð½ÑģÑĤÐ¸":8327,"¶ÐºÑĥ":8328,"ĠÐ²Ð¾ÑģÑĤÐ¾ÑĢÐ":8329,"Ð»ÐµÑĤÑ":8330,"¸Ð´ÐµÑı":8331,"ĠÐ°Ð³ÐµÐ½":8332,"ĠÐ´Ð¾Ð¶Ð´Ñ":8333,"ĠÐ¿ÑĢÐ¾Ð¸Ð³":8334,"ÑĢÑģÐºÐ¸Ðµ":8335,"Ð¸Ð´ÐµÑı":8336,"ĤÐºÐ°Ð½":8337,"ÐķÑģ":8338,"¶ÐµÐ½Ð½ÑĭÐ¹":8339,"ĠÐ´Ð¾Ð±Ð°Ð²Ð¸ÑĤÑĮ":8340,"ĠÐ·Ð½Ð°Ð½":8341,"ĠÐľÐ°ÑĤ":8342,"ĠÐ³ÐµÐ½ÐµÑĢÐ°Ð»":8343,"²ÑıÑĤ":8344,"ĠÐĺÑģ":8345,"ÐµÐ½Ð½":8346,"Ð°Ð¹ÑģÑı":8347,"ĠÐ½Ð¸ÐºÐ°ÐºÐ¾Ð¹":8348,"ðŁİī":8349,"ÑģÐ½Ð¾Ðµ":8350,"ÑĪÐ½Ð¸Ð¹":8351,"ĠÐ²ÐµÑĩÐµÑĢÐ°":8352,"ĠÑģÐµÐ»Ñ":8353,"ĠÑĢÐ°ÑģÐ¿Ð¾Ð»Ð¾Ð¶ÐµÐ½":8354,"ÑĤÐºÐ°Ð½":8355,"ĠÑĢÐ°Ð·Ð»Ð¸ÑĩÐ½ÑĭÑħ":8356,"ĠÐ¿Ð¾ÑĢÑıÐ´Ð¾Ðº":8357,"ÑĩÐ°Ð½Ð¸Ðµ":8358,"ĠÑĥÐ¿ÑĢÐ°Ð¶Ð½":8359,"ĠÐĶÑĥ":8360,"Ð¾ÑĢÐ¾ÑĩÐµ":8361,"ĠÐ¼Ð°ÑģÑĤÐµÑĢ":8362,"ĠÐ±Ð¾Ð»ÑĮÐ½Ð¾":8363,"ĠÐ¸Ð´ÑĥÑĤ":8364,"ĠÐºÐ¾Ð½ÑĤÐ°ÐºÑĤ":8365,"Ð±Ð°Ñ":8366,"ĠÐ¾Ð±ÐµÑĢÐ":8367,"ĠÑĪÐ»Ð°":8368,"Ð¾ÐºÐ":8369,"ĠÐ¼ÑĭÑģÐ»ÐµÐ":8370,"²Ð°ÑĢÐ¸":8371,"ĠÐľÐ½":8372,"ĠÐ°Ð»ÐºÐ¾Ð³":8373,"ĠÑģÐµÑĢÐ¸":8374,"ĠÐ´Ð¸Ð·Ð°Ð":8375,"eg":8376,"Ð·Ð»Ð¾":8377,"ĠÐ²ÑĭÑģÑĤÐ°Ð":8378,"ĠÐ¿Ð¾ÑıÐ²Ð¸Ð»Ð°ÑģÑĮ":8379,"ĠÐ¿Ð¾ÑĤÐ¾Ð»":8380,"ĠÐ·Ð°Ñ":8381,"ĠÐ±ÑĥÐºÐ²Ð°Ð»ÑĮÐ½Ð¾":8382,"ĠÐ¿Ð¾Ð´ÑĥÐ¼Ð°Ð»Ð°":8383,"²Ð¸ÑĤÑģÑı":8384,".:":8385,"ĠÐ´ÐµÑĤÑıÐ¼":8386,"ĠÑĢÐ°Ð½Ð¾":8387,"ÑĢÐ½Ð¾Ðµ":8388,"¸Ð²Ñĭ":8389,"ĠÐ¼Ð°ÑģÐ»Ð¾":8390,"ĠÐ¼Ð»Ð°Ð´":8391,"Ð¾Ñĩ":8392,"ĠÐ½Ð°Ð»Ð¾Ð³":8393,"ĠÐ»ÐµÐºÐ°":8394,"ĠÐĴÐ»Ð°Ð´Ð¸Ð¼Ð¸ÑĢ":8395,"ĠÐ¿Ð¾Ð´ÑĤÐ²ÐµÑĢÐ´":8396,"ÑģÐ¾ÑĢ":8397,"ĠÐ¿ÑĢÐµÐ¶Ð":8398,"ĠÐ²ÑĢÑıÐ´":8399,"ĥÑĥÑ":8400,"75":8401,"ĠÐºÑĢÐ¾":8402,"Ð°Ð½Ð½Ð¾":8403,"ĠÐľÐµÐ¶Ð´":8404,"ail":8405,"ĠÐ¤ÐµÐ´Ðµ":8406,"ĠÐ·Ð°ÑĢÐ°Ð½ÐµÐµ":8407,"ÐŁÐµÑĢÐ":8408,"ĠÐ½Ð°ÑģÑĤÑĢÐ¾ÐµÐ½Ð¸Ðµ":8409,"ÐķÑģÑ":8410,"½ÐµÑĤÑģÑı":8411,"ĠÐ¼Ð¸Ð»Ð»Ð¸Ð¾Ð½Ð¾Ð²":8412,"ĠÐ¿ÑĢÐ¸ÑģÑĤÑĥÐ¿":8413,"ÑĭÐ»Ð°":8414,"aÐ½":8415,"ĠÑĤÐ°ÐºÐ":8416,"ĠÑģÐ²ÑıÐ·ÑĮ":8417,"ÑĢÐ¸Ð³Ð°":8418,"ÑĢÐ¾ÐºÐ°":8419,"Ð½Ð¸ÐºÐµ":8420,"ÐķÑģÑĤ":8421,"ĠÑĢÐ¾Ð»":8422,"ĠÑĤÐ°ÐºÐ¸":8423,"ĠÐ·Ð°Ð¿Ð¸ÑģÐ¸":8424,"ĠÑĤÐµÐ¼Ð½":8425,"ĠÑģÐ¾Ð·Ð´Ð°":8426,"ĠÐ¾Ð´Ð¸Ð½Ð°ÐºÐ¾Ð²":8427,"Ð¸ÑĢÐ¾Ð²Ð°Ð»Ð¸":8428,"ĠÐ½ÐµÐ±Ðµ":8429,"ĠÐ¾ÑĤÐºÑĢÑĭÐ»":8430,"ĠÐ»ÑİÐ±Ð¸Ð¼Ð":8431,"nd":8432,"ÐłÐµ":8433,"ĠÐ´ÑĥÐ¼Ð°ÐµÑĪÑĮ":8434,"ĠÐºÐ°Ð¶Ð´Ð¾Ð¼":8435,"ĠÑĦÐ¸ÑĢÐ¼":8436,"ĠÐĶÐ¼Ð¸ÑĤ":8437,"±ÑĮ":8438,"ÑĥÐ²Ðµ":8439,"ĠÐ»ÑİÐ±Ð¾Ð¿":8440,"Ð³ÑĥÐ»":8441,"½Ð¸ÐºÑĥ":8442,"ĠÐ¿ÑĢÐ¾Ð¸Ð·Ð²Ð¾Ð´Ð¸":8443,"sp":8444,"ĠÐ´ÐµÑĢÐµÐ²ÑıÐ½":8445,"ĠÐ¿Ð¾Ð»ÑĥÑĩÐ¸Ð»Ð¸":8446,"ĠÐ¿ÑĢÐ°ÐºÑĤÐ¸Ðº":8447,"Ð¾ÑĤÐ":8448,"¾ÑģÑĤÑĮÑİ":8449,"ĠÐ¼Ð¾ÐµÐ¼":8450,"ĠÑģÐ²ÐµÑĢÑħÑĥ":8451,"ÑĥÑīÐ¸Ñħ":8452,"Ð»Ð»Ñ":8453,"ÐŁÐ":8454,"ÑĢÐ°Ð½Ðµ":8455,"hat":8456,"ĠÑģÐ¿ÐµÑĨÐ¸Ð°Ð»ÑĮÐ½Ð¾":8457,"ĠÐ»Ð¸ÑģÑĤ":8458,"ĠÐ¼Ð¾ÑģÑĤ":8459,"ĠÐ²Ð½ÐµÐ·Ð°Ð¿Ð½Ð¾":8460,"ÑĢÑģÑĭ":8461,"ĠÐ¢ÐĲ":8462,"ant":8463,"ÑģÐ¼ÐµÐ½":8464,"Ð¸ÑĢÐ¾Ð²Ð°Ð½Ð¸Ðµ":8465,"ĠÐºÐ¾Ð¼ÑĦ":8466,"ĠÑıÐ¿Ð¾Ð½":8467,"ÑĢÐ°Ð½Ð°":8468,"Ð¿ÑĢÐµÐ¶Ð½ÐµÐ¼Ñĥ":8469,"»Ð½":8470,"Ð»Ð¸Ð»ÑģÑı":8471,"»ÐµÐ½Ð":8472,"ĠÐ³Ð»Ð°Ð²Ð°":8473,"Ġde":8474,"ĠÐ¸ÑģÑĤÐ¸Ð½":8475,"ĠÐ±ÐµÑĢÐµÐ³Ñĥ":8476,"ĠÐ¸Ð´ÑĳÑĤ":8477,"ĠÐ¿Ð°ÑģÑģÐ°Ð¶Ð¸":8478,"²Ð½Ð":8479,"ĠÐĺÐ³Ð¾":8480,"âĿ¤âĿ¤":8481,"ĠÐ½Ð¸Ð¶Ð":8482,"ĠÑĤÐµÐºÑģÑĤ":8483,"65":8484,"ĠÐ²ÑģÑĤÐ°Ð":8485,"ĠÐ²ÑģÑĤÐ°Ð»":8486,"Ð¾ÑĩÐºÐ°":8487,"ĠÐ¿ÐµÑģÐ½Ð":8488,"ĠÑħÐ¾ÑĢÐ¾ÑĪÐ¸Ðµ":8489,"ĠÐ¿ÐµÑģÐ½Ð¸":8490,"ĠÐ»ÐµÐ³ÐµÐ½":8491,"ĠÐ¡Ð»Ð¾Ð²":8492,"ÐºÐ¾Ð»ÐµÐ¿":8493,"ĠÑĨÐµÐ»ÑĮ":8494,"ĠÐºÑĢÐ°ÑģÐ¸Ð²Ð¾":8495,"ĠÐ©":8496,"ĠÑĥÐ¹":8497,"ĠÑģÑĤÐ¾ÑıÐ»Ð¸":8498,"ĠÑĪÐ»Ð¸":8499,"ĠÐ·Ð»Ð¾":8500,"ĠÐ¿ÐµÑĤ":8501,"ĠÐºÐ°ÑĢÑĮÐµ":8502,"ĠÐĲÐ»ÑĮ":8503,"¶Ð¸Ð²Ð°":8504,"ĠÑĥÐ¼Ð¸":8505,"ĠÑģÐ¾Ð±ÐµÑģÐµ":8506,"ĠÐĴÐ°Ð»":8507,"ÑĤÐ¾Ð½Ð°":8508,"ĠÐ¿Ð¾ÐºÐ°Ð·Ð°ÑĤÑĮ":8509,"Ð¾Ð´Ð½ÑĭÑħ":8510,"ĠÐ´ÐµÐ¹ÑģÑĤÐ²Ð¸Ð¹":8511,"ĠÐ²Ð¾ÑģÐºÐ»Ð¸Ðº":8512,"½ÐµÐ½":8513,"ÑģÐ¿Ð°ÑģÐ¸Ð±Ð¾":8514,"ÑģÐµÑĢÐ":8515,"Ð¾Ð¶ÐµÐ½Ð¸Ðµ":8516,"ĠÑĥÐ»ÑĭÐ±Ð½ÑĥÐ»Ð°ÑģÑĮ":8517,"ĠÐ¿ÑĭÑĤÐ°ÑıÑģÑĮ":8518,"²Ð½Ð¸":8519,"ÑģÐ½ÑĭÑħ":8520,"ĠÐ±Ð»Ð¸Ð½":8521,"ÑģÐ°Ð¹":8522,"³Ð»Ñĥ":8523,"ĠÐ¿ÐµÑĢÐ²Ð¾Ðµ":8524,"ÑįÐ¼":8525,"ĠÐ¿Ð»Ð°ÑĤÐ¸Ñ":8526,"ĠÐ¾Ð±Ð»ÐµÐ³":8527,"ĠÐ¿Ð»Ð°ÑĤÐ¸ÑĤ":8528,"ĠÐ´Ð°Ð½Ð½ÑĭÐµ":8529,"Ð°Ð³Ð¾Ð²":8530,"ĠÐĿÑĥÐ¶Ð½Ð¾":8531,"ÑĥÐ½Ñĭ":8532,"ĠÑīÐ°":8533,"»ÐµÑĤ":8534,"ĠÐļÐ°Ð»":8535,"¾Ñħ":8536,"ĠÐ°ÑĤÐ¼Ð¾Ñģ":8537,"ĠÑģÐ¾ÑĤÑĢÑĥÐ´Ð":8538,"²Ð»ÑıÐ»Ð¸":8539,"Ð¾ÑĤÐº":8540,"ÑģÐµÐ¼ÑĮ":8541,"ĠÐºÑĢÐ¾Ð²Ð°ÑĤÐ":8542,"ĠÐºÑĢÐ¾Ð²Ð°ÑĤÐ¸":8543,"Ġ198":8544,"ĠÐŀÐ»ÑĮÐ":8545,"¶Ð¸Ð»Ð¸":8546,"ĠÐ´ÐµÑģÑıÑĤÐ":8547,"ĠÑģÐ¿ÑĢÐ°Ð²ÐµÐ´Ð":8548,"ÑģÐ¼Ð°":8549,"ram":8550,"ÑĨÐ¸ÑıÑħ":8551,"ĠÐ¸Ð´ÐµÑı":8552,"ÑģÐµÐº":8553,"ĠÐ¾ÑĤÐºÐ°Ð·ÑĭÐ":8554,"Ð³Ð°Ñ":8555,"ĠThe":8556,"ĠÐ¾ÑĤÑĢÑı":8557,"ĠÐ±Ð¸Ð±Ð»Ð¸":8558,"ĠÐºÐ°ÑĩÐµÑģÑĤÐ²Ð°":8559,"ĠÐ²ÑĭÑĢÐ":8560,"ĠÐ¿ÑĢÐµÐ´Ð»Ð¾Ð¶Ð¸Ð»":8561,"ĠÑħÐ¾Ð´Ðµ":8562,"ÑĢÐµÑģÑĤÐ¸":8563,"ĠÐ½Ð°Ð¼Ð½Ð¾Ð³Ð¾":8564,"ĠÑĥÑĢÐ¾Ð²Ð½Ñ":8565,"Ð¼ÑģÑ":8566,"ĠÐ´ÐµÑģÑıÑĤÐ¸":8567,"ĠÐºÐ¾Ð»Ð¾Ð½":8568,"ĠÑĥÑĢÐ¾Ð²Ð½Ñı":8569,"ĠÐ¾Ð±Ð¼ÐµÐ½":8570,"ÑĢÑĥÐ·ÑĮÑı":8571,"ĠÐ²Ð¾Ð¿ÑĢÐ¾ÑģÐ¾Ð²":8572,"·ÑĢÑı":8573,"ĠÐ¾ÑģÑĤÐ¾ÑĢÐ¾Ð¶Ð½Ð¾":8574,"ÐµÐ±Ð":8575,"ĠÐ´ÐµÐ¿Ñĥ":8576,"ĠÐ¼Ð¾Ñĳ":8577,"ĠÐļÑĢÑĭÐ¼":8578,"ÑĩÐ°Ð½Ð¸":8579,"ĠÐľÐ¾Ð»":8580,"ĠÐ¾Ð±ÑĭÐ":8581,"Ð¸Ð»Ðµ":8582,"ĠÂ":8583,"ĠÐ¿Ð°ÑĢÑĤÐ¸Ð¸":8584,"ÑĩÐºÐ¾":8585,"²Ð¼Ðµ":8586,"ĠÐ¾Ð¿ÑĥÐ±Ð»Ð¸Ðº":8587,"Ð¸Ð·Ð½":8588,"ĠÑĨÐµÐ½ÑĤÑĢ":8589,"ĠÑģÐµÑĤÐ":8590,"ĠÑįÐ½ÐµÑĢÐ³Ð¸Ð¸":8591,"ĠÑģÐµÑĤÐ¸":8592,"Ð¼ÐµÐ½Ð¾Ð²":8593,"ÑįÐ»Ñ":8594,"ĠÐ·Ð°Ð±ÑĭÐ»":8595,"Ð¾Ð´Ð¾Ð»":8596,"ĠÑĢÐ°ÑģÑģÐºÐ°Ð":8597,"ÑģÐ¿Ð¾ÑģÐ¾Ð±Ð":8598,"ĠÐ¿Ð¾Ð»Ð¸ÑĨÐ¸Ð¸":8599,"ĠÑģÐ¼ÑĭÑģÐ»Ð°":8600,"ÑĥÑģÑĭ":8601,"ĠÐļÐ°ÐºÐ¾Ð¹":8602,"ĠÑģÐ¾Ð»Ð½Ðµ":8603,"ºÐ°Ñı":8604,"ĠÐ¼Ð¾Ð»Ð¸":8605,"±ÑĢÐµÐ":8606,"Ð´Ð°Ð²Ð°ÑĤÑĮ":8607,"ĠÑĨÐµÐ»ÑĮÑİ":8608,"ĠÑĤÐºÐ°Ð½":8609,"Ð¸Ð½Ð³ÑĢÐ°Ð´":8610,"ĠÐ»ÑİÐ±ÑıÑĤ":8611,"ĠÑĥÐ»Ð¸ÑĨÑĥ":8612,"ĠÐºÐ¾Ð¼Ð¿Ð»ÐµÐº":8613,"Ð¾Ð²ÑĭÐ¼":8614,"ly":8615,"ĠÑĢÑĥÐ±Ð°":8616,"Ð·ÑĢÐ¸":8617,"ĠÑĤÐ¾ÑĢÐ¶Ðµ":8618,"ĠÐ¸ÑģÐ¿ÑĥÐ³":8619,"Ġ1000":8620,"ĠÐ·Ð°Ð±ÑĭÑĤ":8621,"ÑģÐ¸Ð»Ð°ÑģÑĮ":8622,"ĠÐ¿ÑĢÐ¾ÑĪÐµÐ»":8623,"ĠÐ²Ð·ÑıÐ»Ð°":8624,"Ð¢Ð¾":8625,"ĠÐ±Ð¸ÑĤ":8626,"ĠÐ²Ð¾Ð·Ð´ÐµÐ¹ÑģÑĤ":8627,"ÑĮÐºÐ°":8628,"ĠÐĿÐ¸ÐºÑĤÐ¾":8629,"ĠÐĳÐ»Ð°Ð³Ð¾Ð´Ð°":8630,"ÑĢÐ°Ð²Ð¸ÑĤÑĮÑģÑı":8631,"ĠÐºÐ»Ð°ÑģÑģÐ°":8632,"ĠÐ¼ÐµÑģÑĤÐ°Ñħ":8633,"ĠÑĥÐ¹ÑĤÐ¸":8634,"Ð´Ð¾ÑĢ":8635,"Ð¾ÑĢÑĭÐ¼":8636,"ĠÐ´ÑĥÑĢÐ°":8637,"ĠÐ¶Ð´ÐµÑĤ":8638,"Ð°Ð²Ð":8639,"ĠÑĦÐ¾ÑĤÐ¾Ð³ÑĢÐ°ÑĦÐ¸Ð¸":8640,"ĠÐ¿Ð¾ÑģÐ²ÑıÑī":8641,"ĠÐ½Ð°ÑĪÐ¸Ð¼":8642,"ÑĢÑĸ":8643,"Ð°Ð»Ñı":8644,"ĠÐ¿ÑĢÐ¸Ñ":8645,"ĠÐ¾ÑĩÐµÑĢÐµÐ´Ð½Ð¾Ð¹":8646,"ĠÑģÑĤÑĢÑĥÐºÑĤÑĥ":8647,"ĠÐ°Ð½Ð°Ð»":8648,"Ð¸ÑĢÐ¾Ð²Ð°Ð½Ð¸Ñı":8649,"Ð´ÐµÐ¸":8650,"Ð¾Ð´Ð°Ñ":8651,"ĠÑĤÑİÑĢÑĮ":8652,"ĠÐ¿ÑĢÐµÐ·Ð¸Ð´ÐµÐ½ÑĤ":8653,"Ð¸Ð²Ñĭ":8654,"ĠÐłÐ°Ð±Ð¾ÑĤÐ°":8655,"ĠÐ±Ð°Ð±Ð":8656,"ÑĮÐ±Ñĥ":8657,"ĠÐ²ÐµÑģÐµÐ»":8658,"ĠÐ±Ð¾Ð³Ð°Ñ":8659,"ÐļÐ¾Ð½":8660,"ĠÐ¾ÑģÐ½Ð¾Ð²Ðµ":8661,"Ð´Ð°Ñİ":8662,"ÑıÐ¹":8663,"ĠÑıÑī":8664,"ĠÑģÑĤÐ°Ð²":8665,"ĠÐĴÐ¼ÐµÑģ":8666,"ĠÑģÐµÐºÑĥÐ½Ð´":8667,"Ð½ÐµÑĤÑ":8668,"ĠÐ²Ð¾Ð·Ð±ÑĥÐ":8669,"¶Ð¸Ð²Ð°ÑĤÑĮ":8670,"±ÐµÐ½Ð½Ð¾":8671,"ĠÐ¾Ð±ÑĬÑıÑģÐ½Ð¸Ñ":8672,"ĠÐ¾Ð±ÑĬÑıÑģÐ½Ð¸ÑĤ":8673,"ĠÑįÑĤÐ¸Ð¼Ð¸":8674,"ÑĩÐµÑĪÑĮ":8675,"ĠÐ·Ð½Ð°ÐµÐ¼":8676,"se":8677,"ĠÑģÐ²Ð¸Ð½":8678,"ĠÐ¡Ð»Ñĥ":8679,"ĠÐ¿Ð¸ÑĤÑ":8680,"ĠÐ³ÑĥÐ»":8681,"ĠÑģÐ¼ÐµÑĢÑĤ":8682,"ĠÑģÐ¸ÑĤÑĥÐ°ÑĨÐ¸Ñİ":8683,"Ð´ÐµÐ»ÑĮÐ½Ð¾":8684,"ĠÐ¿ÐµÑĢÐ²Ð°Ñı":8685,"ĠÐľÑĥÐ¶":8686,"ĠÐºÐ¾ÑĢÐ¸Ð´Ð¾":8687,"39":8688,"ĠY":8689,"ĠÐ¼Ð°ÑģÑģ":8690,"ĠÐ·ÑĢÐ¸":8691,"Ð²Ð¼Ðµ":8692,"ĠÐ±ÑĢÐ¾ÑģÐ¸Ð»":8693,"ĠÐ¿ÑĢÐ¾ÑĪÑĥ":8694,"ĠÐ¾ÑĤÐºÑĢÑĭÑĤÑ":8695,"ĠÑĢÐµÐ´ÐºÐ¾":8696,"ÑĩÐµÐ½Ð½ÑĭÑħ":8697,"ĠÐŁÐ¾Ð±Ðµ":8698,"Ð¾Ñī":8699,"»Ð¾Ð¹":8700,"ÑģÐ°Ð¿":8701,"ĠÐļÐ°Ñ":8702,"ĠÐ¿Ð»Ñİ":8703,"ĠÐŁÐ°Ð²":8704,"ÑģÐ¿ÐµÐºÑĤ":8705,"Ð¼Ð±Ð":8706,"ĠÐºÐ»Ð°ÑģÑģÐ¸":8707,"ÑĢÐ»Ð¸":8708,"ĠÑĢÐµÐ±ÑıÑĤ":8709,"Ð´Ð»ÐµÐ½Ð½Ð¾":8710,"ĠÐ¼Ð»":8711,"ĠÐ¿Ð¸ÑĤÑĮ":8712,"ÑĦÐµÑĢÐµÐ½":8713,"ÑĢÐ°Ð·Ð°":8714,"ÑģÑĤÑĢÐ¾Ð¹":8715,"¸ÑĩÐ½Ð¾":8716,"ĠÐ¸Ð·Ð½Ð°":8717,"ĠÐ²Ð¿ÐµÑĢÐµÐ´Ð¸":8718,"»Ð°Ð½":8719,"ĠÑĨÐµÐ»ÑĭÐ¹":8720,"²ÑħÐ¾Ð´":8721,"ÑĢÑıÐµÑĤ":8722,"ĠÐ»ÑİÐ±Ð¾Ð³Ð¾":8723,"ĠÐºÐ°Ð¿Ð¸ÑĤÐ°Ð½":8724,"Ð°Ð½ÑĤÐ¾Ð²":8725,"Ð°Ð»ÑĮÐ½ÑĭÐµ":8726,"Ð²ÑħÐ¾Ð´":8727,"ĠÐ¿p":8728,"ĠÑĤÐµÑģ":8729,"ÐŁÐ¾ÑĩÐµÐ¼Ñĥ":8730,"ÑĢÑıÐ´ÐºÐ°":8731,"ĠÐ´Ð¾ÑħÐ¾Ð´":8732,"ĠÐ·Ð°Ð±ÑĥÐ´":8733,"oÐ¹":8734,"ÑıÐ»Ð°ÑģÑĮ":8735,"ÑĳÐ³":8736,"ĠÑĢÑıÐ´":8737,"Ð´ÐµÐ½Ð¸Ð¹":8738,"ĠÑģÑĤÐ¾Ð¹":8739,"ĠÑħÐ¾Ð·ÑıÐ¸Ð½":8740,"ÑģÑĤÐ²Ð¾Ð²":8741,"ĠÐ¿Ð¸ÑģÑ":8742,"ÑĩÐ°Ð½Ð¸Ñ":8743,"ÑĩÐ°Ð½Ð¸Ñı":8744,"ĠÐ½Ð°Ð·Ð²":8745,"»ÐµÐ½Ð¸":8746,"ĠÐ½Ð°Ð¿ÑĢÐ¾ÑĤÐ¸Ð²":8747,"Ð¾ÑĢÐº":8748,"ĠÐĿÐµÑĥÐ¶ÐµÐ»Ð¸":8749,"ĠÑģÐ¼Ð¾ÑĤÑĢÐ¸ÑĤ":8750,"ĠÐ½Ð°ÑģÑ":8751,"ĠSt":8752,"Ð·ÑĢÑı":8753,"ĠÐºÐ¾Ð½ÑģÑĤÑĢÑĥÐº":8754,"ĠÐ²Ð¼Ðµ":8755,"ĠÐ´ÑĢÑĥÐ³Ð°Ñı":8756,"ĠÐ¿Ð°Ð»ÑĮÑĨÑĭ":8757,"Ð¡Ðĺ":8758,"Ð¼Ð°ÑĤÐ¸ÑĩÐµÑģÐº":8759,"ĠÐĽÐ¡":8760,"Ð¼ÑģÑı":8761,"ĠÐĴÐ·":8762,"ÑĩÐ¸Ð²Ð°ÑĤÑĮ":8763,"ĤÑĥÐ»":8764,"ÑĢÑģÐº":8765,"Ð³Ð»Ñĥ":8766,"ÑĢÑĮÑı":8767,"ĠÑģÐ¸Ð´Ð¸ÑĤ":8768,"ĠÑĢÐ°ÑģÑģÐºÐ°Ð·Ð°ÑĤÑĮ":8769,"ÑĢÐµÐ´Ðµ":8770,"ÑīÐ¸Ñħ":8771,"ĠÐºÐ¾Ð½ÑĤÑĢÐ°Ð":8772,"¶ÐµÐ½Ñĭ":8773,"ĠÐ²Ð½ÑĥÑĤÑĢÐµÐ½Ð":8774,"ill":8775,"ĠÐ±ÑĢÑİ":8776,"ĠÐ¶ÐµÐ»Ð°Ð½Ð¸Ñ":8777,"ĠÐ¶ÐµÐ»Ð°Ð½Ð¸Ñı":8778,"48":8779,"ĠÐŁÐ¾Ð»Ñĥ":8780,"Ð´Ð¶ÐµÑĤ":8781,"ÐµÑģÑĤÐ¸Ð²Ð°Ð»":8782,"ĠÐºÐ¾Ð¼Ð°Ð½Ð´Ð°":8783,"ÑĢÐ°Ð·ÑĥÐ¼":8784,"Ð¸ÑĢÐ°":8785,"Ð½Ð¸ÐºÐ°Ð¼":8786,"ĠÑģÐ¾ÑģÐµÐ´Ð":8787,"ĠÐ²Ð¾Ð·ÑĢÐ°ÑģÑĤÐ°":8788,"ĠÐ¼ÐµÑĤÑĢÐ¾":8789,"Ð»Ð¾Ð±Ð":8790,"ĠÐ¿ÑĢÐ¾ÐºÑĥ":8791,"ĠÐĽÑĥÑĩÑĪÐµ":8792,"ÑĤÐµÐ»ÑĮÑģÑĤ":8793,"ÑİÑīÐ¸ÐµÑģÑı":8794,"Ð¸Ð»ÑĮÐ½Ð¸Ðº":8795,"ĠÐ¿Ð¾Ð½Ð¸Ð¼Ð°ÐµÑĪÑĮ":8796,"ĠÐ³Ð¾ÑĢ":8797,"ÑĤÐ²ÑĥÐµÑĤ":8798,"ĠÐ¾Ð±ÑĬÑıÐ":8799,"ĠÐ¸Ðº":8800,"ĠÐ´Ð¾ÐºÑĥÐ¼ÐµÐ½ÑĤÑĭ":8801,"ĠÐ¿Ð¾Ð»ÑĥÑĩÐ°":8802,"Ð¦Ðĺ":8803,"ĠÐ·Ð°Ð¼ÐµÑĤÐ¸Ð»Ð°":8804,"ĠÐ°Ð²ÑĤÐ¾Ð±ÑĥÑģ":8805,"ÑģÐ¾Ñģ":8806,"ÑģÑĨ":8807,"ÑĢÐµÑı":8808,"ĠÑģÐ¾Ð³Ð»Ð°Ñģ":8809,"ĠÐ¿ÑĢÐ¾ÑĨÐµÐ´Ñĥ":8810,"ĠÑĩÐ¸ÑģÐ»Ð¾":8811,"ĠÑģÐ¾Ð·Ð´Ð°ÑĤÑĮ":8812,"ĠÑĪÑĤÑĢÐ°":8813,"ĠÑĥÐ±Ð¸ÑĤÑĮ":8814,"ĠÑĩÐ¸ÑģÑĤÐ¾":8815,"ĠÐ²Ð´Ð¾Ð»ÑĮ":8816,"ĠÑģÐ»ÑĥÐ¶Ð±Ñĭ":8817,"ĠÐ§Ð":8818,"ÐµÑĢÐ¾Ð¼":8819,"ĠÑģÐµÐ²Ðµ":8820,"¶ÐµÐ½Ð¸Ñİ":8821,"ĠÐ¶Ð¾Ð¿":8822,"ĠÑĪÑĤÐ°":8823,"±ÑĢÐ°Ð½":8824,"¸ÑĤÐµÑģÑĮ":8825,"ĠÐ¾ÑĪÐ¸Ð":8826,"ĠÑĥÑĩÐ°ÑģÑĤÐ½Ð¸ÐºÐ¾Ð²":8827,"ÑĦÑĭ":8828,"¶Ð´Ñĭ":8829,"ÑĢÐ½ÑĭÐ¼":8830,"ÑĨÐ¸ÑıÐ¼Ð¸":8831,"ÐķÐĻ":8832,"ĠÑĥÑĩÑ":8833,"ĠÐ·Ð°Ð¿Ð¾Ð»Ð½":8834,"ÑĳÑĪÑĮ":8835,"ĠÐĵÐ¾":8836,"ĠÑģÐ¾ÑģÑĤÐ¾Ñı":8837,"Ð²ÑĭÐµ":8838,"ĠÐ¿Ð¾Ð¹Ñ":8839,"ĠÐºÑĥÐ»ÑĮÑĤÑĥÑĢÑĭ":8840,"ĠÐ¿Ð¾Ð¹ÑĤ":8841,"ĠÐ¼Ð¾Ð¼ÐµÐ½ÑĤÐ°":8842,"ĠÐ´Ð°ÑİÑĤ":8843,"ĠÐ·Ð´Ð¾ÑĢÐ¾Ð²ÑĮÐµ":8844,"ĠÐ¿Ð¾Ð¹ÑĤÐ":8845,"ĠÐ¿Ð¾Ð¹ÑĤÐ¸":8846,"ĠÐ¾ÑĤÐ²ÐµÑĤÐ¸ÑĤÑ":8847,"ard":8848,"ĠÐ¾ÑĤÐ²ÐµÑĤÐ¸ÑĤÑĮ":8849,"¶ÐµÐ½Ð½ÑĭÐµ":8850,"pro":8851,"Ð°ÐµÐ":8852,"ĠÐĲÑĦ":8853,"ĠÑģÐ¾Ð±ÑĭÑĤÐ¸Ð¹":8854,"ĠÐĺÐ³":8855,"ĠÑģÑĤÐ¾Ð»Ð°":8856,"ÐĴÐ¾":8857,"ĠÐºÑĢÐ°Ñı":8858,"ĠÐµÐ¶ÐµÐ´Ð½ÐµÐ":8859,"±ÑĢÐ°Ðº":8860,"»ÑıÑĤÑĮ":8861,"ĠÑģÐ¿Ð¸ÑģÐ¾Ðº":8862,"ĠÐ¿ÑĢÐ¸Ð½Ð¾":8863,"ÑĤÐ¾ÑĢÑĥ":8864,"ĠÑĦÐ¾ÑĢÐ¼Ñĥ":8865,"ĠÐ¾Ð±Ð¾ÑĢÑĥÐ´Ð¾Ð²":8866,"¶Ð°Ð»Ñģ":8867,"ıÐ±Ð":8868,"¶Ð°Ð»ÑģÑ":8869,"Ð¸ÑģÑĤÑĢ":8870,"ost":8871,"Ð°Ð»Ð°ÑģÑĮ":8872,"ĠÐ¿ÑĢÐ¾Ð³Ð¾Ð²Ð¾":8873,"ĠÑģÑĤÐ°ÑĢÑĭÐ¹":8874,"¶Ð°Ð»ÑģÑı":8875,"ĠÐµÐ²ÑĢÐ¾Ð¿ÐµÐ¹":8876,"ĠÐ·Ð½Ð°ÑĩÐµÐ½Ð¸Ðµ":8877,"ÑĪÐµÐ½Ð¸Ð¸":8878,"ĠÐ±ÑĥÐ":8879,"ĠÐ½Ð°Ð²ÑģÐµÐ³Ð´Ð°":8880,"ĠÑĥÐ¿Ð¾ÑĤÑĢÐµÐ±Ð":8881,"ĠÑĢÐ°ÑģÑĤÐµ":8882,"ĠÐĵÐµÑĢÐ¼Ð°Ð½Ð¸Ð¸":8883,"Ð¡Ðŀ":8884,"Ġto":8885,"ĠÑĥÐ»ÑĭÐ±Ð°":8886,"ĠÐ¸Ð½Ð´Ð¸Ð²Ð¸Ð´ÑĥÐ°Ð»ÑĮÐ":8887,"ĠÐ¿Ð¸ÑģÑĤÐ¾Ð»":8888,"ĠÐ´Ð¸Ð¿Ð»Ð¾Ð¼":8889,"ĠÐŁÑĢÐ¸Ð²ÐµÑĤ":8890,"ÐĴÐ°":8891,"ĠÐłÐ¾Ð´":8892,"ĠÐ¾ÑīÑĥÑīÐµÐ½Ð¸Ðµ":8893,"ÑĢÐ°ÑĤÑĭ":8894,"ĠÐ³Ð»ÑĥÐ±Ð¾ÐºÐ¾":8895,"ÑĥÐºÑĥ":8896,"ĠÐķÐ¹":8897,"ĠÑģÑĩÐ¸ÑĤÐ°Ñİ":8898,"ĠÐ²ÐµÑĤÐµÑĢ":8899,"»ÑĮÐ½ÑĭÐµ":8900,"Ð¸ÑĩÐ½Ð¾":8901,"ĠÐ¿Ð¾Ð²Ð¾Ð´":8902,"ĠÑģÐ¾ÑĤÐ":8903,"ĠÐ±ÑĢÐ°ÑĤÐ°":8904,"ĠÐ¢Ð¾Ð»":8905,"ĠÐ»Ð¸Ð½Ð¸Ð¸":8906,"ĠÐ¿ÑĢÐ¸Ñģ":8907,"ĠÑģÐ¸Ð¼Ð²Ð¾Ð»":8908,"ĤÑīÐ°":8909,"ÑĤÑīÐ°":8910,"ĠÐ½ÐµÐ²":8911,"ÑĤÐµÐ»ÑĮÑģÑĤÐ":8912,"ĠÑĦÐ¾ÑĢÐ¼Ñ":8913,"ÑĤÐµÐ»ÑĮÑģÑĤÐ²":8914,"Ġe":8915,"ĠÑģÐ¿Ð°Ñģ":8916,"ĠÐ¶Ð¸Ð´Ðº":8917,"ĠÐ¶Ð¸Ð·Ð½ÑĮÑİ":8918,"ĠÑĦÐ¾ÑĢÐ¼Ñĭ":8919,"ĠÑģÐ½ÐµÐ³":8920,"³Ð¸Ð³":8921,"ĠÐĶÐ¶ÐµÐ¹":8922,"ĠÑģÐ¾ÑİÐ·":8923,"ĠÐ½ÐµÑĢÐµ":8924,"ÑĤÑģÑĤÐ²Ð°":8925,"Ð±Ð¸Ð":8926,"ÑĪÐ½Ð¾Ð¹":8927,"Ð¿Ð¸Ñ":8928,"ĠÑģÐ½Ð¸Ð":8929,"Ġy":8930,"ÐºÐ°Ð½Ð°":8931,"ÐºÐ¾Ð²Ð°":8932,"ĠÑģÑĤÐ¾ÑĢÐ¾Ð½Ð°":8933,"ĠÐ¼Ð³Ð½Ð¾Ð²ÐµÐ½Ð¸Ðµ":8934,"ĠÐºÐ¾Ð¶Ñĥ":8935,"ĠÐ¿ÑĢÐ¸Ð¼ÐµÑĢ":8936,"ĠÐ¿ÑĢÐ¸Ð½ÑıÐ»":8937,"²Ð»ÑıÑİÑĤÑģÑı":8938,"ÑħÐ¾Ð¶Ðµ":8939,"ĠÐ½Ð¾Ð³Ð°Ð¼Ð¸":8940,"Ð°ÐµÐ¼Ñģ":8941,"Ð»Ð°Ð¼":8942,"ĠÑģÐ»Ð¾Ð¼":8943,"ĠÑģÐ¿Ð¸Ð½Ñĥ":8944,"ĠÑģÐµÐºÑĢÐµÑĤ":8945,"ĠÐľÐ¾ÑģÐºÐ¾Ð²":8946,"ÑĮÐµÑĢ":8947,"ĠÐ¡Ð»ÐµÐ´":8948,"Ð¿ÐµÐºÑĤ":8949,"ĠÑģÐ¾ÑĤÐ½":8950,"ĠÐ³Ð»Ñĥ":8951,"ÑħÐ¾ÑĢÐ¾":8952,"ĠÑĤÑīÐ°":8953,"Ð°ÐµÐ¼ÑģÑ":8954,"ĠÑĢÐ°Ð·ÑĢÐ°Ð±Ð¾ÑĤ":8955,"Ð°ÐµÐ¼ÑģÑı":8956,"Ð¾Ð»Ð¾Ð¶Ð":8957,"ĠÐ¾Ð·Ð½Ð°ÑĩÐ°ÐµÑĤ":8958,"ĠÐ¾ÑĤÐ¿ÑĥÑģÑĤ":8959,"ĠÑĥÑģÑĤÑĥÐ¿":8960,"ÑĪÐ°Ð¹":8961,"ĠÐ³ÑĥÐ±Ðµ":8962,"ĠÐ·ÑĢÑı":8963,"ĠÑģÐ¼Ð¾Ð³Ñĥ":8964,"Ð¢Ð¾Ð»ÑĮÐºÐ¾":8965,"ÑīÐ¸Ðº":8966,"¸ÑĦ":8967,"ĠÐ¿Ð¾Ð½ÐµÐ´ÐµÐ»ÑĮÐ":8968,"ĠÐ¿Ð¾Ð±ÐµÐ´Ð¸":8969,"Ð´Ð½ÑĭÑħ":8970,"ºÐ½Ð¾Ð²":8971,"ĠÐ¿ÑĢÐ¾ÐµÐºÑĤÐ°":8972,"ÑĪÐ¸Ð²Ð°ÑĤÑĮ":8973,"Ð»ÐµÐ¹ÑĤÐµ":8974,"ĠÐĳÑĭÐ»Ð¾":8975,"ĠÑģÐ¸Ð³Ð°":8976,"ĠÐ²ÑħÐ¾Ð´":8977,"ĠÐĴÑĤÐ¾ÑĢÐ":8978,"ĠÐ¿Ð¾ÑģÐ¿Ðµ":8979,"ĠÐ¿Ð°Ð¼ÑıÑĤ":8980,"ĩÑĢÐµÐ·":8981,"Ð´ÐµÑĨ":8982,"ÑĩÑĢÐµÐ·":8983,"»Ð¸Ð·Ð":8984,"±ÑĢÐ°ÑģÑĭÐ":8985,"ĠÐ»ÑİÐ±":8986,"ĠÑĢÐ°Ð·Ð¼Ñĭ":8987,"ÐºÐ°Ð¹":8988,"ĠÐ²ÑĤÐ¾ÑĢÐ¾Ð³Ð¾":8989,"ĠÐ¿Ð¾Ñį":8990,"Ġâļ":8991,"ĠÑĥÑĪÐµÐ»":8992,"ĠÐ¿ÐµÑĢÐµÐ¶Ð¸Ð²":8993,"ÐŀÑĩÐµÐ½ÑĮ":8994,"ĠÐºÐ°Ð¼ÐµÐ½":8995,"ĠÐ¿ÑĢÐµÐ´Ð»Ð°Ð³Ð°":8996,"ĠÐ¿Ð¾Ð¿Ñĭ":8997,"ÐºÑĢÐ°ÑģÐ":8998,"ĠÐºÐ²Ð°ÑĢÑĤÐ¸ÑĢÑĭ":8999,"ĠÑģÐ¾Ð±Ð»Ñİ":9000,"ĠÑĢÐ°Ð·Ð¼ÐµÑĢ":9001,"Ð¾ÑģÑĢÐµÐ´":9002,"ĠÐ¿Ð¾ÐºÐ»Ð¾Ð½":9003,"ĠÐ²ÑģÐ»ÐµÐ´":9004,"ĠÐ¿Ð¾Ð³Ð¾Ð²Ð¾ÑĢÐ¸ÑĤÑĮ":9005,"ĠÐ½ÐµÑĥÐ´":9006,"ĠÑĩÐµÐ¼Ð¿Ð¸Ð¾Ð½Ð°":9007,"Ð·Ð°Ð½Ð¸Ðµ":9008,"Ð¡ÐµÐ³Ð¾Ð´Ð½Ñı":9009,"ÑģÐ»ÐµÐ´Ð":9010,"ĠÐ¿ÑĢÐ¸ÐºÐ°Ð·":9011,"ÑĥÑģÑĤÐ¸ÑĤÑ":9012,"ÑĥÑģÑĤÐ¸ÑĤÑĮ":9013,"Ð±ÑĢÐ°Ðº":9014,"ÐµÐ²Ð¾ÑĩÐºÐ¸":9015,"ĠÑĢÐ°Ð´Ð¾ÑģÑĤ":9016,"ĠÑĤÑĢÐµÑĤÐ¸Ð¹":9017,"ĠÐ½Ð°Ð¿Ð¾Ð¼Ð½":9018,"ĠÐŁÑĢÐ¾Ð´Ð°Ð¼":9019,"ÑĢÐ°Ð·Ð¸ÑĤÑ":9020,"ĠÑĢÐ°Ð²Ð":9021,"Ð¸Ð½Ð¾Ð²":9022,"Ð³Ð¸Ð³":9023,"½Ð¸ÐºÐ°Ð¼":9024,"ĠÐĴÐ«":9025,"ĠÑĤÐµÐ¿Ð»Ð¾":9026,"½Ð¸ÑĨÐµÐ¹":9027,"ĠÐ½ÐµÐ´Ð¾":9028,"ĠðŁĳī":9029,"ĠÐ¿ÑĢÐ¾Ð³ÑĢÐ°Ð¼Ð¼Ñĭ":9030,"ÐķÑģÑĤÑ":9031,"¸Ð¼Ð¾":9032,"ÐķÑģÑĤÑĮ":9033,"Ð±Ð°Ðº":9034,"ĠÑģÑĥÐ±Ð±Ð":9035,"ĠÐ¿ÑĢÐ¾Ð´Ð¾Ð»Ð¶Ð":9036,"Ð½Ð¸Ðµ":9037,"ĠÐ¼ÐµÑĩÑĤ":9038,"ĠÑĢÐ°Ð´Ð°":9039,"ĠÑģÐ¾Ð¿ÑĢÐ":9040,"ĠÐºÑĥÑĢÑģÐµ":9041,"ÑĮÑĦ":9042,"ĠÐ¿Ð¾ÑĤÑıÐ":9043,"ĠÐ²ÑģÐº":9044,"ĠÑģÐµÐ»ÑĮ":9045,"ÐºÑĥÐ¿":9046,"Ð°Ð»ÑĮÐ½Ð¾Ðµ":9047,"ĠÐ²Ð¾Ð·ÑĢÐ°ÑģÑĤÐµ":9048,"ĠÐ¿ÑĢÐ¾Ð³ÑĥÐ»":9049,"ĠÐµÑħÐ°ÑĤÑĮ":9050,"ĠÐ·Ð°Ð¿Ðµ":9051,"ĠÐ»ÐµÐ¶Ð¸ÑĤ":9052,"ĠÑĤÐ¾Ðº":9053,"ÐĳÐ°":9054,"ĠðŁĺį":9055,"¶Ð°Ñİ":9056,"ĠÑĢÐµÑĨÐµÐ¿":9057,"ĠÑĤÑĥÐ°":9058,"ĠÐŁÑĢÐ¾Ð":9059,"Ð¸ÑģÐ°Ñ":9060,"Ð¾Ð¸ÑĤÑģÑı":9061,"³Ð»ÑıÐ":9062,"ĠÑĥÐ½Ð¸ÐºÐ°":9063,"ĠÐ¼Ð»Ð½":9064,"ĠÐĿÐ°Ð²ÐµÑĢÐ½Ð¾Ðµ":9065,"Ġ(Â«":9066,"ĠÐºÑĢÐ°Ð¹Ð½Ðµ":9067,"ĠÐ¾ÑĤÑĤÑĥÐ´Ð°":9068,"ĠÑģÐ¼ÐµÐ½":9069,"ĠÑĥÐ´Ð¾Ð²Ð¾Ð»ÑĮÑģÑĤÐ²Ð¸ÐµÐ¼":9070,"ĠÐ¾Ð±Ð¸Ð":9071,"¾ÑģÑĮ":9072,"ĠÑħÐ¾ÑĢÐ¾ÑĪÐ°Ñı":9073,"ĠÐ³Ð¾ÑĤÐ¾Ð²Ð°":9074,"ÑĩÐ¸Ð²Ð°ÐµÑĤÑģÑı":9075,"ÑıÐ±Ð":9076,"ĠÐ´Ð¾ÐºÐ°Ð·Ð°":9077,"ÑĢÐ¾ÐµÐ½":9078,"ĠÐ²Ð°ÑĪÑĥ":9079,"ÐĴÐ¾Ð":9080,"ĤÐ¸Ð¿":9081,"ĠÐ¿Ð¾Ð¿ÑĢÐ¾Ð±":9082,"ĠÐŁÐ¾Ð¿":9083,"ĠÐ±Ð¾Ð¶Ðµ":9084,"ÐĵÐĺ":9085,"ĠÑĩÑĢÐµÐ·":9086,"²Ð¾ÑģÑĮ":9087,"Ð»ÑıÐ½":9088,"ĠÐľÑĥ":9089,"ĠÐ±ÑĥÐ´ÑĥÑīÐµÐµ":9090,"ĠÐ¸Ð¼ÐµÑİ":9091,"Ð½ÐµÑĢÐ°":9092,"ĠÐ²Ð¾Ð¹Ð½Ð°":9093,"ĠÑĤÐµÐ»ÐµÑĦÐ¾Ð½Ð°":9094,"ĠÑĢÐµÐ³ÑĥÐ»Ñı":9095,"ĠÐ¼Ð¸Ð»Ð¸":9096,"ÐĺÐ¢Ðķ":9097,"ÐºÐ¾Ð³Ð´Ð°":9098,"ĠÐ²Ð¾Ð»ÑĪÐµÐ±Ð":9099,"Ð»ÐµÐ³Ð°":9100,"ĠÑįÐºÑģÐ¿ÐµÑĢÐ¸":9101,"ĠÐ²Ð¾Ð·ÑĢÐ°ÑģÑĤ":9102,"Ð¸Ð³Ð°":9103,"ÐŁÐĺ":9104,"ĠÐŁÐµÑĢÐµÐ´":9105,"Ð¸Ð½Ð°Ð½Ð":9106,"ĠÐ´ÐµÑĪÐµÐ":9107,"ĠÐ¿Ð¾Ð´ÑĬÐµÐ·":9108,"Ġ150":9109,"ĠÐ¾Ð±Ð¼Ð°Ð½":9110,"ÑıÐ¹ÑĤÐµ":9111,"ÑĥÑģÐ»Ð¾Ð²":9112,"ÑģÐ²Ðµ":9113,"68":9114,"Ð¸Ð½Ð°Ð½Ð¸":9115,"ĠÐ´ÐµÐ»Ð°Ð»Ð¸":9116,"ĠÐ¾Ð±ÑĬÑıÑģÐ½Ð¸ÑĤÑ":9117,"ĠÐ¾Ð±ÑĬÑıÑģÐ½Ð¸ÑĤÑĮ":9118,"ĠÐ»Ð¸Ð´Ðµ":9119,"ĠÐ¾ÑĤÐ½Ð¾ÑĪÐµÐ½Ð¸Ð¹":9120,"ĠÐ¿ÑĢÐ¾ÑĪÐµÐ¿":9121,"Ð°Ð»ÑĮÐ½Ð¾Ð³Ð¾":9122,"ĠÐĶÐ¾Ð»":9123,"ÑĤÑĥÐ»":9124,"78":9125,"ÑģÐµÑĢ":9126,"ĠÐ»ÑĥÑĩÑĪÐ¸Ð¹":9127,"Ð¼ÐµÐ»Ñ":9128,"ĠÑģÐ¾Ð±ÑģÑĤÐ²ÐµÐ½Ð½Ð¾Ð¹":9129,"ĠÐ½ÐµÑĥÐ´Ð°":9130,"ĠÐ¿Ð»ÑİÑģ":9131,"ek":9132,"ĠÐ¾Ð±Ð½":9133,"ĠÐ±ÑĢÐ°Ðº":9134,"ĠÐ²Ð¸Ð´Ð¸ÑĤ":9135,"Ð¾Ð±ÐµÐ½":9136,"Ð»Ð°Ð½Ð":9137,"ĠÐ²ÑĭÐ´Ð°":9138,"ĠÐ½Ð°ÑģÑĤÐ¾ÑıÑīÐ¸Ð¹":9139,"ĠÐ·ÑĥÐ±Ñĭ":9140,"ĠÐľÐ°Ñģ":9141,"ÑĤÐ°Ñģ":9142,"ĠÐķÐºÐ°":9143,"Ð§ÐĲ":9144,"ĠÐ´Ð²Ð¾ÑĢÐµ":9145,"ĠÑĢÑĥÑģÑģÐºÐ¸Ð¹":9146,"ĠÐ³Ð¾Ð»Ð¾Ð´":9147,"ÐĸÐķ":9148,".....":9149,"ĠÑĢÐµÑģÑĥ":9150,"ÐµÐ½ÑĤÐ¾Ð¼":9151,"ÑĤÐ¾ÑĢÐ¸Ð¸":9152,"ÑĥÐ¸":9153,"Ð°Ð²ÑĪÐ¸ÑģÑĮ":9154,"ĠÐ¾ÑģÐ²Ð¾Ð±Ð¾Ð":9155,"ÑĨÐ°Ñħ":9156,"pa":9157,"of":9158,"ĠÑĢÑĥÑģÑģÐºÐ¸Ñħ":9159,"ĠÐ¼ÑĭÑģÐ»":9160,"ĠÑģÐ¼Ð¾ÑĤÑĢÑİ":9161,"ĠÐ³ÑĢÐ¾Ð¼ÐºÐ¾":9162,"ĠÐ¾ÑĤÐºÑĢÐ¾Ð²":9163,"ĠÐ¿Ð»ÐµÑĩÐ¸":9164,"ÐµÐ¼Ñģ":9165,"ÑĢÑĤÑģ":9166,"ÐĿÐ«ÐĻ":9167,"ĠÐĲÐ¹":9168,"ĠÑħÑĢÐ¸ÑģÑĤÐ¸Ð°Ð½":9169,"Ð¸ÑģÐ°ÑĤ":9170,"ĠðŁĵĮ":9171,"oÐ³":9172,"Ð»ÑİÑģ":9173,"ĠÐ¿ÑĢÐ¾Ð´Ð°":9174,"ĠÑģÐ¾Ð±ÑĭÑĤÐ¸Ñ":9175,"ĠÑģÐ¾Ð±ÑĭÑĤÐ¸Ñı":9176,"ĠÑĥÐ¼ÐµÐ½ÑĮ":9177,"ĠÑĢÐµÐ´Ð°":9178,"ÐļÐ¾Ð¼":9179,"ĠÐĲÐ»Ð¸":9180,"ĠÑģÐ¼Ð°":9181,"ĠÐ¿ÑĢÐ¸Ð½Ð¸Ð¼Ð°ÑĤÑĮ":9182,"ĠÐĵÐŀ":9183,"ĠÐ´ÐµÐ²ÑĥÑĪÐµÐº":9184,"ĠÐ´Ð¾Ð±ÑĢÑĭÐ":9185,"ÑĤÐ¸Ð¿":9186,"ĠÐŃÐ¹":9187,"ĠÑĤÐ²Ð¾Ñİ":9188,"ĠÑĤÑĢÐµÐ±ÑĥÐµÑĤÑģÑı":9189,"ĠÐ²ÑĭÑħÐ¾Ð´Ð¸ÑĤ":9190,"ÑĩÐ¾Ð¼":9191,"ĠÐ»ÐµÑĤÐ¾Ð¼":9192,"Ð¸Ð²Ð°Ð»Ð¸":9193,"ell":9194,"Ð¸Ð²Ð°ÑİÑĤ":9195,"Ð´Ð½ÑĭÐµ":9196,"ĠÐ¢ÑĢÐ¸":9197,"Ð°ÑĢÐ´":9198,"ÑĩÐ¸Ð»Ð¸ÑģÑĮ":9199,"ĠÐ·Ð°ÐºÐ°Ð½":9200,"ĠÐ¾ÑĤÐ´Ð°Ð»":9201,"Ð¾ÑģÑĤÐ°Ð²":9202,"ÐµÐ½Ð·":9203,"ĠÐ²ÐµÑīÐµÐ¹":9204,"ĠÐ¾ÑĤÑģÑĥÑĤÑģÑĤÐ²Ð¸Ðµ":9205,"±Ð°ÑĤ":9206,"ÑĩÐµÐµ":9207,"ĠÑģÐµÑĢÑĮÐµÐ·Ð½Ð¾":9208,"ÐµÑĢÐ½":9209,"ĠÑģÑĨ":9210,"Ð¡ÐĲ":9211,"ĠÐ¿ÑĢÐ¸Ð»Ð¾Ð":9212,"ÐµÐ¹Ðº":9213,"ĠÐ¸Ð»Ð":9214,"ĠÐ¿Ð°ÑĨÐ¸":9215,"ĠÐ¿Ð¾Ð´ÑħÐ¾Ð´Ð¸ÑĤ":9216,"ĠÑĤÑĭÐ":9217,"ĠÐ¾ÑĤÐ»Ð¸ÑĩÐ¸Ðµ":9218,"ĠÐŁÐ¾Ð¶Ð°Ð»":9219,"ĠÐ¿ÑĢÐ¸ÑħÐ¾Ð´Ð¸Ð»Ð¾ÑģÑĮ":9220,"ĠÐ½Ð°ÑĪÐ»Ð°":9221,"ĠÐ¿ÑĢÐ¾ÑħÐ¾Ð´Ð¸ÑĤ":9222,"ÑħÐ¸ÑĤ":9223,"Ð°ÐºÐ":9224,"ĠÐ¡Ð²ÑıÑĤ":9225,"ÑĪÐ°Ð»Ð¸":9226,"ĠÐ±ÐµÑģÐ¿Ð¾Ðº":9227,"ĠÑĢÐ¾Ð±Ð":9228,"ÑģÑĤÐ²ÐµÐ½Ð½Ð¾Ð³Ð¾":9229,"ĠÐŁÑĥ":9230,"ÑıÐ½Ð¸Ñ":9231,"ÑĢÐµÐ´Ð¸Ð½Ðµ":9232,"ĠÑģÑĥÑĤÐ":9233,"ÑģÑĢÐ¾ÑĩÐ½Ð¾":9234,"ĠÐ½ÐµÐºÐ¾ÑĤÐ¾ÑĢÐ¾Ðµ":9235,"ÐŁÑĢÐ¾Ð´Ð°Ð¼":9236,"ÑĢÐ°Ð»ÑĮÐ½Ð¾Ð³Ð¾":9237,"ĠÑģÑĥÑĤÐ¸":9238,"ĠÐ²Ð½Ñĥ":9239,"¶Ñ":9240,"ĠÐ³Ð¾Ð»Ð¾ÑģÐ¾Ð²":9241,"ĠÐŃÐ»":9242,"ÑĪÐ¸Ð»Ð°":9243,"ĠÐĺÐ½Ð¾Ð³Ð´Ð°":9244,"ðŁ¤Ķ":9245,"¶Ð¸Ñģ":9246,"ĠÐ·Ð°ÐºÐ¾Ð½Ð°":9247,"ĠÐ¸Ð·Ð¼ÐµÐ½ÐµÐ½Ð¸Ñı":9248,"ĠÐĴÐµÑĢ":9249,"ĠÐ¸Ð½ÑĤÐµÑĢÐ":9250,"ĠÐ½Ð°ÑģÑĤÑĢÐ¾ÐµÐ½":9251,"ĤÐµÑģÑĤ":9252,"ÑĢÐ¸Ð½Ð":9253,"ĠÐ¿Ð¾Ð»Ñİ":9254,"ÑģÐ»Ð¾Ð¼":9255,"Ð°Ð»ÑĮÐ½ÑĭÑħ":9256,"ÐµÐ¼ÑģÑ":9257,"ÑĢÐµÐ´Ð¾ÑĤÐ¾":9258,"ĤÑĢÐ¾Ð²":9259,"ĠÐ¿Ð¾Ð´ÑĥÐ¼Ð°":9260,"ÑĢÐ°Ð·Ð¸Ð»":9261,"ĠÐ°Ð¹":9262,"100":9263,"ĠÐ·Ð°Ð¿ÑĢÐµÑ":9264,"ĠÐŁÐłÐĺ":9265,"ĠÐ¿Ð¾Ð´ÑĥÐ¼Ð°Ñ":9266,"ĠÐ²Ð¾Ð·Ð¼":9267,"ĠÐ·Ð°Ð¿ÑĢÐµÑĤ":9268,"74":9269,"ĠÐ¾ÑģÑĤÐ°Ð½ÐµÑĤÑģÑı":9270,"ĠÐºÐ°Ð¶Ð´ÑĭÐ¼":9271,"²Ð½Ð°":9272,"ĠÐ¿Ð¾Ð´ÑĥÐ¼Ð°ÑĤ":9273,"ĠÐ²Ð¾Ð´Ðµ":9274,"ĠðŁĺģ":9275,"end":9276,"ÑĤÐµÑĢÐµÑģ":9277,"ÑĢÐ¸ÑĢÐ¾Ð²":9278,"ĠÑģÑĤÑĢÐµÐ¼Ð":9279,"ĠÐ²ÐµÑĢÐ¸ÑĤÑĮ":9280,"ĠÐ»Ð°Ð¼Ð¿":9281,"±ÑĢÑĮ":9282,"ĠÐ¿Ð¾Ð´ÑĥÐ¼Ð°ÑĤÑ":9283,"ĠÐ¿Ð¾Ð´ÑĥÐ¼Ð°ÑĤÑĮ":9284,"ÑģÐ¿ÑĥÐ±Ð»Ð¸ÐºÐ":9285,"ÑģÐ¿ÑĥÐ±Ð»Ð¸ÐºÐ¸":9286,"ÐµÐ¼ÑģÑı":9287,"ĠÐ¸ÑģÐºÑĢÐµÐ½":9288,"ĠÑĢÐ°Ð´Ð¾ÑģÑĤÑĮ":9289,"ĠÐ¿ÑĢÐ¸Ð½ÐµÑģ":9290,"ÑģÑĦ":9291,"ĠÐ§Ð¸":9292,"ĠÐºÐ°Ð¶Ð´Ð¾Ð¼Ñĥ":9293,"ÑģÐ¸Ð»Ð¸ÑģÑĮ":9294,"ĠÑģÐ°Ð¿":9295,"ÑĢÐ°Ð²Ð¸Ð»ÑĮÐ½Ð¾":9296,"ĠÐ²ÑĭÑĪÐ»Ð¸":9297,"ĠÑıÐ·ÑĭÐºÐµ":9298,"Ð·Ð°ÑĨÐ¸Ñı":9299,"ĠÐ¼Ð°Ð»ÑĮÑĩÐ¸":9300,"ÐµÑĢÐµ":9301,"ĠðŁĶ¥":9302,"±Ð°Ñħ":9303,"ĠÑģÐºÐ»Ð¾Ð½":9304,"Ð°Ð³Ð°Ð½":9305,"Ð¾Ð±Ð¸":9306,"ÑĩÐ°Ð»Ð¾ÑģÑĮ":9307,"ĠÑģÑĤÐµÐ½Ñĥ":9308,"»ÐµÐ½Ð¸Ñ":9309,"ĠÐ²ÐµÑĢÑĤ":9310,"ÑıÐ½Ð¸Ñı":9311,"ĠÐ·Ð°ÑħÐ¾":9312,"Ð¿Ð¸ÑĤ":9313,"Ð¢Ð°":9314,"ÑĤÐµÑģÑĤ":9315,"ÑĢÑĮÑĳÐ·":9316,"ÑģÐ»ÐµÐ´Ð¾Ð²Ð°":9317,"²Ð²Ðµ":9318,"Ð¸ÑģÐ°ÑĤÑ":9319,"ÑĢÑįÐ":9320,"ĠÐ¾ÑģÑĤÐ°Ð½Ð¾Ð²Ð¸Ð»ÑģÑı":9321,"ÑıÐ»Ð¸ÑģÑĮ":9322,"Ð¾Ð»Ð¾Ñģ":9323,"ÑĢÑĥÑı":9324,"ÑģÑģÐ°":9325,"Ð¿ÑĢÐ¾ÑģÑĤÐ¾":9326,"ĠÐ¿ÑĢÐµÐ´Ð½Ð°":9327,"Ð°ÑģÑĤÐ":9328,"Ð¾Ð³ÑĢÐ°Ð´":9329,"ĠÐ³Ð¾Ð´Ð¾Ð²":9330,"Ð²Ð²Ðµ":9331,"ðŁĺĥ":9332,"ÑĢÐ°Ð»ÑĮÐ½ÑĭÐ¹":9333,"ĠÑģÑĥÑĤÐº":9334,"ĠÑģÑĥÑĤÐºÐ":9335,"ĠÑģÑĥÑĤÐºÐ¸":9336,"ind":9337,"ĠÐ»ÐµÐ·":9338,"ĠÐ¾ÑģÑĤÐ°Ð»ÑĮÐ½ÑĭÑħ":9339,"ĠÐ¿Ð¾ÑıÐ²Ð¸Ð»Ð¸ÑģÑĮ":9340,"ĠÐ±Ð°Ðº":9341,"ĠÐ²Ð¾Ð·Ð´ÑĥÑħÐµ":9342,"Ð¡Ðµ":9343,"ÐµÐ½Ð½ÑĥÑİ":9344,"ĠÑģÐ³":9345,"Ð³Ñ":9346,"»ÑİÐ":9347,"ĠÑĥÑĤÐµ":9348,"Ð»Ð°Ð¹ÑĤÐµ":9349,"Ð²ÑĤÐ¾":9350,"ĠÐ½Ð°Ð·Ð²Ð°ÑĤÑĮ":9351,"ÑĨÐ¸Ð¾Ð½Ð°":9352,"Ð²Ð¾ÑģÑĮ":9353,"ĠÐļÑĥÐ¿":9354,"ĠÑģÐ¾Ð³Ð»Ð°ÑģÐ¸Ð»ÑģÑı":9355,"²Ð°ÑİÑģÑĮ":9356,"ĠÐ²Ð·Ð´Ð¾ÑħÐ½ÑĥÐ»":9357,"Ð´Ð¸ÑĢ":9358,"ÑĤÐ°ÑĤÐ¾Ð²":9359,"ÑĢÑĭÐ²":9360,"ĠÑģÐ¾ÑĤÑĢÑĥÐ´Ð½":9361,"ĠÐ»Ð¾Ðº":9362,"ĠÐ·ÐµÐ»Ðµ":9363,"yout":9364,"ĠÐ¿Ð¾Ð»Ð¸ÑĤÐ¸Ðº":9365,"ĠÐ°Ð½ÑĤÐ":9366,"¶Ð¸Ñı":9367,"ÑģÐ»Ð":9368,"ĠÑĤÑĢÑĥÐ¿":9369,"ĠÐ¿Ð¾ÑĩÑĥÐ²ÑģÑĤÐ²Ð¾Ð²Ð°Ð»":9370,"ĠÐ»ÑİÐ±Ð¸ÑĤÑ":9371,"ĠÐ»ÑİÐ±Ð¸ÑĤÑĮ":9372,"ĠÑģÐµÐ·Ð¾Ð½":9373,"ĠÑģÑĩÐ¸ÑĤÐ°ÑİÑĤ":9374,"ĠÐŀÐ½Ð¾":9375,"ĠÑĩÐ°ÑģÑĤÐ½Ð¾ÑģÑĤÐ¸":9376,"Ð¸ÑģÐ°ÑĤÑĮ":9377,"ĠÑĤÐ°Ð»Ð°Ð½ÑĤ":9378,"ÑĢÐ°Ð±Ð°ÑĤÑĭÐ":9379,"ĠÑħÐ°ÑĢÐ°ÐºÑĤÐµÑĢ":9380,"ĠÑģÐµÐ¼ÑĮÑİ":9381,"ĠÐ²Ð¾ÑģÐ¿ÑĢÐ¸Ð":9382,"ÑĢÐ¸Ð»Ð°ÑģÑĮ":9383,"Ð¸Ð·Ð¼Ð°":9384,"ÑĢÐ¸Ð½Ñĭ":9385,"ĠÐ¾Ð±ÑĢÐ°Ð·Ð¾Ð²Ð°Ð½Ð¸Ñı":9386,"ĠÐ¤Ð°":9387,"Ð»ÑĮÐ½ÑĭÐ¹":9388,"ĠÐ·Ð°Ð±Ð¸":9389,"ĠÐĵÐ¸":9390,"ÑĢÐ°Ð·Ð¸ÑĤÑĮ":9391,"ÑĪÐ¸ÑģÑĤ":9392,"Ð½ÐµÐ½":9393,"ĠÐ³Ð¸Ð³":9394,"ĠÐ¡Ð°Ð¼Ð°":9395,"ĠÐĶÐ°Ð²Ð°Ð¹":9396,"ĠÑģÐ»ÑĥÑĩÐ°Ñ":9397,"ĠÐ¡Ð¼Ðµ":9398,"ÐµÑģÑĤÐ²ÐµÐ½Ð":9399,"Ġ|":9400,"club":9401,"ÑĢÐ¸ÑıÑħ":9402,"ÐºÐ¾Ð¿":9403,"¸ÑģÑı":9404,"ĠÐ¾Ð¼":9405,"ĠÐ³Ð¾ÑģÐ¿Ð¾Ð´Ð¸Ð½":9406,"ĠÐ±Ð»Ñ":9407,"ĠÐ¿ÑĢÐ¾ÑģÐ¼Ð¾ÑĤ":9408,"ĠÑĢÐµÐ»Ð¸Ð³Ð":9409,"ĠÑĢÐµÐ»Ð¸Ð³Ð¸":9410,"ĠÐĿÐ°Ð´ÐµÑİÑģÑĮ":9411,"ĠÐ¿ÑĢÐ¾ÑĤÐ¸Ð²Ð½Ð¸ÐºÐ°":9412,"ĠÐĴÐ¡Ðķ":9413,"Ð²ÑĭÐ¼":9414,"¾ÑĩÑĥÐ":9415,"ĠÑİÐ½Ð¾":9416,"ĠÐ´ÐµÐ»Ð¸":9417,"ĠÐ´Ð½ÐµÐ":9418,"Ð»Ð¾Ð¿":9419,"ĠÑįÐ½":9420,"ĠÐ´ÐµÐ¹ÑģÑĤÐ²Ð¸Ðµ":9421,"ÑĤÑĢÐ¾Ð²":9422,"ĠÐ¿Ð¾Ð½Ð¸Ð¼Ð°Ð»":9423,"ĠIn":9424,"ĠÑĢÐ°ÑģÑģÐ»Ð°":9425,"ĠÐ¼Ð°ÑģÑģÐ¾Ð²":9426,"ĠÐ²Ð²Ðµ":9427,"ĠÐ¸Ð·ÑĥÐ¼":9428,"Ð¼Ð»":9429,"ĠÐ¤Ð":9430,"Ġ31":9431,"ĠÐ½Ð¾Ð²Ð¾ÑģÑĤÐ¸":9432,"ĠÑĥÐ¶Ð°Ñģ":9433,"ÑĥÐ°Ð»":9434,"Ð²ÐµÑģÑĤÐ":9435,"ĠÐ¾ÑĤÐ¼ÐµÑĤÐ¸Ð»":9436,"up":9437,"ÑģÐ»ÑĭÑĪ":9438,"ÑĪÐ½ÑĭÐµ":9439,"ĠÐļÐ°Ð¿":9440,"ÐĹÐ´ÑĢÐ°Ð²ÑģÑĤÐ²ÑĥÐ¹ÑĤÐµ":9441,"ÑĤÑĮÑı":9442,"Ð°ÑģÑĤÐ¸":9443,"»ÐµÐ½Ð¸Ñı":9444,"ÑĢÑĥÑİÑĤ":9445,"ĠÐŁÑĢÐ¾Ð²":9446,"ÑħÐ¾Ð¶Ñĥ":9447,"ĠÐĲÐ½ÑĤÐ¾Ð½":9448,"ĠÐ±Ð»Ð¸Ð·ÐºÐ¾":9449,"oÑĤ":9450,"ĠÑĢÐµÐºÐ":9451,"ĠÐ´Ð¾Ð±Ð¸":9452,"ÑĭÐ³":9453,"Ġ45":9454,"ĠÐŁÐ¾ÑģÐ»ÐµÐ´Ð":9455,"ÑģÐ½Ð¾Ð³Ð¾":9456,"Ð¼ÑĥÐ½":9457,"79":9458,"¶ÐµÐ½Ð½ÑĭÑħ":9459,"ĠÐ¾ÑĤÐµ":9460,"ĠÐ½ÐµÐ¿Ð¾ÑģÑĢÐµÐ´":9461,"ĠÐ´ÑĢ":9462,"oÐ»":9463,"Ð²Ð³":9464,"ĠÐ¼Ð¾Ð·Ð³Ð°":9465,"ĠÐ¿Ð»ÐµÑĩÐ¾":9466,"ĠÑģÐ¾Ð¾Ð±ÑīÐ¸Ð»Ð¸":9467,"ĠÐ²ÐµÑģÐµÐ»Ð¾":9468,"ÑĦÑĥ":9469,"ðŁĮ·":9470,"Ð²Ð°Ð³":9471,"ĠÐĳÑĥ":9472,"ĠÑģÐ¿ÑĢÐ°ÑĪÐ¸Ð²":9473,"ÑģÐ¾Ð»ÑĮ":9474,"ĠÐ´ÐµÐ»Ñĥ":9475,"ĠÐ´Ð°Ð¹":9476,"ĠÐ½ÐµÐ¾Ð±ÑħÐ¾Ð´Ð¸Ð¼Ð¾ÑģÑĤÐ¸":9477,"ĠÑıÐ·ÑĭÐºÐ°":9478,"²ÑĭÐ¼Ð":9479,"ÑĢÐ¾Ð¿Ðµ":9480,"ÑĤÐ°ÑĤÑĮÑģÑı":9481,"²ÑĭÐ¼Ð¸":9482,"ĤÑĥÐº":9483,"Ð¸Ð»Ñı":9484,"¸Ð»Ð¾ÑģÑĮ":9485,"ĠÐ¿ÑĢÐµÐ·Ð¸Ð´ÐµÐ½ÑĤÐ°":9486,"Ðģ":9487,"ĠÐ¾Ð±ÑģÑĤÐ°Ð½Ð¾Ð²":9488,"ĠÐ¿ÑĢÐ¸ÑħÐ¾Ð´Ð¸ÑĤ":9489,"ĠÐ¿Ð¾Ð¿Ð°Ð»":9490,"ĠÐ´ÐµÐ²ÑĩÐ¾Ð½":9491,"ÑĮÐµÑĤ":9492,"ĠÑĢÐµÐºÐ¸":9493,"ÐĶÐ¾Ð±":9494,"ĠÐłÑı":9495,"Ð»ÐµÐ½Ð½Ð°Ñı":9496,"ÑĢÐ¸Ð»Ð¸ÑģÑĮ":9497,"ĠÑĥÑī":9498,"ÑİÑĢ":9499,"ÑĢÐ°Ð»ÑĮÐ½Ð¾Ð¹":9500,"±Ð°Ð²":9501,"ĠÐ¡Ð½Ð°ÑĩÐ°Ð»Ð°":9502,"ĠÐ¶ÐµÐ½ÑīÐ¸Ð½Ñĥ":9503,"ĠÐĶÐµÐ½ÑĮ":9504,"ĠÐ¼Ð¾ÑĢÐ":9505,"utm":9506,"ĠÐ¿Ð»Ð¾ÑīÐ°Ð´Ð¸":9507,"ĠÐ¿Ð¾ÐºÑĢÑĭÑĤ":9508,"ÑīÐ¸Ð»Ð°":9509,"ĠÐ¿ÑĢÐµÐ¸Ð¼":9510,"Ð°Ð¸":9511,"ĠÐļÑĥÐ´Ð°":9512,"ÐµÐ´":9513,"ĤÑĢÑĥÑģ":9514,"ĠÑĥÑİÑĤ":9515,"Ð»ÐµÐµ":9516,"ÐĳÐĲ":9517,"ĠÐ¿Ð¾Ð½Ð¸Ð¼Ð°ÑĤ":9518,"Ð±Ð¸Ð»ÑĮÐ":9519,"ĠÐ»ÐµÑģÑĥ":9520,"ĠÐ¿ÑĢÐ¾ÑĢÐ":9521,"64":9522,"ĠÐĳÐ¾Ð»ÑĮÑĪÐµ":9523,"ĠÑĥÑģÐ»ÑĭÑĪÐ°Ð»":9524,"ĠÑĤÐ²Ð¾ÐµÐ³Ð¾":9525,"ÐµÑĤÑĥ":9526,"ÐµÑģÑĤÐ²Ð¾":9527,"ÑĩÐ°Ð²":9528,"ÐµÐ²Ð¸Ñĩ":9529,"Ġ2016":9530,"ĠÐ¿Ð¾Ð½Ð¸Ð¼Ð°ÑĤÑ":9531,"ĠÐ¿Ð¾ÐµÐ·Ð´Ð":9532,"ĠÐ¿Ð¾Ð½Ð¸Ð¼Ð°ÑĤÑĮ":9533,"ĠÐ¿Ð¾Ð´Ð½ÑıÐ»ÑģÑı":9534,"ĠÐ¿Ð¾Ð¿Ð°ÑģÑĤÑĮ":9535,"ÑģÐ¿Ð¾":9536,"ĠÐ¿Ð¾Ð¹Ð¼":9537,"¸ÑĤÐ¾":9538,"ÑģÑĦÐ¾ÑĢÐ¼":9539,"ÑĩÐ¸Ð½Ñ":9540,"ĠÐ³Ð»Ð°Ð²Ð½ÑĭÐ¹":9541,"ºÐ°Ð»":9542,"ĠÐ»ÑİÐ±Ð¸Ð»":9543,"ÑİÐ·Ð°":9544,"ĠÑģÐ¾Ð±Ð°ÐºÐ°":9545,"ĠÑĥÐ»Ð¸ÑĨÑĭ":9546,"ÑĢÐ»Ð°":9547,"Ð²ÑıÐ·":9548,"ĠÐ»Ð°ÑģÐº":9549,"ĠÐ¿Ð°ÐºÐµÑĤ":9550,"ÑħÐ½ÑĥÐ»":9551,"ĠÐ½Ð¾Ð²ÑĭÐ¼":9552,"¸ÑģÑĤÐ¾Ð²":9553,"ÑĥÐ»ÑĮÐ":9554,"ĠÐ²Ð¾ÑģÐµÐ¼ÑĮ":9555,"ĠÑģÐ¾ÑĤÑĢÑĥÐ´Ð½Ð":9556,"ĠÐ´Ð°Ð²Ð°Ð¹ÑĤÐµ":9557,"ĠÑģÐ¾ÑĤÑĢÑĥÐ´Ð½Ð¸":9558,"ĠÐ¼Ð°ÑĢÐº":9559,"ĠÐ²ÐµÐ»Ð¸ÐºÐ¾Ð»ÐµÐ¿":9560,"Ð¿Ð»Ð¸":9561,"Ð¾ÐºÐ¾Ð»":9562,"ĠÑįÐ»":9563,"Ġ2014":9564,"Ð¾ÐºÐµ":9565,"ĠÐ¿Ð°Ñ":9566,"ĠÐ·Ð½Ð°Ð½Ð":9567,"Ġ2015":9568,"±ÑĢÐ¾Ð²":9569,"Ð¡Ð¢ÐĲ":9570,"ĠÐºÐ°Ð½Ð´Ð¸":9571,"ĠÐ¿ÑĢÐ¾ÑĪÐ»Ð°":9572,"ĠÐ´Ð¾ÑģÑĤÐ¾Ð¸Ð½":9573,"ĠÐºÐ°Ð¶Ð´ÑĥÑİ":9574,"ÑĤÐºÐ°":9575,"ĠÑĤÐ²Ð°":9576,"ĠÐ¿ÑĢÐ°Ð²Ð´Ñĥ":9577,"ĠÐ¾ÐºÐµ":9578,"Ð¸ÑģÑĤÑĢÐ¸":9579,"ĠÐ¿Ð¸Ð»":9580,"ĠÐ¿ÑĢÐµÐ´ÑĭÐ´":9581,"ĠÐ½Ð°Ð»Ð¸ÑĩÐ¸Ð¸":9582,"ĠÑĩÐµÑĢÐµ":9583,"ðŁ¤£ðŁ¤£ðŁ¤£":9584,"¸Ð´ÐµÐ¸":9585,"ÐĴÐ«":9586,"ÑĢÑĤÐ¾Ð¼":9587,"ĠÐ¶Ð°Ð»ÐºÐ¾":9588,"ĮÐ¸":9589,"ĠÐ²ÑĬ":9590,"ĠÐ²Ð°Ðº":9591,"ĠÐ¶ÐµÐ½Ñ":9592,"ĠÐºÐ½Ð¾Ð¿":9593,"ĠÐ»ÑĥÑĩÑĪÐ¸Ñħ":9594,"ĠÐ°Ð³ÑĢÐµÑģ":9595,"Ð¸Ð´ÐµÐ¸":9596,"ÑĢÐ°ÑİÑĤ":9597,"ĠÐŀÑģÐ¾Ð±ÐµÐ½Ð½Ð¾":9598,"ĠÐĲÑĢÐ¼":9599,"ĠÐļÐ¾ÑĤ":9600,"ĠÑģÐµÐºÑĥÐ½Ð´Ñĥ":9601,"ĠÐ½ÐµÐ½Ð°Ð²Ð¸ÑģÑĤ":9602,"ĠÐ»ÐµÐ¶Ð°Ð»":9603,"ĠÐ¿Ð¾Ð´Ñĥ":9604,"ĠÑıÐ±Ð":9605,"âĿĹ":9606,"Ð´Ð¸Ð¹":9607,"²Ð°Ð»ÑĮÐ":9608,"¶Ð¸Ð»Ð°":9609,"²ÑĢÐ°Ñĩ":9610,"¸Ð²Ð°ÐµÑĤÑģÑı":9611,"ĠÎ":9612,"ĠÐ²ÐµÑĢÐ½ÑĥÑĤÑĮ":9613,"ĠÐ¿ÑĥÑĤÐµÑĪÐµÑģÑĤÐ":9614,"Ð´ÑĢÐ¸":9615,"ĠÐ¿Ð¾Ð»ÑĮÐ·Ñĥ":9616,"ĠÐĹÐ°Ðº":9617,"¸ÑĤÐµÐ»ÑĮ":9618,"ĠÐ¾Ð¿Ñĭ":9619,"ÑĨÐ¸Ð¾Ð½Ð½Ð¾Ð¹":9620,"ĠÐ¾ÑģÐ²Ð¾Ð±Ð¾Ð´":9621,"ĠÐ¾Ð³ÑĢÐ¾Ð¼Ð½Ð¾Ðµ":9622,"ĠÑįÐ¿Ð":9623,"Ð¿ÑĥÑĤ":9624,"ĠÐ½ÐµÐ¼ÐµÐ´Ð»ÐµÐ½Ð½Ð¾":9625,"ĠÐ½ÑĭÐ½ÐµÑĪÐ":9626,"ĠÐ½Ð¾Ð³Ñĥ":9627,"²Ð¸Ð³":9628,"ĠÐĴÑģ":9629,"¸Ð»Ð¸Ð":9630,"ĠÑģÑĢÐ¾ÑĩÐ½Ð¾":9631,"ĠÑģÑĩÐ¸ÑĤÐ°Ð»":9632,"Ð·Ð°Ñħ":9633,"ÐµÑĢÐ´":9634,"Ð¸Ð±Ð":9635,"ĠÑĤÑĢÐ¾Ð½":9636,"ĠÐ·Ð½Ð°Ð½Ð¸":9637,"ÑīÐ°Ð»":9638,"âľ¨":9639,"ĠÑģÐ¼Ð¾Ð³Ð»Ð°":9640,"Ð³ÐµÐ½":9641,"ÑĪÐ°ÐµÑĤÑģÑı":9642,"ĠÐ¾ÑĢÐ¸":9643,"ĠÐ¿Ð¾ÑģÐ»Ñĥ":9644,"ĠÐľÐ¾Ð½":9645,"ct":9646,"ĠÑĩÑĥÐ²ÑģÑĤÐ²Ð¾Ð²Ð°Ð»":9647,"Ð´Ð¸Ð²":9648,"Ð¾Ð»Ð³":9649,"ÐłÐµÐ":9650,"ĠÐ¿ÑĢÐ¾ÑĤÐ¸Ð²Ð¾":9651,"ĠÑĦÐ¸Ð»ÑĮÐ¼Ð°":9652,"ĠÑĨÐµÐ½ÑĤÑĢÐ°":9653,"ĠÑħÐ²Ð¾ÑģÑĤ":9654,"ĠÐ¾Ð±ÑģÑĤÐ¾ÑıÑĤÐµÐ»ÑĮÑģÑĤÐ²Ð°":9655,"ĠÑĥÐ²ÐµÑĢÐµÐ½Ð":9656,"ĠÐļÑĢÐµ":9657,"ĠÑĪÐµÑģÑĤ":9658,"ĠÐ½ÐµÐ²Ðµ":9659,"ĠÑĨÐµÑĢÐºÐ²Ð¸":9660,"ĠÐ¢Ð°ÐºÐ¸Ð¼":9661,"ĠÐ¾Ð´Ð¾Ð±":9662,"ÐľÐ¾Ð¶ÐµÑĤ":9663,"ÑĢÐ¸ÑģÑĤÐ¾Ð²":9664,"ĠÐ¼Ð¾ÑģÐºÐ¾Ð²":9665,"Ð°Ð¶":9666,"ĠÐĳÐ¾Ð¶Ðµ":9667,"±ÑĬÐµ":9668,"ĠÐ¿Ð¾ÐºÐ":9669,"Ð»ÐµÑĤÑĭ":9670,"ÐµÐ¹Ð½":9671,"ÑĩÐºÐ°Ñħ":9672,"ĠÐ¶Ð´Ñĥ":9673,"Ð¸ÐºÐ°Ð¼Ð¸":9674,"ÑĥÑģÐ":9675,"ĠÑĢÐ°ÑģÑģÐµ":9676,"·Ð»Ð°":9677,"ĠÐ¿Ð¾Ð´ÑĢÐ¾ÑģÑĤ":9678,"ÑīÐ¸Ðµ":9679,"--------":9680,"ĠÐ¿Ð¾ÑģÑĤÐ°Ð²Ð¸Ð»":9681,"ĠÐ¾ÑģÑĤÐ°ÑĤÑĮÑģÑı":9682,"ĠÑĥÐ´Ð°ÑĩÐ¸":9683,"ĠÐ²Ð¾ÑĢÐ¾ÑĤ":9684,"ĠÐľÐ¸Ñ":9685,"Ð´Ð¾Ð²Ð°Ð»":9686,"ĠÑģÐ¸ÑģÑĤÐµÐ¼Ñĥ":9687,"........":9688,"ĠÐ²Ð·ÑıÐ»Ð¸":9689,"Ġ;":9690,"ĠÐ¾ÑĤÑĩÐµÑĤ":9691,"ĠÐ¿ÑĢÐµÐ´Ð²Ð°ÑĢÐ¸":9692,"ðŁĻıðŁĻı":9693,"ĠÐ²ÐµÐº":9694,"ĠÐ²ÑģÑıÐºÐ¸Ð¹":9695,"Ð±ÐµÐ»Ð¸":9696,"Ð¢ÐµÐ¿ÐµÑĢÑĮ":9697,"Ð¥Ðŀ":9698,"ĠÐľÐ°ÑĢÐ¸":9699,"ĠÐ²Ð¸Ð´Ð¾Ð¼":9700,"ÑĢÐ¸ÑĤÑģÑı":9701,"ĠÐ¿Ð¾ÑĢÐ¾Ð´":9702,"ĠÐ¾ÐºÐ°Ð·ÑĭÐ²Ð°ÐµÑĤÑģÑı":9703,"?\"":9704,"Ð½Ð°Ð²Ð»Ð¸Ð":9705,"ĠÑħÐ¾ÑĢÐ¾ÑĪÐµÐµ":9706,"ÐµÐ²Ð¾Ð¹":9707,"ĠÐ°ÑĢÐµÐ½":9708,"ĠÑģÐ»ÑĥÑĩÐ°ÑıÑħ":9709,"ÐµÐ¹ÑģÑı":9710,"ĠÐºÐ°ÑĢÑĤÑ":9711,"ÐĿÐ¸Ðº":9712,"Ð»Ð¸ÑĩÐ½Ð¾":9713,"ĠÐºÐ°ÑĢÑĤÑĭ":9714,"ÑĢÐ¾Ð²Ð¸Ñ":9715,"ĠÐ¿ÑĢÐµÐ´ÐµÐ»Ð°":9716,"ash":9717,"Ð²ÑģÐºÐ¸Ð¹":9718,"ĠÐ¿ÐµÑĢÐµÑģÐµ":9719,"Ð¸ÑĤÐ¾":9720,"ĠÑģÐ¼ÑĥÑī":9721,"ĠÐ¾ÑĢÐ´":9722,"ÑĩÐ°Ñħ":9723,"ĠÐ¸Ð³ÑĢÐ°ÐµÑĤ":9724,"ĠÐľÐ°ÐºÑģÐ¸Ð¼":9725,"ĠÐ²Ð¾ÑģÑĮ":9726,"¾Ð±ÑĢÐ°Ð":9727,"ĠÐļÐ¾Ð½ÑģÑĤÐ°Ð½":9728,"ĠÐ¿ÑĢÐ¸Ð¼ÐµÑĢÑĥ":9729,"ĠÐ¿ÐµÑĢÐµÐ´Ð°":9730,"ĠÑģÐ½Ð¸Ð·":9731,"Ð¼Ð¸Ð³":9732,"½e":9733,"Ð¾ÑĢÐ½Ð¾":9734,"ĠÐ´ÑĭÑħÐ°Ð½Ð¸Ðµ":9735,"Ð¿ÑĢÐ¾Ð´":9736,"ĠÑģÐ»ÑĥÑĪÐ°ÑĤÑĮ":9737,"ĠÑĢÐµÐºÐ¾Ð¼ÐµÐ½Ð´":9738,"ĠÑĢÐ¾Ð»Ð¸":9739,"ĠÐ±Ð»ÑıÑĤÑĮ":9740,"ðŁĮ¸":9741,"ĠÐ½ÐµÐ³Ð°ÑĤ":9742,"pr":9743,"ĠÐ¿Ð¾Ð´ÑģÐºÐ°":9744,"ĠÐ²ÑĤÐ¾ÑĢÐ¾Ð¼":9745,"ĠÐ³Ð¾ÑĢÐµ":9746,"ĠÐ¼Ð°ÑģÐ»Ð°":9747,"Ð¾ÐºÐ¾Ð¼":9748,"Ð¾Ð´Ð¸Ð»Ð°":9749,"ĠÐŀÐĳ":9750,"ÑħÐ¾Ð¹":9751,"ĠÑģÐºÑĢÐ¸":9752,"ĠÐ´Ð¾ÑĢÐ¾Ð³Ð¾Ð¹":9753,"ĠÐŁÐ¾ÑģÐ¼Ð¾ÑĤ":9754,"ÑĪÐµÐ½Ð¾":9755,"na":9756,"ĠÐ½ÐµÐ¿ÑĢÐ":9757,"ĠÐ½Ð°ÑĩÐ¸Ð½Ð°ÐµÑĤÑģÑı":9758,"ÑĤÐµÑĢÐ¿":9759,"ÑĢÐ¸ÑģÐ¾Ð²":9760,"ĠÑģÑĤÑĢÐ°ÑħÐ°":9761,"ĠÑģÐºÐ°Ð½":9762,"ĠÐ½Ð°Ð³ÑĢÐ°Ð´":9763,"ĠÐ¾ÑĤÐ²ÐµÑĤÐ°":9764,"ĠÐºÐ°ÑĢÑĤÑĥ":9765,"ĠÐĴÑģÐµÐ³Ð¾":9766,"ĠÐķÑīÑĳ":9767,"ĠÑģÐ¾Ð¿ÑĢÐ¾Ð²Ð¾Ð¶Ð´":9768,"ĠÐ¸Ð·Ð³Ð¾ÑĤÐ¾Ð²":9769,"ĠÐ²Ð°Ð³":9770,"ĠÐ¿ÑĢÐµÐ´ÑģÐµÐ´Ð°":9771,"ĠÐ±Ð¾Ð´":9772,"ĠÐ¿Ð¾ÐºÐ°Ð·Ð°Ð»":9773,"ĠÐľÐ¾ÑģÐºÐ²Ð°":9774,"ÑĢÐ°Ð»ÑĮ":9775,"ĠÐ¿ÑĢÐ¾ÑĪÐ»Ð¾Ð³Ð¾":9776,"ĠÐ¿Ð¾Ð²ÐµÐ·Ð»Ð¾":9777,"ÑĪÐ¾Ð¼":9778,"ÑħÐ½Ð¸ÐºÐ°":9779,"ĠÐĺÐ¼":9780,"ĠÐ¼ÐµÑĢÐ¾Ð¿ÑĢÐ¸ÑıÑĤ":9781,"Ð°ÐµÑĪÑĮÑģÑı":9782,"Ð°Ð½Ðº":9783,"ÑĩÑĤÐ":9784,"Ð¸ÑĢÑĥÐµÑĤÑģÑı":9785,"ĠÐ¾ÑĢÑĥÐ¶Ð¸Ñı":9786,"ĠÑģÐ¼Ð¾Ð³Ð»Ð¸":9787,"Ð¸Ð²Ð¸Ð»Ð¸":9788,"ĠÐ¾ÑĤÐ¾ÑĢÐ":9789,"ÑĢÐ¾ÑģÑĤÑĮ":9790,"ÑģÐ¾Ð»Ð¸":9791,"Ð²Ð°ÑĢÑĤÐ¸":9792,"ĠÐĴÐ°ÑģÐ¸Ð»Ð¸":9793,"ÑģÐ¾ÑĤ":9794,"ĠÐ¯Ð½":9795,"ĠÐ¿ÑĢÐ°Ð²Ð¸ÑĤÐµÐ»ÑĮÑģÑĤÐ²Ð°":9796,"Ð°ÐºÐ¸":9797,"Ð¸ÑĤÐµÐ»Ð¸":9798,"³Ð¾ÑģÑĤÐµÐ¹":9799,"Ð³Ñĥ":9800,"ĠÐĿÐ¸Ð":9801,"ĠÐĿÐ¾Ð²ÑĭÐ¹":9802,"ĠÐĿÐ°ÐºÐ¾Ð½ÐµÑĨ":9803,"ĠÐ²Ð¾ÑģÐºÑĢÐµÑģÐµÐ½":9804,"ĠÐ¿ÑĢÐ¾Ð¹Ð´ÐµÑĤ":9805,"Ð»Ð¸Ð²ÑĭÐ¼":9806,"Ð¾ÐµÐ½":9807,"Ð»ÐµÐ½Ð½Ð¾Ð³Ð¾":9808,"Ð³Ð¾ÑģÑĤÐµÐ¹":9809,"Ð»ÐµÑĤÐ½Ð¸Ð¹":9810,"Ð¾Ð²Ð°Ð»Ð¸":9811,"Ð¼ÐµÐ½ÑĤÐ¾Ð²":9812,"ĠÑģÐºÑĢÐ¾Ð¼":9813,"ĠÐ¾ÑģÑĤÐ°ÑĤ":9814,"ĠÐºÑĢÐµÐ¿Ð¾ÑģÑĤ":9815,"ĠÑĢÐ°Ð·ÑĬ":9816,"ĠÐ²Ð¿ÐµÑĩÐ°ÑĤÐ»ÐµÐ½Ð¸Ðµ":9817,"ĠÐºÑĢÐ°ÑģÐ¸Ð²Ð°Ñı":9818,"ĠÐ¾ÑģÑĤÐ°Ð»Ð°ÑģÑĮ":9819,"ĠÑĥÐ³Ð°":9820,"ĠÐĲÐ»ÐµÐºÑģÐµÐ¹":9821,"ĠÐ°ÑĤÐ°":9822,"ĠÐ³Ð¾Ð»Ð¾ÑģÐ°":9823,"ĠÐ±ÑĥÐ´ÑĥÑīÐµÐ¼":9824,"ip":9825,"ĠÐĲÐ½Ð½Ð°":9826,"Ð¾Ð½ÑĤ":9827,"ĠÑģÐ°Ð¹":9828,"ĠÐ¶Ð¸Ð²Ñĳ":9829,"¸Ð²Ð¾":9830,"ÐłÐ¾Ñģ":9831,"Ð¾Ð½Ð¾Ð¼":9832,"ÑĩÑĤÐ¸":9833,"ÑģÑĩÑĳÑĤ":9834,"ÑĤÐ°Ð½Ð¸Ð¸":9835,"ĠÐ¿ÐµÑĢ":9836,"ĠÐ´Ð¾Ð¼Ð¾Ð²":9837,"ĠÐ¶ÐµÐ½Ñĭ":9838,"Ð²ÑĢÐ°Ñĩ":9839,"ĠÑĢÐ°Ð·Ð²Ð¸ÑĤÐ¸Ðµ":9840,"³Ð´Ð°":9841,"ĠÐ±Ð¾ÑıÑĤ":9842,"Ð±Ð»Ð°":9843,"ÑĢÐ°Ð»Ð":9844,"ĠÐºÐ¾ÑģÐ":9845,"ĠÐļÐ°ÐºÐ¸Ðµ":9846,"ĠÐ¾Ð²Ð¾":9847,"ıÐ·":9848,"ĠÑĤÑĢÐµÐ±ÑĥÐµÑĤ":9849,"ĠÑĥÐ¿Ð°Ð»":9850,"ĠÐ½Ð°ÑģÑĤÐ°":9851,"ĠÐ½Ð°ÑħÐ¾Ð´Ð¸Ð»ÑģÑı":9852,"ĠÑĥÑĩÐ¸ÑĤÑĭÐ":9853,"ĠÐ·Ð°Ð²Ð¸ÑģÐ¸Ð¼Ð¾ÑģÑĤÐ¸":9854,"ĠÐ¾Ð±ÑĢÐµ":9855,"ÑģÑĨÐµÐ½Ð°":9856,"ĠÑĪÐ»":9857,"ĠÐĿÐ¸ÐºÐ¸":9858,"ĠÐ´ÐµÑĤÑģÑĤÐ²Ðµ":9859,"ĠÐ¼Ð¸ÑģÑĤÐµÑĢ":9860,"Ð»Ð°Ð¼Ð¸":9861,"ĠÐ¿Ð¾Ð¸Ð½":9862,"ĠÑĩÐµÑĤÑĭÑĢÐµÑħ":9863,"ĠÑĢÐ°ÑģÑģÑĩÐ¸ÑĤÑĭÐ":9864,"ĠÑĢÐ°Ð´Ð¾ÑģÑĤÐ¸":9865,"Ð°Ð²Ðµ":9866,"Ó©":9867,"ĠÑĢÐ°Ð·Ð½Ð¾Ð":9868,"Ð¸ÑĩÐµÑģÐºÐ¸Ð¼":9869,"ÑĩÐºÐ¾Ð¼":9870,"ĠÐºÑĥÐº":9871,"¾Ð±Ðµ":9872,"³ÑĢÐ¾Ð":9873,"Ð´ÐºÐ¾Ð¹":9874,"ÐµÑĢÐ¿":9875,"ĠÐ¿ÑĢÐµÐ´ÑĥÑģ":9876,"ĠÑĢÐµÑĩÐ¸":9877,"Ð¿Ð¾Ð»ÑĮ":9878,"¸Ð²Ð°ÑĤÑĮÑģÑı":9879,"ĠÑģÐ¾ÑģÑĢÐµÐ´Ð¾ÑĤÐ¾":9880,"¾Ð³Ð°Ñ":9881,"ĠÑĥÐ»ÑĭÐ±ÐºÐ¾Ð¹":9882,"ĠÐ¸ÑģÐºÐ»ÑİÑĩÐ¸ÑĤÐµÐ»ÑĮÐ½Ð¾":9883,"ÑĥÐµÑĪÑĮ":9884,"ĠÑįÐ¿Ð¾":9885,"ÑĪÐ½ÑĭÐ¹":9886,"ĠÐ¸Ð´ÐµÐ¸":9887,"ube":9888,"ĠÑģÑĤÐ°ÐºÐ°Ð½":9889,"ĠÑģÐ¾Ð³Ð»Ð°ÑģÐ½Ð¾":9890,"ÑıÐ´":9891,"ĠÐ¿ÑĢÐµÐ´Ð½Ð°Ð·Ð½Ð°":9892,"ĠÐ´ÐµÐ»Ð¾Ð¼":9893,"ĠÐ³Ð¾ÑģÑĤÐµÐ¹":9894,"ĠÐ¾ÑģÑĥÐ":9895,"¶ÑĮ":9896,"ĠÐºÐ»Ðµ":9897,"Ġ'":9898,"ÑıÐ·":9899,"ĠÐ¾Ð·Ð°":9900,"½ÑĥÑĤÑģ":9901,"Ð¾Ð½Ñı":9902,"Ð°Ð»Ð¸Ñ":9903,"ĠÑĤÐµÑģÑĤ":9904,"¶Ð°ÑİÑĤ":9905,"½ÑĥÑĤÑģÑ":9906,"ĠÐ¡ÑĤÑĢÐ°":9907,"ÑĩÐ¸Ð½Ñĭ":9908,"½ÑĥÑĤÑģÑı":9909,"ĠÐ·Ð´ÑĢÐ°Ð":9910,"ÐŁÑĢÐ¸Ð²ÐµÑĤ":9911,"ĠÐ§ÐµÐ»Ð¾Ð²ÐµÐº":9912,"ĠÑģÐ°Ð¼Ð¾Ð»ÐµÑĤ":9913,"ÑĢÐ¸Ðµ":9914,"ĠÐĸÐµÐ»Ð°":9915,"ĠÐ½ÐµÑĤÑĥ":9916,"ĠÐ¾Ð¿ÐµÑĢÐ°ÑĨÐ¸Ð¸":9917,"ĠÑģÐ¿Ð°Ð»ÑĮÐ":9918,"ĠÐ¿Ð¾ÑħÐ¾Ð¶":9919,"ĠÑĪÑĤÑĥ":9920,"»ÑĥÐº":9921,"·Ð´Ð°":9922,"ĠÐ§ÐµÐ³Ð¾":9923,"ĠÐºÐ¾Ð¼Ð°Ð½Ð´":9924,"ĠÐ·ÐµÐ¼Ð»Ñ":9925,"ĠÐ³Ð¾ÑĤÐ¾Ð²Ð":9926,"ÑĳÑĢ":9927,"ĠÐºÐ¾Ð»ÐµÐ½Ð¸":9928,"ĠÑģÐµÐ»Ð°":9929,"ĠÐ±Ð¾Ð³Ð°ÑĤ":9930,"ÐĴÑģÐµÐ¼":9931,"ĠÐ¾ÑĤÐ½Ð¾ÑģÐ¸ÑĤÐµÐ»ÑĮÐ½Ð¾":9932,"ĠÐ´Ð¾ÐºÑĤÐ¾ÑĢ":9933,"ĠÑĤÐ¾ÑĢ":9934,"ĠÐ·Ð°Ð±Ðµ":9935,"ĠÑħÐ¾Ð´Ñĥ":9936,"ĠÑģÐºÐ¾":9937,"ĠÐ³ÑĢÑĥÐ·":9938,"Ð¾Ð²ÑĥÑİ":9939,"Ð°ÑĨÐ¸Ð¸":9940,"ĠÐ¿ÑĢÐ¸Ð½Ðµ":9941,"ĤÐ²Ð¸":9942,"ĠÑĩÐ¸Ð½Ð¾Ð²":9943,"ÑĪÐ°ÐµÐ¼":9944,"ĠÐ²Ð¾Ð·Ð´ÑĥÑħÐ°":9945,"Ð±Ð¾Ð²Ñ":9946,"ÑģÐ°Ð¼":9947,"ĠÐ·ÐµÐ¼Ð»Ñı":9948,"Ð¥Ð¾ÑĢÐ¾":9949,"Ð§Ðĺ":9950,"ĠÐ¡Ð¾Ð³Ð»Ð°":9951,"ĠÐ¿ÑĢÐ¸ÑģÑĤÐ°Ð":9952,"ĠÐ¿Ð¾Ð¼Ð½Ð":9953,"ĠÐ¿ÑĢÐµÐ±ÑĭÐ":9954,"ĠÐ·Ð½Ð°Ñı":9955,"ĠÐ²ÐµÑĢÐ¾ÑıÑĤÐ½Ð¾":9956,"ĠÑģÐ¿ÑĥÑģÑĤ":9957,"ĠÐ²ÑģÐ¿":9958,"Ð¾Ð»Ñİ":9959,"ĠÐºÐ°ÑĩÐµÑģÑĤÐ²Ð¾":9960,"²Ð¸Ð³Ð°":9961,"ĠÐ¿Ð¾Ð¼Ð½Ð¸":9962,"ĠÐ°Ð½ÑĤÐ¸":9963,"ĠÐ¿Ð¾ÑĤÐµÐ½":9964,"ĠÐµÑģÑĤÐµÑģÑĤÐ²ÐµÐ½Ð½Ð¾":9965,"ĠÐ¼Ð½Ð¾Ð³Ð¾ÑĩÐ¸ÑģÐ»ÐµÐ½":9966,"ĠÑħÐ¾Ð·ÑıÐ¹":9967,"ĠÐ¿Ð¾Ð¿ÑĢÐ¾Ð±Ð¾Ð²Ð°ÑĤÑĮ":9968,"ĠÐ¼Ð¾Ð½Ð°Ñģ":9969,"ĠÐ¿Ð¾Ð²ÐµÐ´ÐµÐ½Ð¸Ðµ":9970,"ĠÐ¼Ð¾Ð½Ð°ÑģÑ":9971,"ĠÐ¼Ð¾Ð½Ð°ÑģÑĤ":9972,"ĠÑģÐ¾ÑĩÐµ":9973,"ĠÐľÐ°Ð½":9974,"Ġ2000":9975,"»ÑĭÐ¹":9976,"ĠÐ²ÑģÐ¿Ð¾Ð¼Ð½Ð":9977,"ĠÐ²ÑģÐ¿Ð¾Ð¼Ð½Ð¸":9978,"ĠÐļÐ°ÑĤ":9979,"Ð±Ð¾Ð²ÑĮ":9980,"ÐĴÐ¾Ð·":9981,"ĠÐ²ÑģÐ¿Ð¾Ð¼Ð½Ð¸Ð»":9982,"ĠÐ¿ÑĢÐµÐ´ÑģÑĤÐ°Ð²Ð»Ñı":9983,"ĠÐ¼Ð¾ÑĤÐ¾":9984,"ĠÐ¤ÑĢÐ°Ð½ÑĨÐ¸Ð¸":9985,"oy":9986,"ÑĢÐ¸ÑĨ":9987,"ĠÐ¿Ð¾Ð´Ð±Ð¾ÑĢÐ":9988,"ĠÐ²Ñĸ":9989,"ĠÐ½ÐµÐ´ÐµÐ»ÑĮ":9990,"¸ÑĩÐµÐ¼":9991,"ĠÐ¼Ð¾Ð´ÐµÐ»Ð¸":9992,"¸Ð´ÑĭÐ":9993,"ĠÐ½Ð°Ð·ÑĭÐ²Ð°ÑİÑĤ":9994,"ÑĥÑīÐ¸Ðµ":9995,"ĠÐŁÑĢÐµ":9996,"ĠÑĦÐ¾Ð½Ð°":9997,"ĠÑĢÐµÑģÑĤÐ¾":9998,"ĠÐľÐ¸ÑħÐ°Ð¸Ð»":9999,"ĠÐ»ÐµÑĤÐ°":10000,"ĠÑĢÐ¾Ðº":10001,"ĠÐ²ÐµÑĢÐ¾ÑıÑĤ":10002,"ÑĥÐ»Ðµ":10003,"Ð¸Ð´ÑĭÐ":10004,"ĠÐ°ÑĤÐ¼Ð¾ÑģÑĦÐµ":10005,"ÑģÑĤÐ°Ð²Ð¸Ð»":10006,"ÐłÐ«":10007,"76":10008,"ĠÐ¸Ð½Ð¶Ðµ":10009,"Ð¾Ð¿ÑĢÐ":10010,"ĠÐ¿ÑĢÐ¸Ð½ÑĨÐ¸Ð¿Ðµ":10011,"ĠÐ±Ð»Ñı":10012,"ĠÐ³Ð¾ÑģÑĤÐ¸Ð½":10013,"ÑģÐ¼Ð¸":10014,"ĠÐ¸Ð½ÑĤÐµÑĢÐ½ÐµÑĤÐµ":10015,"ÐºÐ»Ð°Ñģ":10016,"ĠÐ·Ð°Ð¿Ð»Ð°ÑĤ":10017,"ĠÐĽÐ¾Ð½":10018,"ĠÐ±ÑĥÐ¼Ð°Ð³":10019,"ĠÐ´ÑĢÑĥÐ³Ð¾Ð¼Ñĥ":10020,"ĠÐ½Ð°Ð¿ÑĢÐ°Ð²Ð»ÐµÐ½Ð¸Ð¸":10021,"ÑĩÐ°Ð¼":10022,"ĠÑģÐºÐ¾ÑĢÐ¾ÑģÑĤÑĮ":10023,"ĠÐ¿ÑĢÐ¾Ð¼ÑĭÑĪÐ»ÐµÐ½":10024,"ĠÐ¾Ð´ÐµÐ¶Ð´Ñĥ":10025,"ĠÐ½Ð°ÑħÐ¾Ð´ÑıÑĤÑģÑı":10026,"Ð¸Ð»Ð¸Ð":10027,"Ð¼Ð¾Ð³":10028,"ĠÐ¿ÑĢÐµÐ´Ð¿Ð¾Ð»Ð°Ð³":10029,"ĠÐ½ÐµÐ·Ð°Ð²Ð¸ÑģÐ¸":10030,"ĠÐ¿Ð¾ÐºÐ¾Ð¹":10031,"ĠÐ¤Ðµ":10032,"ĠÐºÑĢÐ°ÑģÐ¸Ð²":10033,"ĠÐ¿Ð¾Ð´ÑĩÐµÑĢÐº":10034,"ÐĹÐ½Ð°":10035,"ĠÐºÐ»ÑĥÐ±Ð":10036,"ÑĢÐµÐ²Ð°":10037,"ĠÐºÑĢÐµÑģ":10038,"ĠÐ¿Ð¾ÑĨÐµÐ»":10039,"ĠÑģÐºÐ»":10040,"ĠÐĵÐ»Ð°Ð²Ð½Ð¾Ðµ":10041,"ĠÐ¿Ð¾Ð»ÑĥÑĩÐ¸Ð»Ð°":10042,"¶ÐµÐ½Ð½Ð¾":10043,"¸Ð²Ð°Ñı":10044,"ĠÐ®Ð":10045,"ĠÐļÐ°ÐºÐ°Ñı":10046,"Ð»Ð°Ð½Ð´":10047,"ĠÑĨÐ":10048,"ĠÐŁÐ¸ÑĪÐ¸ÑĤÐµ":10049,"ĠÑĢÐµÐ±ÑĳÐ½ÐºÐ°":10050,"Ð¿ÑĤ":10051,"Ð¿ÑĥÐ±Ð»Ð¸Ðº":10052,"ÑĤÑĭÐµ":10053,"ĠÐ¿ÑĢ":10054,"ĠÑģÐ¾ÑģÑĤÐ°Ð²Ðµ":10055,"ĠÐ¿Ð¾Ð¿ÑĢÐ¾ÑģÐ¸Ð»":10056,"Ð¸ÑĩÐµÐ¼":10057,"ĠÐ¸Ð·Ð¼ÐµÐ½Ð¸ÑĤÑĮ":10058,"Ð¸ÑĤÐµÐ»ÑĮ":10059,"Ð±ÐµÐ³":10060,"ÑĢÐ¾Ð²Ð¸Ñĩ":10061,"ĠÐŃÐº":10062,"ÑĪÐµÐ½Ð¸ÑıÑħ":10063,"ĠÐ¼ÐµÑĩÑĤÐ°":10064,"ĠÑĢÐµÐ³Ð¸Ð¾Ð½Ð°":10065,"ĠÑĤÐµÑĢÑĢÐ¾":10066,"ĠÐ´Ð¸Ð½Ð°":10067,"±ÑĢÐ¸Ð³Ð°":10068,"ðŁĲ":10069,"Ð±Ð¾ÑĢ":10070,"ĠÐ´ÐµÑĢÐµÐ²ÑĮÑı":10071,"ÑīÐ¸ÐºÐ¾Ð²":10072,"ĠÐºÐ¾Ð´":10073,"ĠÑĤÑĢÐµÐ":10074,"ÑĢÐ·Ð°":10075,"ÐļÐ":10076,"ÑĤÐµÑĢÐ¸Ð½Ð°":10077,"ĠÐ´ÑĥÐ¼Ð°ÐµÑĤÐµ":10078,"ĠÐ¿Ð¾Ð´ÐµÐ»Ð¸":10079,"Ð¸ÑĤÐµÐ»ÐµÐ¹":10080,"ĠII":10081,"Ð°Ð¹Ð»Ð¾Ð²":10082,"ĠÑĦÐµÐ´Ðµ":10083,"ĠÐ±Ð¾Ð»ÑĮÑĪÐ¸Ñħ":10084,"ÑģÑħÐµ":10085,"ĠÐ¶Ð´Ð°Ð»":10086,"ÐķÐĹ":10087,"ĠÐłÐ":10088,"Ð¸ÑĤÐµÑģÑĮ":10089,"ÑĪÐµÑģÑĤÐ²Ð¸Ñı":10090,"ĠÐ´ÐµÐ»Ð°Ñİ":10091,"Ð¼ÐµÑı":10092,"ÑĭÑĢ":10093,"ĠÐĿÐ¸ÐºÐ¾Ð»Ð°Ð¹":10094,"ĠÐ²Ð¾Ð´Ð¸ÑĤÐµÐ»ÑĮ":10095,"ĠÐ¡Ð¾Ð±":10096,"ĠÐĲÐ»ÐµÐºÑģÐ°Ð½Ð´ÑĢÐ°":10097,"ðŁĺŃ":10098,"ĠÑģÐ¿ÑĢÐ¾ÑģÐ¸ÑĤÑĮ":10099,"Ġ2017":10100,"ER":10101,"ĠÐ¾ÑĤÑĩÐ°ÑıÐ½":10102,"ĠÐ¿ÐµÑĢÑģÐ¿ÐµÐºÑĤ":10103,"ĠÐ·Ð°Ð¸Ð½ÑĤÐµÑĢÐµÑģÐ¾Ð²":10104,"ĠÐ¯Ð¿Ð¾Ð½":10105,"ĠÐ°ÑģÑģÐ¾":10106,"ĠÐ¸Ð·Ð´Ðµ":10107,"ĠÐºÑĥÐ±Ð":10108,"ĠÐºÐ¾ÑĢÐ¾Ð»ÐµÐ²Ñģ":10109,"ĠÐ¿ÑĢÐµÐ²Ð¾Ñģ":10110,"ĠÑĥÐ±ÐµÐ´Ð¸":10111,"²ÑĮÑİ":10112,"ĠÑģÐ¼Ð¾Ð¶ÐµÑĤÐµ":10113,"Ð±Ð¾ÑĤ":10114,"ÑİÑīÐ¸Ð¹Ñģ":10115,"Ð»ÐµÑĨ":10116,"ĠÐľÐ¾Ñı":10117,"ÑİÑīÐ¸Ð¹ÑģÑ":10118,"ÑİÑīÐ¸Ð¹ÑģÑı":10119,"ĠÐĴÐ¾Ð¾Ð±ÑīÐµ":10120,"ry":10121,"ĠÐ¾ÑĦÐ¸ÑĨÐµ":10122,"ĠÐµÐ´Ñĥ":10123,"ka":10124,"ĠÐ²Ð¸Ð½Ð¾Ð²Ð°ÑĤ":10125,"ĠÑģÑĥÐ¿ÐµÑĢ":10126,"ÑĪÐµÐ½Ð¸Ñİ":10127,"32":10128,"Ò¯":10129,"Ð¼ÐµÐ»ÑĮ":10130,"ĠÑĩÐ°ÑģÑĤÑĮÑİ":10131,"ĠÐ·Ð°Ð¿Ð¾Ð¼Ð½":10132,"ĠÑģÐ¾Ð±Ð°ÐºÐ":10133,"ĠÑģÐ¾Ð±Ð°ÐºÐ¸":10134,"ĠÑģÐ¾Ð»ÑĮ":10135,"ĠÐĵÐ°ÑĢÑĢÐ¸":10136,"ÑģÑĤÑĢÐ¾":10137,"ÑĤÐ¾ÑĢÐ¸Ñı":10138,"ÑĤÑĢÑĥÑģ":10139,"ÐºÐ½ÑĥÐ»":10140,"·Ð½Ð°Ñı":10141,"ĠÐ¡Ð°Ð½ÐºÑĤ":10142,"ĠÑģÐµÑĢÐ¸Ð¸":10143,"ĠÐ¥Ð¾ÑĩÑĥ":10144,"ĠÐ¸Ð³ÑĢÐµ":10145,"ĠÑģÐ¾Ð»Ð¸":10146,"ĠÐ¾ÑģÑĥÑīÐµÑģÑĤÐ²Ð»":10147,"ĠÐ¾Ð±Ð¾Ð¹":10148,"Ð¾Ð¹Ñ":10149,"ĤÑĢÐ°ÑĤ":10150,"ÑĢÐ½ÑĥÑİ":10151,"±Ð°Ð³":10152,"ĠÐ²ÐµÐ´Ð¾Ð¼":10153,"ĠÐ±Ð°Ñģ":10154,"ĠÐ¿ÐµÐ´":10155,"ĠÐ¿Ð¸ÑĪÑĥÑĤ":10156,"ĠÑĢÐ¸ÑģÑĥÐ½":10157,"ĠÑģÑĨÐµÐ½Ð°":10158,"ĠÐľÐ½Ð¾Ð³Ð¸Ðµ":10159,"ĠÐŁÐ¾ÑģÑĤ":10160,"ĠÐĿÐµÐ¿":10161,"Ð´ÐµÐ»Ñı":10162,"ÑĤÐ°Ð»ÑĮÑıÐ½":10163,"ĠÐ¿Ð¾ÑģÐ°":10164,"Ð²Ð°ÑĢÐ´":10165,"Ð²Ð°ÑĤÑĮÑģÑı":10166,"ĠÑĢÐ°ÑģÐ¿Ð¾":10167,"Ð±ÑĢÐ¸Ð³Ð°":10168,"»ÑĭÐµ":10169,"ĠÐ¿ÐµÑĢÐµÐ½":10170,"ðŁ¤¦":10171,"Ð½ÑĥÐ»Ð¾":10172,"ĠÑģÑĤÐ¾Ð¸Ð¼Ð¾ÑģÑĤÑĮ":10173,"ÐļÑĢÐ°ÑģÐ":10174,"ÐµÐ¸":10175,"ÑĪÐ½Ð":10176,"ÑģÐºÐ°ÑĤ":10177,"ÐĶÐ¾":10178,"·ÑĤÐ":10179,"Ð¿ÐµÑĢÐ²ÑĭÑħ":10180,"ĠÐ¿Ð¸ÑģÑĮÐ¼Ð°":10181,"¸ÑĨÐ¸Ð°":10182,"¾ÑĢÐ¾Ð¼":10183,"ĠÑģÐ¾Ð·Ð½Ð°Ð½Ð¸Ðµ":10184,"Ġâŀ":10185,"²ÑĥÑ":10186,"Ð¸Ð·Ð½Ñ":10187,"Ð¿Ð¾Ð¼Ð¸":10188,"¶Ð½Ð¾ÑģÑĤÑĮ":10189,"ĠÐ¼Ð¾Ð½Ð°ÑģÑĤÑ":10190,"ĠÐ²ÐµÑīÑ":10191,"ĠÑĤÑĥÑĢÐ½Ð¸":10192,"ĠÐ¿ÑĢÐ¾Ð¶Ð¸Ð²":10193,"ĠÐ¾Ð±ÑģÑĥÐ¶Ð´":10194,"ĠÐ²ÐµÑīÑĮ":10195,"ĠÑģÑĤÐ¾Ð»Ðµ":10196,"ĠÐ°Ð½Ð¾Ð½":10197,"ĠÐ¾Ð´ÐµÐ¶Ð´Ñ":10198,"·ÑĤÐ¸":10199,"ĠÐ¾Ð´ÐµÐ¶Ð´Ñĭ":10200,"ĠÐ¿Ð¾ÐºÑĢÑĭÐ":10201,"ĠÑĢÐ°Ð·Ð½Ð¸ÑĨÐ°":10202,"ĠÐ¾ÑĤÑĢÐ¸ÑĨÐ°":10203,"ÐµÐ²Ðµ":10204,"ĠÐ¿ÑĢÐ¾ÑĪÐ»Ð¸":10205,"ĠÐ¾Ð¿Ð»Ð°":10206,"ÑĪÐºÐ¸Ð½":10207,"Ð»ÐµÑĤÐ°":10208,"ºÐ¾":10209,"ĠÐ±ÑĥÐ¼Ð°Ð³Ð¸":10210,"ĠÐ¿Ð¾Ð²ÐµÑĢÐ½ÑĥÐ»ÑģÑı":10211,"ĠÐ³Ð¾ÑĢÑĭ":10212,"Ð²ÐµÐ·Ð´Ð":10213,"ĠÐ¿ÑĢÐ¾ÑĤÑıÐ½ÑĥÐ»":10214,"ÑĤÐµÑĤÑ":10215,"ĠÐŁÐ¾Ð»ÑĮ":10216,"ĠÐĳÐ¾Ð»ÐµÐµ":10217,"ÑĥÐµÑĤÐµ":10218,"ĠÐĴÑĭÐ¿":10219,"ĠÐºÐ»ÑĥÐ±":10220,"ÐµÑĤÑĢ":10221,"ĠÐ¿Ð»Ð°ÑĤÐ¸ÑĤÑ":10222,"ÑģÐ°Ð¼Ð¸":10223,"ĠÐ¿Ð»Ð°ÑĤÐ¸ÑĤÑĮ":10224,"ĠÑĩÐ¸ÑģÐ»Ð°":10225,"Ð²ÑĭÐ¹":10226,"ĠÐ¿ÑĢÐ¸Ð²ÐµÐ·":10227,"ĠÐ´ÐµÑĤÑģÑĤÐ²Ð°":10228,"ĠÐ²Ð°Ð½":10229,"ĠÐ²ÑĢÐ°Ñĩ":10230,"Ð¿Ð¿":10231,"ÐµÑĢÐºÐ":10232,"ive":10233,"ĠÐ´ÑĥÑħ":10234,"Ġ195":10235,"ĠÑģÐ°Ð´":10236,"ĠÐ¾ÐºÐ¾Ð½ÑĩÐ°ÑĤÐµÐ»ÑĮÐ½Ð¾":10237,"ÐŀÐĿ":10238,"ÑĨÐ¸Ð½Ð°":10239,"ĠÐ²Ð¾Ð¹ÑģÐº":10240,"ĠÐĹÐ°Ð²Ñ":10241,"ĠÐ¿ÐµÑĢÐ²Ð¾Ð":10242,"ÐµÐ³Ð¾ÑģÑı":10243,"ĠÐ´Ð²Ð¾Ð¹":10244,"ĠÐ½Ð°ÑĢÑĥÐ":10245,"ĠÐºÐ¾Ð»Ð»ÐµÐ³":10246,"ÑīÐ¸Ð»":10247,"ĠÑĢÐ°Ð·Ð³Ð¾Ð²Ð°ÑĢÐ¸":10248,"Ð¸Ð½ÐºÐ°":10249,"Ð¾Ð»Ð¾Ð³Ð¸Ñ":10250,"ĠÐ¿ÑĢÐ¸ÑĪÐ»Ð¾":10251,"ÑĤÐ°ÑĨÐ¸Ñı":10252,"ĠÑĢÐ°Ð·Ð»Ð¸":10253,"ĠÐ´ÑĥÐ¼Ð°ÐµÑĤ":10254,"ĠÑĢÐ¾ÑģÑĤÐ°":10255,"ĠÐľÐµÑģ":10256,"ĠÐ·Ð´Ð°Ð½Ð¸Ñı":10257,"ĠÐ°ÐºÑĨÐ¸Ð¸":10258,"ÐµÐ¹Ñ":10259,".-":10260,"ĠÐ½Ð¸ÐºÑĥÐ´Ð°":10261,"Ð¿ÑĥÐ³":10262,"ĠÐ¡Ð¿Ðµ":10263,"ĠÐ¿ÑĢÐ¾ÑģÑĤÐ¾Ð¹":10264,"Ð²Ð¸Ð´Ð¸":10265,"ĠÐ½ÑĥÐ¶Ð´":10266,"ÑħÐ¸ÑĤÐµ":10267,"ĠÐ°Ð´ÐµÐºÐ²Ð°ÑĤ":10268,"ÑħÐ°ÑĢ":10269,"ĠÑĤÐµÐ¼Ð°":10270,"ĠÑģÑĤÑĢÐ°Ð½Ñĥ":10271,"ĠÐºÑĢÐµÐ¿ÐºÐ¾":10272,"ĠÑĥÐ²Ð»Ðµ":10273,"ÑģÑĥÑĤÑĮ":10274,"Ð´Ð¾Ñģ":10275,"ĠÐ¶Ð´ÑĥÑĤ":10276,"ass":10277,"Ð¢Ð«":10278,"Ð¾Ð¶Ñĥ":10279,"ÑĢÑıÐ¼":10280,"Ð¾Ð»Ð¾Ð³Ð¸Ñı":10281,"ÑģÐ¿Ð¸":10282,"31":10283,"ĠÑģÐ»ÐµÐ·Ñĭ":10284,"ĠÑĥÑģÐ¿Ð¾ÐºÐ¾Ð":10285,"ĠÐ»ÐµÑĤÐ¾":10286,"ĠÑģÐ¸Ð¼Ð¿Ð°ÑĤ":10287,"ĠÑģÐµÑģÑĤÑĢÐ°":10288,"ĠÑģÐ½ÑıÑĤÑĮ":10289,"ÐµÑĤÐ¸Ñ":10290,"ĠÑĢÐ¾Ð·Ð¾Ð²":10291,"ĠÐ¿ÑĢÐ¸ÐºÑĢÑĭÐ":10292,"ÐµÐ½ÑĤÑĥ":10293,"ÐľÐ¸":10294,"ĩÑĥÑĤ":10295,"ĠÐĶÐ°Ð²Ð°Ð¹ÑĤÐµ":10296,"ÑģÐµÐ³Ð´Ð°":10297,"ĠÐŁÐµÑĢÐ²ÑĭÐ¹":10298,"Ð¾Ð´Ð¸ÑĤÑģÑı":10299,"Ð¸Ð½Ð°Ð½Ð¸Ñ":10300,"Ð¸Ð½Ð°Ð½Ð¸Ñı":10301,"ĠÑģÐ²Ð°Ð´":10302,"ĠÐ°ÐºÐ°Ð´Ðµ":10303,"»Ð¾Ð³Ð¸":10304,"ĠÐķÐ´Ð¸Ð½":10305,"ĠÐ¼Ð¾Ð±Ð¸Ð»ÑĮÐ":10306,"ĠÐ´Ð°Ð½Ð½ÑĭÑħ":10307,"Ð°Ð»ÑĭÑĪ":10308,"ÑĭÐ²Ð°Ñı":10309,"ĠÐ±Ð¾Ð»ÐµÐ·Ð½Ð":10310,"ĠÐ±Ð¾Ð»ÐµÐ·Ð½Ð¸":10311,"Ð»Ð¸Ð²ÑĭÐ¹":10312,"ĠÐºÐ¾Ð»Ð»ÐµÐº":10313,"ĠÐľÐĺ":10314,"ĠÐ½Ð°Ð±Ð¾ÑĢ":10315,"ÑĢÑĳÑħ":10316,"ĠÑģÐ»ÐµÐ´Ð¾Ð²Ð°":10317,"ĠÑģÐ¾Ð¾Ð±ÑīÐµÐ½Ð¸Ðµ":10318,"ĠÐºÑĥÐ¿Ð¸Ð»":10319,"ĠÐ¾ÑĩÐµÐ²Ð¸Ð´Ð½Ð¾":10320,"ĠÐ¿ÐµÑĢÐµÑħÐ¾Ð´":10321,"ÑĨÐ¸Ð¾Ð½Ð½ÑĭÑħ":10322,"ºÐ°Ð½":10323,"ĠÑģÐ½Ðµ":10324,"Ð»ÐµÐ¹ÑĤÐµÐ½Ð°Ð½":10325,"ĠÑģÑĩÑĳÑĤ":10326,"Ð½Ð¸Ð¹":10327,"Ġj":10328,"ĠÐ±Ð¾ÑĢÐ¾Ð´":10329,"ĠÐºÐ°Ð¼Ð":10330,"ĠÐ°ÑĢÐ³":10331,"ĠÐ½Ð°Ð²Ðµ":10332,"ĠÐĶÐ²Ð°":10333,"ĠÐ¿ÑĢÐ¾Ð¸Ð·Ð²Ð¾Ð´ÑģÑĤÐ²Ð°":10334,"ĠÐºÐ°Ñ":10335,"Ð¨Ðĺ":10336,"ĠÑģÐ»Ð°Ð±Ð":10337,"Ð¸Ð½ÑĥÐ»":10338,"ĠÐ¿ÑĢÐ¸ÐµÐ¼Ð":10339,"ĠÐ¼ÐµÐ»Ð¾":10340,"ĠÐ¾ÑģÑĤÐ°Ð²Ð¸Ð»":10341,"ĠÐ¸Ð½ÑģÑĤÑĢÑĥÐº":10342,"ĠÑĢÐ°ÑģÑģÐ¼Ð°ÑĤÑĢÐ¸":10343,"Ð´Ð°Ð½Ð¸Ð¸":10344,"for":10345,"ĠÐ·Ð½Ð°Ð½Ð¸Ñ":10346,"Ð½Ð¾Ð²ÐµÐ½Ð¸Ñı":10347,"ĠÐ·Ð½Ð°Ð½Ð¸Ñı":10348,"ĤÐ¸Ð¼Ð":10349,"Â»?":10350,"ĠÐºÐ¾ÑĢÐ°Ð±Ð»ÑĮ":10351,"½Ð¸Ð¼Ð°ÑİÑĤ":10352,"ĠÐºÐ¾Ð¼Ð°Ð½Ð´Ñĥ":10353,"ĠÑģÐ¼Ð¾Ð³ÑĥÑĤ":10354,"ĠÑĦÐ°Ð½ÑĤÐ°Ð":10355,"³ÑĥÐ»Ð¸":10356,"Ð¾Ð±Ð°":10357,"ÑĪÐ½Ð¸":10358,"ĠÑĥÑģÑĤÐ°Ð²":10359,"Ð°Ð´Ð°":10360,"ĠÑĥÑĪÐ¸":10361,"ÑĢÐ°ÑİÑĤÑģÑı":10362,"ĠÐ½Ð°Ð´Ð¿":10363,"ĠÐ²Ð¸Ð½Ð°":10364,"ĠÐ·Ð°Ð±ÑĭÑĤÑ":10365,"ÑģÑģÐ¾":10366,"ÑģÐµÑģ":10367,"Ð¾ÐºÐ¸":10368,"ĠÐ¿ÑĢÐ¾ÑĤÐ¸Ð²Ð¾Ð¿Ð¾Ð»Ð¾Ð¶Ð":10369,"ÐĶÐ£":10370,"ĠÑģÑħÐµ":10371,"ĠÐ¿ÑĢÐµÐ¼":10372,"ĠÐ²ÑģÐ¿Ð¾Ð¼Ð¸Ð½Ð°":10373,"ÑĢÐ°ÑĤÐ°":10374,"³ÑĢÑĭ":10375,"Ð´ÐºÐ¾":10376,"ĠÑĢÐ°ÑģÐ¿Ð¾ÑĢÑıÐ":10377,"ĠÐ¼ÑıÑģÐ¾":10378,"ĠÐ´Ð¾Ð³Ð¾Ð²":10379,"ÑĢÐ½Ð¾ÑģÑĤÑĮ":10380,"ĠÐ»Ð°Ð¹Ðº":10381,"ĠÑģÐ¾ÑģÑĤÐ¾Ð¸ÑĤ":10382,"ĠÐ±ÑĢÐ¸Ð³Ð°":10383,"ÑĢÐµÐ¶Ð´ÐµÐ½Ð¸Ñı":10384,"·Ð´Ðµ":10385,"ĠÐ¿Ð¾Ð´ÑħÐ¾Ð´":10386,"ĠÑĩÑĥÐ´Ðµ":10387,"ĠÑĪÐµÑİ":10388,"ĠÐ¿Ð¾ÑģÑĤÐ°Ð½Ð¾Ð²":10389,"ÐµÑıÐ":10390,"Ð¸ÑĦ":10391,"ÐĿÐĺÐ¯":10392,"Ð²Ð¸Ñģ":10393,"ĠÐµÐ´Ð¸Ð½ÑģÑĤÐ²ÐµÐ½Ð½ÑĭÐ¹":10394,"ĠÐ¾ÑĤÐºÑĢÑĭÑĤÑĮ":10395,"Ð¾Ð¶ÐµÐ½Ð¾":10396,"ĠÐ±ÐµÐ´":10397,"ĠÑģÐ¾Ð·Ð´Ð°Ð½Ð¸Ñı":10398,"ĠÐºÐ¾Ðº":10399,"ĠÐ¾Ð¿ÑĭÑĤÐ°":10400,"ĠÐ¾ÑģÐ½Ð¾Ð²Ð°":10401,"³ÑĢÐ¾":10402,"ÑĥÑİÑīÐ¸Ð¹":10403,"oÐ¼":10404,"ĤÑĢÐµÐ²":10405,"ÑįÐ»ÑĮ":10406,"Ġ2018":10407,"ÑĪÑĤÐ°":10408,"ĠÐ¿ÑĢÐµÐ´Ñ":10409,"ĠÑģÐ¾Ð³Ð»Ð°ÑģÐµÐ½":10410,"ÑıÑĤÑĭ":10411,"cÑı":10412,"Ð¢Ð°Ð¼":10413,"ĠÑĩÐµÐ»":10414,"ĠÑģÐ¾Ð±ÐµÑģÐµÐ´Ð":10415,"ÑīÐ°ÐµÑĤÑģÑı":10416,"¸Ð½Ð":10417,"ĠÐ±Ð°ÑĢ":10418,"Ð´ÐµÑĤÐµ":10419,"Ð½ÑĳÐ¼":10420,"ĠÑģÑĤÐ¾Ð»Ð¾Ð¼":10421,"ĠÐ¼ÐµÐ½Ðµ":10422,"ÑĢÐ¸ÐµÐ¹":10423,"ÑģÐ¸ÑģÑĤ":10424,"Ð¡Ð¢Ðŀ":10425,"Ð¾Ð¹ÑĤ":10426,"ĠÑĢÐµÐ·ÑĥÐ»ÑĮÑĤÐ°ÑĤÑĭ":10427,"ĠÐ¿Ð¾Ð½Ð¸Ð¼Ð°ÐµÑĤ":10428,"ĠÐ²ÑĭÐ¿ÑĥÑģÐº":10429,"ĠÐ¾ÑĤÐ²ÐµÑĤÑģÑĤÐ²ÐµÐ½Ð½Ð¾ÑģÑĤÑĮ":10430,"ĠÐ¸Ð¼Ð¿":10431,"ĠÐĲÐ³Ð°":10432,"ĠÑģÑĥÐ´ÑĮÐ±Ð°":10433,"ĠÐĲÐ½Ð°":10434,"ĠÐ¿ÑĢÐµÐ¾Ð´Ð¾Ð»":10435,"ÑĥÑīÐµÐ³Ð¾":10436,"ÐŀÐ±":10437,"ĠÐºÐ°Ð´":10438,"ĠÐ¼Ð¸ÑĢÑĥ":10439,"ĠÐ¿ÑĢÐµÐ´ÑģÑĤÐ°Ð²Ð»ÑıÐµÑĤ":10440,"ÑĢÐ¸ÑĪÑĮ":10441,"ÑĪÐ½Ð°Ñı":10442,"ĠÑģÐºÐ»Ð°":10443,"ÑīÐ¸Ð½Ðµ":10444,"ÑĩÐ¸Ð²Ð°ÐµÑĤ":10445,"ĠÑģÑĥÑĤÐ¾Ðº":10446,"ĠÐ»ÑİÐ±ÑĥÑİ":10447,"ĠÐ¿ÑĢÐµÐ´Ð°":10448,"ÑĭÐ»Ð¾":10449,"ĠÐ¾ÑģÑĤÐ°Ð»ÑĮÐ½Ð¾Ðµ":10450,"²ÑĢÑĥ":10451,"ÐĳÐµ":10452,"ÐķÐĿÐ¬":10453,"ĠÐ¿Ð¾Ð»Ð¾ÑĤ":10454,"ÑĤÑĢÐµÐ²":10455,"ĠÑĢÐµÐ³Ð¸ÑģÑĤÑĢÐ°":10456,"ĠÐ¿Ð¾Ð»Ð°":10457,"ĠÐ·Ð°ÑīÐ¸ÑĤÑ":10458,"ĠÑĤÐ¾ÑĢÐ¼":10459,"ĠÐºÑĢÑĥÑĤÐ¾":10460,"ĠÐ´Ð°Ð½Ð½Ð¾Ð¼":10461,"ĠÐ¿ÑĢÐ¾Ð±Ð¾ÑĢÐ¼Ð¾":10462,"ĠÐ·Ð°ÑīÐ¸ÑĤÑĭ":10463,"ÐµÐ´Ð¸":10464,"ĠÐ²ÐµÑĢÑİ":10465,"ĠÑģÑĩÐ°ÑģÑĤÐ»Ð¸":10466,"Ð¾Ð·Ð´ÑĢÐ°Ð²Ð»ÑıÑİ":10467,"»ÑĳÐ³":10468,"ĠÑģÑĥÐ´Ñı":10469,"ĠÑģÑĥÑĤÑĮ":10470,"46":10471,"Ġ400":10472,"¶Ð°ÐµÑĤÑģÑı":10473,"±ÑĢÐµÐ´":10474,"ĠÑĢÐ¾Ð²Ð½Ð¾":10475,"ÑĭÐ»Ñ":10476,"ÑĪÑĥÑİÑģ":10477,"ĠÐ¿Ð¾Ð¿ÑĭÑĤÐ°Ð»ÑģÑı":10478,"ÑĪÑĥÑİÑģÑ":10479,"ĠÐ½Ð°ÑĢÐµ":10480,"ĤÐµÐ½Ð¸":10481,"Ð¸Ð½ÑĮ":10482,"ÑĪÑĥÑİÑģÑı":10483,"ĠÐ²Ð¸Ð´Ð°":10484,"ĠÐ²Ð»Ð°Ð´ÐµÐ»ÑĮ":10485,"ĠÑħÐ¸Ð¼Ð¸":10486,"ÑĢÐ¾Ð½Ð°":10487,"ĠÐ²Ð¾Ð¹Ð½Ñĥ":10488,"ĠÐ²ÑĭÐ·Ð¾Ð²":10489,"ÑĢÐµÐ¸":10490,"ĠÐ°ÑĥÐ´Ð¸":10491,"ĠÐ·Ð°ÑĢÐ°Ð±Ð¾ÑĤ":10492,"ÑĤÐµÐ½Ð¸":10493,"ĠÐ´Ð¾ÑģÑĤÐ°Ð»":10494,"ĠÐłÐ¾ÑģÑģÐ¸Ñİ":10495,"ĠÐ¿Ð¾ÑĢÐ¾":10496,"ĠÑĪÑĤÐ°Ð":10497,"½Ðº":10498,"ĠÐŁÐ¾Ðº":10499,"ÐĳÐ¾Ð»ÑĮ":10500,"ĠÐ¿Ð°ÑĤÑĢÐ¸":10501,"ĠÐ¾ÑĤÐºÐ»Ñİ":10502,"Ð²ÑĢÑĥ":10503,"ĠÐ²Ð¾ÑģÑħÐ¸":10504,"ĠÐ¡ÐµÐ²ÐµÑĢÐ":10505,"ĠÑģÐ¾ÑģÑĤÐ°Ð²Ð»ÑıÐµÑĤ":10506,"ĠÐ½ÐµÐ´Ð¾ÑģÑĤÐ°ÑĤ":10507,"ĠÑĢÐµÐ¿Ð¾ÑģÑĤ":10508,"ĠÐ»ÑİÐ±Ð¾Ðµ":10509,"ĠÐºÐ¾Ð¼ÑĦÐ¾ÑĢÑĤ":10510,"ĠÐ¶ÑĥÑĤ":10511,"·a":10512,"ĤÑĥÑĨ":10513,"ĠÑĢÐ°ÑģÐºÑĢÑĭÐ":10514,"Ð»Ð¸ÐºÑĤ":10515,"ĠÐ²Ð¾Ð¹Ð½Ðµ":10516,"ÑĩÐµÐ½ÐºÐ¾":10517,"ÑĤÑĥÑĨ":10518,"ÐŁÐ¾ÐºÐ°":10519,"ÑħÐ»Ð¾Ð¿":10520,"ĠÐºÑĢÐ°ÑĤ":10521,"ĠÐľÐ¾ÑģÐºÐ²Ñĥ":10522,"Ð¼Ð°ÑĤÑ":10523,"ĠÐĿÑĮÑİ":10524,"ĠÐ¸ÑģÑ":10525,"ĠÑĤÐµÐºÑģ":10526,"ĠÐ¿ÑĢÐµÐ´Ð¿ÑĢÐ¸Ð":10527,"ĠÐ·Ð°Ð³Ð¾Ð²Ð¾":10528,"ÑĥÐµÐ":10529,"ĠÐ½Ð°ÑħÑĥÐ¹":10530,"ĠÐ¾ÑĤÑĤÐµÐ½":10531,"ĠÐ»ÑİÐ±Ð¸ÑĤÐµ":10532,"pe":10533,"ĠÑĩÑĥÐ²ÑģÑĤÐ²ÑĥÑİ":10534,"ÑĩÐ¸ÐºÐ¾Ð¼":10535,"ĠÐ´Ð¾ÑĩÐµÑĢÐ¸":10536,"ĠÐ¼Ð¾Ðº":10537,"ĠÐ½ÑĳÐ¼":10538,"Ð¡Ð¢Ð¬":10539,"ge":10540,"ĠÐ¼ÐµÐ½ÑĮ":10541,"ĠÑģÑĥÐ¼Ð¼Ñĥ":10542,"ĠÐ¼ÐµÑħÐ°Ð½Ð¸Ð·":10543,"ĠÐ»ÑĮÐ":10544,"ÑģÐ¿Ð¾ÑĢÑĤÐ°":10545,"ĠÐ¿Ð¸Ðº":10546,"ĠÐ·Ð°Ð¼ÑĥÐ¶":10547,"ĠÐºÐ¾ÑĢÑĢÐµ":10548,"th":10549,"ĠÐ±Ð¾ÑİÑģÑĮ":10550,"ĠÑģÐ¾ÑĢÐµÐ²Ð":10551,"ĠÐ±ÐµÑģÐ¿Ð¾ÐºÐ¾Ð¹":10552,"Ð²Ð»Ðµ":10553,"²Ð¸Ðº":10554,"ĠÑĩÑĥ":10555,"ĠÑģÐ¾ÑĤÐ½Ð":10556,"ĠÑģÐ¾ÑĤÐ½Ð¸":10557,"Ð·Ð°Ð´Ð¸":10558,"Ð´Ð¾ÑħÐ½ÑĥÑĤÑĮ":10559,"ÐĴÐķ":10560,"ÑĭÐ²Ð°Ð»":10561,"ĠÐ¸Ð½ÑĤÐµÐ»Ð»Ðµ":10562,"Ð´Ð½Ñ":10563,"ĠÐ»Ð¸ÑĩÐ½Ð¾ÑģÑĤÐ¸":10564,"ĠÐºÑĢÐ°ÑģÐ¸Ð²ÑĭÐµ":10565,"ĠÐ¸ÑģÑģÐ»ÐµÐ´Ð¾Ð²Ð°Ð½Ð¸Ñı":10566,"ĠÐ¿ÑĢÐ¸ÑĢÐ¾Ð´Ñ":10567,"ĠÑĤÑĢÐµÐ²":10568,"Ð°Ð½Ñĥ":10569,"ĠÐ¿ÑĢÐ¸ÑĢÐ¾Ð´Ñĭ":10570,"ĠÐķÐ²ÑĢÐ¾Ð¿Ñ":10571,"ĠÐ¿Ð¾ÑģÐ»ÐµÐ´Ð½Ð¸Ñħ":10572,"ĠÐ¿Ð¾Ð´Ð¾Ð·ÑĢÐµÐ":10573,"ÑĤÐ¾ÑĢÐ¾Ð¼":10574,"ĠÐºÐ°Ð¼ÐµÐ½ÑĮ":10575,"ĠÐĽÐ¾":10576,"ĠÑĦÐ¾Ð½Ðµ":10577,"ÑĮÐµÐ³Ð¾":10578,"ĠÐķÐ²ÑĢÐ¾Ð¿Ñĭ":10579,"ĠÑģÐµÐºÑģÑĥÐ°Ð»ÑĮÐ":10580,"ĠÐ½ÐµÐ¿ÑĢÐ¸ÑıÑĤ":10581,"ĠÐ¿Ð¾ÑĤÑĢÐµÐ±Ð¾Ð²":10582,"ĠÐ¿Ð¾Ð½ÐµÐ´ÐµÐ»ÑĮÐ½Ð¸Ðº":10583,"ĠÐ¿ÑĢÐ¸ÑĩÐ¸Ð½Ðµ":10584,"ĠÐ±Ð¾ÑĤ":10585,"ĠÐ½ÐµÐ¿Ð¾Ð´":10586,"ĠÐ°Ð²ÑĤÐ¾ÑĢÐ°":10587,"ĠÐĹÐ°ÑĤÐ¾":10588,"ĠÐ²ÑģÐ¿Ð¾Ð¼Ð½Ð¸Ñ":10589,"ĠÐ²ÑģÐ¿Ð¾Ð¼Ð½Ð¸ÑĤ":10590,"ĠÐ¿Ð¾Ð¼Ð¾Ð³Ð°":10591,"Ð°Ð¶ÐµÑĤÑģÑı":10592,"ĠÐ²ÐµÑĩÐ½Ð¾":10593,"ĠÐ´Ð²Ð¸Ð½":10594,"Ð»Ð»Ð":10595,"ĠÐŁÐ¾Ð¹":10596,"ĠÐ¾Ð±ÑĥÐ":10597,"Ð¿ÑĥÑģÑĤÑ":10598,"Ð¸Ð·Ð½ÑĮ":10599,"ĠÐ¼Ð¾Ð»Ð¾Ð´ÐµÑĨ":10600,"ĠÐ°ÑĢÑħ":10601,"ĠÐĸÐ":10602,"ĠÐ¶Ð¸Ð²Ñĥ":10603,"ĠÐ¿Ð°ÑĢÐ½Ð¸":10604,"²Ð¾Ð»Ð¸":10605,"ĠÐ¾ÑĤÐ»Ð¸ÑĩÐ°":10606,"ĠÐ²ÑĢÑĥ":10607,"ĠÐ°Ñħ":10608,"ĠÐ¸ÑģÐ¿ÑĢÐ°Ð":10609,"ĠÐ¢ÐµÐ":10610,"½ÑĢÐ°Ð²":10611,"ĠÑģÑĤÑĢÐ°ÑĤÐµÐ³":10612,"ĠÑĥÑģÐ¼ÐµÑħÐ½ÑĥÐ»ÑģÑı":10613,"ĠÑĥÐ»ÑĭÐ±":10614,"ĠÑģÐ²ÐµÑĢÐ":10615,"ĠÐºÐ¾ÑĢÐ¿ÑĥÑģ":10616,"ĠÐ¶Ð¸ÑĤÐµÐ»Ð¸":10617,"ÑĢÐµÐ¶":10618,"ĠÐĲÐ¼ÐµÑĢÐ¸":10619,"ĠÐŀÐ±Ñĭ":10620,"Ð¿ÑĢÐµÑģ":10621,"Ð²ÐµÐ»":10622,"ĠÑģÑĤÐ°Ð½Ð´Ð°":10623,"ĠÐ¼Ð°Ð³Ð°Ð·Ð¸Ð½Ðµ":10624,"ĠÐ²ÑĭÐºÐ»Ð°Ð´ÑĭÐ":10625,"Ð±ÑĢÐµÐ´":10626,"ÑĢÐ°Ð²Ð¸Ð»Ð°ÑģÑĮ":10627,"ÐµÑĪÑĮÑģÑı":10628,"ÑĢÐ¾Ð²Ð¾Ð¹":10629,"ÑĪÐ½Ñ":10630,"ĠÐ³ÑĢÑĥÐ·Ð¾Ð²":10631,"ĠÐ·Ð°Ð±ÑĭÑĤÑĮ":10632,"ĠÑĤÑīÐ°ÑĤÐµÐ»ÑĮÐ½Ð¾":10633,"Ð½e":10634,"ÑģÐ°Ñħ":10635,"ĠÐĲÐ½Ð´ÑĢÐµ":10636,"ĠÐ»ÐµÐ´":10637,"Ð²ÑģÐºÐ¾Ð³Ð¾":10638,"ĠÐ²ÑĭÐ¹Ð´ÐµÑĤ":10639,"Ð»ÑĥÐº":10640,"ĠÐ¡Ð»":10641,"ĠÑĤÐµÑħÐ½Ð¸ÐºÐ¸":10642,"ÑĢÐµÑģÑģ":10643,"ĠÐ¼Ð°Ð»ÐµÐ½ÑĮÐºÐ°Ñı":10644,"ĠÐ»ÑĥÑĩÑĪÐ¸Ðµ":10645,"ĠÐ·Ð½Ð°ÑĩÐ¸ÑĤÐµÐ»ÑĮÐ½Ð¾":10646,"ĠÑĥÑĢÐ¾Ð´":10647,"Ð³ÑĥÑģ":10648,"Ð¾Ð²Ð°ÑĢ":10649,"ĠÐºÑĢÐ°ÑģÐ°Ð²Ð¸":10650,"ĠÐĴÑĢÐµÐ¼Ñı":10651,"Ð¾ÑĢÐ¾Ð³Ð¸Ðµ":10652,"Ð´ÑĢÐ°ÑĤ":10653,"ÑģÑįÑĢ":10654,"ĠÐ¿Ð¾Ð»ÑĥÑĩÐ°ÑĤÑĮ":10655,"ÑģÐµÐ½Ð¸Ðµ":10656,"ĠÐºÑĥÑħÐ½":10657,"ĠÐ±ÐµÑĢÐµÐ³":10658,"Ð¼Ð¾ÐµÐ¼Ñĥ":10659,"ĠÐ°ÐºÑĤÐ¸Ð²":10660,"ĠÑĤÑĢÐ¾Ðµ":10661,"Ð¾Ð³Ð¾Ð²":10662,"ĠÐ³Ð¾Ð²Ð¾ÑĢÐ¸ÑĪÑĮ":10663,"ÐŁÐµÑĤÐµÑĢÐ±ÑĥÑĢÐ³":10664,"ÑĢÐºÐ¾Ð²":10665,"ĠÑįÑĤÐ°Ð¶":10666,"ĠÑģÐ¸Ð´ÐµÐ»Ð°":10667,"ĠÐºÐ¾Ð½ÑĤ":10668,"ĠÐ±ÑĭÐ²Ð°ÑİÑĤ":10669,"ĠÑģÐ¾ÑģÑĤÐ¾Ð¸ÑĤÑģÑı":10670,"Ð¸Ð¼Ñ":10671,"ĠÐ¿ÑĢÐ¸ÐºÐ»Ñİ":10672,"ĠÐ»Ð¸ÑĨÑĥ":10673,"ĠÐºÐ¸Ð²Ð½ÑĥÐ»Ð°":10674,"ĠÐ´Ð²Ð¾ÑĢ":10675,"ÑģÑģÐµ":10676,"ĠÐ½Ð°Ð±Ðµ":10677,"ĠÐ´ÑĢÑĥÐ·ÑĮÑıÐ¼Ð¸":10678,"ĠÐ°ÑĢÐ¾Ð¼Ð°Ñ":10679,"ĠÐ°ÑĢÐ¾Ð¼Ð°ÑĤ":10680,"ss":10681,"³Ð¸Ð¿":10682,"93":10683,"²Ð»ÑıÐ»ÑģÑı":10684,"ĠÑĢÑĥÑģÑģÐºÐ¸Ðµ":10685,"ĠÑģÑĤÑĢÐ°Ð½Ð°":10686,"Ð½Ð°Ð´ÑĨÐ°ÑĤÐ¸":10687,"ĠÐ¿ÑĥÐ±Ð»Ð¸Ðº":10688,",,":10689,"ĠÐ½ÐµÐ¶Ðµ":10690,"ĠÐ¾ÑģÑĤÐ°Ð²Ð°Ð»Ð¾ÑģÑĮ":10691,"ĠÐºÐ¾Ð¼Ð¼ÐµÐ½ÑĤÐ°ÑĢÐ¸Ð¸":10692,"ĠÑĩÐ¸ÑĤÐ°Ð»":10693,"ĠÐ¿ÑĢÐ°Ð²Ð¾Ñģ":10694,"ĠÑģÑĤÑĢÐ¾Ð³Ð¾":10695,"ĠÐ²Ð·Ð´":10696,"½Ð¾ÑģÑĤÑıÑħ":10697,"ÑĥÐ·Ð°":10698,"Ð°Ð²ÑĪÐ¸Ðµ":10699,"ÑĩÑĳÐ¼":10700,"ĠÑģÑĤÐ°Ð½ÑĨÐ¸Ð¸":10701,"ĠÐ¸ÑģÑĩÐµ":10702,"ĠÑģÑĤÐ°Ð²Ð¸ÑĤÑĮ":10703,"ĠÐ¿Ð¾ÑĢÐ¾Ð³":10704,"ĠÐļÐµ":10705,"ĠÐ¿Ð°Ð»ÑĮÑĨÐ°Ð¼Ð¸":10706,"ĮÐµÐ²":10707,"Ð³ÑĢÐ¾":10708,"ĠÐĴÐ°Ð»Ðµ":10709,"ĠÐ³Ð¾Ð²Ð¾ÑĢÐ¸ÑĤÐµ":10710,"ÑĪÐ°ÑıÑģÑı":10711,"Ð¾Ð¿Ð":10712,"Ð¸Ð²Ð°ÐµÑĤÑģÑı":10713,"ĠÐ¾ÑĤÐ´ÐµÐ»":10714,"ĠÐĶÐµÐ»Ð¾":10715,"Ð°Ð½Ð¾Ð¼":10716,"ĠÑĢÑĥÑģÑģÐºÐ¾Ð³Ð¾":10717,"ĠÐ¿ÑĢÐ¾Ð²ÐµÑĢÐ":10718,"Ð²ÑĥÑı":10719,"ÑıÐµÐ¼":10720,"ĠÑĩÐµÑĢÐ½ÑĭÐ¹":10721,"ĠÑĪÐ¸ÐºÐ°":10722,"Ð³ÑĥÑģÑĤ":10723,"ĠÐ¿Ð¾Ð²ÐµÑĢÑħÐ½Ð¾ÑģÑĤÐ¸":10724,"ĠÐ¾Ð±Ð»Ð°ÑģÑĤÑ":10725,"ĠÐ¿ÑĢÐ¾Ð²Ð¾Ð´Ð¸ÑĤÑĮ":10726,"ĠÑģÐ´ÐµÐ»Ð°Ð½":10727,"ĠÐ¿ÑĢÐµÐ¸Ð¼ÑĥÑīÐµÑģÑĤ":10728,"Ð°Ð¿Ð°":10729,"ĠÐ¿ÑĢÐ¾ÑĨÐµÐ½ÑĤÐ¾Ð²":10730,"ĠÐĴÑģÑ":10731,"ĠÐ¸ÑģÑĤÐ¾ÑĩÐ½Ð¸Ðº":10732,"ĠÐ¾Ð±Ð»Ð°ÑģÑĤÑĮ":10733,"ĠÑįÐºÐ·Ð°":10734,"ĠÐ½ÐµÐ½Ð°Ð²Ð¸":10735,"ĠÐ¾ÑĤÑĢÑĭÐ":10736,"ÑĤÐµÐ»ÑĮÑģÑĤÐ²Ñĥ":10737,"ĠÐ¦Ð°":10738,"¸Ð¼ÐµÐ":10739,"ĠÑĥÑĪÐ»Ð°":10740,"Ð±Ð°Ð³":10741,"ĠÐ¿Ð¾Ð½ÑĢÐ°Ð²Ð¸Ð»Ð¾ÑģÑĮ":10742,"ÐµÐ½Ð¾Ð¼":10743,"ĠÐ¼Ð°Ð»ÑĮÑĩÐ¸ÐºÐ°":10744,"ĠÑģÐ»Ð¾Ð²Ð¾Ð¼":10745,"ĠÐķÐ²Ð³":10746,"ĠÐ´Ð½ÑĳÐ¼":10747,"ĠÐļÑĢÐ°ÑģÐ½":10748,"ĠÐºÐ²":10749,"ĠÐºÐ½Ð¸Ð³Ðµ":10750,"ĠÑĤÐ¸Ð¿":10751,"ĠÑģÐ¾ÑĤÑĢÑĥÐ´Ð½Ð¸ÐºÐ¾Ð²":10752,"ĠÐ¿Ð¾ÑģÐ¾Ð²ÐµÑĤ":10753,"io":10754,"Ð§Ðķ":10755,"ÐµÐ»Ð¾Ð²":10756,"ĠÑĤÑĢÑĥÑģ":10757,"ĠÑĤÑĥÐ":10758,"ĠÐ¼ÑĥÐ·ÑĭÐºÑĥ":10759,"ĠÑģÑįÑĢ":10760,"ÑĢÑģÑĤÐ":10761,"ide":10762,"Ð¾ÑĩÐºÑĥ":10763,"ĠÐ¿Ð¾ÑħÐ¾Ð¶Ð":10764,"ĠÐ²ÑĭÑĤÑıÐ":10765,"ĠÐ¿ÑĢÐ¾Ð²ÐµÐ´ÐµÐ½Ð¸Ñı":10766,"ÑĭÑĪÐ°Ð»Ð¸":10767,"ĠÐ¼Ð¾Ð»Ð¾Ð´ÑĭÑħ":10768,"Ð³ÑĢÐ¾Ð":10769,"¶Ð´Ð°ÑİÑĤ":10770,"ĠÐºÐ¾Ð½ÑģÑĥÐ»ÑĮ":10771,"ÑĩÐ°ÑģÑĤÐ":10772,"ĠÐ½ÐµÐ¾Ð":10773,"²ÑĮ":10774,"ĠÑģÐ¿ÑĢÐ°Ð²":10775,"ĠÑĢÐ¾Ð´Ð¸Ð»ÑģÑı":10776,"ĠÐ·Ð´Ð¾ÑĢÐ¾Ð²Ð¾":10777,"ÑĢÐµÐ½Ð½Ð¾":10778,"ĠÐºÑĥÑĢÑĤ":10779,"ĠÑĪÐ°Ñħ":10780,"ĠÐ½Ð°ÑĩÐ¸Ð½Ð°ÑİÑĤ":10781,"ĠÑĨÐ²ÐµÑĤÐ¾Ð²":10782,"ĠÐ½Ð°Ð±Ð¸":10783,"ĠÐ¿Ð¾ÑĢÐ¾Ð¹":10784,"ĠÐĺÑĤÐ°Ðº":10785,"ĠÐĶÐ¼Ð¸ÑĤÑĢÐ¸Ð¹":10786,"ÐĽÐ£":10787,"ĠÐ³ÑĥÑģÑĤ":10788,"ÑģÐºÐ°ÑĤÑ":10789,"Ð´Ð°Ð¹":10790,"ny":10791,"85":10792,"ĠÐĸÐµ":10793,"ĠÐ²ÑĭÐ±ÑĢÐ°ÑĤÑĮ":10794,"ĠÐ½Ð¾Ð¼ÐµÑĢÐ°":10795,"ĠÑĥÑģÐ¿ÐµÐ»Ð°":10796,"ĠÐ¿Ð¾ÑģÐ»ÐµÐ´Ð½ÐµÐ³Ð¾":10797,"ĠÐ²Ð¸Ð·Ð":10798,"ĠðŁĻı":10799,"ĠÐ¿ÑĭÑĤÐ°ÐµÑĤÑģÑı":10800,"ĠÐ¿Ð°Ð»ÑĮÑĨÐµÐ¼":10801,"ĠÐ¸Ð½Ñ":10802,"Ð½Ð°Ð¹":10803,"ĠÐ¾ÐºÑĢÑĥÐ³":10804,"ĠÐ½ÐµÐ¾Ð¶Ð¸Ð´":10805,"ĠÐ½Ð°ÑĢÐºÐ¾ÑĤ":10806,"ĠÐ¿ÑĢÐ¸ÑĩÐ¸Ð½Ñ":10807,"ĠÐ¿ÑĢÐ¸Ð²Ð»ÐµÐºÐ°":10808,"Ð½ÑĢÐ°Ð²":10809,"¶Ð¸Ð¹":10810,"Ð»Ð¸Ñİ":10811,"Ð¶Ð½Ð¾Ð¹":10812,"Ð²Ð°ÑİÑĤ":10813,"ĠÐ²ÐµÑĢÐ½":10814,"ĠÐ¸ÑģÐºÑĥÑģÑģÑĤÐ²Ð°":10815,"ĠÐ¡Ð¿Ð°":10816,"ĠÐ¿Ð¾Ð½ÑıÐ»Ð¸":10817,"ĠÐ¿ÑĢÐµÐ²Ñĭ":10818,"ĠÑįÑĦÑĦÐµÐºÑĤÐ¸Ð²Ð":10819,"ĠÐ¼Ð¾ÑĢÐ´":10820,"Ð¾ÑģÐºÐ":10821,"ÑĤÐµÑĢÐ½Ðµ":10822,"ĠÐºÐ¾Ð½ÑĨ":10823,"ĠÐ´Ð°Ñģ":10824,"ĠÐ¾ÑĤÐ²ÐµÑĢÐ":10825,"ĠÐ¿Ð¾Ð¶Ð°Ð»ÑĥÐ¹":10826,"ÑĢÑĥÐ±Ð":10827,"ĠÐľÑį":10828,"ĠÐĴÑģÑı":10829,"ĠÑģÐ¾Ð±ÑģÑĤÐ²ÐµÐ½Ð½Ð¾":10830,"ĠÑĢÐµÐ¼Ð¾Ð½":10831,"ĠÐŀÑħ":10832,"ÑĢÐµÐ½ÑĤ":10833,"ĠÐ´Ð°Ð²Ð°ÑĤÑĮ":10834,"ĠÑĥÑģÐ»ÑĥÐ³Ð¸":10835,"ĠÑĨÐ¸Ð²Ð¸Ð»Ð¸":10836,"ĠÐ¿ÑĢÐ¾ÑĤÑıÐ¶ÐµÐ½Ð¸Ð¸":10837,"ĠÐ³ÑĢÐ¾":10838,"ĠÐ·Ð°Ð¿Ð¸ÑģÑĮ":10839,"ĠÐ¿ÑĢÐ¾Ð²ÐµÐ»":10840,"Ġ!!!":10841,"ĠÑģÐ¾Ð·Ð½Ð°Ð½":10842,"ĠÑıÐ¹ÑĨÐ°":10843,"go":10844,"ĠÑįÑĦÐ¸":10845,"ĠÑĤÐ²Ð¾Ð¸Ñħ":10846,"be":10847,"ĠÑģÐ°Ð¼Ð¾ÑģÑĤÐ¾ÑıÑĤÐµÐ»ÑĮÐ½Ð¾":10848,"ĠÐ¿Ð¾ÑĤÐµÑĢÑıÐ»":10849,"Ð±ÑĢÐ¾Ð²":10850,"ĠÐ³ÑĢÐ°Ð¼Ð¾ÑĤ":10851,"ĠÑģÐ¿Ð¾ÑģÐ¾Ð±ÐµÐ½":10852,"ĠÐ¿ÑĢÐµÐ´ÑģÑĤÐ¾Ñı":10853,"ÑĢÐµÑĤÑĭ":10854,"ÑİÐ½":10855,"ĠÑĥÐ¼ÐµÑĢÐ":10856,"ĠÐ¾Ð·Ðµ":10857,"ÑĩÐ°Ð¹Ð½Ð¾":10858,"ĠÐ½ÑĢÐ°Ð²":10859,"ĠÐ¾Ð·":10860,"ĠÐ½ÐµÐ¼Ð½":10861,"ÑģÐºÐ°Ð·":10862,"ĠÐ²ÑĭÑħÐ¾Ð´Ð°":10863,"ĳÐ½Ð¾Ðº":10864,"ĠÐ±Ð»Ð°Ð³Ð¾Ð¿Ð¾Ð»Ñĥ":10865,"Ð°Ð½ÑĤÐ°":10866,"Ĺı":10867,"ĠÐ¶ÐµÐ½Ñĥ":10868,"ĠÐºÐ°Ð±Ð¸Ð½ÐµÑĤ":10869,"ĠÐ²Ð¾Ð·Ð¼ÑĥÑī":10870,"ĠÑĪÐ°Ð¿":10871,"ÐĿÐ£":10872,"Ð¾Ð·Ð¸":10873,"ĠÐĸÐ¸":10874,"ĠÐ±Ð¾Ð»ÑĮÑĪÐ¾Ð³Ð¾":10875,"Ġx":10876,"ĠÐ¿Ð¾Ð»ÑĮÐ·Ð¾Ð²Ð°":10877,"ĠÐ¿Ð¾Ð´Ð°Ð":10878,"ĠÑĤÐµÐ¼Ð½Ð¾":10879,"ĠÐ¿ÑĢÐ¾Ð²ÐµÑĢÐ¸ÑĤÑĮ":10880,"ĠÐ¿ÑĢÐ¸Ð´ÐµÑĤ":10881,"ĠÑĪÐ»Ñİ":10882,"ĠÐ¾Ð±Ð¾Ð·Ð½Ð°":10883,"ĠÑģÐ¿ÑĥÑĤ":10884,"ðŁĺı":10885,"ÑģÐ»Ð°Ð":10886,"ÑģÐ¸Ð²Ð":10887,"ÐµÐ½ÐºÐ¾":10888,"ĠÐ£ÐºÑĢÐ°Ð¸Ð½Ðµ":10889,"Ð¾Ð´Ñı":10890,"ĠðŁĺĦ":10891,"ÑĩÐ¸ÑĤÐ°ÑĤÑĮ":10892,"ÑĪÐµÐ½ÑĮ":10893,"Ð¾Ð²Ð°Ð½Ð°":10894,"ĠÐ¾ÑĩÐ¸":10895,"Ð¸Ð´Ð":10896,"ĠÑĢÐ°ÑģÐºÐ°":10897,"ĠÐ¾ÑģÐµÐ½":10898,"Ð´Ð²Ð¾Ð":10899,"ĠÑĪÑĤÑĢÐ°ÑĦ":10900,"Ð»ÑĳÐ³":10901,"ĠÐ²Ð¾Ð²ÑĢÐµÐ¼Ñı":10902,"²ÐµÑĤÐ¾":10903,"½Ð¸Ð¼Ð°Ñı":10904,"ĠÑĦÐµÑģÑĤÐ¸Ð²Ð°Ð»":10905,"Ð¸Ð±":10906,"ĤÐ¸Ð»ÑĮ":10907,"ĠÑĩÑĥÐ´Ð¾":10908,"ÑģÐ´Ð°":10909,"ĠÐ¾ÑĢÐµ":10910,"ĠÐ¾Ð±Ð¾Ð¸Ñħ":10911,"ĠÑģÐ¾ÑĩÐ¸Ð½":10912,"ÑħÐ¾Ð¶Ð´ÐµÐ½Ð¸Ñı":10913,"ĠÐ±ÐµÐ½":10914,"ĠÐ¿Ð¾Ð´ÐºÐ»Ñİ":10915,"ĠÐłÑĭÐ":10916,"ĠÑĤÐµÐ½Ð¸":10917,"ĠÑĥÑĩÐ°ÑģÑĤÐ¸":10918,"ĠÐ¿ÐµÐ½ÑģÐ¸":10919,"ĠÑģÐ°Ð":10920,"ĠÐ½ÐµÐ²Ð¸":10921,"ðŁĮº":10922,"ĠÐ·Ð°Ð¼ÐµÑĤÐ":10923,"ĠÑģÐ¼Ð¸":10924,"ĠÐ½Ð°Ð´Ð¾Ðµ":10925,"ÑĤÐµÐº":10926,"Ġqu":10927,"Ð´Ð¶Ð°":10928,"ĠÐ»ÐµÑģÐ°":10929,"ĠÑĦÑĥ":10930,"ĤÑĢÐ¾Ð¼":10931,"ĠÐ´ÐµÐ¹ÑģÑĤÐ²Ð¾Ð²Ð°ÑĤÑĮ":10932,"ĠÐ¡Ð²Ð¾Ð":10933,"Ð³ÑĢÐ°Ð¼":10934,"????":10935,"ĠÐ·Ð°ÑģÐ»ÑĥÐ¶Ð":10936,"ĠÐ¿Ð»ÑıÐ":10937,"ÑĩÐµÐ½Ð½Ð¾Ð¹":10938,"Ð»Ð°Ð½Ð°":10939,"ack":10940,"ĠÐ²ÑĭÐ±Ðµ":10941,"Ð»ÐµÐ½Ð½ÑĭÐ¼":10942,"ĠÐ¸Ð½ÑĦ":10943,"Ð±ÑĢÐ¾Ð´":10944,"ĠÐ²Ð½ÑĥÑĤÑĢÑĮ":10945,"ĠÐ¿ÑĢÐ¸Ð²ÐµÑģÑĤÐ¸":10946,"ĠÐ·Ð½Ð°ÑĩÐµÐ½Ð¸Ñı":10947,"ĠÐ¿Ð»Ð¾Ð´":10948,"ĠÐ·Ð°ÑģÑĤÑĭÐ":10949,"ĠÑģÐµÐ¼Ð¸":10950,"ĠÐ²Ð¸Ð´Ð¸ÑĪÑĮ":10951,"Ð°Ð½Ð½ÑĭÐ¼Ð¸":10952,"ĠÐ¿ÑıÑĤÐ½Ð¸ÑĨÑĥ":10953,"ĠÐ³Ð»Ð°Ð²Ðµ":10954,"ĠÐľÐµÐ´Ð":10955,"500":10956,"ĠÑģÐ²Ð¾ÑĳÐ¼":10957,"ĠÑģÑĭÐ³":10958,"Ġâĸ":10959,"ÑĨÐ¸Ð¾Ð½Ð½ÑĭÐ¹":10960,"ÑģÐ»Ð¾Ð²Ð":10961,"Ð²ÑĨ":10962,"ĠÐļÑĥÐ":10963,"Ð°ÑİÑģ":10964,"ĠÐ³Ð¾ÑĢÐ¸Ð·":10965,"ÑģÑĤÑĢÐ¾ÑĦ":10966,"ran":10967,"ĠÐ·Ð½Ð°Ð¼ÐµÐ½Ð¸ÑĤ":10968,"ĠÑģÐ¼Ð¾ÑĤÑĢÐµÐ»Ð¸":10969,"ĠÐ¸Ð½Ð¸ÑĨÐ¸Ð°":10970,"ÑĥÑģÑĤÐ¸Ð»":10971,"ĠÐ±ÑĢÐµÐ´":10972,"ĠÐłÐ°Ð½":10973,"Ð³ÑĢ":10974,"ĠÑģÐ°Ð¼Ð¸Ð¼":10975,"ĠÐ¿Ð¾ÐµÐ":10976,"¸Ð¼ÐµÐ½":10977,"ÑĢÑİÐº":10978,"ÑģÑĤÐ²Ð¸Ð¸":10979,"ĠÐ¿ÑĥÑĤÐµÐ¼":10980,"ĠÐ½Ð°ÑĥÐº":10981,"ĠÐ¿ÑĢÐ¸ÐµÑħÐ°Ð»":10982,"ĠÐ°Ð´Ð¼Ð¸Ð½Ð¸ÑģÑĤ":10983,"ĠÐ±ÐµÐ»ÑĭÐ¹":10984,"aÑĤÑ":10985,"ĠÐ²Ð¾ÑĪÐµÐ»":10986,"ĠÐĶÐ¾Ðº":10987,"72":10988,"ĠÐľÐ¾Ð¸":10989,"ĠÑħÑĥÐ´Ð¾Ð¶Ðµ":10990,"ÑĤÐ¸Ð»ÑĮ":10991,"Ð°ÑİÑģÑ":10992,"ĠÐĶÑį":10993,"ĠÑĥÑĩÑĳ":10994,"ĠÐ¿Ð¾Ð¼Ð½Ð¸Ñ":10995,"ĠÐ¿Ð¾Ð¼Ð½Ð¸ÑĤ":10996,"ÑĢÐ¸Ð³Ð¾":10997,"Ð¾Ð´ÑĮ":10998,"ĠÑģÐ¾ÑĨ":10999,"ĠÐŁÑĢÐ¾ÑģÑĤ":11000,"\\\".":11001,"ĠÑĪÐ¸ÑĢÐ¾ÐºÐ¾":11002,"ĠÐ¿ÐµÑĢÐµÐ²Ðµ":11003,"ĠÑģÐµÐ²ÐµÑĢÐ":11004,"Ð°ÑİÑģÑĮ":11005,"Ä±":11006,"ÑĸÐ²":11007,"ÐµÐ¹ÑĤ":11008,"Ð¢Ð£":11009,"ĠÐ¿Ð¾Ð¼ÐµÑī":11010,"ĠÑģÐ¾Ð±Ð¸ÑĢÐ°Ð»ÑģÑı":11011,"¸ÑģÐ¸":11012,"ĠÑģÑĥÐ±Ð±Ð¾ÑĤÑĥ":11013,"ÑĤÑĢÐ¾Ð½":11014,"½Ð¸ÐºÐµ":11015,"ÑĤÑĢÐ¾Ð¼":11016,"Ð¾Ð¶Ð´ÐµÐ½Ð¸Ðµ":11017,"ÐŀÐ´Ð½Ð°ÐºÐ¾":11018,"ĠÑģÐ¸Ð´ÐµÐ»Ð¸":11019,"ĠÑģÐ¾ÑģÑĤÐ¾ÑıÐ½Ð":11020,"¸ÑĤÐ°Ð½":11021,"ĠÐ¾ÑĤÐ¾Ð·":11022,"³Ð¾ÑģÑĤÑ":11023,"ĠÑģÐ¾ÑģÑĤÐ¾ÑıÐ½Ð¸":11024,"ĠÐ¿ÑĢÐ¾ÑĤÐ¸Ð²Ð¾ÑĢÐµ":11025,"ÑĮÑıÐ":11026,"ĠÐĺÐ½ÑĤÐµÑĢÐµÑģÐ½Ð¾":11027,"ĠÐºÑĢÐ°ÑģÐ¸":11028,"ÑģÑĤÐ¾Ð¸":11029,"ĠÑĢÐµÑģÐ½":11030,"ÑģÐ¸Ð¿Ðµ":11031,"Ð½ÐµÑĪÑĮ":11032,"ĠÐ½Ð°Ð²ÐµÑĢÐ½Ð¾":11033,"ÑĤÐµÐ»ÑĮÐ½ÑĭÐ¼Ð¸":11034,"ĠÐ³Ð¾ÑĤÐ¾Ð²Ð¸":11035,"ĠÐ¡ÐĲ":11036,"ÑģÐ¸Ð»ÑĮÐµ":11037,"ĠÐ¿ÑĢÐ¸Ð½ÑıÑĤ":11038,"Ð³Ð¾ÑģÑĤÑ":11039,"²Ð¾Ð²Ð°Ð»Ð°":11040,"ĠÑĥÐ´Ð¾Ð±Ð½Ð¾":11041,"ĠÐ¾Ð³Ð½Ñ":11042,"ĠÐ±Ð°ÑĤÐ°":11043,"ÑĤÑĢÐµÑĩÑĥ":11044,"ĠÐ²ÐµÐ»Ð¾":11045,"ĠÐ¾ÑĤÐ½Ð¾ÑģÐ¸ÑĤÑģÑı":11046,"ĠÐºÐ¾ÑģÐ¼ÐµÑĤ":11047,"ĠÐ´Ð°ÑģÑ":11048,"ĠÑĤÑĢÑĥÐ±ÐºÑĥ":11049,"Ð¾Ð½Ð°Ñħ":11050,"ĠÑĤÑĢÐµÐ²Ð¾Ð":11051,"ĠÐ·Ð°Ð½ÑıÑĤÐ¸Ñı":11052,"ĠÐ¾Ð±Ñ":11053,"ĠÐ´Ð°ÑģÑĤ":11054,"ĠÐ»Ð¸Ðº":11055,"ĠÐ¾ÑĢÑĥÐ´":11056,"ĠÐ¾Ð±ÑģÐ»ÑĥÐ¶Ð":11057,"ĠÑģÐµÑĢÑĮÑĳÐ·":11058,"Ġ190":11059,"ĠÑĥÑģÐ»ÑĥÐ³":11060,"ĠÐ¾ÑĤÐ´ÐµÐ»Ð°":11061,"ĠÐĺÐ¼Ð¿Ðµ":11062,"Ð¸ÑĤÐ°Ð½":11063,"ĠÐ¿Ð¾Ð´Ð¾Ð±Ð½ÑĭÐµ":11064,"ÑıÑİÑĤÑģÑı":11065,"ÑīÐ°ÑİÑĤÑģÑı":11066,"Ð½ÐµÑĤÑĭ":11067,"ĠÑģÐ¿ÐµÐº":11068,"Ð»Ð¾ÑĢÑĥÑģ":11069,"ĠÐ³ÑĢÐ¾Ð":11070,"ĠÐľÐ¸Ñģ":11071,"Ð¿ÑĢÐ¸Ð":11072,"ĠÐĴÐ°ÑĪ":11073,"ĠÐ´Ð¾ÐºÑĥÐ¼ÐµÐ½":11074,"ĠÐ¼ÐµÑĢÑĭ":11075,"ĠÐ»ÑĥÐº":11076,"ĠÐłÐ¸":11077,"²Ð¾Ñĳ":11078,"ĠÑĢÐµÐ¹":11079,"ĠÐ´ÐµÑıÑĤÐµÐ»ÑĮÐ½Ð¾ÑģÑĤÑĮ":11080,"ĠÐ¿Ð¾Ð´Ð¾Ð±Ð½Ð¾Ðµ":11081,"ĠÐ¿ÑĢÐ¾Ð´ÑĥÐºÑĤÑ":11082,"ĠÐ¿ÑĢÐ¾Ð´ÑĥÐºÑĤÑĭ":11083,"ĠÑģÑĤÑĢÐ¾Ð³":11084,"ĠÐºÐ»ÑĥÐ±Ð°":11085,"ĠÑĢÐ°ÑģÑģÐºÐ°Ð·":11086,"ĠÐ¸Ð¼ÐµÐ»Ð¸":11087,"ĠÑģÐ¾Ð¼Ð½ÐµÐ½Ð¸Ñı":11088,"ĠÐ²Ð¾Ð¾Ð±ÑĢÐ°Ð":11089,"ĠÐ³Ð°ÑĢÐ¼":11090,"ĠÐ¿Ð¾ÑģÑĤÐµÐ»Ð¸":11091,"Ð»ÑİÐ±Ð":11092,"ĠÑģÐ°Ð¼ÑĥÑİ":11093,"ĠÐ¿ÑĢÐ¾Ð´Ð¾Ð»Ð¶Ð°":11094,"ĠÐ¿ÑĢÐ¾ÑıÐ²":11095,"ĠÐ±Ð°Ð³":11096,"Ð´Ð½Ð¾Ðµ":11097,"Ð»ÐµÐ»":11098,"ĠÑģÐ¾Ð»Ð½ÑĨÐ°":11099,"·ÑĥÐ±Ð":11100,"ĠÐºÐ²Ð°ÑĢÑĤÐ¸ÑĢÐ°":11101,"ĠÐĲÐ²ÑĤÐ¾ÑĢ":11102,"ĠÐ¿Ð°ÑĢÑĤÐ½Ðµ":11103,"ĠÑĤÐ¾Ð²Ð°ÑĢÐ¸Ñī":11104,"ĠÐłÐŀ":11105,"ĠÐ¾Ð±Ð½Ð¾Ð²":11106,"ĠÐ»ÑĳÐ³":11107,"Ð´Ð¸Ð»Ð°":11108,"ĠÑĨÐ²ÐµÑĤÑ":11109,"½Ð¸ÑĩÐµÐ¼":11110,"ÑģÑĤÐ¾Ð¸Ñ":11111,"Ð¡ÐļÐĴÐĲ":11112,"ÑģÑĤÐ¾Ð¸ÑĤ":11113,"Ð½Ð¸ÑĩÐµÐ¼":11114,"¸ÑĤÐ°Ð»ÑĮÑıÐ½":11115,"³ÐµÐ»ÑĮ":11116,"Ð²ÐµÐ½Ð½Ð¾":11117,"ĠÐºÐ»":11118,"92":11119,"ĠÐ¾Ð³Ð½Ñı":11120,"ÑĦÐ¸Ðº":11121,"ĠÐ°ÑįÑĢÐ¾Ð¿":11122,"ĠÐ³Ð¾ÑģÑĤÑ":11123,"ĠÐ½Ð°Ð³ÑĢÑĥÐ·":11124,"ĠÑĦÐ°ÐºÑĤÑĥ":11125,"ÐµÑĢÑĪÐµÐ½":11126,"ÑģÑĤÑĢÐ¾Ðµ":11127,"ÑīÐ°Ð»Ð°":11128,"ĠÐ¸Ð³ÑĢÐ°Ð»":11129,"Ð¸ÑĤÐ°Ð»ÑĮÑıÐ½":11130,"ÐĲÐ»":11131,"Ġ))":11132,"ÑĢÐ°ÑĤÑĥÑĢÐ":11133,"ĠÐĿÐ¸ÐºÐ¾Ð³Ð´Ð°":11134,"¸Ð½Ñĥ":11135,"ĠÐłÐ°Ð¹":11136,"ĠÐ¶Ð¸Ð²Ðµ":11137,"ua":11138,"ÑĢÐµÐ¼Ð¾Ð½":11139,"Ð¾Ð»ÐµÐ·":11140,"91":11141,"ĠÐ¿ÑĢÐ¾ÑģÑĤÑĢÐ°Ð½ÑģÑĤÐ²Ð¾":11142,"ĠÑįÐºÐ¸Ð¿":11143,"ĠÐ¼Ð°Ð¼Ñĭ":11144,"ĠÐ°Ð´Ð¼Ð¸Ð½Ð¸ÑģÑĤÑĢÐ°ÑĨÐ¸Ð¸":11145,"²Ð¾Ð¾Ñħ":11146,"ĠÐ¼ÐµÑģÑĤÐ":11147,"ĠÑĨÐ²ÐµÑĤÑĭ":11148,"ÑģÐºÐ°ÑĤÑĮ":11149,"ĠÐ¿Ð»Ð°Ð½Ñ":11150,"Ð»ÐµÐ½Ð½ÑĥÑİ":11151,"ĠÐºÑĢÐ°ÑģÐ¾ÑĤ":11152,"¶Ð½ÑĭÐ¼":11153,"ĠÐ¿ÑĢÐ¸Ð²Ñı":11154,"¶Ð´Ð°Ñı":11155,"ĠÑģÐ²Ð¾Ð±Ð¾Ð´Ñ":11156,"ĠÑĥÐµÐ":11157,"ĠÐ·Ð°ÐºÑĢÐ¸":11158,"ĠÐ¿ÑĢÐµÐ´Ð»Ð¾Ð¶ÐµÐ½Ð¸Ñı":11159,"ĠÐ³Ð¾ÑĤÐ¾Ð²Ð¸Ñ":11160,"ĠÐ³Ð¾ÑĤÐ¾Ð²Ð¸ÑĤ":11161,"ÑĥÐ·ÑĭÐ":11162,"ÐµÑĢÐ¾Ð²":11163,"ĠÑģÐ²Ð¾Ð±Ð¾Ð´Ñĭ":11164,"ĠÐ½ÐµÐ¿Ð»Ð¾ÑħÐ¾":11165,"Ð¡Ð¢Ðĺ":11166,"ĠÐļÐ°Ð":11167,"ĠÑģÑĤÐ¾Ð¸Ð»Ð¾":11168,"ĠÐ¿Ð»Ð°Ð½Ñĭ":11169,"Ġâľ¨":11170,"Ð²ÐµÑĢÐ´":11171,"ĠÐ´ÑĢÐ°Ð":11172,"ĠÐ±ÑĢÐ¾Ð´":11173,"ĠÑģÑĤÑĢÑĥÐ":11174,"ĠÐ°ÐºÐº":11175,"ÑĳÑĤÐµ":11176,"ÐĵÐ´Ðµ":11177,"ĠÐ½ÐµÐ½":11178,"ĠÑĢÐµÑĪÐ¸ÑĤÑĮ":11179,"ĠÑģÑĤÑĢÐ¸":11180,"Ð»ÐµÐ²":11181,"ÑĩÐµÑĤÑģÑı":11182,"ÐĿÐ¯":11183,"Ð¨Ðķ":11184,"ÑīÐµÐ³Ð¾":11185,"¹ÑģÑĤÐ²Ð°":11186,"ĠÐ¿ÑĢÐ¸ÑĩÐ¸Ð½Ñĭ":11187,"ĠÐ´Ð¾Ð¶Ð´ÑĮ":11188,"ÑĥÑīÐµÐ¹":11189,"ĠÐ¾ÑĤÑ":11190,"ĠÑģÑĤÐ°ÑĢÑĥ":11191,"ÑīÐ¸ÐºÐ¸":11192,"ĠÑħÐ²Ð°ÑĤÐ°Ð»Ð¾":11193,"ĠÐ²ÑĭÑĢÐ°Ð¶ÐµÐ½Ð¸Ðµ":11194,"ĠÐ¿Ð¾Ð¹Ð´Ñĥ":11195,"ĠÐ½e":11196,"me":11197,"ÑĢÐ²Ð°":11198,"ĠÐ¾ÑĤÐ²ÐµÑĩÐ°ÐµÑĤ":11199,"ĠÐ¾Ð±Ð¾ÑĢÐ¾ÑĤ":11200,"ĠÐ°ÐºÐºÑĥÑĢÐ°ÑĤÐ½Ð¾":11201,"ĠÐ¼ÐµÐ½ÑıÑĤÑĮ":11202,"Ð¸Ð½ÐºÑĥ":11203,"ĠÐ²Ð¾ÑģÑĤÐ¾":11204,"Ð¿Ð¸ÑģÑĭÐ":11205,"ĠÑĢÐ°ÑģÑģÑĤÐ¾ÑıÐ½":11206,"ĠÑĢÐ°Ð·Ð»Ð¸ÑĩÐ½ÑĭÐµ":11207,"ĠÐ¿ÑĢÐ¸Ð½ÑıÐ»Ð¸":11208,"ĠÐ¡ÑĤÑĢÐ°Ð½":11209,"ÑĩÐ¸Ð²Ð°Ñı":11210,"ĠÐ²Ð¾ÑģÐºÑĢÐµÑģÐµÐ½ÑĮÐµ":11211,"ĠÐ½Ð°ÑģÑĩÐµÑĤ":11212,"ĠÐºÐµ":11213,"ÑĢÐ°Ð¶":11214,"ÑħÐ¾Ð´Ð¸Ð»Ð¸ÑģÑĮ":11215,"ĠÐ¶ÐµÐ½Ð¾Ð¹":11216,"ĠÐ¿Ð¾Ð¹Ð´ÐµÑĤ":11217,"ĠÐłÐķ":11218,"Ð¾Ð¿Ð°Ñ":11219,"ĠÐ½Ð°Ð·Ð²Ð°Ð½Ð¸ÐµÐ¼":11220,"ĠÑĤÐµÐ½":11221,"±ÑĢÐ°Ð»Ð¸":11222,"ĠÐ½Ð¸ÑĩÐµÐ¼":11223,"ĠÑĤÑĢÐµÐ±Ð¾Ð²Ð°Ð½Ð¸Ñı":11224,"ĠÐ¿Ð¾Ð´Ð¾Ð±Ð½ÑĭÑħ":11225,"ÐŃÐ":11226,"Ð±ÐµÑĤ":11227,"ĠÐ¿Ð¾Ð´ÑĢÑıÐ´":11228,"ÑĥÐ¼Ð":11229,"ĠÑģÐºÐ°Ð¶ÐµÑĤ":11230,"ĠÑģÑĤÑĢÐ°ÑħÐ¾Ð²":11231,"ĠÐ¿Ð¾ÐºÑĥÐ¿Ð°Ñ":11232,"ĠÑĤÐ¾ÑĢÐ³":11233,"ÑĤÑĢÐµÐ¼Ð":11234,"ÑĥÐ½Ð´":11235,"³ÐµÑĢÐ¼":11236,"ĠÐ±Ð¸Ð±Ð»Ð¸Ð¾ÑĤÐµ":11237,"Ð´ÑĳÑĤÑģÑı":11238,"ıÑĤÐ°":11239,"ĠÐ¾Ð³ÑĢÐ¾Ð¼Ð½ÑĭÐ¹":11240,"ĠÐ¤Ð¸Ð»Ð¸":11241,"ÂŃ":11242,"ĤÐµÐ½ÑĮ":11243,"ĠÐ¾ÑĩÐµÑĢÐµÐ´Ð¸":11244,"ĠÐľÐ°Ð¼Ð°":11245,"Ð¸ÑĢÐ¾Ð²Ð°ÑĤÑĮÑģÑı":11246,"Ð¾Ð³Ð¸ÑĤÐµ":11247,"ĠÑģÐ¼ÐµÑĪÐ½Ð¾":11248,"ÑĤÐµÐ»ÑĮÑģÑĤÐ²Ð¾Ð¼":11249,"ÑĢÐ¸ÑĦ":11250,"ĠÐ¿ÑĢÐ¸Ð½ÑıÑĤÐ¾":11251,"ÑģÐ¸ÑĤÑģÑı":11252,"ÑĢÐ°Ð±Ð¾ÑĤÐ°":11253,"ĠÐ¸Ð·Ð¼ÐµÐ½Ð¸":11254,"³Ð»Ð¸":11255,"ĠÐ³Ð¾ÑģÑĥÐ´Ð°ÑĢÑģÑĤÐ²Ð¾":11256,"ĠÐ¶Ð°ÑĢÐº":11257,"ĠÐºÐ°Ð½Ð°Ð»":11258,"ĠÐºÐ¾ÑģÐ¼Ð¸":11259,"ĠÑģÐ²Ð°Ð»":11260,"ĠÐ·Ð°Ð¼ÐµÐ½":11261,"ĤÐ¸Ð":11262,"Ð²Ð°Ð½Ð¸Ðµ":11263,"ÑģÐ¾Ñħ":11264,"Ð¼Ð¾Ð¼Ñĥ":11265,"ĠÑĤÐ°ÑĢÐµÐ»":11266,"ĠÐ¼Ð¸ÑĢÐ¾Ð²Ð¾Ð¹":11267,"·Ð¾Ð½":11268,"ĠÐ¿ÑĢÐ¸Ð¹ÑĤÐ¸":11269,"ĠÐ±Ð»ÐµÑģ":11270,"ĠÐºÑĢÐ°ÑģÐ¾ÑĤÑĭ":11271,"Ð²Ð¸ÑĤÑ":11272,"Ð·ÑĥÐ±Ð":11273,"ıÑİ":11274,"ÐµÑĢÐºÐ¸":11275,"ĤÐ²Ð¾Ð»":11276,"ÑĢÑĥÐ¶Ð¸":11277,"ÑĢÑģÐ°":11278,"ÑĢÐµÐ±ÑĥÐµÑĤÑģÑı":11279,"ĠÐºÑĢÐµÐ´Ð¸ÑĤ":11280,"ÑĤÐ²Ð¾Ð»":11281,"67":11282,"ĠÐ¿Ð¾ÑģÑĤÑĥ":11283,"ĠÐ´ÑĥÑĢÐ°Ðº":11284,"ĠÐ¿Ð¾Ð·Ð¸ÑĨÐ¸Ð¸":11285,"ĠÐĴÐ¾Ñģ":11286,"ĠÐ¿Ð¾Ð½Ð°Ð´Ð¾Ð":11287,"Ð»ÑĮÐ½ÑĭÐµ":11288,"ĠÑģÐºÐ¾Ð»ÑĮÐ·":11289,"ĠÐ²ÑģÑıÐºÐ¸Ñħ":11290,"ĠÐ¾ÑĢÐ¸Ð³Ð¸Ð½Ð°Ð»ÑĮÐ":11291,"²Ð°ÐµÑĪÑĮ":11292,"ÑĢÐ¸ÑģÐ°":11293,"ĠÐ±ÐµÑĢÐµÐ³Ð°":11294,"zh":11295,"Ð¿ÐµÐ»":11296,"Ð·Ð°Ð¼Ð¸":11297,"ÑĢÑģÐ":11298,"ĠÐĿÐ°Ð¿Ð¾Ð¼":11299,"ĠÑģÑĤÐ¾ÑıÑĤÑ":11300,"ĠÑģÑĤÐ¾ÑıÑĤÑĮ":11301,"ĠÐ²ÐµÐ¶Ð":11302,"ĠÐ½Ð°ÑĩÐ°Ð»ÑĮÐ½Ð¸Ðº":11303,"ÑĤÐµÐ»ÑĮÐ½Ð¸ÑĨÐ°":11304,"ĠÐ¿Ð¾Ð»ÑĮÐ·Ð¾Ð²":11305,"ĠÐ¿Ð¾Ð»Ð¾Ð¶Ð¸Ð»":11306,"ĠÑĨÐµÐ½Ñĥ":11307,"ĠÑįÐ¼Ð¾ÑĨÐ¸Ð¸":11308,"ĠÐ¾Ð´Ð½Ð¾Ð":11309,"ĠÐºÑĢÐ¾Ð²Ð°ÑĤÑĮ":11310,"Ð°Ð¶Ð°":11311,"Ð¼Ð¾ÐºÑĢÐ°ÑĤ":11312,"ÑĥÐ½ÑĤ":11313,"ĠÐŀÐ»Ð¸":11314,"ÑĢÑıÑİ":11315,"ĠÑĥÐ²ÐµÐ»Ð¸ÑĩÐ":11316,"¶Ð½Ð¾ÑģÑĤÐ¸":11317,"ĠÐ¸Ð¼ÐµÐµÑĤÑģÑı":11318,"Ð¸Ð¾Ð½Ð°":11319,"ÑĥÐ»Ð°ÑģÑĮ":11320,"ĠÐ´ÐµÑĢÐ¶Ð°":11321,"ĠÐ²Ð°ÑĪÐ¸Ð¼":11322,"ĠÒĽ":11323,"ĠÐ¢Ðķ":11324,"ÑĢÐµÐ¿Ð»":11325,"ĠÐ³Ð¾Ð»ÑĥÐ±Ð":11326,"ĠÐĿÐµÐºÐ¾ÑĤÐ¾ÑĢÑĭÐµ":11327,"ĠÐ¾ÑĤÐ´Ð°ÑĤÑĮ":11328,"»ÑĮÐ½ÑĭÐ¹":11329,"ĠÐ±ÑĢÐ¾Ð²":11330,"ÑĩÐµÐ»Ð¾Ð²Ðµ":11331,"ÑĨÐ¸ÑĤ":11332,"ÐĶÐ¾Ð±ÑĢÑĭÐ¹":11333,"ĠÐ·Ð°Ð³Ð»ÑıÐ":11334,"ĠÐ´Ð¾Ð±ÑĢÐ¾Ð²":11335,"ity":11336,"ĠÐŁÐ¾Ð»Ð":11337,"ĠXV":11338,"ĠÑĥÑĩÐ¸ÑĤÑĮÑģÑı":11339,"ĠÐ¿Ð¾ÑģÐ»ÐµÐ´Ð½ÐµÐ¹":11340,"ÑģÑĤÐ¾Ð½":11341,"ÐĿÐ«Ðķ":11342,"ĠÐ¼ÐµÑĤÐ°Ð»Ð»Ð¸":11343,"ÐºÐ¾Ð²Ð¾Ð¹":11344,"·Ð´Ð¾ÑĢÐ¾Ð²":11345,"ÐµÐ½ÑĮÐºÐ¾":11346,"Ġ2019":11347,"ĠÐ¾Ð±ÑĥÑĩÐµÐ½Ð¸Ðµ":11348,"Ð´ÑĳÐ¼":11349,"ÑĢÑĮÑĤÐµ":11350,"Ð¢ÑĥÑĤ":11351,"ĠÐ¾Ð±ÑīÐµÐ³Ð¾":11352,"ĠÐ¿Ð¾Ð»Ð¾Ñģ":11353,"ĠÐ¿Ð¾ÑĨÐµÐ":11354,"ĠÐµÑİ":11355,"ıÑģÐ":11356,"ĠÐłÐ¾ÑģÑĤ":11357,"·ÐµÐ»":11358,"âĤ":11359,"âļ":11360,"ÑĪÐ°Ð¹ÑĤÐµ":11361,"ĠÐ³Ð¾Ð»ÑĥÐ":11362,"Ð¿Ðº":11363,"ĠÐ¼Ð°ÑĤÐµÑĢÐ¸Ð°Ð»Ð°":11364,"Ð¾ÑģÐºÐ¸":11365,"fo":11366,"ĠÑĪÐµÑģÑĤÐ¸":11367,"ĠÑħÐ¾Ð»Ð¾Ð´Ð¸Ð»ÑĮÐ½Ð¸Ðº":11368,"ĠÐ¿Ð¾Ð¼ÐµÐ½":11369,"ĠÐ²ÑĭÑģÐºÐ°Ð·ÑĭÐ":11370,"ĠÐ´Ð°Ð½Ð½Ð¾Ð¹":11371,"ĠðŁ¥":11372,"ĠÐ°Ð²ÑĤÐ¾Ð¼Ð¾Ð±Ð¸Ð»ÑĮ":11373,"ĠÐ¿Ð¾Ð¼Ð¾Ð³Ð°Ñ":11374,"ĠÐ¾ÑĢÐ³Ð°Ð½Ð¸Ð·Ð¼Ð°":11375,"ĠÐ¿ÑĢÐ°Ð²Ð¸Ð»":11376,"Ð¸ÑĩÐµÑģÐºÑĥÑİ":11377,"Ð¿ÑĢÐ¾Ð¼":11378,"ĠÐ³Ð»Ð°Ð²Ð½ÑĭÐ¼":11379,"ĠÐ¿Ð¾Ð»ÑĮ":11380,"ĠÐ¼Ð°Ð»ÐµÐ½ÑĮÐºÐ¸Ðµ":11381,"ĠÑĪÐ°Ð³Ð¾Ð²":11382,"ĠÑĢÑĭÐ±Ð":11383,"ĠÐ²ÑĤÐ¾ÑĢÐ°Ñı":11384,"ÑĪÐ½ÐµÐ³Ð¾":11385,"ÑĢÐ°Ð±Ð¾ÑĤÐ°Ð½":11386,"ĠÐ¸Ð¼Ð¿ÐµÑĢÐ°":11387,"ĠÐºÐ¾ÑĢÐ¾Ð»Ñı":11388,"ĠÐ²ÑĭÑģÑĤÐ°Ð²":11389,"ĠÐľÐ°ÑĢÐ¸Ñı":11390,"ÑĢÐ´Ðµ":11391,"½ÐµÐ²":11392,"ĠÐ¿Ð¸ÑģÑĤÐ¾Ð»ÐµÑĤ":11393,"ĠÑĢÐ°ÑģÑģÑĥÐ":11394,"ĠÐ¿ÑĢÐ¸Ð±ÑĭÐ»":11395,"ĠÐ¾ÑĤÐ¾":11396,"ÐľÐ¾Ð¶Ð½Ð¾":11397,"ĠÐ¨Ð¸":11398,"ĠÐŀÐ³":11399,"ĠÑģÐ¾Ð·Ð½Ð°Ð½Ð":11400,"ĠÑģÐ¾Ð·Ð½Ð°Ð½Ð¸":11401,"ĠÐ»ÑİÐ±ÑĭÐµ":11402,"ĠÐĵÐ»Ð°":11403,"ĠÐŁÐ¾Ð³":11404,"ĠÐĲÐ½Ñ":11405,"ĠÑģÐµÑĢÐµÐ´Ð¸Ð½Ðµ":11406,"ĠÐ»ÑİÐ±Ð¾Ð²ÑĮÑİ":11407,"ÑĤÐ°Ð¶":11408,"ĠÐ´Ð¸ÑĢÐµÐºÑĤÐ¾ÑĢ":11409,"Ð½Ð¾ÑģÑĤÑĮÑİ":11410,"Ð¾Ð²Ñ":11411,"Ð¾Ð³Ð¸ÑĩÐµÑģÐº":11412,"ĠÐ²Ð·ÑıÑĤ":11413,"ÑģÑĥÑģ":11414,"ðŁĺİ":11415,"ĠÐ¿ÑĢÐ¾Ð´ÑĥÐºÑĤÐ¾Ð²":11416,"Ð³ÐµÑĢÐ¼":11417,"ÑĭÐº":11418,"ĠÑģÐ¾Ð·Ð½Ð°Ð½Ð¸Ñ":11419,"ĠÑģÐ¾Ð·Ð½Ð°Ð½Ð¸Ñı":11420,"ĠÐ¿ÑĢÐ°Ð²Ð¸ÑĤÐµÐ»ÑĮÑģÑĤÐ²Ð¾":11421,"ĠÐºÑĢÐµÑģÑĤÑĮÑıÐ½":11422,"ĠÐ²ÑĭÐ¿Ð":11423,"Ð³Ð¾Ð¼":11424,"ĠÑģÐ¾ÑģÑĤÐ¾ÑıÐ½Ð¸Ñ":11425,"ĠÑģÐ»ÑĥÑĩÐ°ÐµÐ²":11426,"ĠÑģÐ¾ÑģÑĤÐ¾ÑıÐ½Ð¸Ñı":11427,"ĠÐ¾ÑģÐ¾Ð·Ð½Ð°":11428,"ĠÐ¿ÑĢÐ¾ÑĨÐµÑģÑģÐµ":11429,"ĠÑģÐµÑĢÐ´Ðµ":11430,"ÑĢÐ¸ÑĤÐµÐ»ÑĮÐ½Ð¾":11431,"½Ð¾Ð²Ð¸Ð»Ð°ÑģÑĮ":11432,"ĠÐ²ÑģÐ¿Ð¾Ð¼Ð½Ð¸ÑĤÑ":11433,"ĠÐ²ÑģÐ¿Ð¾Ð¼Ð½Ð¸ÑĤÑĮ":11434,"ĠÑĥÑģÐ¸Ð»Ð¸Ð":11435,"ÑĪÑĤ":11436,"Ð´Ð¶Ð":11437,"ĠÐ¡ÐµÑĢÐ³Ðµ":11438,"\\\",":11439,"ĠÐķÐ²ÑĢÐ¾Ð¿Ðµ":11440,"ĠÐ°ÐºÑĤÐ¸Ð²Ð½Ð¾":11441,"ĠÑĢÑĥÑģÑģÐºÐ¾Ð¹":11442,"ÑĢÐ°ÑģÐ½Ð°Ñı":11443,"ĠÐ»ÐµÐ´Ð¸":11444,"ĠÐ±ÑİÐ´Ð¶ÐµÑĤ":11445,"ÑĢÑĨÐ¸Ð¸":11446,"²ÑıÑĤÑģ":11447,"ĠÑģÐºÐ°Ð·Ð°Ð½Ð¾":11448,"²ÑıÑĤÑģÑ":11449,"²ÑıÑĤÑģÑı":11450,"ĠÐŁÑĢÐµÐ":11451,"¶ÑĥÑģÑĮ":11452,"ĠÐ¼Ð¼":11453,"ÑĢÐ¼Ð°Ð½":11454,"³ÑĢÐµÐ´Ð¸":11455,"ĠÐ¾ÑĨ":11456,"atch":11457,"ĠÐ½Ð°ÑģÐ¼Ðµ":11458,"age":11459,"Ð¼Ð¾Ð¶ÐµÑĤ":11460,"ĠÐ³ÐµÑĢÑĨ":11461,"ĠÐºÑĢÑĥ":11462,"ÑĨÐ¸Ð¾Ð½Ð½ÑĭÐµ":11463,"ĠÐ²Ð¾Ð·ÑĮÐ¼Ð¸":11464,"pl":11465,"ĠÑĤÑĢÐ¸Ð´ÑĨÐ°ÑĤÑĮ":11466,"ĠÐ²Ð¾ÐµÐ½Ð½ÑĭÑħ":11467,"ĠÐ¾ÑĦÐ¸ÑĨ":11468,"ÑıÐ½Ñ":11469,"ÑĤÑĥÐº":11470,"Ð±Ð¸Ð»Ð¸":11471,"Ð»ÑĮÐ½Ð¾":11472,"ĠÑĢÐµÐ°Ð»Ð¸":11473,"ĠÐ¿Ð°ÑĢÐ°Ð´":11474,"ĠÐ¸Ð½ÑĤÐµÑĢÐ²ÑĮÑİ":11475,"ĠÐ¿Ð°Ñħ":11476,"ĠÑĥÐ²ÐµÑĢÐµÐ½Ð°":11477,"»ÑĮÐ½Ð¾Ð¹":11478,"ight":11479,"ĠÑģÑĤÐ°ÑĢÑĭÐµ":11480,"gl":11481,"ÑĪÐ¸Ð¼Ñģ":11482,"ĠÐ¼ÑĥÐ·":11483,"ÑĪÐ¸Ð¼ÑģÑ":11484,"ÑĪÐ¸Ð¼ÑģÑı":11485,"ÑıÑīÐ¸Ñħ":11486,"ĠÐ³Ð¾ÑĢÐ¾Ð´Ñĥ":11487,"Ð½Ð°Ñģ":11488,"ĠÐ¡Ð¾Ð»Ð½":11489,"ÑĥÑİÑģ":11490,"ĠÐĹÐ°Ð²ÑĤÑĢÐ°":11491,"ĠÑĢÐ°ÑģÑģÐ»ÐµÐ´Ð¾Ð²":11492,"ÑıÐ¹ÑĤÐµÑģÑĮ":11493,"Ð¾Ð¶ÐµÐ½Ð¸Ñı":11494,"ĠÐ¡Ð¾ÑĦ":11495,"Ð¸Ð½Ð³Ð°":11496,"ĠÑģÐ¿Ð°ÑģÑĤÐ¸":11497,"ĠÑģÑĦÐ¾ÑĢÐ¼":11498,"ĠÐ¾Ð¿ÑĢÐµÐ´ÐµÐ»":11499,"ĠÑĨÐµÐ½Ðµ":11500,"Ð¡ÑĤÐ°":11501,"ĠÐ»ÐµÑģÑĤÐ½Ð¸ÑĨÐµ":11502,"ĠÑĢÐ°ÑģÐ¿Ð¸Ñģ":11503,"ÑĥÑİÑģÑ":11504,"ĠÐ¿Ð¾Ð´Ð´ÐµÑĢÐ¶ÐºÑĥ":11505,"ĠÑģÐ¾ÑĢÐµÐ²Ð½Ð¾Ð²":11506,"ÑģÑĤÐ²Ð¾Ð»":11507,"ÑĩÐ¸ÑĤÐµ":11508,"ĠÐ½Ð¾Ð²Ð¾Ð¼":11509,"ĠÐľÐ°Ð³":11510,"ĠÐĺÐ³Ð¾ÑĢÑĮ":11511,"ĠÑģÐ¿Ð»Ð¾":11512,"ĠÑĢÐ°Ð·Ð±Ðµ":11513,"ĠÐŀÐ»ÐµÐ³":11514,"ĠÐ¿ÑĢÐ¸Ð¿Ð¾Ð´":11515,"ĠÐ´Ð¾Ð±ÑĢÑĭÐ¹":11516,"Ð¾ÑĤÐ²Ð¾":11517,"ĠÑīÐ°Ñģ":11518,"ĠÐ¡ÐľÐĺ":11519,"ĠÐ³ÑĢÐ°Ð¼":11520,"ĠÐ¾Ð±ÑĢÐ°ÑĤÐ¸Ð»ÑģÑı":11521,"Ð¸ÑĤÐµÐ»ÑĮÐ½ÑĭÐ¹":11522,"oÐ½":11523,"'s":11524,"ĠÐ¤Ð¸":11525,"¶Ð¸ÑĤÑģÑı":11526,"ark":11527,"ĠÐ·ÑĥÐ±Ð":11528,"ĠÐ·Ð°Ð¼ÐµÑĤÐ¸":11529,"Ð°Ð½Ð½Ñ":11530,"ĠÐŁÑĥÑĤÐ¸Ð½":11531,"ÑĤÑģÐºÐ°Ñı":11532,"ÑģÐ²Ð¾Ð":11533,"ĠÐ¼Ð¾Ð´ÐµÐ»ÑĮ":11534,"ĤÑĥÑĢ":11535,"Ð´Ð¸Ñģ":11536,"ĠÐĴÑĤÐ¾ÑĢÐ¾Ð¹":11537,"ĠÐ±Ð¾ÑĢÑĮ":11538,"ĠÐ½ÐµÐ¾Ð¿":11539,"ÐĿÐĲÐ¯":11540,"Ð·Ð°Ðº":11541,"Ð¾Ð¹ÑĤÐ":11542,"ĠÑģÐµÐ·Ð¾Ð½Ð°":11543,"ĥ£":11544,"ÑĩÑĮÐµ":11545,"ĠÑĢÐ°Ð·Ð¾ÑĩÐ°ÑĢÐ¾Ð²":11546,"ĠÐ´ÑĢÐµÐ":11547,"ĠÐ·Ð°Ð¼ÐµÑĤÐ¸Ñ":11548,"ĠÐ·Ð°Ð¼ÐµÑĤÐ¸ÑĤ":11549,"Ð»Ð¾ÑĤÐ°":11550,"ĠÐ±Ð¸Ð»ÐµÑĤ":11551,"ĠÐ°Ð²":11552,"Ð¾Ð¹ÑĤÐ¸":11553,"¶Ð°ÐµÐ¼ÑĭÐµ":11554,"»Ð°Ð·":11555,"ÑĢÐ¸Ð¶":11556,"ĠÐ½Ð°Ð¿Ð¸ÑģÐ°Ð»Ð°":11557,"²ÐºÑĥ":11558,"ĠÐĴÐ°ÑģÐ¸Ð»ÑĮÐµ":11559,"ÑģÐºÐ¾ÑĢÐµ":11560,"49":11561,"Ð´Ð¾Ð±":11562,"ĠÑĪÐ°Ð½":11563,"ĠÐ²ÑĭÑĢÐ¾Ñģ":11564,"ĠÐ¾Ð´Ð½Ð¾Ðº":11565,"ĠÐºÐ¾Ð¼Ð½Ð°ÑĤ":11566,"ĠÐ¡ÑĤÐµÐ¿":11567,"ÑĢÐµÐ½Ð¸ÐµÐ¼":11568,"ÐķÐ³Ð¾":11569,"ÑĢÑģÐºÐ¾Ð¼":11570,"ĠÐ¼Ð°Ð³Ð½":11571,"ĠÐ½Ð°Ð·Ð²Ð°Ð»":11572,"ĠðŁĺĨ":11573,"ĠÐ´ÐµÑĢÐ¶Ð°Ð»":11574,"ĠÑįÐ½ÐµÑĢÐ³ÐµÑĤ":11575,"ĠÐ¿ÑĥÑĤ":11576,"ÑĪÐºÐ¾":11577,"ĠÑĢÐ°ÑģÑĤÐ²Ð¾":11578,"ĠÐ²ÐµÐ½":11579,"ÑĢÐ°Ð²Ð½":11580,"ore":11581,"ĠÐ·Ð°Ð±ÑĢÐ°ÑĤÑĮ":11582,"ĠÐºÐ¾Ð¶Ð°":11583,"ĠÑĤÐµÐ¼Ðµ":11584,"ĠÐĽÐµÐ³":11585,"ĠÐ¡ÑĥÐ´":11586,"ĠÐĶÐ²Ðµ":11587,"ĠÐ²ÑĭÐ²Ðµ":11588,"ĠÐ²ÐµÐ»":11589,"ĠÑģÑĤÐ¾Ð¿":11590,"ĠÑĦÑĢÐ°Ð·":11591,"ÑģÐ¼ÐµÐ»":11592,"ĠÐ²ÐºÐ»ÑİÑĩÐ°Ñı":11593,"Ð´ÑıÑī":11594,"ÑĢÐ½Ð¾Ð¼":11595,"ĠÐ²ÑĢÐ°Ð³Ð°":11596,"ĠÐ¤ÐµÐ´Ð":11597,"ĠÐ±Ð°Ð±ÑĥÑĪÐºÐ°":11598,"ĠÐ±Ð¾ÐµÐ":11599,"ÑĩÐµÑģÑĤÐ²Ð¾Ð¼":11600,"ÐĳÐ£":11601,"ĠÐ¿ÑĢÐ¾Ð³ÑĢÐ°Ð¼Ð¼Ð°":11602,"Ð¾Ð°Ð":11603,"ĠÑĪÐ¾Ñĥ":11604,"ĠÐĲÐ´Ð¼Ð¸Ð½":11605,"ĠÐłÐ¾ÑģÑģÐ¸Ð¹ÑģÐºÐ¾Ð¹":11606,"ÑĸÐ½":11607,"ÐŁÐĽÐĲ":11608,"ÑģÐµÐ½ÑĮ":11609,"ĠÐ¾Ð±ÑĢÐ°Ð·Ð¾Ð²Ð°Ð½Ð¸Ðµ":11610,"ĠÐ¿Ð¾ÐºÑĥÐ¿Ð°ÑĤ":11611,"ÐľÐŀÐ¡ÐļÐĴÐĲ":11612,"ĠÐĶÐµÐ²ÑĥÑĪÐºÐ°":11613,"ĠÐºÑĥÑħÐ½Ðµ":11614,"ĠÑĤÐ¾ÑĩÐºÑĥ":11615,"ĠÐ´Ð¸Ð·Ð°Ð¹":11616,"Ð·a":11617,"ÑĤÑĥÑĢ":11618,"ĠÐłÐ¾":11619,"ĠÐ´Ð¸ÑĢÐµÐº":11620,"ĠÐŀÑĤÐºÑĥÐ´Ð°":11621,"ĠÐ¾ÑĤÐ²Ð»Ðµ":11622,"Ð¸Ð»Ñĭ":11623,"ĠÐ¿Ð¾ÐºÑĥÐ¿Ð°ÑĤÑ":11624,"ĠÐ°ÑĢÑħÐ¸ÑĤÐµ":11625,"Ð¾Ð´Ð²Ð¸Ð":11626,"ĠÐ¿Ð¾ÐºÑĥÐ¿Ð°ÑĤÑĮ":11627,"ĠÐĵÐ¾ÑģÐ¿Ð¾Ð´Ð¸":11628,"Ð²ÑĤÐ¾ÑĢÑĭÑħ":11629,"alb":11630,"ĠÐĳÐ¾Ð³Ñĥ":11631,"Ð¾Ð²Ð¾Ðµ":11632,"»Ð¾Ð¶Ð¸Ð»Ð°":11633,"ĠÐ°Ð¶":11634,"ĠÐ±Ð¾Ð»ÑĮÑĪÐµÐ¹":11635,"ÐľÐ£":11636,"Ð¿Ð¸ÑĢÐ¾Ð²":11637,"ĠÐºÐ¾ÑĢÐ¾Ð»ÑĮ":11638,"ĠÐ¢Ð¸Ñħ":11639,"ĠÐºÐ¾Ð½ÑĦÐ»Ð¸ÐºÑĤ":11640,"ĠÑĢÑĭÑĨÐ°":11641,"ÑīÐ°Ñİ":11642,"ĠÑģÑĤÑĢÐ°Ð½Ð°Ñħ":11643,"ĠÑģÑĤÐ²Ð¾Ð»":11644,"ÑĢÐ¸Ð´Ð¸":11645,"ĠÑģÐºÐ°Ð¶Ð¸":11646,"²ÑħÐ¾Ð´Ð¸ÑĤ":11647,"Ġvk":11648,"±ÑĢÐµÐ½":11649,"ÑĤÑıÐ±ÑĢÐµ":11650,"ÑħÑħ":11651,"Ð²ÑħÐ¾Ð´Ð¸ÑĤ":11652,"ĠÐ·Ð°Ð¿ÑĢÐµÑī":11653,"ĠÐłÐµÐ·":11654,"ĠÐ¸ÑĤÐ°Ð»ÑĮÑıÐ½":11655,"ĠÐ¼Ð¾Ð½Ð°ÑģÑĤÑĭ":11656,"½ÑĥÑĤÑĢÐ¸":11657,"ĠÐ´Ð°Ð¼":11658,"ial":11659,"ĠÐĲÑĢÑĤ":11660,"ĠÑĢÐ¾ÑģÐºÐ¾":11661,"ĠÐ²Ð°ÑĪÐµÐ¼Ñĥ":11662,"ĠÑģÐ¾ÑĢÐ¾Ðº":11663,"ĠÐºÐ»Ð¸ÐµÐ½ÑĤÐ¾Ð²":11664,"ĠÐĶÐ°Ð½":11665,"ÑĤÑĢÐ°Ð´":11666,"ÐĹÐ°Ð¿":11667,"ĠÐ¿ÑĢÐ¾Ð²Ð¸Ð½":11668,"ðŁĴ¥":11669,"ĠÐ²ÐµÐ´ÐµÑĤ":11670,"ĠÐ¦ÐµÐ½ÑĤ":11671,"ĠÑħÐ¾Ð·ÑıÐ¸Ð½Ð°":11672,"ĠÐŃÐ¢Ðŀ":11673,"ĠÐ°Ð½Ð°Ð»Ð¸Ð·":11674,"ĠÑĥÐ¼ÐµÐµÑĤ":11675,"ĠÑĢÐµÐ°Ð»Ð¸Ð·":11676,"ĠÐ¸ÑīÐµÑĤ":11677,"Ð¸ÑĩÐ½ÑĭÐ¹":11678,"ĠÑģÐ²ÐµÑĢÑħ":11679,"):":11680,"ÑģÐ·Ð°Ð´Ð¸":11681,"Ð»ÐµÐ½Ð½Ð¾Ðµ":11682,"ÑĢÐ°Ð½Ð¸Ñı":11683,"Ð¾ÑĢÑĥ":11684,"bl":11685,"ĠÐĴÐ¿Ðµ":11686,"ĠÑģÐ»ÑĭÑĪÐ°Ð»Ð°":11687,"aÐº":11688,"ĠÐ¸Ð½ÑĤÐµÑĢÐµÑģÐ¾Ð²":11689,"ĠÐ¾Ð±ÑīÐµÐ½Ð¸Ñı":11690,"ĠÐ´Ð½ÐµÐ²Ð":11691,"ĠÐ°ÑĢÐ³ÑĥÐ¼":11692,"ĠÐºÐ°Ð¶Ð´Ð¾Ðµ":11693,"aÑĤÑĮ":11694,"ĠÐ²Ð»Ð°Ð´Ðµ":11695,"ÑĪÐµÐ½Ð½ÑĭÐ¹":11696,"ĠÐ£Ð¶":11697,"ĠÐ²ÐµÑĢÑĥ":11698,"ĠÑıÐºÐ¾Ð±Ñĭ":11699,"ÑģÐµÐ»Ñ":11700,"ĠÐºÑĢÐ¸Ð·":11701,"ich":11702,"ĠÐºÐ°ÑĩÐµÑģÑĤÐ²ÐµÐ½":11703,"¸ÑĤÑĥÑĨ":11704,"ÑĨÐ¸Ð¾Ð½Ð½Ð¾Ð³Ð¾":11705,"Ð¸ÑĤÑĥÑĨ":11706,"ĠÐ±Ð¾ÑĢÑĮÐ±Ñĭ":11707,"ĠÐ²Ð¸Ð´Ð¸Ð¼":11708,"Ð¾ÑĩÐµÐ½ÑĮ":11709,"ĠÑģÐ¾ÑħÑĢÐ°Ð½Ð¸ÑĤÑĮ":11710,"ĠÐ¼ÑĥÐ»ÑĮÑĤ":11711,"ĤÐ¸ÑĤÑĥÑĨ":11712,"ÑĤÐ¸ÑĤÑĥÑĨ":11713,"ĠÑĦÑĥÐ½":11714,"ĠÐ°Ð±Ð":11715,"ÑĩÐµÑģÑĤÐ²Ñĥ":11716,"ĠÑģÑĤÐ°ÑĢÐ°ÑıÑģÑĮ":11717,"ĠÑģÐ¼ÐµÐ»":11718,"ĠÐºÐ»Ð¸Ð½":11719,",-":11720,"Ð§ÐµÑĢÐµÐ·":11721,"ect":11722,"»Ð¾Ð¶Ð¸Ð»Ð¸":11723,"ĠÐĹÐ´Ð¾ÑĢÐ¾Ð²":11724,"ĠÑĢÐ°Ð·Ð½Ð¾Ð¾Ð±ÑĢÐ°Ð·":11725,"ÐµÐ½ÑĤÑĢÐ°":11726,"ÑīÐ¸Ð½Ñĭ":11727,"ĠÐ½ÐµÐ²ÐµÑĢÐ¾ÑıÑĤ":11728,"ĠÐºÑĥÐ":11729,"±Ð°Ð»Ð":11730,"ĠÐ¾Ð±ÑīÐ°ÑĤÑĮÑģÑı":11731,"ĠÐ¿ÐµÑīÐµ":11732,"ĠÐ³ÑĥÑģ":11733,"ÐĴÐ¡":11734,"ĠÐ¸Ð½Ð¾Ð¹":11735,"ÑįÑį":11736,"ÐłÐ°":11737,"ÑĥÐ´Ñı":11738,"ĠÐ¿Ð¾ÑĢÑıÐ´ÐºÐ°":11739,"ĠÐ±ÑĢÐ¸ÑĤÐ°Ð½":11740,"ĠÐ§Ð¢Ðŀ":11741,"ĠÑģÐ´ÐµÐ»Ð°ÐµÑĤ":11742,"ĠâĿĹ":11743,"ÑĤÐ°ÐºÑĤÐµ":11744,"Ð´Ð°Ð»ÐµÐºÐ¾":11745,"ĠÐºÑĢÐ°ÑģÐ¸Ð²ÑĭÐ¹":11746,"ĠÐ·Ð°Ð´Ð°ÑĩÐ°":11747,"ÑĢÐ°ÑģÑĤÐ°":11748,"Ð²Ð°ÑĤÐ":11749,"ĠÐ¿Ð¾Ð»ÑĮÐ·Ð¾Ð²Ð°ÑĤÑĮÑģÑı":11750,"ĠÐ²ÑĤ":11751,"ÑĥÐ·Ð":11752,"ĠÐ¿ÑĢÐ¾Ñī":11753,"ĠÑĢÐµÐ»Ð¸Ð³Ð¸Ð¾Ð·":11754,"ÑĤÐµÑĤÑĮ":11755,"Ġyou":11756,"Ð¼ÐµÑģÑĤÐ¸":11757,"ĠÐŀÐ»ÑĮÐ³Ð°":11758,"ĠÐ°Ð²ÑĤÐ¾Ð¼Ð°Ñ":11759,"ĠÐ¾ÑģÑĤÐ°Ð²Ð°ÑĤÑĮÑģÑı":11760,"ĠÐºÐ¾ÑĢÐ¾Ð½Ð°":11761,"ĠÐ°Ð²ÑĤÐ¾Ð¼Ð°ÑĤ":11762,"ĠÐ¿Ð¾Ð¾Ð±Ðµ":11763,"ĠÐºÐ¾Ð»Ð¸ÑĩÐµÑģÑĤÐ²Ð°":11764,"ax":11765,"ĠÐ¿ÑĢÐ¾Ð·ÑĢÐ°":11766,"ĠÐ¸Ð¼ÑĥÑīÐµÑģÑĤ":11767,"ĠÐ²ÐµÑĢÐ½ÑĥÐ»Ð°ÑģÑĮ":11768,"ĠÐ·Ð°ÑĢÑı":11769,"ÑĤÐµÐ»ÑĮÐ½Ð¾Ð¼":11770,"ÑĢÑĤÐ²":11771,"ĠÐ´ÑĢÑĥÐ¶Ðµ":11772,"ÑģÐ¼ÐµÑıÐ»ÑģÑı":11773,"ÐµÐºÐ":11774,"±ÑĬÐµÐºÑĤ":11775,"ĠÐ¿Ð¾Ð»Ð°Ð³":11776,"Ð¾ÑĤÐ¾Ð³ÑĢÐ°ÑĦ":11777,"ĠÐ´Ð¾ÑĢÐ¾Ð³Ð¾":11778,"ĠÐ²Ð¾Ð·Ð±ÑĥÐ¶Ð´":11779,"ĠÐ¿Ð¸ÐºÐ°":11780,"ĠÐºÐ¾Ð»Ðµ":11781,"±ÑıÐ·Ð°":11782,"ĠÐ¾ÑĤÐ¿ÑĢÐ°Ð²Ð¸Ð»ÑģÑı":11783,"ĠÐ¾ÑĤÐ²ÐµÑĩÐ°ÑĤÑĮ":11784,"Ð³Ð»ÑıÐ":11785,"ĠÑĥÐ³Ð»Ñĥ":11786,"ĠÑħÐ¾ÑĢÐ¾ÑĪÐµÐ¼":11787,"Ð°Ð±ÑĢÐ¸":11788,"ĠÐ±ÑĥÐ´ÑĥÑīÐµÐ³Ð¾":11789,"½Ð¸ÐºÐ°Ñħ":11790,"ĤÑĢÐ°Ðº":11791,"ĠÐ¸Ð·Ð±Ð¸":11792,"ĠÑĢÐ°Ð·ÑĥÐ¼ÐµÐµÑĤÑģÑı":11793,"ĠÑģÐ·Ð°Ð´Ð¸":11794,"ÐķÑīÐµ":11795,"ĠÐ·Ð°Ð¼Ð¾Ðº":11796,"ĠÑĥÑĩÐ°ÑģÑĤÐ¸Ñ":11797,"ĠÑĤÑĢÐ¾Ð¿":11798,"ÑħÐ°Ñı":11799,"Ð¸Ð¼ÐµÐ":11800,".).":11801,"ÑĥÑİÑīÐ¸Ðµ":11802,"ĠÐ¿ÑĢÐ¸ÐºÐ°Ð·Ð°Ð»":11803,"ĠÑĥÑĩÐ°ÑģÑĤÐ¸Ñı":11804,"ÑĤÐµÐ»Ð°":11805,"ĠÐ²Ð»Ðµ":11806,"ĠÐ²ÑĢÐ°Ð³":11807,"ĠÑĥÐºÐ°Ð·Ð°Ð½":11808,"ĠÐ·Ð°ÑıÐ²Ð»ÐµÐ½Ð¸Ðµ":11809,"ĠÐ¢Ð°ÐºÐ¸Ðµ":11810,"ĠÐ½Ð°Ð²ÑģÑĤÑĢÐµÑĩÑĥ":11811,"ÑģÐ»Ð¾Ð²Ð¸":11812,"ÑĸÑ":11813,"ÑħÐ¾ÑĤÑı":11814,"Ð°Ð¹Ð½":11815,"ĠÐ¾ÐºÐ°Ð·Ð°ÑĤÑĮÑģÑı":11816,"ĠÑĤÐ°ÐºÑģÐ¸":11817,"ÑĪÐ½ÑĭÑħ":11818,"¸Ð¿Ð¾ÑĤ":11819,"ðŁ¤·":11820,"²ÑĥÐºÐ¸":11821,"Ð¿Ð¾Ð»Ñ":11822,"ĠÐ²ÑĭÑĪÐ»Ð¾":11823,"ĠÐ·Ð¸Ð¼Ð¾Ð¹":11824,"ÑĩÐ½ÐµÐ":11825,"Ġâĺİ":11826,"ĠÐ²ÑħÐ¾Ð´Ð¸ÑĤ":11827,"ĠÐ³Ð»Ð°Ð²Ñĭ":11828,"ÑĩÑĳÐ":11829,"ĠÐºÑĢÐ°Ñİ":11830,"ĠÐ¿Ð°ÑĢÐ¾":11831,"ck":11832,"ÑĥÑįÐ":11833,"ĤÐ¸Ð³":11834,"ĠÐ½ÐµÐ¿Ð¾Ð½ÑıÑĤ":11835,"Ð²ÑĥÐºÐ¸":11836,"ĠÐłÐ¾Ð¼":11837,"ĠÐ¿ÑĢÐ¾Ð¸Ð·Ð½ÐµÑģÐ»Ð°":11838,"ĠÐ¾ÑĢÐ³Ð°Ð½Ð¸Ð·Ð¼":11839,"ĠÐºÐ¾Ð¼Ð¼ÑĥÐ":11840,"Ð¸Ð¿Ð¾ÑĤ":11841,"ÐĺÐ¢Ð¬":11842,"ĠÐ½Ð°ÑĢÑı":11843,"Ð´Ð½Ð¾Ð³Ð¾":11844,"Ð¾ÑĢÑĥÐ¼":11845,"Ð´Ð°ÑĢ":11846,"ĠÐ¾Ð±Ð¾ÑĢÐ¾Ð½":11847,"ĠÐ¿ÑĢÐ¸Ñı":11848,"ĠÐ¿Ð¾Ð½ÑıÑĤÐ¸Ñı":11849,"ĠÑįÐºÑģÐ¿":11850,"Ð¿Ð¾Ðº":11851,"ĠÑģÐ´Ð°":11852,"ÐµÐ¼Ð¾Ð½":11853,"ÐĿÐ°Ð¿":11854,"·Ð¶":11855,"ĠÐ¾ÑīÑĥÑĤ":11856,"Ð²Ð°ÑĤÐ¸":11857,"Ð±Ð»Ðµ":11858,"ĠÐ¿ÑĢÐµÑĢÐ":11859,"ĠÑħÐ²Ð°ÑĤÐ¸Ð»Ð¾":11860,"ÐľÐ¾ÑģÐº":11861,"ĠÐ¿Ð°ÑĢÑĭ":11862,"ĠÐ²ÑģÑĤÑĢÐµÑĩÐµ":11863,"ĠÐ¼ÐµÑĢÐ¾Ð¿ÑĢÐ¸ÑıÑĤÐ¸Ñı":11864,"ĠÐ¿Ð¾ÑģÑĤÑĢÐ¾ÐµÐ½":11865,"ĠÐ¡Ð´Ðµ":11866,"ÑĢÐ°Ð»ÑĮÐ½Ð°Ñı":11867,"ĠÑģÑĩÐ¸ÑĤÐ°ÐµÑĤÑģÑı":11868,"ĠÑģÐ¿Ð¾ÑĢÑĤÐ¸Ð²Ð":11869,"ĤÐ´":11870,"ĠÐ»Ð¸ÑĩÐ½ÑĭÐµ":11871,"ĠÐĴÐ¸ÐºÑĤÐ¾ÑĢ":11872,"ĠÐ¾Ð±Ð´":11873,"ÑĤÐµÑĢÑĭ":11874,"Ð¥Ð¾":11875,"ĠÐłÐ¾Ð±Ðµ":11876,"ĠÑģÐ¾ÑĤÑĢÑĥÐ´Ð½Ð¸ÐºÐ¸":11877,"Ð¿Ð¾ÑĢÑĤ":11878,"ĠÐºÐ¾Ð¼Ð¿Ð¾Ð·Ð¸":11879,"ĠÑĢÐ°Ð·Ð²Ð¾Ð´":11880,"ĠÐ´Ð²Ð¾Ð":11881,"ĠÐĺÐ½Ð":11882,"±Ð°Ñģ":11883,"ÑĨÐ¸Ð¾Ð½Ðµ":11884,"ĠÐ½Ð¾Ð¶":11885,"ĠÐ¿Ð¾ÑħÑĥÐ´":11886,"ĠÐ¿ÑĢÐ¾Ð´Ð²Ð¸Ð":11887,"ĠÑģÑĤÐ¸ÑħÐ":11888,"ĠÑģÑĤÐ¸ÑħÐ¸":11889,"ĠÐµÐ¿":11890,"ĠÑĤÐµÐ¼Ñĭ":11891,"ĠÐ½Ð°Ð»Ð¸ÑĩÐ¸Ðµ":11892,"ÑĢÑĨÑ":11893,"ĠÐ¿Ð¸ÑĤÐ°Ð½Ð¸Ñı":11894,"ĠÑĥÐ¶Ð¸Ð½":11895,"Ð¿ÑĢÑıÐ":11896,"ÑĤÐ´":11897,"ÑģÐ»Ñĭ":11898,"Ð°Ð¹Ð»":11899,"ĠÐ¿Ð¾ÐºÐ°Ð·ÑĭÐ²Ð°ÐµÑĤ":11900,"ĠÑģÐºÐ¾Ð½":11901,"ĠÑĥÑģÐºÐ¾":11902,"ĠÑĥÑģÑ":11903,"Ð¿ÐµÐ¹":11904,"Ð¡Ðº":11905,"ĠÐ¾ÑĪÐ¸Ð±Ðº":11906,"ĠÐ¿ÐµÑĢÐµÐ½Ð¾":11907,"ÑīÐ¸ÐºÐ°":11908,"ĠÐ·Ð°ÐºÐ¾Ð½Ð¾Ð´Ð°":11909,"Ð´Ð¾Ð»":11910,"ıÐ»Ð¾":11911,"Ð·ÐµÐ»":11912,"ĠÑģÐ¿Ð¸Ð½Ðµ":11913,"ĠÑĤÐ°Ð±Ð»Ð¸":11914,"Ð±Ð°Ð»Ð":11915,"ĠÐ¿Ð¾Ð´Ð¾ÑĪÐ»Ð°":11916,"ÑĢÐ¾Ð²Ð°Ð»":11917,"ÐµÐ¾ÑĢÐ³":11918,"Ð½Ð°ÑģÑĤÐ¾Ñı":11919,"ĠÐ¾ÑĪÐ¸Ð±ÐºÐ":11920,"ĠÐ¾ÑĪÐ¸Ð±ÐºÐ¸":11921,"ĠÐ²ÑĭÐ¿ÑĥÑģÐºÐ°":11922,"ĠÐĳÐŀ":11923,"ĠÑģÑĢÐµÐ´Ñĥ":11924,"²Ð¸Ð¶Ñĥ":11925,"ĠÐĵÑĢÐµ":11926,"ĠÑģÑĩÐ°ÑģÑĤÑĮÑİ":11927,"ĠÑģÐ¾Ð¾ÑĤÐ²ÐµÑĤÑģÑĤÐ²Ð¸Ð¸":11928,"ĠÐ¿Ð¾Ð»Ð¾Ð²Ð¸Ð½Ñĥ":11929,"63":11930,"Ð¸Ð¼Ñĭ":11931,"ĠÐºÐ¸Ð»Ð¾Ð¼ÐµÑĤÑĢÐ¾Ð²":11932,"ĠÐ¾ÑīÑĥÑīÐµÐ½Ð¸Ñı":11933,"ian":11934,"ĠÐĿÐĺ":11935,"ĠÐ¿Ð¾Ð´ÑĢÑĥÐ³Ð°":11936,"ĠÑĥÑħÐ¾Ð´":11937,"ĠÐ´Ñı":11938,"ĠÑģÐ¿Ð¾ÑĢÑĤÑģ":11939,"ĠÑĢÐ°Ð´Ñ":11940,"ĠÐ±Ð»Ð°Ð³Ð¾ÑĢÐ¾Ð´":11941,"ðŁİģ":11942,"ÑĪÐ¸Ð½Ñ":11943,"ĠÑĢÐ°Ð´Ñĭ":11944,"ĠÐ¾Ð±Ð¸ÑĤÐ°":11945,"ĠÑĢÐ°Ð·Ð³Ð¾Ð²Ð¾ÑĢÐ°":11946,"ust":11947,"ĠÐ¸Ð·Ð²ÐµÑģÑĤÐ":11948,"ĠÐ¿ÑĭÑĤÐ°Ð»Ð°ÑģÑĮ":11949,"»Ð¾Ð²Ð":11950,"ĠÑĩÐ»ÐµÐ½Ð¾Ð²":11951,"¸Ð´Ð°":11952,"ĠÐ¿ÑĢÐµÐ¿":11953,"ĠÐ¿ÐµÑĢÐµÐ´Ð°ÑĤÑĮ":11954,"Ð¶ÐµÐ½Ð":11955,"±ÑĭÑħ":11956,"Ð·Ð°Ð½Ð°":11957,"ĠÐ¸Ð·Ð³":11958,"¸Ð²Ð°Ð»":11959,"ĠÐ±ÑĥÐ¼Ð°Ð¶Ð":11960,"ĠÐ²ÐµÐ»Ð¾ÑģÐ¸Ð¿Ðµ":11961,"ĠÐ²Ð°ÑĪÐµÐ¼":11962,"Ġ2013":11963,"ÑĪÐµÐ½Ð½":11964,"ĤÐ»Ðµ":11965,"ĠÐ¸Ð³Ñ":11966,"ish":11967,"ĠÐ¿Ð¾ÑĩÐ":11968,"ĠÐ¾ÑĢÐ³Ð°Ð½Ð¸Ð·Ð¾Ð²":11969,"ĠÐ·Ð°Ð¼ÐµÑĤÐ½Ð¾":11970,"Ð¾Ð´Ð°Ñı":11971,"ĠÐ¸Ð³ÑĢ":11972,"ÑģÑĥÑĤÑģÑĤÐ²Ñĥ":11973,"ĠÐ¾Ð¿Ð°ÑģÐ½Ð¾ÑģÑĤÐ¸":11974,"ĠÐ¿ÑĢÐ¸Ð½ÑĨÐµÑģ":11975,"Ð¡Ð¾":11976,"ĠÐ¡Ñĥ":11977,"Ð¸Ð½ÑĥÑĤÑĮ":11978,"ÐµÑģÑ":11979,"ĠÑıÑĢÐºÐ¾":11980,"ÑĭÐ»ÑĮ":11981,"Ġr":11982,"ĠÐ²ÑĭÑģÐ¾ÐºÐ¸Ð¹":11983,"³Ð²Ð°ÑĢÐ´":11984,"ĠÐ´ÐµÐ»Ð°Ð»Ð°":11985,"ĠÐ¾ÑĢÐ³Ð°Ð½Ð¾Ð²":11986,"ĠÑĥÐ´Ð¾Ð±":11987,"ĠÐ¾ÑĩÐ¸ÑģÑĤ":11988,"ĠÐ¿Ð¾Ð½Ð¸Ð¼Ð°ÐµÑĤÐµ":11989,"Ð¼ÐµÑĤÑĭ":11990,"ĠÐ·Ð°Ð¿ÑĥÑģ":11991,"²Ð¸ÑģÑĤ":11992,"ĮÑİÑĤ":11993,"ĠÐ¶ÐµÐ»ÑĥÐ´":11994,"âĺĿ":11995,"ÑīÐ°ÑıÑģÑĮ":11996,"ĠÐ¶Ð¸Ð²Ð¾Ð¹":11997,"Ð»ÐµÑģÑĤ":11998,"ĠÑģÐºÐ¾ÑĢÐ¾ÑģÑĤÐ¸":11999,"no":12000,"ÑĪÐµÐ½Ð¸ÐµÐ¼":12001,"ĠÐ¡ÐºÐ¾ÑĢÐµÐµ":12002,"ĠÃ":12003,"ĠÐ±Ð¾ÑıÐ":12004,"ĠÑģÐ»Ð°Ð":12005,"62":12006,"ĠÐ¾Ð¿ÑĢÐµÐ´ÐµÐ»Ñ":12007,"ĠÐĶÐµÑĢÐ":12008,"ĠÐ´ÐµÑĢÐµÐ²Ð°":12009,"Ð¼Ð°ÑĢ":12010,"Ð¾Ð¿Ð°ÑĤ":12011,"ĠÐ´Ð²Ð¸Ð³":12012,"ĠÐ¢Ð°ÐºÐ¾Ð¹":12013,"ĠÐ¾Ð±ÐµÐ·":12014,"ld":12015,"ĠÐ´ÐµÐ²Ð¸":12016,"¶Ð½Ð¾Ðµ":12017,"ÑģÑĭÐ»Ð°":12018,"ÑĢÑĥÐ³Ð°":12019,"ĠÐ´ÐµÑĢÐµÐ²ÑĮÐµÐ²":12020,"ĠÐºÑĥÑģÐ¾Ðº":12021,"ĠÐ»Ð°Ð´Ð¾Ð½Ð":12022,"ĠÐ»Ð°Ð´Ð¾Ð½Ð¸":12023,"ĠÐ¼Ð¾ÑīÐ":12024,"Ð´Ð²Ð¸Ð½":12025,"ÑĪÐ½ÑĭÐ¼":12026,"ÑĥÑĤÐ¸Ñ":12027,"ĠÐ¿Ð¾Ð´ÑĢÐ¾Ð±Ð½Ð¾ÑģÑĤÐ¸":12028,"ĠÐľÐ°Ð»ÑĮ":12029,"!?":12030,"ĠÐ´ÐµÐ´Ñĥ":12031,"ÑĢÑĤÐ¸Ð»Ð»Ðµ":12032,"ĠÐĵÐ¾ÑĢÐ¾Ð´":12033,"ÐµÐ½ÑĮÐºÐ¸Ð¹":12034,"¸ÑīÐµ":12035,"ÑĢÐºÐ°Ð":12036,"ĠÐ±ÐµÐ¶Ð°ÑĤÑĮ":12037,"ĠÑĪÐ»Ñ":12038,"Ð°Ð½ÑĮÑĪÐµ":12039,"ĠÐ¿Ð¾Ð»ÑĥÑĩÐ°ÐµÑĤ":12040,"ĠÐ»ÐµÐ¹ÑĤÐµÐ½Ð°Ð½":12041,"ĠÐ²Ð¾ÑģÐ¿Ð¾Ð»ÑĮÐ·":12042,"ĠÐŀÑģÐ½Ð¾Ð²":12043,"ĠÑĢÐµÐ¶Ð¸Ñģ":12044,"Ð»Ð¸Ð²Ð¾Ð¹":12045,"Ð´Ð°ÑĤÑĭ":12046,"ĠÐŀÐ±Ðµ":12047,"ĠÐ¿Ð¾Ð´Ðµ":12048,"ĠÐ°ÑĢÐµÑģ":12049,"ĠÐĿÐ°ÑĤÐ°":12050,"ĠÑĪÐ»Ñı":12051,"ÐĹÐ´Ð":12052,"ÐŁÐ¾Ð»":12053,"Ð¿ÐµÑĢÐµ":12054,"Ð¡ÐµÐ¹ÑĩÐ°Ñģ":12055,"¸Ð·Ð½Ðµ":12056,"ĠÑģÐ»Ð°Ð±ÑĭÐ":12057,"ĠÑĢÐ°Ð±Ð¾ÑĩÐ¸Ñħ":12058,"ÑĪÐ¸Ð½Ñĭ":12059,"ÑĢÐ°Ð·Ð´Ðµ":12060,"Ð¾Ð¼Ð¸Ñ":12061,"Ð´Ð¸Ð¼Ð¾":12062,"ÐĽÐ°":12063,"ĠÐľÐ¾Ð¶Ðµ":12064,"ĠÐ¶Ð¸Ð»Ð°":12065,"Ð¾Ð³ÑĢÐ°Ð¼":12066,"ÑĩÐµÐ½Ð½ÑĭÐ¼":12067,"ĠÑĢÐµÑģÑĥÑĢÑģ":12068,"ĠÐ¿ÑĢÐ¸Ð²Ð¾Ð´Ð¸ÑĤ":12069,"ĠÑĥÐ±Ð¸Ð»":12070,"Ð°Ð½Ð¸ÑĤÐ°":12071,"ĠÑĥÑģÐ¿ÐµÐ»Ð¸":12072,"ÑĢÑĨÑĭ":12073,"ĠÐ¾ÑģÐ½Ð¾Ð²Ð½Ð¾Ð¹":12074,"ÐĶÐĶ":12075,"ĠÑĢÐµÑĪÐ°ÑĤÑĮ":12076,"ıÐ´ÐµÐ»":12077,"ÑıÐ´ÐµÐ»":12078,"Ð²Ð¾ÐµÐ":12079,"»ÑıÐ´ÐµÐ»":12080,"ĠÑģÐ²ÑıÑīÐµÐ½Ð":12081,"¾Ð¾":12082,"ĠÐ²ÑĭÐ·ÑĭÐ²Ð°ÐµÑĤ":12083,"ĠÐ²Ð´Ð¾ÑħÐ½Ð¾Ð²":12084,"Ð¾ÑģÑıÑĤÑģ":12085,
[...]
